<unk>	0
<s>	0
</s>	0
<0x00>	0
<0x01>	0
<0x02>	0
<0x03>	0
<0x04>	0
<0x05>	0
<0x06>	0
<0x07>	0
<0x08>	0
<0x09>	0
<0x0A>	0
<0x0B>	0
<0x0C>	0
<0x0D>	0
<0x0E>	0
<0x0F>	0
<0x10>	0
<0x11>	0
<0x12>	0
<0x13>	0
<0x14>	0
<0x15>	0
<0x16>	0
<0x17>	0
<0x18>	0
<0x19>	0
<0x1A>	0
<0x1B>	0
<0x1C>	0
<0x1D>	0
<0x1E>	0
<0x1F>	0
<0x20>	0
<0x21>	0
<0x22>	0
<0x23>	0
<0x24>	0
<0x25>	0
<0x26>	0
<0x27>	0
<0x28>	0
<0x29>	0
<0x2A>	0
<0x2B>	0
<0x2C>	0
<0x2D>	0
<0x2E>	0
<0x2F>	0
<0x30>	0
<0x31>	0
<0x32>	0
<0x33>	0
<0x34>	0
<0x35>	0
<0x36>	0
<0x37>	0
<0x38>	0
<0x39>	0
<0x3A>	0
<0x3B>	0
<0x3C>	0
<0x3D>	0
<0x3E>	0
<0x3F>	0
<0x40>	0
<0x41>	0
<0x42>	0
<0x43>	0
<0x44>	0
<0x45>	0
<0x46>	0
<0x47>	0
<0x48>	0
<0x49>	0
<0x4A>	0
<0x4B>	0
<0x4C>	0
<0x4D>	0
<0x4E>	0
<0x4F>	0
<0x50>	0
<0x51>	0
<0x52>	0
<0x53>	0
<0x54>	0
<0x55>	0
<0x56>	0
<0x57>	0
<0x58>	0
<0x59>	0
<0x5A>	0
<0x5B>	0
<0x5C>	0
<0x5D>	0
<0x5E>	0
<0x5F>	0
<0x60>	0
<0x61>	0
<0x62>	0
<0x63>	0
<0x64>	0
<0x65>	0
<0x66>	0
<0x67>	0
<0x68>	0
<0x69>	0
<0x6A>	0
<0x6B>	0
<0x6C>	0
<0x6D>	0
<0x6E>	0
<0x6F>	0
<0x70>	0
<0x71>	0
<0x72>	0
<0x73>	0
<0x74>	0
<0x75>	0
<0x76>	0
<0x77>	0
<0x78>	0
<0x79>	0
<0x7A>	0
<0x7B>	0
<0x7C>	0
<0x7D>	0
<0x7E>	0
<0x7F>	0
<0x80>	0
<0x81>	0
<0x82>	0
<0x83>	0
<0x84>	0
<0x85>	0
<0x86>	0
<0x87>	0
<0x88>	0
<0x89>	0
<0x8A>	0
<0x8B>	0
<0x8C>	0
<0x8D>	0
<0x8E>	0
<0x8F>	0
<0x90>	0
<0x91>	0
<0x92>	0
<0x93>	0
<0x94>	0
<0x95>	0
<0x96>	0
<0x97>	0
<0x98>	0
<0x99>	0
<0x9A>	0
<0x9B>	0
<0x9C>	0
<0x9D>	0
<0x9E>	0
<0x9F>	0
<0xA0>	0
<0xA1>	0
<0xA2>	0
<0xA3>	0
<0xA4>	0
<0xA5>	0
<0xA6>	0
<0xA7>	0
<0xA8>	0
<0xA9>	0
<0xAA>	0
<0xAB>	0
<0xAC>	0
<0xAD>	0
<0xAE>	0
<0xAF>	0
<0xB0>	0
<0xB1>	0
<0xB2>	0
<0xB3>	0
<0xB4>	0
<0xB5>	0
<0xB6>	0
<0xB7>	0
<0xB8>	0
<0xB9>	0
<0xBA>	0
<0xBB>	0
<0xBC>	0
<0xBD>	0
<0xBE>	0
<0xBF>	0
<0xC0>	0
<0xC1>	0
<0xC2>	0
<0xC3>	0
<0xC4>	0
<0xC5>	0
<0xC6>	0
<0xC7>	0
<0xC8>	0
<0xC9>	0
<0xCA>	0
<0xCB>	0
<0xCC>	0
<0xCD>	0
<0xCE>	0
<0xCF>	0
<0xD0>	0
<0xD1>	0
<0xD2>	0
<0xD3>	0
<0xD4>	0
<0xD5>	0
<0xD6>	0
<0xD7>	0
<0xD8>	0
<0xD9>	0
<0xDA>	0
<0xDB>	0
<0xDC>	0
<0xDD>	0
<0xDE>	0
<0xDF>	0
<0xE0>	0
<0xE1>	0
<0xE2>	0
<0xE3>	0
<0xE4>	0
<0xE5>	0
<0xE6>	0
<0xE7>	0
<0xE8>	0
<0xE9>	0
<0xEA>	0
<0xEB>	0
<0xEC>	0
<0xED>	0
<0xEE>	0
<0xEF>	0
<0xF0>	0
<0xF1>	0
<0xF2>	0
<0xF3>	0
<0xF4>	0
<0xF5>	0
<0xF6>	0
<0xF7>	0
<0xF8>	0
<0xF9>	0
<0xFA>	0
<0xFB>	0
<0xFC>	0
<0xFD>	0
<0xFE>	0
<0xFF>	0
▁ک	-0
▁▁	-1
▁ا	-2
▁م	-3
▁س	-4
یں	-5
▁ہ	-6
▁پ	-7
▁کی	-8
ان	-9
▁ب	-10
▁▁▁▁	-11
▁ن	-12
ور	-13
▁ج	-14
ار	-15
▁ت	-16
▁و	-17
لی	-18
▁گ	-19
یا	-20
ری	-21
▁د	-22
▁میں	-23
▁ح	-24
▁کر	-25
ال	-26
ام	-27
▁ای	-28
▁کا	-29
وں	-30
▁پر	-31
ات	-32
▁اس	-33
▁ش	-34
▁اور	-35
▁▁▁▁▁	-36
▁ر	-37
▁کو	-38
اک	-39
▁ف	-40
▁خ	-41
ین	-42
اد	-43
▁ہو	-44
لا	-45
ست	-46
▁ہیں	-47
می	-48
▁ع	-49
▁مو	-50
▁ایک	-51
رو	-52
ای	-53
یر	-54
▁آ	-55
اب	-56
ٹی	-57
ھی	-58
لہ	-59
▁ان	-60
▁کہ	-61
دہ	-62
▁چ	-63
▁ق	-64
▁▁▁▁▁▁▁▁	-65
ستان	-66
پری	-67
▁ز	-68
▁مح	-69
▁کیا	-70
اہ	-71
▁ڈ	-72
▁ی	-73
▁می	-74
اکستان	-75
▁ایکس	-76
نا	-77
▁نہ	-78
▁وز	-79
پریس	-80
اع	-81
الی	-82
▁ایکسپریس	-83
▁پاکستان	-84
یب	-85
▁جم	-86
تا	-87
▁لی	-88
ون	-89
ٹر	-90
▁ل	-91
مام	-92
قو	-93
مت	-94
فو	-95
▁سا	-96
مان	-97
سی	-98
▁پی	-99
▁مت	-100
فوظ	-101
▁محفوظ	-102
قوق	-103
▁حقوق	-104
بر	-105
▁مواد	-106
▁ویب	-107
▁نہیں	-108
▁ساٹ	-109
▁بھی	-110
کو	-111
▁جملہ	-112
▁تھ	-113
اری	-114
تی	-115
شن	-116
▁میڈ	-117
▁ال	-118
دی	-119
▁جان	-120
نگ	-121
عل	-122
▁میڈیا	-123
▁رہ	-124
ضر	-125
روپ	-126
▁ص	-127
اتھ	-128
▁تر	-129
رد	-130
کی	-131
▁مل	-132
کومت	-133
▁ٹی	-134
▁ساتھ	-135
نی	-136
▁گروپ	-137
از	-138
▁حکومت	-139
▁سی	-140
▁دی	-141
ینی	-142
▁ط	-143
حق	-144
▁رو	-145
علق	-146
▁سب	-147
▁جا	-148
▁گی	-149
رح	-150
▁وزیر	-151
▁زیا	-152
▁حا	-153
▁کریں	-154
ٹس	-155
▁اپ	-156
▁گیا	-157
ند	-158
▁زیادہ	-159
▁والی	-160
▁ملا	-161
اف	-162
بی	-163
وری	-164
▁کرن	-165
انا	-166
▁ذ	-167
▁تمام	-168
▁حال	-169
▁بی	-170
▁کم	-171
▁متعلق	-172
ول	-173
ولی	-174
▁در	-175
ظہ	-176
طاب	-177
▁خبر	-178
▁من	-179
▁تھا	-180
▁بحق	-181
▁جن	-182
ضل	-183
اس	-184
▁دیں	-185
عد	-186
▁بھ	-187
▁شدہ	-188
وی	-189
گر	-190
▁حالات	-191
مل	-192
ردو	-193
▁فی	-194
▁شاع	-195
▁اردو	-196
▁جس	-197
تمام	-198
▁ترمی	-199
ظم	-200
فت	-201
▁الرح	-202
کھ	-203
▁اع	-204
تاج	-205
▁خبروں	-206
لانا	-207
▁ہوگ	-208
▁حاضر	-209
▁ترمیم	-210
▁وزٹ	-211
▁▁▁▁▁▁▁▁▁▁▁▁▁▁▁▁	-212
▁مولانا	-213
▁حاضرہ	-214
▁نتاج	-215
▁فضل	-216
▁مد	-217
▁الرحمان	-218
▁وال	-219
▁تو	-220
▁آینی	-221
▁مق	-222
▁ٹ	-223
اق	-224
▁ری	-225
▁ملاح	-226
▁ملاحظہ	-227
انی	-228
وا	-229
▁جو	-230
ایک	-231
الر	-232
▁اد	-233
زی	-234
را	-235
▁دو	-236
مب	-237
▁یہ	-238
ود	-239
▁بن	-240
▁مع	-241
▁پہ	-242
▁خان	-243
سٹ	-244
ولیس	-245
▁این	-246
ورٹ	-247
شت	-248
▁غ	-249
▁ام	-250
وٹ	-251
▁گا	-252
ران	-253
▁شہ	-254
▁ہم	-255
▁یو	-256
▁ڈاک	-257
خت	-258
رل	-259
▁کار	-260
امی	-261
▁تک	-262
▁پولیس	-263
ڈی	-264
اں	-265
▁گر	-266
مبلی	-267
▁اسمبلی	-268
▁سر	-269
▁دیا	-270
▁مذ	-271
▁کہا	-272
▁ضر	-273
▁اف	-274
ارہ	-275
▁ہی	-276
مد	-277
وب	-278
فی	-279
اکر	-280
▁جنرل	-281
نٹ	-282
▁ڈاکٹر	-283
کن	-284
▁بعد	-285
▁بر	-286
کار	-287
▁ہون	-288
▁اعظم	-289
گی	-290
لاف	-291
وج	-292
▁مس	-293
▁ڈی	-294
▁اسک	-295
لم	-296
▁لا	-297
کا	-298
▁کرد	-299
▁خطاب	-300
روف	-301
رین	-302
ارت	-303
▁عد	-304
جہ	-305
▁کمی	-306
مع	-307
▁دور	-308
▁وہ	-309
چی	-310
▁جی	-311
▁مذہ	-312
▁جاری	-313
▁پالی	-314
▁اپن	-315
انہ	-316
▁بڑ	-317
▁پالیسی	-318
حت	-319
▁فیص	-320
▁مذہبی	-321
در	-322
▁ضروری	-323
▁بہ	-324
▁ہونا	-325
▁آی	-326
لو	-327
▁تھی	-328
مہ	-329
▁نایک	-330
▁ذاکر	-331
▁اسل	-332
▁نی	-333
▁اسکالر	-334
▁ایس	-335
معروف	-336
کر	-337
▁چی	-338
کہ	-339
▁عم	-340
نس	-341
▁▁▁	-342
▁سو	-343
▁نو	-344
زم	-345
شی	-346
ھر	-347
فق	-348
▁جب	-349
▁کرک	-350
طابق	-351
▁یا	-352
نٹس	-353
خوا	-354
▁مطابق	-355
الت	-356
▁اہ	-357
▁کرا	-358
ادی	-359
▁تع	-360
▁متفق	-361
رہ	-362
▁کمنٹس	-363
▁کام	-364
▁است	-365
نڈ	-366
▁سک	-367
اپ	-368
▁کھ	-369
▁انت	-370
▁ہوا	-371
امل	-372
پی	-373
▁خلاف	-374
اج	-375
▁وی	-376
▁گرفت	-377
نج	-378
▁حک	-379
اعت	-380
▁سال	-381
▁اب	-382
▁نام	-383
راد	-384
▁کرت	-385
زار	-386
▁پیش	-387
سر	-388
▁بچ	-389
قت	-390
▁بہت	-391
▁فر	-392
▁سم	-393
▁رہا	-394
رف	-395
کس	-396
چھ	-397
سک	-398
▁ملک	-399
▁لگ	-400
مال	-401
▁تی	-402
رای	-403
▁مش	-404
▁کردیا	-405
▁اپنی	-406
لس	-407
▁عدالت	-408
▁اج	-409
▁چھ	-410
قی	-411
وان	-412
▁ہوی	-413
ما	-414
▁کراچی	-415
▁رکھ	-416
بل	-417
▁بار	-418
مبر	-419
▁بل	-420
ڑی	-421
▁کوی	-422
▁خو	-423
▁قی	-424
خواست	-425
میں	-426
کل	-427
▁روپ	-428
مین	-429
کشن	-430
ونی	-431
ریف	-432
پورٹ	-433
▁مار	-434
رک	-435
▁را	-436
▁درخواست	-437
▁بنا	-438
فر	-439
▁علا	-440
▁اداک	-441
▁چاہ	-442
ورت	-443
باد	-444
▁وزیراع	-445
▁دوران	-446
یاں	-447
▁ایم	-448
پت	-449
▁او	-450
▁کسی	-451
▁پار	-452
سال	-453
ارتی	-454
▁ہوں	-455
▁اسلام	-456
▁مج	-457
▁ایف	-458
▁ٹیم	-459
یات	-460
زید	-461
▁علی	-462
▁قر	-463
وڑ	-464
▁انہ	-465
اح	-466
وہ	-467
صل	-468
▁سیا	-469
میت	-470
▁اض	-471
▁گرفتار	-472
ریب	-473
▁مزید	-474
▁دن	-475
▁شاہ	-476
▁فلم	-477
▁پہن	-478
▁جانب	-479
وز	-480
▁فار	-481
وم	-482
▁کردی	-483
▁الی	-484
▁ہوگی	-485
▁مقد	-486
▁کرلی	-487
لاک	-488
▁مہ	-489
▁کیس	-490
▁تح	-491
▁دہ	-492
▁ور	-493
وٹو	-494
ہور	-495
▁پڑ	-496
▁طور	-497
وال	-498
▁لو	-499
اتی	-500
▁اضاف	-501
کٹ	-502
▁ہوگا	-503
رب	-504
شل	-505
▁فوٹو	-506
ندھ	-507
▁نظ	-508
ایت	-509
▁سام	-510
زمان	-511
▁قیمت	-512
▁کورٹ	-513
وار	-514
اقع	-515
اور	-516
▁رہی	-517
▁شامل	-518
دا	-519
▁کرنا	-520
صد	-521
▁پہنچ	-522
لب	-523
▁اسرای	-524
▁کیلی	-525
قات	-526
▁غیر	-527
سن	-528
▁کیل	-529
ابق	-530
▁فیصلہ	-531
▁پرو	-532
یل	-533
▁بین	-534
▁امری	-535
▁عو	-536
▁بج	-537
▁ماہ	-538
عی	-539
▁تق	-540
▁سمیت	-541
کان	-542
▁جبکہ	-543
▁موج	-544
▁ات	-545
لیم	-546
▁قان	-547
▁جسٹس	-548
▁دین	-549
▁ڈالر	-550
▁استع	-551
ریک	-552
▁رہن	-553
▁مر	-554
نجاب	-555
▁نش	-556
خمی	-557
▁وقت	-558
▁تب	-559
لاس	-560
ٹھ	-561
اخ	-562
▁افراد	-563
▁دھ	-564
فاق	-565
▁دیگر	-566
▁باد	-567
اروں	-568
▁بڑھ	-569
ٹری	-570
▁صدر	-571
▁بات	-572
▁واقع	-573
▁فال	-574
من	-575
تم	-576
▁الیکشن	-577
▁لیا	-578
▁وجہ	-579
▁سندھ	-580
شتہ	-581
اہم	-582
▁ملزم	-583
جی	-584
حقی	-585
▁استعمال	-586
روع	-587
▁پہل	-588
ڈر	-589
پن	-590
انس	-591
▁شروع	-592
▁ہر	-593
▁سابق	-594
▁گھر	-595
خص	-596
▁پنجاب	-597
▁قو	-598
▁کاررو	-599
▁وار	-600
راع	-601
▁علاق	-602
▁دیکھ	-603
ثر	-604
▁چیف	-605
▁حاصل	-606
▁درج	-607
▁لاہور	-608
▁خط	-609
▁لوگ	-610
▁عمران	-611
▁روز	-612
شہ	-613
▁حم	-614
▁زخمی	-615
پور	-616
▁منظ	-617
اہر	-618
▁بھارتی	-619
دید	-620
بہ	-621
▁عمل	-622
امات	-623
▁وزیراعظم	-624
▁زاد	-625
لف	-626
▁رپورٹ	-627
یرمین	-628
قع	-629
▁کارروای	-630
▁اق	-631
▁ملزمان	-632
▁حکم	-633
▁گز	-634
اض	-635
▁پری	-636
ونوں	-637
▁موجود	-638
▁تص	-639
میر	-640
▁کرلیا	-641
▁ٹر	-642
▁بھر	-643
▁آباد	-644
▁ہد	-645
▁لیکن	-646
▁شہری	-647
▁شریف	-648
▁بند	-649
▁طلب	-650
او	-651
▁انس	-652
ٹو	-653
▁انہوں	-654
▁تحقی	-655
▁مک	-656
▁اعل	-657
ہزار	-658
▁میچ	-659
▁مخت	-660
▁اجلاس	-661
▁منت	-662
ابل	-663
▁تین	-664
▁تن	-665
▁اح	-666
▁فوج	-667
▁قرار	-668
▁تج	-669
▁کروڑ	-670
▁اللہ	-671
▁نق	-672
مار	-673
▁قومی	-674
▁حوال	-675
▁فیصل	-676
ایا	-677
▁مست	-678
کارڈ	-679
▁اہل	-680
▁ث	-681
▁چیرمین	-682
سم	-683
گرام	-684
▁تش	-685
لیٰ	-686
▁خات	-687
▁گھ	-688
رن	-689
کٹر	-690
لز	-691
▁قبل	-692
رز	-693
▁محمد	-694
▁سماعت	-695
تل	-696
ڈیو	-697
▁ریکارڈ	-698
▁کچھ	-699
▁عوام	-700
▁احت	-701
▁سین	-702
جمان	-703
▁دل	-704
▁سیاسی	-705
▁میر	-706
▁ذراع	-707
▁مط	-708
▁بد	-709
زہ	-710
▁کوش	-711
▁اسٹی	-712
▁دہشت	-713
▁خود	-714
▁تف	-715
▁اسٹ	-716
▁کہنا	-717
فیصد	-718
▁پاکستانی	-719
ورس	-720
▁اُ	-721
باز	-722
ارف	-723
▁کمیشن	-724
▁دار	-725
▁جات	-726
▁جماعت	-727
▁بتا	-728
▁عال	-729
فاقی	-730
پتال	-731
وص	-732
پر	-733
▁درمی	-734
▁بح	-735
▁کوشش	-736
ید	-737
▁ض	-738
▁حکام	-739
▁صرف	-740
▁کھی	-741
▁قتل	-742
▁عب	-743
▁حمل	-744
آ	-745
▁ترجمان	-746
▁حص	-747
لاکھ	-748
▁صوب	-749
▁نظر	-750
▁تعلق	-751
یاد	-752
منٹ	-753
▁اخ	-754
▁لان	-755
دار	-756
▁آر	-757
▁درمیان	-758
▁اط	-759
▁واپ	-760
▁دونوں	-761
▁جہ	-762
▁سط	-763
▁مکمل	-764
▁کمیٹی	-765
▁سطح	-766
بال	-767
▁پاس	-768
گل	-769
▁بیان	-770
▁اعلان	-771
▁بھارت	-772
▁جمع	-773
▁شہر	-774
خاب	-775
▁شک	-776
▁ہمار	-777
▁اداکارہ	-778
▁داخ	-779
▁شی	-780
▁پو	-781
▁ہوگیا	-782
پریم	-783
▁معا	-784
▁صورت	-785
▁منص	-786
▁چاہی	-787
▁اضافہ	-788
جن	-789
▁اہم	-790
▁جایں	-791
بین	-792
یت	-793
عو	-794
ھیں	-795
▁اسپتال	-796
▁پارٹی	-797
▁با	-798
▁ملاقات	-799
براہ	-800
کیل	-801
قل	-802
▁ہدایت	-803
ورڈ	-804
▁انتخاب	-805
▁کل	-806
▁دنیا	-807
▁مختلف	-808
▁فارنگ	-809
لڈ	-810
▁کان	-811
▁شخص	-812
▁اظہ	-813
سٹری	-814
▁بنان	-815
▁پور	-816
سو	-817
▁سامن	-818
▁تحت	-819
▁وفاقی	-820
▁چل	-821
ویز	-822
▁شہباز	-823
صر	-824
▁خاتون	-825
گو	-826
کیٹ	-827
▁ار	-828
▁عالمی	-829
▁تقریب	-830
ریع	-831
▁اداکار	-832
کاری	-833
سٹر	-834
یہ	-835
▁مقدمہ	-836
▁پیدا	-837
▁کمپ	-838
▁عام	-839
▁گزشتہ	-840
مپ	-841
▁باع	-842
▁متا	-843
▁سل	-844
▁لیگ	-845
سالہ	-846
ورٹی	-847
لاع	-848
لای	-849
ہر	-850
نو	-851
▁نواز	-852
▁سوشل	-853
▁بتایا	-854
▁ادا	-855
ارب	-856
▁باعث	-857
▁بنایا	-858
داد	-859
تھ	-860
تو	-861
ریز	-862
ٹرز	-863
▁انٹر	-864
اتین	-865
▁طرح	-866
بت	-867
غیر	-868
پاکستان	-869
▁ختم	-870
▁شر	-871
عداد	-872
لین	-873
▁ٹیکس	-874
▁سپریم	-875
غان	-876
▁سن	-877
اریخ	-878
ریق	-879
ورن	-880
▁مالی	-881
▁جواب	-882
▁قانون	-883
▁عمر	-884
▁ذریع	-885
▁دست	-886
خلاف	-887
▁کامیا	-888
▁امریکی	-889
▁تبدی	-890
▁اسرایل	-891
▁شادی	-892
مو	-893
زا	-894
▁اگر	-895
▁ہوتا	-896
▁گرد	-897
▁جنگ	-898
یم	-899
▁آپ	-900
▁مم	-901
▁ایر	-902
▁ہای	-903
▁اسرایلی	-904
▁کال	-905
▁جارہ	-906
▁موقع	-907
صاف	-908
▁پھ	-909
کش	-910
▁اظہار	-911
▁نقص	-912
ندی	-913
▁مدد	-914
▁مری	-915
▁فرو	-916
▁کمپنی	-917
▁دوس	-918
▁بچوں	-919
▁تاریخ	-920
▁اند	-921
▁محک	-922
▁بورڈ	-923
▁نقصان	-924
▁جر	-925
▁کیخلاف	-926
▁کپت	-927
سکتا	-928
▁سربراہ	-929
جھ	-930
▁لڑ	-931
▁رہنما	-932
▁کردار	-933
▁پان	-934
▁آن	-935
▁مقدم	-936
▁نا	-937
ٹا	-938
▁سکتا	-939
▁کھیل	-940
بھ	-941
جاج	-942
شنل	-943
▁ویڈیو	-944
مالک	-945
▁کررہ	-946
▁مطال	-947
▁انتظ	-948
▁ٹیسٹ	-949
▁الز	-950
کیورٹی	-951
▁جل	-952
▁مجھ	-953
▁ریلی	-954
▁پھر	-955
▁جھ	-956
▁اہلکار	-957
▁اپنا	-958
رکت	-959
▁انصاف	-960
▁فراہم	-961
▁چار	-962
▁برا	-963
افی	-964
انگ	-965
▁امی	-966
▁خار	-967
▁منصوب	-968
▁سف	-969
▁کرکٹ	-970
▁جج	-971
▁بینک	-972
▁سہ	-973
▁بال	-974
▁منتقل	-975
▁احتجاج	-976
اکھ	-977
دان	-978
شیا	-979
لوچ	-980
▁دف	-981
علوم	-982
وجوان	-983
بو	-984
▁ریا	-985
▁زیر	-986
▁افغان	-987
ابط	-988
▁واپس	-989
▁تحریک	-990
▁دھم	-991
▁ہفت	-992
بان	-993
کری	-994
▁دوسر	-995
ندگی	-996
اہد	-997
▁ہلاک	-998
▁سنگ	-999
▁انہیں	-1000
جو	-1001
سین	-1002
▁ناک	-1003
▁قانونی	-1004
▁برمد	-1005
▁وزارت	-1006
▁آگ	-1007
▁اقد	-1008
▁بڑی	-1009
▁خواتین	-1010
▁کن	-1011
▁بجلی	-1012
یال	-1013
▁مارکیٹ	-1014
▁مص	-1015
▁شع	-1016
▁لوگوں	-1017
▁یق	-1018
▁اسکو	-1019
گری	-1020
▁تیار	-1021
▁قام	-1022
▁امریکا	-1023
ٹرو	-1024
ورہ	-1025
▁صحت	-1026
▁چین	-1027
▁شیر	-1028
▁آج	-1029
▁تھیں	-1030
▁کرتا	-1031
▁کش	-1032
کیشن	-1033
▁محکمہ	-1034
▁غل	-1035
ٹن	-1036
▁شدید	-1037
▁والوں	-1038
▁ممالک	-1039
سل	-1040
▁پڑھیں	-1041
▁کپتان	-1042
▁شو	-1043
▁لاکھ	-1044
▁والا	-1045
▁زندگی	-1046
▁تحقیق	-1047
▁جاتا	-1048
▁ظ	-1049
▁جیل	-1050
ابر	-1051
لسط	-1052
▁گاڑی	-1053
▁نک	-1054
▁صارف	-1055
▁کت	-1056
ختون	-1057
لاح	-1058
یاتی	-1059
▁نوجوان	-1060
▁گو	-1061
توبر	-1062
▁صد	-1063
▁تعداد	-1064
▁قریب	-1065
▁امکان	-1066
رنز	-1067
▁قب	-1068
ایکورٹ	-1069
عہ	-1070
تیار	-1071
وڈ	-1072
▁انڈ	-1073
▁شرکت	-1074
▁ترین	-1075
▁حل	-1076
▁حصہ	-1077
▁مسل	-1078
▁باز	-1079
▁مشت	-1080
▁جلس	-1081
▁پہلی	-1082
▁عاد	-1083
▁کھلا	-1084
▁کلو	-1085
مر	-1086
فظ	-1087
▁بلوچ	-1088
▁اک	-1089
یبر	-1090
حک	-1091
افراد	-1092
▁اٹھ	-1093
▁شنا	-1094
▁فون	-1095
فا	-1096
▁باہر	-1097
▁خر	-1098
▁ہایکورٹ	-1099
▁موسم	-1100
ازہ	-1101
▁طرف	-1102
▁ہوتی	-1103
▁اداروں	-1104
▁اسلامی	-1105
▁والد	-1106
▁لگا	-1107
نہ	-1108
بینہ	-1109
▁متح	-1110
▁وزیراعلیٰ	-1111
▁امید	-1112
زیشن	-1113
▁سرکاری	-1114
▁جہاں	-1115
▁احمد	-1116
▁اطلاع	-1117
ایہ	-1118
▁رکھن	-1119
▁معامل	-1120
▁خری	-1121
جا	-1122
فرنس	-1123
▁آف	-1124
▁بہتر	-1125
▁کور	-1126
▁منظوری	-1127
▁مہنگ	-1128
▁مین	-1129
شاور	-1130
▁ایل	-1131
▁ہوت	-1132
▁بغیر	-1133
▁مظ	-1134
▁حق	-1135
▁ارب	-1136
چر	-1137
▁پاب	-1138
▁نوٹس	-1139
▁کھلاڑی	-1140
وث	-1141
▁سون	-1142
▁لکھ	-1143
▁صارفین	-1144
▁خد	-1145
▁برس	-1146
▁اختیار	-1147
▁نم	-1148
زد	-1149
▁رک	-1150
▁سیریز	-1151
جر	-1152
امیہ	-1153
▁ہزار	-1154
ڑا	-1155
▁ملکی	-1156
▁ضرورت	-1157
▁نشانہ	-1158
▁صوبای	-1159
حال	-1160
بار	-1161
▁تعین	-1162
ختونخوا	-1163
گا	-1164
▁گفت	-1165
سٹم	-1166
▁رق	-1167
▁ہمیں	-1168
عودی	-1169
▁فلسط	-1170
حہ	-1171
▁ملت	-1172
▁سیکیورٹی	-1173
▁سکت	-1174
رون	-1175
▁شہید	-1176
▁شکار	-1177
وہر	-1178
▁جلد	-1179
▁مشکل	-1180
ونٹ	-1181
▁گفتگو	-1182
ستمبر	-1183
▁نمبر	-1184
▁پروگرام	-1185
افر	-1186
▁خیبر	-1187
وٹی	-1188
▁حالت	-1189
▁یونی	-1190
▁بلا	-1191
ڑھ	-1192
▁خص	-1193
▁خارجہ	-1194
گہ	-1195
▁گل	-1196
▁بیٹ	-1197
▁شہریوں	-1198
▁کلی	-1199
اضح	-1200
▁لین	-1201
فوٹو	-1202
▁خصوص	-1203
▁خیال	-1204
▁حملہ	-1205
لسل	-1206
▁تاہم	-1207
▁ریاست	-1208
ازت	-1209
▁بارش	-1210
▁دوسری	-1211
▁کب	-1212
علی	-1213
الیہ	-1214
اٹ	-1215
▁اسپی	-1216
▁فوری	-1217
لیہ	-1218
▁شناخت	-1219
▁واضح	-1220
اً	-1221
▁اخت	-1222
دری	-1223
▁عرب	-1224
لان	-1225
▁اینڈ	-1226
زب	-1227
▁اجازت	-1228
ادہ	-1229
▁پاک	-1230
کت	-1231
خو	-1232
اص	-1233
▁معی	-1234
▁پانچ	-1235
▁پس	-1236
▁سیاست	-1237
▁گیں	-1238
▁ملوث	-1239
▁بنیاد	-1240
▁نظام	-1241
▁راست	-1242
▁کپ	-1243
▁جاں	-1244
▁مرک	-1245
▁نوٹی	-1246
▁گرفتاری	-1247
▁مال	-1248
▁پشاور	-1249
▁سمجھ	-1250
طی	-1251
▁مسال	-1252
▁مقابل	-1253
▁انتخابات	-1254
▁دع	-1255
عدد	-1256
▁رقم	-1257
▁قرض	-1258
پنڈی	-1259
▁الزام	-1260
▁منظور	-1261
▁سات	-1262
▁وکیل	-1263
▁ادار	-1264
▁ایڈ	-1265
رام	-1266
ادث	-1267
ولپنڈی	-1268
▁ایچ	-1269
تر	-1270
وجی	-1271
اقت	-1272
▁علاقوں	-1273
وجود	-1274
▁بنگ	-1275
سران	-1276
▁داخلہ	-1277
▁از	-1278
حکومت	-1279
▁معلوم	-1280
▁تحقیقات	-1281
▁تفتی	-1282
▁گورن	-1283
ہد	-1284
اون	-1285
ایکل	-1286
▁رس	-1287
فال	-1288
▁دوب	-1289
▁ترقی	-1290
▁تبدیلی	-1291
▁تفص	-1292
▁سزا	-1293
▁چو	-1294
▁فرار	-1295
▁سامنا	-1296
وزیر	-1297
▁دکھ	-1298
▁بول	-1299
▁غزہ	-1300
صول	-1301
زانہ	-1302
▁شکست	-1303
اط	-1304
▁ورلڈ	-1305
▁دوبارہ	-1306
▁چھوڑ	-1307
▁باوجود	-1308
▁متحدہ	-1309
ورسٹی	-1310
▁انتہ	-1311
▁اسی	-1312
▁جیس	-1313
شر	-1314
▁پابندی	-1315
▁الا	-1316
پولیس	-1317
▁ہاتھ	-1318
نان	-1319
▁منا	-1320
▁سکتی	-1321
مانت	-1322
▁رواں	-1323
ضا	-1324
▁متعدد	-1325
▁اقدامات	-1326
دع	-1327
▁مداح	-1328
زمین	-1329
▁عبد	-1330
▁مگر	-1331
▁رابط	-1332
▁طال	-1333
▁شرح	-1334
▁سعودی	-1335
▁حسن	-1336
دد	-1337
▁گردی	-1338
▁افسران	-1339
وبی	-1340
▁انج	-1341
▁سینی	-1342
▁مخ	-1343
▁مسلم	-1344
▁پانی	-1345
▁گزار	-1346
▁معاشی	-1347
ابت	-1348
انیہ	-1349
▁لینڈ	-1350
▁جگہ	-1351
▁مطالبہ	-1352
ریر	-1353
▁کامیاب	-1354
▁کرتی	-1355
▁یونیورسٹی	-1356
▁لاش	-1357
سکتی	-1358
▁مقر	-1359
راض	-1360
▁کنٹ	-1361
سیم	-1362
فار	-1363
▁ریلیز	-1364
▁چاہت	-1365
▁خصوصی	-1366
لیمنٹ	-1367
اگ	-1368
پار	-1369
▁ممکن	-1370
▁دیت	-1371
▁دوست	-1372
نگز	-1373
کڑ	-1374
ٓمد	-1375
▁خوش	-1376
▁ضمانت	-1377
نسل	-1378
▁فوجی	-1379
▁لب	-1380
▁چند	-1381
▁چک	-1382
▁قدر	-1383
▁برط	-1384
راج	-1385
یادت	-1386
▁زر	-1387
روس	-1388
ولت	-1389
▁میری	-1390
▁نکال	-1391
روز	-1392
عق	-1393
▁چوہ	-1394
▁راولپنڈی	-1395
▁بڑا	-1396
▁انٹرنی	-1397
▁مقدمات	-1398
▁رکھا	-1399
▁سوال	-1400
لاق	-1401
▁متاث	-1402
▁پن	-1403
▁مرت	-1404
انوں	-1405
ودہ	-1406
▁منش	-1407
پلز	-1408
ڑک	-1409
▁پیر	-1410
▁متاثر	-1411
▁پیس	-1412
▁وارل	-1413
وس	-1414
▁رات	-1415
توں	-1416
ویل	-1417
▁بلوچستان	-1418
▁آیا	-1419
کیو	-1420
▁ایران	-1421
▁کارکن	-1422
▁بھای	-1423
▁ڈال	-1424
▁پوری	-1425
▁مقامی	-1426
▁حسین	-1427
▁ماہرین	-1428
اڈ	-1429
خار	-1430
▁رج	-1431
▁حادث	-1432
دن	-1433
دیق	-1434
اش	-1435
▁اسکول	-1436
▁ہماری	-1437
▁نیا	-1438
▁اعلیٰ	-1439
لینڈ	-1440
▁تلا	-1441
▁اسم	-1442
▁داخل	-1443
اکتوبر	-1444
▁ہاس	-1445
▁تعاون	-1446
▁مجمو	-1447
▁بلکہ	-1448
رار	-1449
▁عر	-1450
اکہ	-1451
لاب	-1452
▁قیادت	-1453
▁فورس	-1454
کریٹری	-1455
▁عدم	-1456
▁شم	-1457
▁ڈاری	-1458
▁بیٹی	-1459
▁ریٹ	-1460
▁ایسا	-1461
مایہ	-1462
▁صورتحال	-1463
▁فروخت	-1464
یو	-1465
▁سخت	-1466
▁کونسل	-1467
▁تعلقات	-1468
قید	-1469
▁امین	-1470
▁انسانی	-1471
▁تباہ	-1472
راہ	-1473
▁حی	-1474
گھ	-1475
▁مف	-1476
▁بالی	-1477
ظیم	-1478
▁بس	-1479
▁کمشن	-1480
▁تعلیم	-1481
▁نگر	-1482
▁کاری	-1483
فاظ	-1484
وید	-1485
▁ثابت	-1486
اسی	-1487
لیٹ	-1488
دھ	-1489
▁جیت	-1490
▁جاتی	-1491
▁کرکٹر	-1492
▁انتظامیہ	-1493
▁کانفرنس	-1494
ؤ	-1495
▁واقعہ	-1496
▁پارلیمنٹ	-1497
▁امیر	-1498
▁ینی	-1499
▁تشدد	-1500
▁مسافر	-1501
مق	-1502
کم	-1503
▁موبال	-1504
▁منشیات	-1505
ویر	-1506
▁دیکھا	-1507
ملزمان	-1508
پورٹس	-1509
▁صح	-1510
▁ووڈ	-1511
▁برآمد	-1512
▁کیوں	-1513
▁خزانہ	-1514
▁سرمایہ	-1515
ٹل	-1516
▁فل	-1517
▁دفاع	-1518
▁یاد	-1519
▁ست	-1520
گز	-1521
▁موٹر	-1522
عم	-1523
ملین	-1524
▁بانی	-1525
▁سیکریٹری	-1526
▁روک	-1527
ناز	-1528
▁گورنر	-1529
▁نکل	-1530
▁مض	-1531
▁نامی	-1532
سب	-1533
▁پوسٹ	-1534
▁کس	-1535
▁ملی	-1536
وش	-1537
اضی	-1538
▁بجا	-1539
مانی	-1540
▁دھماک	-1541
▁اسٹار	-1542
▁علم	-1543
▁گیس	-1544
▁طریق	-1545
▁کبھی	-1546
▁عبدال	-1547
عات	-1548
جد	-1549
▁جام	-1550
▁قوم	-1551
▁ذمہ	-1552
سکت	-1553
خصوص	-1554
▁تفتیش	-1555
▁کاروب	-1556
▁پھی	-1557
▁ظاہر	-1558
▁چوہدری	-1559
بج	-1560
ندر	-1561
▁ملن	-1562
▁شیخ	-1563
ڈز	-1564
لت	-1565
▁امن	-1566
ہم	-1567
ماہ	-1568
▁ہوچ	-1569
دگی	-1570
▁زمین	-1571
▁پسند	-1572
▁پیپلز	-1573
قوام	-1574
▁تصدیق	-1575
▁علاج	-1576
▁امت	-1577
▁شوہر	-1578
▁انداز	-1579
▁کری	-1580
ذہ	-1581
▁رہیں	-1582
▁مریم	-1583
▁کروا	-1584
▁افسر	-1585
▁ون	-1586
▁قبض	-1587
▁نتی	-1588
▁مز	-1589
با	-1590
▁قیمتوں	-1591
▁اُن	-1592
ضی	-1593
رات	-1594
▁قابل	-1595
▁مسترد	-1596
کشاف	-1597
لیا	-1598
▁اقت	-1599
▁جنوبی	-1600
بات	-1601
▁سسٹم	-1602
▁انکشاف	-1603
▁کامیابی	-1604
▁حد	-1605
▁متو	-1606
ایڈ	-1607
▁سبب	-1608
▁کمشنر	-1609
اویر	-1610
▁میز	-1611
▁گاہ	-1612
▁دس	-1613
▁تا	-1614
▁مقصد	-1615
▁نیوز	-1616
▁بری	-1617
▁ڈاریکٹر	-1618
یلات	-1619
▁بندی	-1620
▁آغ	-1621
▁اعتم	-1622
قف	-1623
▁لن	-1624
پٹی	-1625
▁صف	-1626
▁گلو	-1627
▁جارہا	-1628
▁امیدوار	-1629
▁ناکام	-1630
وسی	-1631
▁حزب	-1632
▁کرپ	-1633
لیمی	-1634
▁پہلا	-1635
▁بیٹھ	-1636
▁کابینہ	-1637
▁گنڈ	-1638
▁مقرر	-1639
▁فن	-1640
▁تحفظ	-1641
▁اطلاعات	-1642
▁ڈھ	-1643
▁روشن	-1644
▁اعتماد	-1645
▁وا	-1646
▁سلمان	-1647
▁تعلیمی	-1648
▁دورہ	-1649
ہوری	-1650
▁سنگھ	-1651
وزیشن	-1652
▁عامر	-1653
▁تصاویر	-1654
▁فلسطینی	-1655
▁طی	-1656
▁مث	-1657
▁ٹو	-1658
▁گری	-1659
▁صلاح	-1660
▁مہنگای	-1661
▁انگ	-1662
▁ہورہ	-1663
▁مظاہ	-1664
▁داری	-1665
▁بخ	-1666
▁جمہوری	-1667
ڈا	-1668
▁اچ	-1669
▁یقین	-1670
سٹا	-1671
ویں	-1672
اہمی	-1673
عال	-1674
▁مسلسل	-1675
لام	-1676
مود	-1677
▁بیر	-1678
تح	-1679
اتذہ	-1680
تک	-1681
▁ایکٹ	-1682
طل	-1683
▁فان	-1684
▁تلاش	-1685
▁بز	-1686
▁کتاب	-1687
▁اندر	-1688
▁سانس	-1689
▁اگ	-1690
▁افغانستان	-1691
ستی	-1692
امیم	-1693
پریشن	-1694
▁رہنم	-1695
▁فٹ	-1696
▁باق	-1697
▁کوٹ	-1698
▁جعلی	-1699
▁یقینی	-1700
▁تنقید	-1701
خب	-1702
شد	-1703
قرار	-1704
▁علاوہ	-1705
مز	-1706
▁فو	-1707
▁طبی	-1708
▁واقعات	-1709
▁فنڈ	-1710
▁فیصد	-1711
▁ملازمین	-1712
▁نیب	-1713
▁غلط	-1714
▁معیشت	-1715
▁ایپ	-1716
▁سفر	-1717
▁اثر	-1718
▁شان	-1719
▁دعوی	-1720
ملزم	-1721
▁اقوام	-1722
▁مجموعی	-1723
بح	-1724
▁حمایت	-1725
▁ترامیم	-1726
▁رخ	-1727
▁جازہ	-1728
▁انتہای	-1729
▁تباد	-1730
▁معاہد	-1731
پختونخوا	-1732
خر	-1733
▁اکان	-1734
▁تبدیل	-1735
طور	-1736
▁توڑ	-1737
▁ذہ	-1738
مات	-1739
ندو	-1740
جنسی	-1741
رداری	-1742
▁آغاز	-1743
دای	-1744
عمران	-1745
▁معم	-1746
▁فیس	-1747
حی	-1748
ورز	-1749
سپ	-1750
▁قاد	-1751
▁خراب	-1752
▁موسمیات	-1753
▁انڈسٹری	-1754
▁خانہ	-1755
▁کیسز	-1756
▁اقبال	-1757
▁خواہ	-1758
▁بچی	-1759
سٹاگرام	-1760
▁پیغ	-1761
▁اساتذہ	-1762
ژن	-1763
▁پریشن	-1764
▁تقریباً	-1765
▁اتح	-1766
▁ارک	-1767
▁محمود	-1768
تھی	-1769
▁ناب	-1770
زاد	-1771
امری	-1772
▁ابھی	-1773
▁کھلاڑیوں	-1774
▁نمان	-1775
▁ساتھی	-1776
▁ملتوی	-1777
▁ارکان	-1778
▁جاسکتا	-1779
اسٹ	-1780
▁ابت	-1781
▁سایکل	-1782
▁یون	-1783
وانٹس	-1784
دتی	-1785
▁اش	-1786
▁سیکر	-1787
▁بہترین	-1788
▁صلاحیت	-1789
▁حر	-1790
▁مرکزی	-1791
▁مہم	-1792
▁اپیل	-1793
▁عوامی	-1794
مانہ	-1795
▁سروس	-1796
▁نشان	-1797
اداک	-1798
▁ساز	-1799
▁مخال	-1800
▁مغ	-1801
▁ٹھ	-1802
سوس	-1803
▁میل	-1804
▁ین	-1805
▁رکن	-1806
▁سڑک	-1807
▁منصوبہ	-1808
▁برقرار	-1809
▁پین	-1810
▁ڈپٹی	-1811
▁مداحوں	-1812
▁مسلمان	-1813
▁تربی	-1814
▁مانگ	-1815
▁زیادتی	-1816
تن	-1817
▁شعب	-1818
▁وف	-1819
ایگی	-1820
▁راج	-1821
▁بطور	-1822
نگی	-1823
▁ایشن	-1824
▁بینچ	-1825
وزیراع	-1826
▁سیٹ	-1827
▁کرو	-1828
قوامی	-1829
▁مقام	-1830
ندہ	-1831
▁طلبا	-1832
▁لڑکی	-1833
ڈنگ	-1834
▁جاوید	-1835
▁تفصیلات	-1836
▁چینی	-1837
▁گھنٹ	-1838
▁صاح	-1839
▁اچھ	-1840
ہو	-1841
▁نما	-1842
سیع	-1843
▁معاون	-1844
فتار	-1845
▁روس	-1846
دات	-1847
▁وک	-1848
▁ہار	-1849
عدالت	-1850
▁متاثرہ	-1851
▁باب	-1852
▁تیز	-1853
▁ماح	-1854
▁کران	-1855
حکام	-1856
▁قیا	-1857
اویز	-1858
▁پلان	-1859
▁اپوزیشن	-1860
▁ریس	-1861
▁جارہی	-1862
▁موت	-1863
رول	-1864
▁سری	-1865
الوجی	-1866
▁بھٹو	-1867
نسر	-1868
▁ورزی	-1869
▁تصویر	-1870
▁الاقوامی	-1871
▁آل	-1872
▁امور	-1873
کرد	-1874
▁پریس	-1875
▁نع	-1876
اکین	-1877
▁روڈ	-1878
▁ہدف	-1879
▁لیں	-1880
▁کشمیر	-1881
ریہ	-1882
کنالوجی	-1883
▁دلچ	-1884
▁اٹ	-1885
▁طویل	-1886
▁دعویٰ	-1887
دعا	-1888
قبل	-1889
نز	-1890
فٹ	-1891
▁ووٹ	-1892
اکرات	-1893
فکیشن	-1894
▁صن	-1895
▁حقی	-1896
▁معطل	-1897
▁گولی	-1898
▁اسلحہ	-1899
▁سیکرٹری	-1900
ایں	-1901
▁زور	-1902
▁عہد	-1903
ارک	-1904
▁ضل	-1905
گھنٹ	-1906
▁دفت	-1907
▁سیف	-1908
▁سول	-1909
▁مریض	-1910
▁موجودہ	-1911
▁نجی	-1912
▁حملوں	-1913
اند	-1914
▁ایوار	-1915
▁عرص	-1916
▁رابطہ	-1917
▁مشتمل	-1918
صف	-1919
▁بش	-1920
ماری	-1921
▁سہولت	-1922
▁سپ	-1923
▁سان	-1924
▁کپور	-1925
▁تعینات	-1926
▁فض	-1927
▁ٹک	-1928
▁غاز	-1929
▁ایسی	-1930
▁رہنماں	-1931
میشہ	-1932
▁اہلکاروں	-1933
▁واردات	-1934
اجی	-1935
ریفک	-1936
▁درجہ	-1937
ھوں	-1938
ملکت	-1939
▁چوری	-1940
▁یور	-1941
▁کیو	-1942
▁مان	-1943
▁ٹری	-1944
▁ہمراہ	-1945
▁اسپیکر	-1946
▁نامزد	-1947
تہ	-1948
ساب	-1949
کٹرک	-1950
وکٹ	-1951
پیس	-1952
▁سینٹر	-1953
▁تاکہ	-1954
▁کاروں	-1955
▁بھرپور	-1956
▁خیبرپختونخوا	-1957
اگر	-1958
یاب	-1959
کردگی	-1960
▁سوار	-1961
بیر	-1962
املہ	-1963
▁نشست	-1964
▁ٹیکنالوجی	-1965
▁تس	-1966
▁دینا	-1967
▁فروغ	-1968
دین	-1969
ہی	-1970
▁مب	-1971
▁ہمیشہ	-1972
▁استدعا	-1973
▁مذاکرات	-1974
▁اوپن	-1975
▁کارکردگی	-1976
اتا	-1977
▁سرگر	-1978
▁شریک	-1979
▁میچز	-1980
▁سوچ	-1981
▁خاندان	-1982
خواہ	-1983
▁بت	-1984
▁دفتر	-1985
▁سالہ	-1986
▁قری	-1987
▁لبنان	-1988
▁مالیت	-1989
وک	-1990
▁ممبی	-1991
▁ہوسکتا	-1992
▁فانل	-1993
▁پیغام	-1994
رس	-1995
▁صاحب	-1996
▁بنن	-1997
▁تولہ	-1998
خری	-1999
▁رض	-2000
▁تشوی	-2001
موں	-2002
ڈیم	-2003
عیت	-2004
▁استحکام	-2005
ونکہ	-2006
ابلہ	-2007
اگست	-2008
طن	-2009
التی	-2010
▁جدید	-2011
▁ڈاکو	-2012
▁بھیج	-2013
▁سیلاب	-2014
▁توجہ	-2015
▁اراکین	-2016
دو	-2017
فتہ	-2018
▁مرد	-2019
▁جلسہ	-2020
▁ڈرام	-2021
▁اسمگل	-2022
▁رح	-2023
▁راہ	-2024
▁چکی	-2025
▁زرداری	-2026
▁ٹرین	-2027
▁پرواز	-2028
منی	-2029
ڈالر	-2030
▁روکن	-2031
▁حکومتی	-2032
▁مضبو	-2033
▁معاملات	-2034
▁ہٹ	-2035
▁چیز	-2036
▁گردوں	-2037
▁تجویز	-2038
▁کرپشن	-2039
عت	-2040
▁فس	-2041
راست	-2042
▁ہیڈ	-2043
▁دش	-2044
▁اص	-2045
▁زبان	-2046
▁تیل	-2047
▁خام	-2048
▁تعمیر	-2049
▁تنظیم	-2050
▁صحافی	-2051
▁کیں	-2052
▁قسم	-2053
▁اسٹیٹ	-2054
▁پا	-2055
▁ٹریفک	-2056
▁متعلقہ	-2057
قین	-2058
▁لہ	-2059
▁مارچ	-2060
▁ابتدای	-2061
▁اگل	-2062
▁انٹرنیشنل	-2063
یادی	-2064
▁چیل	-2065
متی	-2066
▁ناز	-2067
▁ناق	-2068
▁تشکیل	-2069
▁مستقبل	-2070
مس	-2071
لادی	-2072
وروں	-2073
کرین	-2074
▁صبح	-2075
زن	-2076
▁کون	-2077
▁اشیا	-2078
▁ہندو	-2079
▁انگلینڈ	-2080
▁نوٹیفکیشن	-2081
شید	-2082
ڈین	-2083
▁اتھ	-2084
▁اول	-2085
▁ہوجا	-2086
▁بیماری	-2087
لوی	-2088
ٹرول	-2089
▁نج	-2090
▁منعق	-2091
▁وکلا	-2092
▁سامان	-2093
داری	-2094
▁مرح	-2095
▁جون	-2096
▁خوا	-2097
حان	-2098
▁کمر	-2099
▁فری	-2100
▁فواد	-2101
▁تیزی	-2102
▁ایونٹ	-2103
▁بیرسٹر	-2104
▁لگان	-2105
▁ادایگی	-2106
▁ڈکی	-2107
▁بلند	-2108
▁چیلنج	-2109
زل	-2110
قہ	-2111
غوا	-2112
▁بچن	-2113
▁صدی	-2114
▁نتیج	-2115
▁سربراہی	-2116
▁چکا	-2117
▁فارم	-2118
▁تاج	-2119
▁مشکلات	-2120
گار	-2121
▁جماعتوں	-2122
▁انسداد	-2123
▁دریا	-2124
انوی	-2125
▁مملکت	-2126
ینز	-2127
▁پورا	-2128
▁الیکٹرک	-2129
▁کنٹرول	-2130
▁لوٹ	-2131
▁مسلہ	-2132
▁روانہ	-2133
▁پہنچا	-2134
▁کمان	-2135
جز	-2136
▁قیام	-2137
▁سلام	-2138
▁کیونکہ	-2139
زاز	-2140
▁خوب	-2141
اسرای	-2142
ایوں	-2143
▁حیر	-2144
▁سیل	-2145
▁قید	-2146
▁میرا	-2147
▁تیاری	-2148
رکہ	-2149
ارٹی	-2150
▁آس	-2151
▁اہلیہ	-2152
▁مودی	-2153
▁بنیادی	-2154
فیہ	-2155
▁تھانہ	-2156
کپ	-2157
ضہ	-2158
▁پولی	-2159
▁شمار	-2160
▁مقابلہ	-2161
شاہ	-2162
اپور	-2163
▁سید	-2164
رت	-2165
▁انسٹاگرام	-2166
▁ٹرانس	-2167
▁درست	-2168
پریل	-2169
▁طاقت	-2170
▁کوٹہ	-2171
▁مبینہ	-2172
▁ایرانی	-2173
▁اسٹیڈیم	-2174
▁وفد	-2175
▁فورسز	-2176
سا	-2177
▁وہاں	-2178
▁وج	-2179
▁مزاح	-2180
▁مخصوص	-2181
▁آپریشن	-2182
▁بلی	-2183
▁رکھی	-2184
▁آسٹری	-2185
▁پختونخوا	-2186
▁تاح	-2187
ادر	-2188
کنگ	-2189
▁واپسی	-2190
▁جنا	-2191
▁لنکا	-2192
مح	-2193
تمی	-2194
▁ندہ	-2195
▁مشہور	-2196
انک	-2197
▁قاب	-2198
▁عمارت	-2199
بھارتی	-2200
▁کرکٹرز	-2201
▁مصنو	-2202
▁نیشنل	-2203
▁منتخب	-2204
▁رپورٹس	-2205
ونا	-2206
▁پلا	-2207
▁مضبوط	-2208
▁بابر	-2209
▁گھروں	-2210
▁کرنی	-2211
▁امداد	-2212
عام	-2213
▁بہن	-2214
▁اغوا	-2215
▁اعزاز	-2216
▁بلاول	-2217
▁خواہش	-2218
لوں	-2219
▁اعت	-2220
▁ہمارا	-2221
▁گول	-2222
▁ہویں	-2223
ڈول	-2224
یند	-2225
▁عدلیہ	-2226
▁بجٹ	-2227
▁چیت	-2228
اؤ	-2229
▁منگ	-2230
ارڈ	-2231
▁توان	-2232
▁کردہ	-2233
▁ادارہ	-2234
▁کمپنیوں	-2235
ظر	-2236
ھا	-2237
ارا	-2238
▁کافی	-2239
▁کھل	-2240
▁رنگ	-2241
▁حراست	-2242
▁ڈرای	-2243
▁آخری	-2244
اکی	-2245
▁وطن	-2246
▁عدالتی	-2247
▁ایکشن	-2248
میٹر	-2249
▁والدین	-2250
▁ججز	-2251
▁فادہ	-2252
▁عط	-2253
▁ڈار	-2254
دت	-2255
▁الزامات	-2256
ہرست	-2257
▁توانای	-2258
▁فریق	-2259
▁بہتری	-2260
▁خاص	-2261
▁سود	-2262
سابق	-2263
ڈیوز	-2264
▁غور	-2265
▁براہ	-2266
▁رکنی	-2267
▁یہاں	-2268
ادت	-2269
ؤں	-2270
فارم	-2271
▁ایج	-2272
▁اسٹیشن	-2273
▁تنخواہ	-2274
▁حج	-2275
▁شپ	-2276
▁نار	-2277
▁بحال	-2278
▁میڈی	-2279
چار	-2280
▁بدل	-2281
▁حرارت	-2282
اورت	-2283
بینک	-2284
▁پرویز	-2285
▁سینر	-2286
▁فراہمی	-2287
بچ	-2288
خط	-2289
جون	-2290
▁رکھت	-2291
▁اتفاق	-2292
▁سپر	-2293
ربی	-2294
یاز	-2295
▁وکٹ	-2296
▁متوقع	-2297
▁عی	-2298
▁خون	-2299
▁دان	-2300
▁چھوٹ	-2301
▁اکتوبر	-2302
▁ہاتھوں	-2303
ہری	-2304
▁مقب	-2305
▁مشترکہ	-2306
دیم	-2307
▁فتح	-2308
▁ریسکیو	-2309
▁معروف	-2310
پا	-2311
یرہ	-2312
▁پیچھ	-2313
امہ	-2314
▁زی	-2315
▁ہوج	-2316
▁فکیشن	-2317
▁مقت	-2318
▁بحالی	-2319
▁شیڈول	-2320
جب	-2321
▁ذاتی	-2322
▁معلومات	-2323
یابی	-2324
سط	-2325
▁عملی	-2326
▁محسن	-2327
گت	-2328
▁جنہ	-2329
▁چلا	-2330
▁معاملہ	-2331
▁ایش	-2332
عید	-2333
▁قبول	-2334
▁مشاورت	-2335
▁کوہ	-2336
حکم	-2337
وزی	-2338
▁فور	-2339
▁مند	-2340
▁خواب	-2341
▁ایوارڈ	-2342
ریری	-2343
▁لیڈر	-2344
▁انسان	-2345
▁سینیٹ	-2346
امن	-2347
ملک	-2348
مپن	-2349
▁تناز	-2350
▁رانا	-2351
▁کینسر	-2352
▁بنگلادی	-2353
▁بنای	-2354
▁ہوسکتی	-2355
▁انتق	-2356
ڈیا	-2357
▁نص	-2358
▁موقف	-2359
▁بھاری	-2360
▁تقسیم	-2361
نیکی	-2362
▁تیس	-2363
▁نعی	-2364
▁چھاپ	-2365
▁روشنی	-2366
▁برطانیہ	-2367
▁جذ	-2368
▁منی	-2369
▁تاحال	-2370
▁اتھارٹی	-2371
انت	-2372
واز	-2373
سٹک	-2374
▁دنوں	-2375
▁جانی	-2376
▁انکار	-2377
▁کیریر	-2378
▁فلسطین	-2379
▁گلوکار	-2380
▁نوجوانوں	-2381
لر	-2382
▁الحق	-2383
▁مذمت	-2384
▁اقدام	-2385
▁سکیں	-2386
▁خال	-2387
▁مشیر	-2388
ادری	-2389
ادیا	-2390
▁پڑا	-2391
▁کوچ	-2392
جولای	-2393
▁اعتر	-2394
▁لکھا	-2395
▁حیدر	-2396
▁دوسرا	-2397
▁دعو	-2398
▁دھر	-2399
لاہور	-2400
▁اختر	-2401
▁خدمات	-2402
▁بیوی	-2403
▁مسجد	-2404
▁پارلی	-2405
▁گنڈاپور	-2406
▁یکم	-2407
▁مبار	-2408
▁کررہی	-2409
اسلام	-2410
▁تجرب	-2411
▁میٹر	-2412
▁آیں	-2413
▁قد	-2414
▁محبت	-2415
▁ٹرمپ	-2416
وق	-2417
▁والدہ	-2418
رم	-2419
روم	-2420
بتلا	-2421
▁ستمبر	-2422
▁شاہین	-2423
▁مبتلا	-2424
▁مفاد	-2425
▁مبارک	-2426
▁تبادلہ	-2427
▁کاروبار	-2428
▁خوف	-2429
▁انھوں	-2430
▁ایرپورٹ	-2431
وت	-2432
▁ماں	-2433
▁حماس	-2434
▁مثبت	-2435
▁شوٹ	-2436
▁تل	-2437
▁افت	-2438
▁شام	-2439
▁نعیم	-2440
سف	-2441
▁عز	-2442
ٹک	-2443
نگزیب	-2444
▁پیداش	-2445
ٹیکل	-2446
▁برد	-2447
▁کشی	-2448
▁مخالف	-2449
لیل	-2450
▁گن	-2451
لسلہ	-2452
▁سیشن	-2453
▁شاہد	-2454
▁چھین	-2455
قان	-2456
▁حفاظ	-2457
▁جمہوریت	-2458
▁ہوکر	-2459
▁بڑھان	-2460
▁پولیو	-2461
▁سالانہ	-2462
دونوں	-2463
▁جانا	-2464
▁لوڈ	-2465
▁نقو	-2466
▁حتمی	-2467
▁توسیع	-2468
▁کہانی	-2469
ثیت	-2470
اہدہ	-2471
وزیراعظم	-2472
▁ٹان	-2473
▁پاور	-2474
▁اثرات	-2475
▁اورنگزیب	-2476
▁رہاشی	-2477
▁انھیں	-2478
فلم	-2479
▁سلی	-2480
▁نسل	-2481
▁بحران	-2482
▁اعتراف	-2483
برس	-2484
▁خور	-2485
▁کھڑ	-2486
▁اینٹی	-2487
▁سلسلہ	-2488
▁ایسوسی	-2489
▁پُ	-2490
▁متع	-2491
▁کرسکت	-2492
▁ٹین	-2493
▁خطرہ	-2494
▁درمد	-2495
▁انتخابی	-2496
دس	-2497
ستہ	-2498
▁خواجہ	-2499
▁میڈیکل	-2500
▁تہ	-2501
▁عید	-2502
▁واس	-2503
▁بیرون	-2504
جس	-2505
عدم	-2506
▁سکھ	-2507
▁ضلع	-2508
▁فاز	-2509
▁نصر	-2510
▁اخراج	-2511
ساس	-2512
▁محق	-2513
▁یافتہ	-2514
ویژن	-2515
▁سفیر	-2516
▁ڈیٹا	-2517
▁ٹرافی	-2518
▁سلامتی	-2519
ظمی	-2520
▁سرد	-2521
▁بڑھا	-2522
▁کورونا	-2523
▁عرف	-2524
▁لگایا	-2525
▁بیگ	-2526
▁مدت	-2527
▁ایشیا	-2528
▁حالیہ	-2529
▁چیمپن	-2530
▁گاڑیوں	-2531
▁دستاویز	-2532
رونی	-2533
▁جرم	-2534
▁انجام	-2535
▁میزال	-2536
اڑ	-2537
▁اُنہ	-2538
▁مسلح	-2539
▁کرنسی	-2540
▁مرتبہ	-2541
▁ٹیک	-2542
▁شاندار	-2543
▁ترجی	-2544
▁منعقد	-2545
حاق	-2546
ونیو	-2547
راعظم	-2548
▁وصول	-2549
ارات	-2550
▁روسی	-2551
یز	-2552
روت	-2553
ینہ	-2554
ڈیشل	-2555
▁میاں	-2556
▁مقتول	-2557
ملی	-2558
▁بٹ	-2559
▁اُس	-2560
▁وزرا	-2561
شان	-2562
▁وس	-2563
صادی	-2564
الیکشن	-2565
▁چاہتا	-2566
▁سینیٹر	-2567
▁ریلیف	-2568
▁پوزیشن	-2569
پان	-2570
▁لگن	-2571
▁کھان	-2572
▁کردیں	-2573
▁معاونت	-2574
▁طب	-2575
▁قط	-2576
زخمی	-2577
▁نقوی	-2578
▁تربیت	-2579
نت	-2580
دیا	-2581
ولیات	-2582
ندن	-2583
کرم	-2584
▁بان	-2585
▁پلیٹ	-2586
▁دھمکی	-2587
▁کروان	-2588
▁ڈان	-2589
▁خدشہ	-2590
▁ذخار	-2591
▁ممبر	-2592
▁یونٹ	-2593
غی	-2594
▁ماحول	-2595
▁اسکرین	-2596
ملکی	-2597
▁ثنا	-2598
▁جار	-2599
▁تکنیکی	-2600
ذیر	-2601
میل	-2602
▁فیڈ	-2603
▁بلاک	-2604
▁ذہنی	-2605
▁سازی	-2606
▁یوکرین	-2607
▁ول	-2608
▁ریفرنس	-2609
▁خفیہ	-2610
▁نماز	-2611
▁ڈویژن	-2612
یلی	-2613
▁ران	-2614
▁ایڈی	-2615
مانڈ	-2616
▁عباسی	-2617
▁رضا	-2618
▁گران	-2619
راف	-2620
ٹنگ	-2621
ثمان	-2622
▁افو	-2623
▁دبا	-2624
▁انٹرو	-2625
ولیت	-2626
▁جھوٹ	-2627
▁فہرست	-2628
▁عہ	-2629
▁کرچ	-2630
▁حافظ	-2631
▁سعید	-2632
▁رمی	-2633
▁فران	-2634
▁آب	-2635
▁اوور	-2636
▁سٹی	-2637
▁دکان	-2638
▁شہروں	-2639
▁پرفارم	-2640
▁پلی	-2641
بھارت	-2642
▁کرام	-2643
▁کسٹم	-2644
کاوٹ	-2645
▁صدیقی	-2646
ریت	-2647
▁ٹاپ	-2648
▁چیمپ	-2649
▁کارڈ	-2650
▁کہیں	-2651
▁ورلڈکپ	-2652
▁کارکنوں	-2653
ثا	-2654
جاز	-2655
میری	-2656
فس	-2657
▁شدت	-2658
▁دیتا	-2659
▁جولای	-2660
▁صدارت	-2661
▁ویڈیوز	-2662
اہی	-2663
▁چا	-2664
ٹیلی	-2665
▁گرام	-2666
▁عالیہ	-2667
▁کیساتھ	-2668
▁اقتصادی	-2669
بانی	-2670
مارچ	-2671
▁قاضی	-2672
▁ملاز	-2673
▁ایجنسی	-2674
▁طریقہ	-2675
▁شب	-2676
▁اکانٹ	-2677
▁دارال	-2678
▁مقامات	-2679
▁دما	-2680
▁لگی	-2681
▁بولر	-2682
▁مالک	-2683
اداکارہ	-2684
▁عیسی	-2685
▁اہمیت	-2686
▁فضای	-2687
وجھ	-2688
ڈاک	-2689
▁غذ	-2690
▁ضرور	-2691
▁رجسٹر	-2692
عقاد	-2693
▁پڑھ	-2694
▁ریلو	-2695
▁کالعدم	-2696
▁مظاہرین	-2697
وف	-2698
ینڈ	-2699
▁ہوس	-2700
▁ٹیموں	-2701
▁پل	-2702
▁بریف	-2703
▁نامعلوم	-2704
صوب	-2705
▁الگ	-2706
▁تھان	-2707
▁فاسٹ	-2708
▁ٹرال	-2709
▁بو	-2710
▁تقر	-2711
بور	-2712
اللہ	-2713
▁دیش	-2714
▁ناف	-2715
▁یوسف	-2716
▁صدارتی	-2717
▁محققین	-2718
سوخ	-2719
▁بزنس	-2720
▁انعقاد	-2721
▁سنج	-2722
▁بازی	-2723
▁تحریری	-2724
▁اون	-2725
▁عباس	-2726
▁معمولی	-2727
ایڈن	-2728
▁ایوان	-2729
▁اصل	-2730
▁تاخ	-2731
▁اطلاق	-2732
▁میدان	-2733
▁نگراں	-2734
▁مستحکم	-2735
▁قابو	-2736
▁کرای	-2737
▁تم	-2738
▁تار	-2739
▁ماڈ	-2740
ویٹ	-2741
▁ہنگ	-2742
▁ماضی	-2743
▁برو	-2744
▁بشری	-2745
▁آندہ	-2746
▁ٹھی	-2747
ڈرز	-2748
▁عطا	-2749
▁انٹرنیٹ	-2750
ڈیکس	-2751
▁سرح	-2752
▁مبنی	-2753
▁عثمان	-2754
▁دستیاب	-2755
▁الح	-2756
▁اضافی	-2757
▁آٹ	-2758
▁لیاقت	-2759
▁طالبان	-2760
▁قرارداد	-2761
گان	-2762
▁پکڑ	-2763
▁مرکز	-2764
▁دلچسپ	-2765
▁جوڈیشل	-2766
▁توقع	-2767
▁رکاوٹ	-2768
وکٹوں	-2769
▁فلموں	-2770
▁ممکنہ	-2771
یٰ	-2772
زان	-2773
مارکس	-2774
▁احتساب	-2775
▁اعتراض	-2776
▁بریفنگ	-2777
پارٹی	-2778
▁تیسر	-2779
▁حیثیت	-2780
▁حیران	-2781
▁مثر	-2782
▁گزر	-2783
▁جہاز	-2784
▁غلطی	-2785
▁دریافت	-2786
وپ	-2787
چا	-2788
کشی	-2789
▁تخ	-2790
▁دیکھن	-2791
▁سرگرمی	-2792
ورنام	-2793
▁آین	-2794
▁خوشی	-2795
▁مقبول	-2796
▁مسلمانوں	-2797
▁نس	-2798
دعمل	-2799
▁نیٹ	-2800
▁پوچھ	-2801
▁حکمران	-2802
بوت	-2803
زیز	-2804
▁جوڑ	-2805
▁ہیر	-2806
▁موصول	-2807
▁پراسی	-2808
▁اختت	-2809
▁زمان	-2810
▁ردعمل	-2811
▁قل	-2812
وانین	-2813
▁قوانین	-2814
▁مطل	-2815
▁جناح	-2816
▁کھول	-2817
▁تسلیم	-2818
▁ملتان	-2819
▁ناقابل	-2820
▁بم	-2821
▁منظر	-2822
▁پایا	-2823
▁ٹوٹ	-2824
▁بوجھ	-2825
▁اتحاد	-2826
▁جسمانی	-2827
الہ	-2828
▁یک	-2829
▁رشید	-2830
▁ہزاروں	-2831
واں	-2832
▁اقتدار	-2833
▁برطانوی	-2834
اکس	-2835
دوں	-2836
▁الہ	-2837
▁ٹکٹ	-2838
▁کمز	-2839
▁نافذ	-2840
▁شہادت	-2841
▁انٹرویو	-2842
چین	-2843
▁گرو	-2844
▁تینوں	-2845
▁شوٹنگ	-2846
▁متعارف	-2847
▁ریمارکس	-2848
ادلہ	-2849
رناک	-2850
▁کروں	-2851
مبادلہ	-2852
▁محروم	-2853
▁انتقال	-2854
▁جرمانہ	-2855
▁ہونی	-2856
▁اسحاق	-2857
▁ڈیوٹی	-2858
▁مظاہرہ	-2859
▁کاروباری	-2860
▁کارروایوں	-2861
زر	-2862
▁دبی	-2863
▁اگست	-2864
▁اصلاح	-2865
▁بارشوں	-2866
ارش	-2867
▁دہانی	-2868
ریشن	-2869
ڈگری	-2870
▁شخصیات	-2871
طان	-2872
▁رون	-2873
▁لندن	-2874
▁ہفتہ	-2875
اصل	-2876
ایف	-2877
روں	-2878
نوں	-2879
ایتی	-2880
کواری	-2881
▁بابراعظم	-2882
چہ	-2883
ہین	-2884
▁سنی	-2885
ضاحت	-2886
▁خطر	-2887
▁اعجاز	-2888
▁دارالحکومت	-2889
میٹ	-2890
▁گلی	-2891
▁کرایا	-2892
فروری	-2893
▁الدین	-2894
▁مزاحمت	-2895
▁کامران	-2896
▁ٹام	-2897
▁افریق	-2898
▁بخاری	-2899
▁وضاحت	-2900
▁بگ	-2901
ونٹی	-2902
▁حکمت	-2903
آی	-2904
زادی	-2905
▁سنا	-2906
▁اضلاع	-2907
▁توہین	-2908
▁منسوخ	-2909
لک	-2910
گزشتہ	-2911
▁کمار	-2912
سیا	-2913
▁طیار	-2914
لیف	-2915
▁دشمن	-2916
▁بای	-2917
▁گریڈ	-2918
▁تشویش	-2919
▁اخراجات	-2920
اہل	-2921
کاروں	-2922
▁سیکٹر	-2923
▁مصروف	-2924
▁ڈکیتی	-2925
ورنامنٹ	-2926
▁منصوبوں	-2927
▁دستخط	-2928
▁ڈرایور	-2929
▁بک	-2930
▁پروسی	-2931
▁بنانا	-2932
▁گان	-2933
▁اچھی	-2934
پوانٹس	-2935
▁محسوس	-2936
▁بنگلادیش	-2937
▁نیپ	-2938
ریکٹس	-2939
▁آمد	-2940
▁جنس	-2941
▁پچھ	-2942
▁جنسی	-2943
▁کیمپ	-2944
▁کررہا	-2945
پاکستانی	-2946
▁تعیناتی	-2947
ارق	-2948
▁اسکی	-2949
▁ماڈل	-2950
امریکی	-2951
▁سفارت	-2952
▁آسٹریلیا	-2953
اشت	-2954
رانی	-2955
▁اشتہ	-2956
▁اٹھا	-2957
ینگ	-2958
▁اکرم	-2959
▁سہولیات	-2960
▁اسد	-2961
▁عزم	-2962
▁کول	-2963
▁تجارت	-2964
▁پوانٹس	-2965
اقب	-2966
شتر	-2967
جمنٹ	-2968
ریدی	-2969
▁بلد	-2970
▁خارج	-2971
▁ملازمت	-2972
▁تنا	-2973
قیاتی	-2974
▁کینی	-2975
▁تاخیر	-2976
اعیل	-2977
▁پای	-2978
▁چوک	-2979
▁یہی	-2980
▁اچھا	-2981
▁ہوچک	-2982
▁آصف	-2983
▁ہتھی	-2984
▁ٹیمیں	-2985
▁انکواری	-2986
▁جوان	-2987
▁ویمن	-2988
▁خودکشی	-2989
▁مراد	-2990
▁سفارش	-2991
▁اسکواڈ	-2992
▁کارکنان	-2993
فید	-2994
ینوں	-2995
▁مشر	-2996
اقین	-2997
▁باج	-2998
▁ہراس	-2999
▁کھیلن	-3000
▁ریمانڈ	-3001
▁آفریدی	-3002
▁کہہ	-3003
▁حقیقی	-3004
▁برادری	-3005
▁موجودگی	-3006
گرد	-3007
سندھ	-3008
▁غریب	-3009
▁شکایت	-3010
▁خطرناک	-3011
▁جسم	-3012
▁تارڑ	-3013
▁طالب	-3014
▁گوہر	-3015
▁فاروق	-3016
▁مسافروں	-3017
رگ	-3018
چیف	-3019
▁ترجیح	-3020
▁ماہانہ	-3021
▁چال	-3022
▁گرین	-3023
▁سماجی	-3024
▁قریشی	-3025
▁جای	-3026
▁نور	-3027
▁رکھتا	-3028
▁عیسیٰ	-3029
▁پریکٹس	-3030
سیل	-3031
▁بھٹ	-3032
▁سازش	-3033
مش	-3034
پتا	-3035
ٹیبل	-3036
▁اتحادی	-3037
▁پاسپورٹ	-3038
پس	-3039
اسک	-3040
▁آت	-3041
▁روی	-3042
▁بیٹر	-3043
▁حمزہ	-3044
▁اسٹری	-3045
▁ذم	-3046
▁چلن	-3047
▁پہنچن	-3048
▁معاہدہ	-3049
▁کلومیٹر	-3050
عود	-3051
▁رن	-3052
▁زادی	-3053
▁چاند	-3054
▁ڈالرز	-3055
▁عدالتوں	-3056
▁لاس	-3057
▁ویر	-3058
▁شواہد	-3059
بلک	-3060
ڑیاں	-3061
▁سیکھ	-3062
▁لگتا	-3063
▁وجوہ	-3064
▁لاکھوں	-3065
▁حیات	-3066
▁فیچر	-3067
▁مجبور	-3068
▁چاہتی	-3069
سپی	-3070
▁ریڈ	-3071
گرفتار	-3072
▁راستہ	-3073
▁مغربی	-3074
▁فریقین	-3075
آمد	-3076
▁جرام	-3077
▁عالم	-3078
▁بیٹنگ	-3079
▁سنگین	-3080
▁فلسطینیوں	-3081
▁چڑھ	-3082
پنجاب	-3083
▁اسمگلنگ	-3084
▁دستاویزات	-3085
▁نوٹ	-3086
▁جارح	-3087
▁کالج	-3088
ختی	-3089
▁شکل	-3090
▁پول	-3091
▁فنڈز	-3092
▁شعبوں	-3093
▁معافی	-3094
فیٰ	-3095
ریلو	-3096
ونلڈ	-3097
سٹرکٹ	-3098
▁زندہ	-3099
▁برابر	-3100
جان	-3101
▁وق	-3102
▁پھین	-3103
▁معاشر	-3104
پرو	-3105
قومی	-3106
▁باقی	-3107
▁بڑھن	-3108
خواتین	-3109
▁ترقیاتی	-3110
سکیں	-3111
▁مقف	-3112
▁کھیلا	-3113
ویس	-3114
دایات	-3115
مری	-3116
گیا	-3117
ایکس	-3118
نومبر	-3119
▁غلام	-3120
▁رفتار	-3121
▁سمندر	-3122
▁برداشت	-3123
دود	-3124
▁نیوی	-3125
▁اسماعیل	-3126
▁انٹربینک	-3127
غذ	-3128
وبز	-3129
ہمار	-3130
▁منہ	-3131
▁ہورہی	-3132
ضان	-3133
ینر	-3134
▁درو	-3135
اپریل	-3136
▁سڑکوں	-3137
▁شمالی	-3138
▁وجوہات	-3139
افت	-3140
▁پیداوار	-3141
رآ	-3142
▁ٹاک	-3143
▁دیتی	-3144
▁مقدار	-3145
▁اعلامیہ	-3146
ورو	-3147
▁رکھیں	-3148
▁مہمان	-3149
▁مریضوں	-3150
▁کرسکتا	-3151
راط	-3152
▁شار	-3153
▁لیت	-3154
▁مہارت	-3155
▁وڈ	-3156
▁کرل	-3157
▁جامع	-3158
▁رضوان	-3159
▁نشستوں	-3160
دہی	-3161
▁محض	-3162
▁بچان	-3163
▁ہدایات	-3164
▁مصنوعات	-3165
▁خرچ	-3166
▁خیر	-3167
▁سیزن	-3168
▁طارق	-3169
▁طلبہ	-3170
▁تنازع	-3171
▁دیدیا	-3172
▁زخمیوں	-3173
▁نمایاں	-3174
انٹر	-3175
▁حدود	-3176
▁نامہ	-3177
▁جت	-3178
▁سنبھ	-3179
▁ڈیجی	-3180
▁تاریخی	-3181
▁عزت	-3182
▁ندیم	-3183
▁انٹیلی	-3184
ڑت	-3185
فراز	-3186
▁ایگ	-3187
ٹرولیم	-3188
▁شف	-3189
مقد	-3190
▁رش	-3191
ٹمنٹ	-3192
▁سلیم	-3193
▁جین	-3194
▁بران	-3195
▁جوہر	-3196
▁رسای	-3197
▁ٹھیک	-3198
▁پرای	-3199
حل	-3200
▁باپ	-3201
▁کنگ	-3202
گن	-3203
نڈا	-3204
واس	-3205
▁نیوزی	-3206
▁تجارتی	-3207
الم	-3208
▁مچ	-3209
▁ڈین	-3210
▁ارشد	-3211
▁جیسی	-3212
کھی	-3213
▁دا	-3214
▁یں	-3215
سایکل	-3216
▁خاتم	-3217
▁گنڈا	-3218
▁سرگرمیوں	-3219
▁قص	-3220
فیسر	-3221
▁بیل	-3222
▁وزیراعلی	-3223
بن	-3224
اوز	-3225
▁پت	-3226
رینہ	-3227
▁منفی	-3228
▁خطرات	-3229
فوٹوفال	-3230
▁ٹورنامنٹ	-3231
فری	-3232
▁ہل	-3233
▁حامل	-3234
▁عظمی	-3235
▁یوٹی	-3236
▁آواز	-3237
▁اُنہوں	-3238
▁بنیادوں	-3239
ادم	-3240
تماع	-3241
▁کلب	-3242
▁دعوت	-3243
▁پراسیکیو	-3244
▁اچانک	-3245
▁معمول	-3246
نام	-3247
جنوری	-3248
▁قیدی	-3249
▁سکیورٹی	-3250
شا	-3251
تری	-3252
ڈیالہ	-3253
سان	-3254
▁روکا	-3255
▁طلاق	-3256
▁اصلاحات	-3257
▁پناہ	-3258
▁اتوار	-3259
▁بنایں	-3260
▁حقیقت	-3261
شریف	-3262
▁لیج	-3263
دسمبر	-3264
▁عارف	-3265
قانونی	-3266
▁کمزور	-3267
▁اختتام	-3268
▁لڑک	-3269
▁مرحل	-3270
▁سردار	-3271
▁شاقین	-3272
▁اڈیالہ	-3273
جنگ	-3274
▁ثبوت	-3275
▁ریاض	-3276
▁شوبز	-3277
▁پبلک	-3278
▁امتحان	-3279
احد	-3280
اید	-3281
دہشت	-3282
▁بمب	-3283
▁سرچ	-3284
▁خالی	-3285
▁تجاوز	-3286
▁ڈاکوں	-3287
▁نشاندہی	-3288
▁جد	-3289
دادی	-3290
▁ڈسٹرکٹ	-3291
ازی	-3292
▁کچ	-3293
▁چیک	-3294
▁کہت	-3295
▁خالد	-3296
▁خوبص	-3297
▁شعیب	-3298
▁ایگزی	-3299
▁مختصر	-3300
▁اجتماع	-3301
▁تفصیلی	-3302
▁متاثرین	-3303
خی	-3304
ڈن	-3305
بوضہ	-3306
▁مزد	-3307
▁آرہ	-3308
▁پارک	-3309
▁کاغذ	-3310
▁افتتا	-3311
▁شہزاد	-3312
ودی	-3313
▁سست	-3314
▁رکھتی	-3315
اتر	-3316
ڈیز	-3317
▁سکی	-3318
▁گند	-3319
▁ساڑھ	-3320
▁عظیم	-3321
▁سرکار	-3322
▁فیملی	-3323
▁مطلوب	-3324
▁رہاش	-3325
▁سلسل	-3326
▁کہاں	-3327
▁سار	-3328
▁بایک	-3329
▁درآمد	-3330
▁بلدیاتی	-3331
پل	-3332
ارنی	-3333
شمنٹ	-3334
▁دفعہ	-3335
▁ٹیلی	-3336
▁زرمبادلہ	-3337
▁بچہ	-3338
▁چان	-3339
عالمی	-3340
▁دیدی	-3341
▁امارات	-3342
▁ثق	-3343
▁فخر	-3344
▁نعر	-3345
▁مستقل	-3346
ڈو	-3347
کچر	-3348
▁سنای	-3349
▁کمانڈر	-3350
کوک	-3351
ڈیننس	-3352
ابھ	-3353
زیہ	-3354
کورہ	-3355
▁سرا	-3356
▁پیک	-3357
▁دلال	-3358
▁علیح	-3359
▁واحد	-3360
▁احک	-3361
وفاقی	-3362
▁سراہ	-3363
▁انعام	-3364
▁پیٹرول	-3365
▁دم	-3366
▁واٹ	-3367
▁حصول	-3368
▁لیٹر	-3369
▁چانس	-3370
▁پارلیمانی	-3371
جری	-3372
▁اتنی	-3373
▁اسکور	-3374
▁تعریف	-3375
▁رہای	-3376
▁عزیز	-3377
▁دسمبر	-3378
▁پروجی	-3379
فع	-3380
واقع	-3381
▁ترک	-3382
▁دیر	-3383
▁لسٹ	-3384
▁جنہیں	-3385
▁مشورہ	-3386
▁غیرملکی	-3387
ابی	-3388
▁حلف	-3389
▁رفت	-3390
▁مشن	-3391
▁وزن	-3392
▁وقف	-3393
▁مانی	-3394
▁کاسٹ	-3395
▁ہاکی	-3396
▁بشریٰ	-3397
▁کریم	-3398
▁تحریر	-3399
ُن	-3400
کرز	-3401
ڈیشن	-3402
▁اکث	-3403
▁فرد	-3404
▁فوٹی	-3405
▁کوریا	-3406
اسرایلی	-3407
▁احترام	-3408
یرا	-3409
کارہ	-3410
▁شفاف	-3411
اداکار	-3412
▁آگیا	-3413
پہ	-3414
▁ڈو	-3415
▁مای	-3416
▁وسطی	-3417
▁احکامات	-3418
▁چیمپینز	-3419
ونگ	-3420
▁مشین	-3421
▁الفاظ	-3422
▁خیز	-3423
▁عاص	-3424
▁گرن	-3425
▁اولمپ	-3426
▁قیمتی	-3427
▁یورپی	-3428
▁پرفارمنس	-3429
▁پیشہ	-3430
امریکا	-3431
▁دکھای	-3432
▁معیار	-3433
▁کوہلی	-3434
▁صحافیوں	-3435
▁دب	-3436
ناصر	-3437
▁محنت	-3438
▁اننگز	-3439
▁ترسیل	-3440
▁اسپیشل	-3441
▁آزادی	-3442
نچ	-3443
تحقی	-3444
کڑوں	-3445
▁نشر	-3446
▁انور	-3447
گھنٹوں	-3448
▁حفاظت	-3449
▁فالفوٹو	-3450
دل	-3451
▁نیچ	-3452
▁ڈوب	-3453
▁شمولیت	-3454
▁انق	-3455
▁منیر	-3456
▁تقرری	-3457
▁جنوری	-3458
جیل	-3459
▁سکا	-3460
▁لات	-3461
▁ہیل	-3462
▁ایڈو	-3463
▁خرید	-3464
▁میمن	-3465
▁ڈونلڈ	-3466
▁روایتی	-3467
سوشل	-3468
ندوں	-3469
▁پال	-3470
▁ہول	-3471
اوورز	-3472
▁انسپ	-3473
▁رانڈر	-3474
▁یونین	-3475
▁اختلاف	-3476
▁ریونیو	-3477
▁پیپلزپارٹی	-3478
رکنی	-3479
شہری	-3480
▁پتہ	-3481
▁گیر	-3482
▁علوی	-3483
▁وسال	-3484
▁کانس	-3485
▁نماندگی	-3486
اڑی	-3487
مخت	-3488
▁رم	-3489
▁رہت	-3490
▁باتیں	-3491
▁سرفراز	-3492
▁حاض	-3493
▁قات	-3494
▁ٹرک	-3495
▁یوم	-3496
▁آرمی	-3497
کوٹ	-3498
▁قدم	-3499
▁اعلی	-3500
▁سیاح	-3501
▁گرمی	-3502
▁ہوٹل	-3503
▁مدعیت	-3504
▁ایڈیشنل	-3505
▁مینجمنٹ	-3506
سپریم	-3507
▁آگی	-3508
ٹم	-3509
▁وص	-3510
▁ورک	-3511
▁پرت	-3512
▁اشرف	-3513
▁یاہو	-3514
▁دانوں	-3515
▁کالونی	-3516
گردی	-3517
▁نان	-3518
اسرایل	-3519
▁بروقت	-3520
▁ریاستی	-3521
▁طرز	-3522
▁ہاں	-3523
▁فونز	-3524
▁قریبی	-3525
▁قیمتیں	-3526
گلش	-3527
▁خس	-3528
وجہد	-3529
▁سرو	-3530
▁لای	-3531
▁ولد	-3532
▁فیلڈ	-3533
▁محدود	-3534
▁نگرانی	-3535
▁کانسٹیبل	-3536
فرت	-3537
▁ملز	-3538
▁امیدواروں	-3539
▁موٹرسایکل	-3540
▁وہی	-3541
▁دہلی	-3542
▁آزاد	-3543
▁لاپتا	-3544
▁مالیاتی	-3545
▁جھگ	-3546
▁نصب	-3547
▁کاپ	-3548
▁شہرت	-3549
▁عاصم	-3550
▁کیمر	-3551
▁دلچسپی	-3552
سندی	-3553
▁رنز	-3554
▁زلز	-3555
▁گرم	-3556
▁اعداد	-3557
▁تکلیف	-3558
▁اکانٹس	-3559
▁خلی	-3560
▁دیو	-3561
▁معذ	-3562
▁پیز	-3563
▁مداخ	-3564
▁شکریہ	-3565
▁اٹارنی	-3566
ایس	-3567
دانوں	-3568
▁سلطان	-3569
▁علاقہ	-3570
▁جدوجہد	-3571
▁ٹن	-3572
▁ابراہ	-3573
▁افسوس	-3574
▁کسٹمز	-3575
▁بمباری	-3576
ادق	-3577
وزہ	-3578
▁بخش	-3579
▁واج	-3580
▁تھام	-3581
▁راجہ	-3582
▁امراض	-3583
▁تیسری	-3584
▁مناسب	-3585
اعدہ	-3586
▁فرق	-3587
▁مصط	-3588
▁ٹار	-3589
▁چلان	-3590
▁ڈرون	-3591
▁تباہی	-3592
▁ہورہا	-3593
▁تفتیشی	-3594
▁سوالات	-3595
▁شاہراہ	-3596
▁مذکورہ	-3597
▁جذب	-3598
خارجہ	-3599
▁موسی	-3600
▁انڈین	-3601
▁عناصر	-3602
▁نومبر	-3603
▁احسن	-3604
▁ترکی	-3605
▁گارڈ	-3606
▁عہدید	-3607
▁فروری	-3608
▁مداخلت	-3609
شک	-3610
▁قمر	-3611
▁اکثر	-3612
▁تازہ	-3613
▁سرحد	-3614
▁حادثہ	-3615
▁نکالن	-3616
▁پیشکش	-3617
▁ہوچکا	-3618
ایم	-3619
مول	-3620
پیش	-3621
ترین	-3622
▁رکھنا	-3623
▁کمرشل	-3624
▁ڈس	-3625
▁رینج	-3626
▁بنگلہ	-3627
پیکا	-3628
▁ایوب	-3629
▁راشد	-3630
▁کلاس	-3631
▁ہلاکت	-3632
ایکسپریس	-3633
ستول	-3634
▁بیس	-3635
▁علما	-3636
▁کرلیں	-3637
▁سینٹرل	-3638
▁کروایا	-3639
▁گھریلو	-3640
▁اِ	-3641
ولین	-3642
کٹری	-3643
▁سوی	-3644
▁ٹوٹر	-3645
▁اسٹاف	-3646
▁امدادی	-3647
بلی	-3648
▁سبس	-3649
▁بلیک	-3650
▁سابر	-3651
▁فعال	-3652
▁انسپکٹر	-3653
▁اختیارات	-3654
لابی	-3655
▁ماس	-3656
▁چھپ	-3657
▁آفس	-3658
▁روزہ	-3659
▁چاندی	-3660
حص	-3661
▁چم	-3662
▁ایمر	-3663
میچ	-3664
▁سچ	-3665
مالی	-3666
▁بدھ	-3667
▁بنی	-3668
▁دعا	-3669
▁واز	-3670
▁اسٹر	-3671
▁نیویارک	-3672
برد	-3673
▁روب	-3674
▁چور	-3675
▁آور	-3676
▁وسیم	-3677
▁گندم	-3678
▁منصور	-3679
▁خریداری	-3680
ثاث	-3681
▁زین	-3682
▁گار	-3683
▁لینا	-3684
▁پھیل	-3685
▁گروہ	-3686
▁حاضری	-3687
▁انتظار	-3688
▁ابراہیم	-3689
▁رف	-3690
▁روم	-3691
▁سور	-3692
▁میک	-3693
▁نیتن	-3694
چیرمین	-3695
▁بھیجا	-3696
شنگ	-3697
فیق	-3698
ننگ	-3699
ابطہ	-3700
▁پٹی	-3701
▁سونا	-3702
▁میگا	-3703
▁پھنس	-3704
▁چاہیں	-3705
▁پروسیجر	-3706
▁قطر	-3707
▁وقو	-3708
▁صنعت	-3709
▁سنبھال	-3710
ویات	-3711
▁ہوم	-3712
زبانی	-3713
▁باکس	-3714
▁مقبوضہ	-3715
مٰ	-3716
نڈر	-3717
▁کامی	-3718
▁بناکر	-3719
▁مسعود	-3720
▁دھماکا	-3721
▁ساتھیوں	-3722
ضو	-3723
▁اتنا	-3724
▁انتہا	-3725
▁باہمی	-3726
مٰن	-3727
▁نر	-3728
▁بچا	-3729
▁گرا	-3730
تحقیق	-3731
مقابل	-3732
▁اظہر	-3733
▁شخصیت	-3734
جام	-3735
▁حصص	-3736
▁شرما	-3737
▁لیکر	-3738
▁وفاق	-3739
بلشمنٹ	-3740
شناک	-3741
▁جنگی	-3742
▁کپتانی	-3743
▁قون	-3744
▁کھو	-3745
▁اثاث	-3746
▁صادق	-3747
▁لایا	-3748
▁وصولی	-3749
▁مخالفت	-3750
▁پروجیکٹ	-3751
خات	-3752
▁شراط	-3753
▁قبضہ	-3754
▁احساس	-3755
▁مہنگی	-3756
▁نتیجہ	-3757
▁تشویشناک	-3758
▁دہشتگردی	-3759
▁کیم	-3760
▁استق	-3761
▁ملازم	-3762
▁برمدات	-3763
▁روزانہ	-3764
▁فیڈریشن	-3765
▁موسمیاتی	-3766
کنڈ	-3767
▁باس	-3768
▁وین	-3769
▁مارا	-3770
▁قرضوں	-3771
▁نیپرا	-3772
▁ڈیجیٹل	-3773
▁جلو	-3774
▁نکا	-3775
▁ہوگیں	-3776
▁ناکامی	-3777
▁گاڑیاں	-3778
▁میزبانی	-3779
▁دماغ	-3780
▁وارس	-3781
▁خبریں	-3782
▁داروں	-3783
▁لیجنڈ	-3784
▁کاغذات	-3785
عض	-3786
کول	-3787
▁انف	-3788
▁میڈل	-3789
▁خوراک	-3790
▁میزبان	-3791
▁پریشان	-3792
وصلہ	-3793
▁درد	-3794
▁لار	-3795
▁تاجر	-3796
▁شعبہ	-3797
▁ہونگ	-3798
▁رڈیننس	-3799
وط	-3800
وٹھ	-3801
▁عل	-3802
▁عن	-3803
▁داد	-3804
▁دوا	-3805
▁ذکر	-3806
▁ظفر	-3807
▁مراس	-3808
▁مظاہر	-3809
▁تربیتی	-3810
کٹو	-3811
▁امان	-3812
▁ڈالا	-3813
▁ارسال	-3814
▁رٹیکل	-3815
▁خوبصورت	-3816
▁قبر	-3817
▁لگای	-3818
▁چینل	-3819
▁مواقع	-3820
▁مفادات	-3821
▁نجکاری	-3822
حم	-3823
ڑوں	-3824
فیشل	-3825
▁الر	-3826
▁کاٹ	-3827
افغان	-3828
▁آنکھ	-3829
▁آگاہ	-3830
▁سرگرم	-3831
▁فوجیوں	-3832
▁رجسٹرار	-3833
▁چرس	-3834
▁سراہا	-3835
▁لاسنس	-3836
▁پہنچان	-3837
▁کشمیری	-3838
▁کینیڈا	-3839
▁اداکاری	-3840
سیاسی	-3841
▁امیت	-3842
▁نازک	-3843
▁پراس	-3844
▁مجوزہ	-3845
▁چیمپنز	-3846
▁انتظامات	-3847
▁راک	-3848
▁صاف	-3849
▁فورم	-3850
▁ماہر	-3851
▁پچھل	-3852
▁حوصلہ	-3853
▁پہنچایا	-3854
▁یع	-3855
▁بھج	-3856
▁کرس	-3857
▁اسپن	-3858
▁منافع	-3859
▁بیانات	-3860
توا	-3861
وٹر	-3862
پتہ	-3863
سٹمنٹ	-3864
▁ویں	-3865
▁منگل	-3866
▁کھڑی	-3867
▁ہوچکی	-3868
▁گولیاں	-3869
▁درخواستیں	-3870
ندری	-3871
▁افضل	-3872
▁عورت	-3873
▁معاو	-3874
▁کھڑا	-3875
▁رمضان	-3876
▁ہیلتھ	-3877
▁جاسکتی	-3878
بچوں	-3879
▁ولی	-3880
▁ویسٹ	-3881
▁ریٹار	-3882
▁نوازا	-3883
▁ادویات	-3884
▁ایمرجنسی	-3885
▁جز	-3886
رواں	-3887
نچاز	-3888
▁ارو	-3889
▁بیٹا	-3890
▁جمعہ	-3891
▁بیرونی	-3892
▁کرسکتی	-3893
▁دہشتگرد	-3894
▁غیرقانونی	-3895
طس	-3896
فہ	-3897
صدر	-3898
▁لاز	-3899
▁بتای	-3900
▁بلوں	-3901
▁مرتب	-3902
▁بازار	-3903
▁دفاعی	-3904
▁درخواستوں	-3905
خاتون	-3906
▁مراک	-3907
▁واٹس	-3908
▁الرحمن	-3909
▁ہن	-3910
ایاں	-3911
▁شاد	-3912
▁خاتمہ	-3913
▁اٹھایا	-3914
▁ترمیمی	-3915
▁کوششوں	-3916
▁پاکستانیوں	-3917
ٹین	-3918
▁جڑ	-3919
▁ماہی	-3920
▁منسل	-3921
▁افواج	-3922
▁فنانس	-3923
▁مبارکباد	-3924
جم	-3925
پو	-3926
اشہ	-3927
جرز	-3928
▁اتر	-3929
▁مثال	-3930
▁تجاویز	-3931
میشن	-3932
▁ضیا	-3933
▁ملای	-3934
▁منسلک	-3935
▁گہ	-3936
ڑتال	-3937
کیاں	-3938
▁کہن	-3939
▁سپورٹ	-3940
▁سینیر	-3941
▁عبوری	-3942
▁باقاعدہ	-3943
عوام	-3944
گولی	-3945
▁طوف	-3946
▁انگلش	-3947
▁بالکل	-3948
▁جوابی	-3949
▁عظمیٰ	-3950
▁پابند	-3951
▁قربانی	-3952
▁ٹرانسپورٹ	-3953
ڈل	-3954
گاہ	-3955
▁مقیم	-3956
▁ٹریک	-3957
▁الحسن	-3958
▁سفارتی	-3959
▁پروڈیو	-3960
▁اسٹیبلشمنٹ	-3961
زش	-3962
ابین	-3963
▁صنع	-3964
سٹریشن	-3965
▁فرانس	-3966
▁مطالبات	-3967
▁اسلم	-3968
▁زبرد	-3969
▁لباس	-3970
▁لیگی	-3971
▁وسیع	-3972
▁پیٹ	-3973
▁چلی	-3974
▁رساں	-3975
▁رسول	-3976
▁طاہر	-3977
▁چھٹی	-3978
▁فوٹیج	-3979
▁پسندی	-3980
▁جارحیت	-3981
▁اسکولوں	-3982
▁مدمقابل	-3983
▁گلوکارہ	-3984
ہرہ	-3985
▁فرا	-3986
▁مروت	-3987
▁اپریل	-3988
▁مہنگا	-3989
▁اسٹریٹ	-3990
▁اکثریت	-3991
▁ہنگامی	-3992
حا	-3993
جوع	-3994
▁غاب	-3995
▁جاسک	-3996
▁حرکت	-3997
▁شرکا	-3998
▁کیپر	-3999
▁تبادل	-4000
▁کروڑوں	-4001
▁عبداللہ	-4002
فرد	-4003
حکمہ	-4004
▁سلو	-4005
کورٹی	-4006
▁قاتل	-4007
▁جمعرات	-4008
یبا	-4009
▁اڑ	-4010
جسٹس	-4011
▁ناد	-4012
▁کیپ	-4013
▁خلای	-4014
▁ایریا	-4015
▁تعاقب	-4016
▁مشکوک	-4017
▁حب	-4018
▁امکانات	-4019
قوں	-4020
مقت	-4021
میہ	-4022
▁سُ	-4023
ثانی	-4024
واری	-4025
▁فرح	-4026
▁منٹ	-4027
▁ایڈج	-4028
▁رجوع	-4029
▁بایکاٹ	-4030
نک	-4031
▁کیٹ	-4032
شنگٹن	-4033
▁بھاگ	-4034
▁تجربہ	-4035
▁میٹنگ	-4036
▁امیتابھ	-4037
سنگ	-4038
طال	-4039
گرہ	-4040
خانہ	-4041
▁زون	-4042
▁ایوی	-4043
سرز	-4044
▁امام	-4045
▁حریف	-4046
▁گینگ	-4047
▁اسٹاک	-4048
▁درپیش	-4049
میز	-4050
ہمی	-4051
شہباز	-4052
▁مرزا	-4053
▁ویکس	-4054
▁پروڈ	-4055
▁گریز	-4056
▁تجزیہ	-4057
▁پستول	-4058
▁مصنوعی	-4059
▁ایگزیکٹو	-4060
ازن	-4061
یرغ	-4062
▁رشت	-4063
▁واب	-4064
▁مطلب	-4065
▁ناصر	-4066
▁ہوسکت	-4067
▁استقبال	-4068
بھی	-4069
شار	-4070
ارٹر	-4071
▁ظلم	-4072
سعودی	-4073
▁پذیر	-4074
▁ڈینگی	-4075
لاٹ	-4076
▁پرچ	-4077
▁بھیجن	-4078
▁تقریر	-4079
▁گرانڈ	-4080
▁نبی	-4081
▁انگی	-4082
▁ملین	-4083
▁نفرت	-4084
▁لاپتہ	-4085
▁ڈیزان	-4086
▁فیصلوں	-4087
اسم	-4088
▁زد	-4089
وریا	-4090
▁نیک	-4091
▁فراض	-4092
▁کرچک	-4093
▁قونصل	-4094
▁پلاسٹک	-4095
▁الرحمٰن	-4096
▁دھمکیاں	-4097
▁اتار	-4098
▁اوسط	-4099
▁تخلی	-4100
▁تصور	-4101
▁نمٹن	-4102
▁خریدن	-4103
▁رع	-4104
▁بیچ	-4105
▁ریل	-4106
▁رہتا	-4107
▁شاید	-4108
▁یاسر	-4109
▁مابین	-4110
▁کوششیں	-4111
▁وارداتوں	-4112
پوری	-4113
▁ازیں	-4114
▁اوقات	-4115
▁جنہوں	-4116
▁ہڑتال	-4117
▁بادشاہ	-4118
▁مطالعہ	-4119
اطر	-4120
▁زیب	-4121
مسافر	-4122
▁ضلعی	-4123
▁ڈیڑھ	-4124
▁خرابی	-4125
▁مقررہ	-4126
▁وزیرِ	-4127
▁پھیلا	-4128
▁رینجرز	-4129
▁وح	-4130
▁تنگ	-4131
▁جیسا	-4132
▁لڑای	-4133
▁ہیلی	-4134
▁سرجری	-4135
▁ڈرامہ	-4136
▁پروفیسر	-4137
محمد	-4138
▁پُر	-4139
▁جیتن	-4140
▁پورٹ	-4141
▁نامزدگی	-4142
▁پک	-4143
ہوگی	-4144
▁لال	-4145
▁مجر	-4146
▁رشتہ	-4147
▁عادل	-4148
▁ڈیزل	-4149
ولیاتی	-4150
▁اسکیم	-4151
▁دھرنا	-4152
▁رڈر	-4153
▁سیر	-4154
▁مرض	-4155
▁مشرو	-4156
▁ملیں	-4157
▁سپلای	-4158
▁متناز	-4159
▁منفرد	-4160
▁کاپٹر	-4161
▁دکھایا	-4162
شین	-4163
وات	-4164
کوز	-4165
چارج	-4166
▁عوض	-4167
▁ہنی	-4168
▁یار	-4169
▁تدری	-4170
▁نماش	-4171
▁نکاح	-4172
▁افریقا	-4173
▁انڈیکس	-4174
▁کلوگرام	-4175
▁مفت	-4176
▁ویز	-4177
▁ڈیب	-4178
▁فرنچاز	-4179
ارث	-4180
خیص	-4181
ونل	-4182
امید	-4183
دنیا	-4184
فلسط	-4185
▁بنات	-4186
▁موضو	-4187
▁کنار	-4188
سام	-4189
الرز	-4190
▁انڈیا	-4191
▁کھانا	-4192
▁تحفظات	-4193
▁سالگرہ	-4194
▁چانسلر	-4195
▁رام	-4196
▁لاف	-4197
▁لیک	-4198
▁تشخیص	-4199
▁صوبوں	-4200
▁ہراساں	-4201
طرف	-4202
ٹھی	-4203
▁پچ	-4204
اعظم	-4205
ٹیاں	-4206
▁پتا	-4207
▁یرغ	-4208
▁سٹری	-4209
▁رجحان	-4210
▁آبادی	-4211
▁سیکورٹی	-4212
▁ہلاکتوں	-4213
چک	-4214
▁بلڈ	-4215
▁قسط	-4216
▁مچھ	-4217
▁دیکھت	-4218
▁انقلاب	-4219
▁سمندری	-4220
▁واشنگٹن	-4221
▁کارروایاں	-4222
ملا	-4223
نبی	-4224
ارتھ	-4225
رلان	-4226
▁بعض	-4227
▁آزم	-4228
▁دارہ	-4229
▁ایشین	-4230
▁کورنگی	-4231
عمل	-4232
▁صو	-4233
▁غص	-4234
▁لم	-4235
سمتی	-4236
ٹیول	-4237
▁دوڑ	-4238
▁ٹیس	-4239
▁خاطر	-4240
▁دیکر	-4241
▁سمری	-4242
▁یعنی	-4243
▁دیپیکا	-4244
▁جانوروں	-4245
▁حید	-4246
▁اونس	-4247
▁حقاق	-4248
ثار	-4249
پاک	-4250
▁درخت	-4251
▁مرضی	-4252
▁چوتھ	-4253
▁ڈگری	-4254
▁گولڈ	-4255
▁باجوہ	-4256
▁بڑھتی	-4257
▁عرفان	-4258
▁پھینک	-4259
▁ہیڈکو	-4260
▁فیکٹری	-4261
▁نازیبا	-4262
ہا	-4263
▁اکٹ	-4264
▁سوا	-4265
▁شکا	-4266
▁ٹکر	-4267
▁لانز	-4268
▁نذیر	-4269
▁بیشتر	-4270
▁لازمی	-4271
▁وارنٹ	-4272
▁ویمنز	-4273
▁ڈاکٹرز	-4274
▁بندش	-4275
▁زرعی	-4276
▁تعالی	-4277
▁دیوار	-4278
▁خیالات	-4279
آج	-4280
قلی	-4281
اہوں	-4282
▁نفس	-4283
▁ڈای	-4284
▁منڈی	-4285
▁امپار	-4286
▁سابقہ	-4287
▁ملٹری	-4288
▁پریشر	-4289
▁صلاحیتوں	-4290
▁پروگرامز	-4291
افیہ	-4292
▁ایٹ	-4293
▁مسک	-4294
▁سینما	-4295
▁طیارہ	-4296
▁بدترین	-4297
▁دوستوں	-4298
مون	-4299
▁شور	-4300
▁مون	-4301
▁سہیل	-4302
▁موثر	-4303
▁نقدی	-4304
▁ٹیکسٹ	-4305
اکت	-4306
▁تھری	-4307
▁التوا	-4308
▁بارڈر	-4309
▁مرتضی	-4310
▁ممبران	-4311
▁کتابوں	-4312
▁اسپ	-4313
بایڈن	-4314
▁رہتی	-4315
▁سیمی	-4316
▁دفاتر	-4317
علم	-4318
شانی	-4319
▁فوڈ	-4320
▁الرٹ	-4321
▁خدمت	-4322
▁خراج	-4323
▁نسبت	-4324
▁کملا	-4325
▁ہیرس	-4326
▁سیکشن	-4327
▁چھوڑن	-4328
▁ہوسکا	-4329
▁امتیاز	-4330
وزیراعلیٰ	-4331
دھی	-4332
مجھ	-4333
نواز	-4334
▁ڈیٹ	-4335
▁پڑتا	-4336
اکا	-4337
خان	-4338
بلوچ	-4339
▁اکی	-4340
▁عاشہ	-4341
▁گوشت	-4342
▁بینکوں	-4343
▁ہوجایں	-4344
فاذ	-4345
▁ذوال	-4346
▁درواز	-4347
▁مراسلہ	-4348
▁تبدیلیوں	-4349
رض	-4350
ڈیٹ	-4351
یدہ	-4352
طرفہ	-4353
ودگی	-4354
▁بحث	-4355
▁فضا	-4356
▁قوت	-4357
▁گیند	-4358
▁انسانوں	-4359
▁پرایویٹ	-4360
غزہ	-4361
▁اَ	-4362
▁پریشنز	-4363
▁بازیابی	-4364
خود	-4365
ٹیو	-4366
▁دوپ	-4367
▁پڑی	-4368
▁پھل	-4369
▁اراد	-4370
▁اصول	-4371
▁اقلی	-4372
▁بلال	-4373
▁تقاض	-4374
▁علام	-4375
▁لاگت	-4376
▁تردید	-4377
▁اندازہ	-4378
▁علیحدگی	-4379
▁نصراللہ	-4380
▁نماندوں	-4381
بط	-4382
▁شکر	-4383
▁پاپ	-4384
▁پنج	-4385
ندگان	-4386
▁توشہ	-4387
▁مشرق	-4388
▁مکان	-4389
▁نفاذ	-4390
▁پراجی	-4391
▁آخر	-4392
▁جوڑی	-4393
▁سرٹی	-4394
▁جاپان	-4395
▁درکار	-4396
▁سیکڑوں	-4397
▁ملایشیا	-4398
قط	-4399
ماش	-4400
چینج	-4401
مختلف	-4402
▁جمال	-4403
▁شہدا	-4404
▁عرصہ	-4405
▁کلیر	-4406
▁کیمی	-4407
▁گریب	-4408
▁شرجیل	-4409
▁مراکز	-4410
▁اسپورٹس	-4411
روی	-4412
▁طل	-4413
گیاں	-4414
▁رای	-4415
▁اُٹھ	-4416
▁واٹر	-4417
▁اٹھان	-4418
▁برسوں	-4419
▁نوعیت	-4420
▁پیمان	-4421
▁جوبایڈن	-4422
▁ہندوستان	-4423
ساز	-4424
▁وٹ	-4425
وریج	-4426
▁کیف	-4427
▁فرین	-4428
▁ہوسک	-4429
▁سینٹی	-4430
▁فٹبال	-4431
▁ویکسین	-4432
▁نظرثانی	-4433
▁پروڈکشن	-4434
ومن	-4435
▁ہس	-4436
گریس	-4437
▁تعط	-4438
▁حجم	-4439
▁اوپر	-4440
▁مختص	-4441
▁بھرتی	-4442
▁فیسٹیول	-4443
▁رجسٹریشن	-4444
دیہ	-4445
▁پڈ	-4446
▁فاط	-4447
▁حارث	-4448
▁مجرم	-4449
▁پینل	-4450
▁گوٹھ	-4451
▁تحسین	-4452
▁تصادم	-4453
▁پہنچی	-4454
▁دیکھنا	-4455
▁ایکسپورٹ	-4456
▁ماحولیاتی	-4457
▁دلا	-4458
▁فراڈ	-4459
▁لانچ	-4460
▁نسیم	-4461
▁ڈالن	-4462
▁الحال	-4463
▁انگیز	-4464
▁سمجھت	-4465
▁شراکت	-4466
▁منتقلی	-4467
▁اداکاروں	-4468
ڈٹ	-4469
بلا	-4470
اؤن	-4471
وکون	-4472
وکیٹ	-4473
▁ٹای	-4474
ارکان	-4475
گریشن	-4476
▁دکھا	-4477
▁مایک	-4478
▁نکلن	-4479
▁انوار	-4480
▁سسٹمز	-4481
▁ہیرون	-4482
▁نشستیں	-4483
افل	-4484
اوی	-4485
▁بغ	-4486
▁جنم	-4487
▁ٹکرا	-4488
▁ہٹان	-4489
انڈیکس	-4490
▁لاشیں	-4491
▁مجموعہ	-4492
ربت	-4493
چرز	-4494
کسی	-4495
▁عش	-4496
مارٹ	-4497
▁خدش	-4498
▁دہی	-4499
▁طبق	-4500
▁چھت	-4501
▁ہٹا	-4502
محکمہ	-4503
▁اگلی	-4504
▁دوپہر	-4505
▁نادرا	-4506
اشی	-4507
▁دلہ	-4508
▁گوی	-4509
صوبای	-4510
▁ملتی	-4511
▁نیند	-4512
▁کریک	-4513
▁گیشن	-4514
▁سبسڈی	-4515
▁جایداد	-4516
▁مجسٹری	-4517
▁حکومتوں	-4518
▁ڈاکوؤں	-4519
▁ایڈجسٹمنٹ	-4520
ریا	-4521
عزم	-4522
حادث	-4523
▁گوگل	-4524
▁دوستی	-4525
▁مسودہ	-4526
ٰی	-4527
ورلڈ	-4528
گاری	-4529
▁شیل	-4530
▁چہر	-4531
وکٹیں	-4532
▁انکم	-4533
▁فیول	-4534
▁وہاب	-4535
▁یورپ	-4536
▁دفعات	-4537
▁معانہ	-4538
▁روزگار	-4539
▁شکایات	-4540
ذا	-4541
صیب	-4542
▁کٹ	-4543
بادل	-4544
جانی	-4545
سٹنٹ	-4546
▁ستار	-4547
▁وقار	-4548
▁جامعہ	-4549
▁فاطمہ	-4550
▁نگران	-4551
▁حفاظتی	-4552
▁علاقای	-4553
▁یوٹیوب	-4554
ٹڈ	-4555
مید	-4556
▁وو	-4557
▁طیب	-4558
▁کڑی	-4559
▁چارج	-4560
▁ڈیسک	-4561
▁موسیقی	-4562
▁اشتہاری	-4563
تاز	-4564
▁ارد	-4565
▁نقل	-4566
وزارت	-4567
▁اسلح	-4568
▁ٹانگ	-4569
▁کمال	-4570
▁بیورو	-4571
▁خاموش	-4572
▁پرامن	-4573
پارٹمنٹ	-4574
▁قیدیوں	-4575
▁مصطفیٰ	-4576
▁پارلیمان	-4577
شاد	-4578
شنز	-4579
▁زخ	-4580
▁بہا	-4581
▁ریٹر	-4582
▁پران	-4583
▁ٹونٹی	-4584
▁درجنوں	-4585
▁طالبات	-4586
رجی	-4587
لرز	-4588
جہتی	-4589
ہمیں	-4590
▁فیض	-4591
▁ٹاٹ	-4592
▁بارہ	-4593
▁یونس	-4594
▁رنبیر	-4595
▁شاداب	-4596
▁پرانی	-4597
▁تنخواہوں	-4598
باب	-4599
منگ	-4600
▁سج	-4601
▁معد	-4602
ڈاکٹر	-4603
▁ساری	-4604
▁سوسا	-4605
▁قدرتی	-4606
▁ناموں	-4607
▁ایرلان	-4608
▁بھایوں	-4609
▁کیمیکل	-4610
▁گھنٹوں	-4611
▁فنکاروں	-4612
ثنا	-4613
▁ظہ	-4614
▁عار	-4615
▁دوچار	-4616
▁ہتھیار	-4617
ناک	-4618
▁اڈ	-4619
اہلی	-4620
زادہ	-4621
▁پشت	-4622
▁زلزل	-4623
▁صفای	-4624
نوجوان	-4625
▁بحریہ	-4626
▁دیکھی	-4627
▁سنجیدہ	-4628
▁اندرونی	-4629
پیگ	-4630
بجلی	-4631
وبال	-4632
▁ابو	-4633
▁جوی	-4634
▁روح	-4635
▁چوپ	-4636
▁نوکری	-4637
ونڈ	-4638
▁شج	-4639
▁جشن	-4640
▁مرن	-4641
▁ناس	-4642
▁ایتھ	-4643
▁مذہب	-4644
▁گردش	-4645
▁الانس	-4646
▁کروای	-4647
▁گیارہ	-4648
▁سوساٹی	-4649
▁ٹیسوری	-4650
▁پہنچیں	-4651
▁ملاقاتیں	-4652
فل	-4653
فقار	-4654
مینہ	-4655
تحریک	-4656
ممالک	-4657
▁مندی	-4658
▁پیار	-4659
▁سالوں	-4660
▁عدنان	-4661
▁پڈوکون	-4662
▁عہدیدار	-4663
▁ایڈووکیٹ	-4664
▁پراسیکیوٹر	-4665
لوگ	-4666
▁پٹھ	-4667
▁شراب	-4668
▁بدولت	-4669
▁تنصیب	-4670
▁فلمیں	-4671
▁متوفی	-4672
▁چھوٹی	-4673
▁تدریسی	-4674
▁مارکیٹوں	-4675
پھ	-4676
ٰہی	-4677
نامہ	-4678
والی	-4679
▁ادب	-4680
▁اسٹو	-4681
▁باری	-4682
▁ضمنی	-4683
یابیطس	-4684
▁آفیشل	-4685
▁کرسکیں	-4686
▁ہسپتال	-4687
بلوچستان	-4688
▁ڈاکٹروں	-4689
▁امیگریشن	-4690
▁تحقیقاتی	-4691
کب	-4692
ہن	-4693
اتح	-4694
زای	-4695
چری	-4696
بلیو	-4697
▁بھگ	-4698
▁فکر	-4699
▁کلا	-4700
▁آٹھ	-4701
▁سیاہ	-4702
▁پانڈ	-4703
▁اموات	-4704
▁آسان	-4705
▁طوفان	-4706
▁فضایہ	-4707
▁پلیرز	-4708
▁چالان	-4709
▁متبادل	-4710
▁شماریات	-4711
راں	-4712
شوں	-4713
شہر	-4714
ڑیا	-4715
▁گنج	-4716
▁انکی	-4717
▁آتی	-4718
▁سرکل	-4719
▁قدیم	-4720
▁ثقافت	-4721
▁کرینگ	-4722
فلسطینی	-4723
▁پروپیگ	-4724
وزک	-4725
مسلم	-4726
پانی	-4727
▁ڈرا	-4728
▁بزرگ	-4729
▁بھول	-4730
▁مارن	-4731
▁اجاگر	-4732
▁اخلاق	-4733
▁بھجوا	-4734
▁فارمیٹ	-4735
▁مالکان	-4736
▁پریشانی	-4737
▁انک	-4738
▁باغ	-4739
▁دودھ	-4740
▁اربوں	-4741
▁کنٹری	-4742
▁خبردار	-4743
انسٹاگرام	-4744
ایاب	-4745
▁کین	-4746
سلمان	-4747
پشاور	-4748
▁راجا	-4749
▁صوبہ	-4750
▁لگیں	-4751
▁مدعی	-4752
▁نفری	-4753
▁ویزا	-4754
▁ہوای	-4755
▁ارادہ	-4756
▁مشروط	-4757
▁ہوسکی	-4758
▁سرزمین	-4759
نویر	-4760
▁مدن	-4761
▁نکھ	-4762
▁مذاق	-4763
▁پیرس	-4764
▁ایمان	-4765
▁دماغی	-4766
▁ریٹارڈ	-4767
▁ریٹارمنٹ	-4768
مدی	-4769
▁بیک	-4770
▁ضبط	-4771
▁نبھ	-4772
▁ٹیر	-4773
مقتول	-4774
▁انڈر	-4775
▁اٹلی	-4776
▁رولز	-4777
▁سلوک	-4778
▁منیب	-4779
▁پٹرول	-4780
▁کارپوری	-4781
برط	-4782
وشی	-4783
ندھن	-4784
▁رول	-4785
▁نال	-4786
▁نرخ	-4787
▁گجر	-4788
▁جلوس	-4789
▁بیروت	-4790
▁جذبات	-4791
▁شناختی	-4792
▁انتظامی	-4793
▁تنظیموں	-4794
▁آسٹریلوی	-4795
پٹ	-4796
این	-4797
ہلاک	-4798
▁ٹول	-4799
▁گیم	-4800
▁ثانی	-4801
▁جمیل	-4802
▁اطراف	-4803
▁نکالا	-4804
▁پولنگ	-4805
▁کاموں	-4806
▁طاقتور	-4807
▁معاوضہ	-4808
جیت	-4809
ٹیسٹ	-4810
▁قلم	-4811
▁محب	-4812
▁گوش	-4813
▁جنگل	-4814
▁عبور	-4815
▁ہینڈ	-4816
▁اسپیس	-4817
▁الٰہی	-4818
▁بایڈن	-4819
▁چیلنجز	-4820
▁زم	-4821
▁ڈر	-4822
اسٹی	-4823
ستوں	-4824
▁اہد	-4825
▁باض	-4826
▁معص	-4827
▁موس	-4828
▁ڈیوڈ	-4829
▁ایجنٹ	-4830
▁سروسز	-4831
▁فریدی	-4832
▁ڈیبیو	-4833
▁افریقہ	-4834
▁سلیکشن	-4835
▁کوارٹر	-4836
دف	-4837
ویب	-4838
ہیں	-4839
▁عسک	-4840
▁گیل	-4841
▁حساس	-4842
▁قامہ	-4843
▁قیصر	-4844
▁ناظم	-4845
▁کشتی	-4846
▁انجری	-4847
▁انویس	-4848
▁تعبیر	-4849
▁اسمارٹ	-4850
▁افتتاح	-4851
▁حکمرانی	-4852
گول	-4853
رانہ	-4854
▁امجد	-4855
▁اکبر	-4856
▁ایاز	-4857
▁بادی	-4858
▁بسٹر	-4859
▁جاکر	-4860
▁حساب	-4861
▁منظم	-4862
▁نوید	-4863
▁ٹاٹل	-4864
▁کرسٹ	-4865
▁گانا	-4866
▁آرڈر	-4867
▁اہداف	-4868
▁ذہانت	-4869
▁مچھلی	-4870
▁نامور	-4871
▁ڈیواس	-4872
▁پھیلان	-4873
▁ایوارڈز	-4874
بد	-4875
▁وع	-4876
▁خدا	-4877
▁یحی	-4878
▁شارٹ	-4879
▁کاشت	-4880
▁کلین	-4881
▁ہفتوں	-4882
▁اسسٹنٹ	-4883
▁افتخار	-4884
▁انویسٹی	-4885
▁ہتھیاروں	-4886
الا	-4887
ناسب	-4888
▁ابر	-4889
▁لہر	-4890
▁مٹی	-4891
▁ڈبل	-4892
▁آکر	-4893
▁سستا	-4894
▁سورج	-4895
▁عہدہ	-4896
▁جنازہ	-4897
▁سمجھا	-4898
▁کوالی	-4899
درخواست	-4900
▁اولمپکس	-4901
▁اہلخانہ	-4902
▁کمیونٹی	-4903
وای	-4904
گیڈ	-4905
میگا	-4906
▁حضر	-4907
▁کنو	-4908
▁ایجو	-4909
▁کاکڑ	-4910
▁ایجنڈ	-4911
▁ترکیہ	-4912
▁جوہری	-4913
▁متحرک	-4914
▁میوزک	-4915
▁ناراض	-4916
▁ڈبلیو	-4917
▁نااہلی	-4918
▁پالیسیوں	-4919
گھر	-4920
گیر	-4921
▁اوز	-4922
▁سبز	-4923
▁انفر	-4924
▁حیرت	-4925
▁رویہ	-4926
▁رہنا	-4927
▁سیلز	-4928
▁مستع	-4929
▁پرنس	-4930
▁پیکی	-4931
▁ڈکیت	-4932
▁انڈیز	-4933
▁نایاب	-4934
آپ	-4935
▁ذخ	-4936
درمد	-4937
▁جاز	-4938
موبال	-4939
▁والڈ	-4940
▁اخبار	-4941
▁فنکار	-4942
▁چوپڑا	-4943
▁متنازع	-4944
▁ٹریننگ	-4945
آر	-4946
طیف	-4947
نٹی	-4948
کھا	-4949
▁اکش	-4950
▁شرط	-4951
▁ماف	-4952
▁ہاش	-4953
▁ہیرو	-4954
▁تکمیل	-4955
▁رنویر	-4956
▁ممتاز	-4957
▁مرتضیٰ	-4958
▁باضابطہ	-4959
▁بلو	-4960
▁خاک	-4961
▁خزان	-4962
▁شوکت	-4963
▁ڈھای	-4964
▁جرمنی	-4965
▁ہوایں	-4966
▁انجینر	-4967
▁پانچویں	-4968
▁پراجیکٹ	-4969
▁پیٹرولیم	-4970
اوت	-4971
ہفت	-4972
▁فا	-4973
▁ہال	-4974
▁اجرا	-4975
▁منان	-4976
▁کنسر	-4977
▁خدشات	-4978
▁چھاپہ	-4979
▁انتظام	-4980
▁احتجاجی	-4981
▁سرگرمیاں	-4982
طلب	-4983
ژاد	-4984
▁بُ	-4985
▁دُ	-4986
▁کاش	-4987
انگیر	-4988
▁دانش	-4989
▁نژاد	-4990
▁بیمار	-4991
▁رحمان	-4992
▁روبوٹ	-4993
▁ماہرہ	-4994
▁معذرت	-4995
▁نیازی	-4996
▁چیزیں	-4997
▁اجتماعی	-4998
▁مجسٹریٹ	-4999
▁کانگریس	-5000
▁بیماریوں	-5001
است	-5002
▁غف	-5003
انگی	-5004
▁ڈیف	-5005
▁فلاح	-5006
▁فیسر	-5007
▁پتھر	-5008
▁سٹریلیا	-5009
اپس	-5010
اپن	-5011
دھم	-5012
حقین	-5013
گورن	-5014
▁اتن	-5015
▁انی	-5016
▁لیس	-5017
▁مہین	-5018
▁ٹارگ	-5019
انٹرنی	-5020
▁تیسرا	-5021
▁طبیعت	-5022
▁فیڈرل	-5023
▁لاشوں	-5024
▁مطالع	-5025
نم	-5026
تھر	-5027
ختہ	-5028
شیر	-5029
عمر	-5030
▁غم	-5031
▁مصر	-5032
▁چمک	-5033
▁گاں	-5034
▁ازاں	-5035
▁سوات	-5036
▁عراق	-5037
▁قاسم	-5038
▁ماری	-5039
▁ورزش	-5040
▁کرسک	-5041
▁زراعت	-5042
▁تعالیٰ	-5043
▁لڑکیوں	-5044
▁کامیڈی	-5045
▁یکجہتی	-5046
▁ذوالفقار	-5047
▁وزیرخارجہ	-5048
ذر	-5049
نر	-5050
وجہ	-5051
موٹر	-5052
▁آد	-5053
▁بنیں	-5054
▁فالو	-5055
▁معاف	-5056
▁ورثا	-5057
▁چلای	-5058
▁برانڈ	-5059
▁اہتمام	-5060
▁کیمروں	-5061
▁جماعتیں	-5062
▁ایکسچینج	-5063
شپ	-5064
اپر	-5065
حات	-5066
کٹس	-5067
▁زل	-5068
بالی	-5069
داشت	-5070
▁فٹب	-5071
▁کرم	-5072
اطلاع	-5073
▁دھند	-5074
▁شوگر	-5075
▁نکلا	-5076
▁وابستہ	-5077
راولپنڈی	-5078
حالی	-5079
▁ٹور	-5080
شیڈنگ	-5081
▁باشن	-5082
▁بھگت	-5083
▁مفید	-5084
▁ذریعہ	-5085
▁طالبہ	-5086
▁فنڈنگ	-5087
▁مظالم	-5088
▁چاروں	-5089
▁چیمبر	-5090
▁گوشوار	-5091
▁ایشوریا	-5092
▁بالخصوص	-5093
▁فت	-5094
▁لفظ	-5095
▁ونگ	-5096
▁مردہ	-5097
▁کمپی	-5098
فارمیشن	-5099
▁جذباتی	-5100
▁کشیدگی	-5101
فیت	-5102
▁رد	-5103
ندیہ	-5104
▁متن	-5105
▁فٹنس	-5106
▁اسپنر	-5107
▁الہیٰ	-5108
▁پختون	-5109
▁کاربن	-5110
▁دوسروں	-5111
▁اسپتالوں	-5112
حاظ	-5113
چان	-5114
جبکہ	-5115
دیگر	-5116
روزہ	-5117
وانٹ	-5118
▁جلا	-5119
▁سمت	-5120
▁نیل	-5121
واقعہ	-5122
▁شکیب	-5123
▁فلمی	-5124
▁سیکھن	-5125
▁طیاروں	-5126
▁ڈپریشن	-5127
اصد	-5128
عکس	-5129
ونس	-5130
▁ما	-5131
▁گذ	-5132
اوپن	-5133
▁قلت	-5134
▁دہای	-5135
▁سارہ	-5136
▁سراج	-5137
▁سران	-5138
▁فرما	-5139
▁نمٹا	-5140
▁جرمان	-5141
▁سواتی	-5142
▁یحییٰ	-5143
اطلاعات	-5144
▁سرانجام	-5145
▁پروڈیوسر	-5146
ہت	-5147
▁دلی	-5148
▁زدہ	-5149
▁سدھ	-5150
▁لانگ	-5151
▁ورنہ	-5152
▁پوچھا	-5153
▁گہرای	-5154
▁بازیاب	-5155
انچ	-5156
متا	-5157
ہای	-5158
ڈاکو	-5159
▁ڈیم	-5160
▁آتش	-5161
▁دھرن	-5162
▁سختی	-5163
▁مدنی	-5164
▁وادی	-5165
▁وعدہ	-5166
▁پرچم	-5167
▁گھنٹہ	-5168
اجد	-5169
کیا	-5170
ینا	-5171
▁بنچ	-5172
▁قرن	-5173
▁مرا	-5174
▁گڑھ	-5175
▁اویس	-5176
▁سبزی	-5177
▁فساد	-5178
▁میرٹ	-5179
▁انسٹی	-5180
▁وسطیٰ	-5181
▁پیجرز	-5182
▁ریگولی	-5183
▁افتتاحی	-5184
▁حکمرانوں	-5185
▁لوڈشیڈنگ	-5186
▁سانسدانوں	-5187
نف	-5188
▁ڈٹ	-5189
گوار	-5190
▁تیر	-5191
▁ہری	-5192
▁طرفہ	-5193
▁کمای	-5194
▁استفس	-5195
▁تحلیل	-5196
▁مردوں	-5197
▁منعقدہ	-5198
اطف	-5199
▁اذ	-5200
▁ٹا	-5201
تولہ	-5202
▁زار	-5203
▁عرو	-5204
▁مات	-5205
▁ہوش	-5206
▁لحاظ	-5207
▁لکھن	-5208
▁کمپن	-5209
مقدمات	-5210
▁صنعتی	-5211
▁مزدور	-5212
▁پرنسپل	-5213
▁ہوجاتی	-5214
▁دھماکوں	-5215
▁ٹیکسٹال	-5216
وشن	-5217
▁برف	-5218
▁تاب	-5219
▁لہٰ	-5220
▁منح	-5221
▁پود	-5222
▁حلقہ	-5223
▁کرنٹ	-5224
▁بولنگ	-5225
▁عندیہ	-5226
▁مافیا	-5227
▁لینڈنگ	-5228
▁پایدار	-5229
▁امتحانات	-5230
وبل	-5231
▁رُ	-5232
اعات	-5233
رآن	-5234
▁اکا	-5235
اجلاس	-5236
▁سفید	-5237
▁مہلت	-5238
▁کنون	-5239
▁تخلیق	-5240
▁رعایت	-5241
▁ملزمہ	-5242
▁دہایوں	-5243
▁محکموں	-5244
▁ایجوکیشن	-5245
داخ	-5246
قوم	-5247
یوں	-5248
▁خرم	-5249
▁خشک	-5250
▁ضاع	-5251
▁فلک	-5252
▁لمح	-5253
▁پرم	-5254
▁فاصل	-5255
▁قصور	-5256
▁پیسہ	-5257
▁جانور	-5258
▁میٹرک	-5259
▁وقوعہ	-5260
▁پلانٹ	-5261
▁ژ	-5262
بنگ	-5263
شدد	-5264
مکن	-5265
چکا	-5266
الیا	-5267
▁خلا	-5268
▁دھو	-5269
▁لمب	-5270
▁نصف	-5271
▁دولت	-5272
▁برعکس	-5273
▁حسینہ	-5274
▁خسارہ	-5275
▁یومیہ	-5276
▁تجربات	-5277
▁مراعات	-5278
▁کمپنیاں	-5279
ڑپ	-5280
ریح	-5281
ریس	-5282
والہ	-5283
▁اشت	-5284
▁آڑ	-5285
▁تاثر	-5286
▁سرپر	-5287
▁سفری	-5288
▁سیار	-5289
▁منزل	-5290
▁احتیا	-5291
▁توازن	-5292
▁موضوع	-5293
▁دیکھیں	-5294
▁آرٹیکل	-5295
ِل	-5296
تاح	-5297
ھای	-5298
▁آم	-5299
▁بالا	-5300
▁تحفہ	-5301
▁شرٹس	-5302
▁ناقص	-5303
▁پھول	-5304
▁ڈومی	-5305
▁گلشن	-5306
▁کھیلی	-5307
▁استفسار	-5308
ثی	-5309
مرا	-5310
▁عج	-5311
مریض	-5312
▁نمو	-5313
▁ہتھ	-5314
▁جانچ	-5315
▁حامی	-5316
▁مولا	-5317
▁ٹاکر	-5318
▁ٹینک	-5319
▁کتنی	-5320
▁تاوان	-5321
▁دکھان	-5322
▁لہٰذا	-5323
▁ڈیفنس	-5324
▁کارپوریشن	-5325
تق	-5326
احت	-5327
واٹ	-5328
الڈو	-5329
خیبر	-5330
قیدت	-5331
میچز	-5332
وندا	-5333
▁گیٹ	-5334
▁جتنا	-5335
▁خلیل	-5336
▁کراس	-5337
▁ہالی	-5338
▁سیٹھی	-5339
▁مشرقی	-5340
▁ہوجات	-5341
▁نماندہ	-5342
▁ہولڈرز	-5343
▁ترسیلات	-5344
ورا	-5345
▁الف	-5346
▁الق	-5347
فارنگ	-5348
▁بولی	-5349
▁جانت	-5350
▁فیشن	-5351
▁گیمز	-5352
واحقین	-5353
▁سرٹیف	-5354
▁مانگی	-5355
▁اعلامی	-5356
▁ایشیای	-5357
▁مانیٹر	-5358
جاں	-5359
درا	-5360
ووٹ	-5361
پمنٹ	-5362
گریٹ	-5363
▁تلخ	-5364
▁گھٹ	-5365
▁غفلت	-5366
▁فلکس	-5367
▁قرضہ	-5368
▁چڑیا	-5369
▁سنایا	-5370
▁دوطرفہ	-5371
▁سیلابی	-5372
▁تقریبات	-5373
شم	-5374
▁سنن	-5375
▁عدد	-5376
▁غذا	-5377
▁کپڑ	-5378
▁بنتی	-5379
▁تران	-5380
▁ملتا	-5381
سرکاری	-5382
▁اشارہ	-5383
▁افزای	-5384
▁جایگا	-5385
▁ووٹرز	-5386
▁جہانگیر	-5387
▁ں	-5388
تان	-5389
لانگ	-5390
گزار	-5391
▁اکھ	-5392
▁ناٹ	-5393
▁چکر	-5394
ایران	-5395
جماعت	-5396
قانون	-5397
قسمتی	-5398
▁غربت	-5399
▁نثار	-5400
▁کنڈی	-5401
▁بنگلا	-5402
▁ذخیرہ	-5403
▁ملکوں	-5404
▁کنسرٹ	-5405
▁براہوی	-5406
▁پسندوں	-5407
▁عملدرمد	-5408
ادھ	-5409
امد	-5410
سری	-5411
صرف	-5412
وبر	-5413
متاث	-5414
ونٹس	-5415
▁مام	-5416
▁گام	-5417
گورنر	-5418
ہماری	-5419
▁زہری	-5420
▁ٹاسک	-5421
▁فیروز	-5422
▁مارٹم	-5423
▁بریگیڈ	-5424
▁پروازوں	-5425
▁بنگلادیشی	-5426
▁آہ	-5427
▁صحی	-5428
▁محل	-5429
▁گون	-5430
▁جھگڑ	-5431
▁سادہ	-5432
▁فراز	-5433
▁پلاٹ	-5434
▁ہندی	-5435
▁نہایت	-5436
▁واقعی	-5437
▁پیکیج	-5438
▁مخالفین	-5439
▁اختلافات	-5440
تع	-5441
دوس	-5442
فیظ	-5443
▁چر	-5444
ریندر	-5445
کرینی	-5446
▁لانا	-5447
▁اعادہ	-5448
▁عقیدت	-5449
▁معصوم	-5450
▁اُنہیں	-5451
▁علامات	-5452
▁کنٹریکٹ	-5453
اعش	-5454
تیب	-5455
ریل	-5456
سرچ	-5457
پیر	-5458
▁فق	-5459
اہیں	-5460
▁میس	-5461
▁کوڈ	-5462
▁بڑھت	-5463
▁دینی	-5464
▁لطیف	-5465
▁پنشن	-5466
▁خاموشی	-5467
حر	-5468
ڑہ	-5469
ھیر	-5470
راضی	-5471
سٹور	-5472
▁تشہ	-5473
▁تھر	-5474
▁فیل	-5475
▁ڈول	-5476
▁یوں	-5477
▁لگات	-5478
▁نجات	-5479
▁گہری	-5480
▁شاعری	-5481
▁عسکری	-5482
▁منایا	-5483
▁منتظر	-5484
▁فٹبالر	-5485
دیپ	-5486
پہل	-5487
▁وض	-5488
▁ریپ	-5489
▁پڑن	-5490
▁گود	-5491
مینان	-5492
▁مغوی	-5493
▁ٹھوس	-5494
▁گھڑی	-5495
▁الیون	-5496
▁انٹرا	-5497
▁اوپنر	-5498
▁جونیر	-5499
▁فرینڈ	-5500
▁مقاصد	-5501
▁ایڈواز	-5502
▁مستعفی	-5503
▁عمارتوں	-5504
▁نفسیاتی	-5505
لن	-5506
ستور	-5507
لاقی	-5508
▁ضابط	-5509
▁اسٹیج	-5510
▁بلندی	-5511
▁جھگڑا	-5512
▁لارجر	-5513
▁مشتعل	-5514
▁ٹاؤن	-5515
▁کرانا	-5516
▁تاجروں	-5517
▁لواحقین	-5518
نش	-5519
پیپلز	-5520
▁زیور	-5521
▁سیرت	-5522
▁شکیل	-5523
▁کاٹن	-5524
▁ہواں	-5525
▁اراضی	-5526
▁عارضی	-5527
▁ورانہ	-5528
▁وٹامن	-5529
▁مینڈیٹ	-5530
▁انسانیت	-5531
▁خواہشات	-5532
▁قبرستان	-5533
▁وزیرستان	-5534
سات	-5535
▁کُ	-5536
ُنیا	-5537
ڈرنگ	-5538
ینیز	-5539
▁دوں	-5540
▁فصل	-5541
▁میٹ	-5542
▁ویل	-5543
▁الہی	-5544
▁ججوں	-5545
▁روٹی	-5546
▁ٹویٹ	-5547
▁کلچر	-5548
▁برتری	-5549
▁شجاعت	-5550
زک	-5551
فن	-5552
▁بق	-5553
▁مسی	-5554
▁ایپل	-5555
▁بھال	-5556
▁تبصر	-5557
▁وجود	-5558
▁اقسام	-5559
▁تحویل	-5560
▁دشمنی	-5561
▁عوامل	-5562
▁کرچکی	-5563
▁گنجاش	-5564
▁کتابیں	-5565
اسٹر	-5566
▁نمٹ	-5567
▁مرمت	-5568
▁مصنف	-5569
▁ایلون	-5570
▁بچیوں	-5571
▁جمعیت	-5572
▁مرحلہ	-5573
▁ویرات	-5574
▁بارودی	-5575
▁رجسٹرڈ	-5576
▁مقتولہ	-5577
▁پٹرولیم	-5578
▁دہشتگردوں	-5579
▁وزیراطلاعات	-5580
سیف	-5581
سلام	-5582
▁لڑن	-5583
▁چوٹ	-5584
▁گہر	-5585
▁جتنی	-5586
▁دھار	-5587
▁عمرہ	-5588
▁لاگو	-5589
▁مینی	-5590
▁پہاڑ	-5591
▁پیچی	-5592
▁ڈھیر	-5593
▁النبی	-5594
▁پروٹی	-5595
▁پوانٹ	-5596
▁پڑوسی	-5597
▁گھیرا	-5598
▁اسٹارز	-5599
▁سیاستدان	-5600
غہ	-5601
بری	-5602
جنٹ	-5603
صرہ	-5604
کھر	-5605
گرا	-5606
▁چن	-5607
افتی	-5608
راپی	-5609
ینرز	-5610
▁بچت	-5611
▁صنم	-5612
▁ڈیل	-5613
▁گمش	-5614
▁غذای	-5615
▁فارن	-5616
▁ملنا	-5617
▁گزرن	-5618
آسٹری	-5619
▁آدمی	-5620
▁مایوس	-5621
▁ملاکہ	-5622
▁پہچان	-5623
▁کرینہ	-5624
▁زبردستی	-5625
رفت	-5626
وفی	-5627
▁لک	-5628
▁وبا	-5629
▁چھی	-5630
▁چیر	-5631
▁عاطف	-5632
▁عباد	-5633
▁لاحہ	-5634
▁لایں	-5635
▁کاپی	-5636
▁سمجھن	-5637
▁سڑکیں	-5638
▁فارمز	-5639
▁مجاہد	-5640
▁یہودی	-5641
▁اطمینان	-5642
▁انتونیو	-5643
حسن	-5644
گنا	-5645
تریس	-5646
▁دلو	-5647
▁وعد	-5648
وجودہ	-5649
▁آنا	-5650
▁سستی	-5651
▁پارہ	-5652
▁پیسر	-5653
رآباد	-5654
▁تناسب	-5655
▁تنویر	-5656
▁مستحق	-5657
▁ٹارگٹ	-5658
▁کھولن	-5659
▁حادثات	-5660
▁ذیابیطس	-5661
▁رونالڈو	-5662
▁لانڈرنگ	-5663
▁مقبولیت	-5664
▁برآمدات	-5665
فای	-5666
▁روٹ	-5667
▁کیچ	-5668
▁انیل	-5669
▁راکٹ	-5670
▁چوکی	-5671
▁گناہ	-5672
▁بیٹری	-5673
▁ریسرچ	-5674
▁ورکرز	-5675
▁پرعزم	-5676
▁انتشار	-5677
▁ایکساز	-5678
▁ہمایوں	-5679
▁اتحادیوں	-5680
داز	-5681
سیسی	-5682
یریا	-5683
▁محی	-5684
خزانہ	-5685
فیکشن	-5686
▁بگٹی	-5687
▁زلمی	-5688
▁صحیح	-5689
▁اسٹور	-5690
▁خودکش	-5691
▁دُنیا	-5692
▁راٹرز	-5693
▁سیکنڈ	-5694
▁استعفیٰ	-5695
احث	-5696
فیصل	-5697
▁دمی	-5698
▁نذر	-5699
▁پون	-5700
▁کما	-5701
▁جواز	-5702
▁مارک	-5703
▁واجد	-5704
▁وہیں	-5705
▁ٹیچر	-5706
▁گلگت	-5707
▁استاد	-5708
▁اسٹین	-5709
▁بلایا	-5710
▁تناظر	-5711
▁سنچری	-5712
▁کیفیت	-5713
▁اندراج	-5714
▁ایندھن	-5715
▁داریاں	-5716
▁راستوں	-5717
▁فلمساز	-5718
▁دستیابی	-5719
▁کرنیوال	-5720
اذ	-5721
حمل	-5722
دور	-5723
شور	-5724
وڑی	-5725
سانس	-5726
▁رین	-5727
▁نیو	-5728
▁الجھ	-5729
▁رفیق	-5730
▁لاحق	-5731
▁اروڑا	-5732
▁غیرمع	-5733
▁مراحل	-5734
▁مرحوم	-5735
▁امپورٹ	-5736
▁تقریبا	-5737
▁وارننگ	-5738
▁کارنامہ	-5739
▁پابندیاں	-5740
سہ	-5741
طر	-5742
طہ	-5743
ابو	-5744
میم	-5745
وٹن	-5746
▁خل	-5747
▁سع	-5748
▁نچ	-5749
▁رسی	-5750
▁واک	-5751
▁ایمب	-5752
▁باڈی	-5753
▁راہد	-5754
▁ملیر	-5755
▁بغاوت	-5756
▁ترتیب	-5757
▁شماری	-5758
▁متفقہ	-5759
▁نماند	-5760
▁اپنایا	-5761
▁ریسٹور	-5762
▁شہبازشریف	-5763
اث	-5764
سیز	-5765
قطع	-5766
نیب	-5767
پول	-5768
مولی	-5769
ویٹر	-5770
▁سمی	-5771
▁غزل	-5772
صدارت	-5773
ورنیا	-5774
▁فاتح	-5775
درآمد	-5776
موجودہ	-5777
▁فرحان	-5778
▁قرآن	-5779
▁لکھنا	-5780
▁نوٹسز	-5781
▁خوابوں	-5782
▁چیمپین	-5783
▁نقصانات	-5784
▁زیرصدارت	-5785
▁ِ	-5786
دیش	-5787
زیر	-5788
ٹیم	-5789
▁جٹ	-5790
▁پٹ	-5791
لیکس	-5792
چینی	-5793
▁سرخ	-5794
▁کرگ	-5795
▁رشوت	-5796
▁مزار	-5797
▁پہلو	-5798
▁پیشی	-5799
▁بتایں	-5800
▁ماسٹر	-5801
▁منقطع	-5802
▁میلاد	-5803
▁نریندر	-5804
▁ہوجاتا	-5805
▁ڈومیسٹک	-5806
تین	-5807
جین	-5808
مور	-5809
▁جع	-5810
بلین	-5811
ظاہر	-5812
میٹڈ	-5813
گاڑی	-5814
▁آتا	-5815
▁تقرر	-5816
▁سافٹ	-5817
▁چالڈ	-5818
▁چلتا	-5819
▁احسان	-5820
▁آرام	-5821
▁جاسکت	-5822
▁مباحث	-5823
▁ووٹنگ	-5824
▁ٹایگر	-5825
▁کرادی	-5826
▁داستان	-5827
▁کنونشن	-5828
▁پابندیوں	-5829
ومی	-5830
نانی	-5831
▁تمہ	-5832
▁ملب	-5833
داخلہ	-5834
▁بروز	-5835
▁بنتا	-5836
▁جیتا	-5837
▁نقاب	-5838
▁کینٹ	-5839
▁ابتدا	-5840
▁سیاحت	-5841
▁قربان	-5842
▁کرایں	-5843
▁گوادر	-5844
▁پیشرفت	-5845
سیکیورٹی	-5846
▁افواہیں	-5847
▁مزدوروں	-5848
▁کمپیوٹر	-5849
ٹاپ	-5850
▁چپ	-5851
گزین	-5852
▁ناج	-5853
▁کتن	-5854
▁تعزی	-5855
▁لنکن	-5856
▁ٹیرف	-5857
رانداز	-5858
▁ایڈمن	-5859
▁بالاد	-5860
▁مناظر	-5861
▁کریڈٹ	-5862
▁اسٹرکچر	-5863
▁خوشحالی	-5864
امت	-5865
شیک	-5866
سانی	-5867
▁اِن	-5868
▁لنک	-5869
▁اطہر	-5870
▁جموں	-5871
▁عماد	-5872
▁وغیر	-5873
▁گواہ	-5874
▁مشینری	-5875
▁حیدرباد	-5876
▁راہداری	-5877
▁انفارمیشن	-5878
درن	-5879
یبی	-5880
نیتی	-5881
گیند	-5882
▁تال	-5883
▁رحم	-5884
▁نرس	-5885
اندلی	-5886
▁ساجد	-5887
▁فالج	-5888
▁مچلک	-5889
▁نمون	-5890
▁وقاص	-5891
▁چاول	-5892
▁ڈیلی	-5893
▁کیٹی	-5894
▁اسپین	-5895
▁تفصیل	-5896
▁گینیز	-5897
▁جاپانی	-5898
پیٹ	-5899
فٹین	-5900
▁راز	-5901
▁عاب	-5902
▁مہر	-5903
▁واو	-5904
▁پرس	-5905
▁کھا	-5906
▁کھر	-5907
▁گنا	-5908
▁دستی	-5909
▁مفاہ	-5910
▁ڈراف	-5911
▁کتنا	-5912
▁اولین	-5913
▁خامنہ	-5914
▁پٹھان	-5915
▁گرانٹ	-5916
▁سیاحوں	-5917
بس	-5918
شو	-5919
برگ	-5920
▁شگ	-5921
ورتی	-5922
▁ذات	-5923
▁سوٹ	-5924
▁موی	-5925
▁کیر	-5926
▁رحیم	-5927
▁شفیق	-5928
زخمیوں	-5929
▁باتوں	-5930
▁برہمی	-5931
▁تسلسل	-5932
▁مختار	-5933
▁گذشتہ	-5934
▁اعتبار	-5935
▁سلیکٹر	-5936
▁گوتریس	-5937
▁پروازیں	-5938
▁ادایگیوں	-5939
امک	-5940
جمہ	-5941
▁ہج	-5942
اشیا	-5943
وایا	-5944
▁بوتل	-5945
▁حفیظ	-5946
▁وڈیو	-5947
شہریوں	-5948
متاثرہ	-5949
▁اگرچہ	-5950
▁بارود	-5951
▁بعداز	-5952
▁سپاہی	-5953
▁اخلاقی	-5954
▁کروایں	-5955
▁مقابلوں	-5956
افغانستان	-5957
افٹ	-5958
یری	-5959
▁بوا	-5960
▁دام	-5961
▁ریز	-5962
▁سنس	-5963
▁پتی	-5964
ویڈیو	-5965
▁اجزا	-5966
▁انجن	-5967
▁فریم	-5968
▁قابض	-5969
▁لایو	-5970
▁پرست	-5971
▁کرمن	-5972
▁انفرا	-5973
▁تبصرہ	-5974
▁مرکوز	-5975
▁پہاڑی	-5976
▁سلطانز	-5977
▁ڈراموں	-5978
▁دھاندلی	-5979
▁سرٹیفکیٹ	-5980
بیا	-5981
نیٰ	-5982
وقت	-5983
ٹیک	-5984
▁بذ	-5985
▁مشق	-5986
▁جزوی	-5987
▁حضرت	-5988
▁خسار	-5989
▁منصب	-5990
▁ہارٹ	-5991
▁ہنیہ	-5992
فٹیننٹ	-5993
▁طورپر	-5994
▁مانگن	-5995
▁واوڈا	-5996
▁انفرادی	-5997
▁نامناسب	-5998
انز	-5999
زلز	-6000
سینی	-6001
ٹیکس	-6002
▁بنت	-6003
▁پڑت	-6004
▁جلدی	-6005
▁دلہن	-6006
▁سراغ	-6007
پورٹرز	-6008
▁چارجز	-6009
▁چوتھی	-6010
▁الاعداد	-6011
▁یوکرینی	-6012
▁مانیٹرنگ	-6013
ڈک	-6014
ریم	-6015
سمت	-6016
محق	-6017
ناس	-6018
سمنٹ	-6019
مریم	-6020
▁الخ	-6021
▁موڑ	-6022
▁نمی	-6023
▁چرا	-6024
▁گھس	-6025
انہوں	-6026
▁فارغ	-6027
▁لیتا	-6028
▁پڑھن	-6029
▁پھٹن	-6030
▁پیرا	-6031
▁کہتا	-6032
▁بیانی	-6033
▁جنگلی	-6034
▁رکنیت	-6035
▁رہنمای	-6036
▁کلیرنس	-6037
انٹربینک	-6038
▁بدقسمتی	-6039
▁پراسیکیوشن	-6040
نیز	-6041
اسپی	-6042
الٹی	-6043
ریقی	-6044
▁اشر	-6045
▁انع	-6046
▁رٹس	-6047
▁رضاک	-6048
▁سولر	-6049
▁لمبی	-6050
▁میسی	-6051
▁گیٹس	-6052
محققین	-6053
▁برطرف	-6054
▁امریکہ	-6055
▁بعدازاں	-6056
▁ضروریات	-6057
بود	-6058
▁رٹ	-6059
زدگی	-6060
مقدم	-6061
▁بدن	-6062
▁خیل	-6063
▁رند	-6064
▁عقی	-6065
▁مرچ	-6066
▁گوج	-6067
▁اکیڈ	-6068
▁بحری	-6069
▁بریت	-6070
▁عامہ	-6071
▁عروج	-6072
▁میٹا	-6073
ماہرین	-6074
▁احوال	-6075
▁اسٹال	-6076
▁بہادر	-6077
▁زمینی	-6078
▁سکندر	-6079
▁وغیرہ	-6080
▁آزماش	-6081
▁دیرینہ	-6082
▁زبانوں	-6083
▁علیحدہ	-6084
▁تنازعات	-6085
▁رکاوٹیں	-6086
▁یرغمالی	-6087
▁نوازشریف	-6088
گال	-6089
انسی	-6090
▁بیت	-6091
▁گرج	-6092
▁احاط	-6093
▁خطوط	-6094
▁سیال	-6095
▁فہمی	-6096
▁نوشی	-6097
▁چھپا	-6098
▁چیمہ	-6099
▁کالی	-6100
اہلکار	-6101
▁زمانہ	-6102
▁موٹرو	-6103
▁مویشی	-6104
▁بیانیہ	-6105
▁جوانوں	-6106
▁مایکرو	-6107
▁تعطیلات	-6108
▁بالادستی	-6109
لّ	-6110
ہرا	-6111
نڈنٹ	-6112
▁سعد	-6113
▁مصد	-6114
▁ہڈی	-6115
▁انحص	-6116
▁لیول	-6117
▁مفتی	-6118
▁نعمت	-6119
انتخاب	-6120
▁آرہی	-6121
▁شیڈنگ	-6122
▁پارٹن	-6123
▁گارڈز	-6124
▁جویریہ	-6125
▁تنصیبات	-6126
▁کمپلیکس	-6127
ھان	-6128
▁عُ	-6129
رادف	-6130
غاری	-6131
▁انو	-6132
▁برج	-6133
▁جوش	-6134
▁لیپ	-6135
بیونل	-6136
▁آؤ	-6137
▁بابا	-6138
▁رحمت	-6139
▁شاعر	-6140
▁عادی	-6141
▁فیشل	-6142
▁میجر	-6143
▁میسر	-6144
▁ورکر	-6145
▁کنگز	-6146
▁استعف	-6147
▁انرجی	-6148
▁روابط	-6149
▁فالرز	-6150
▁لمیٹڈ	-6151
▁میتھی	-6152
▁وکٹیں	-6153
▁کیانی	-6154
▁ارپورٹ	-6155
▁خوفناک	-6156
▁سمجھتا	-6157
▁مایوسی	-6158
▁مترادف	-6159
▁چھلانگ	-6160
▁اقلیتوں	-6161
▁تبدیلیاں	-6162
اشا	-6163
لیر	-6164
ھیل	-6165
اپنی	-6166
دردی	-6167
▁امل	-6168
▁سوم	-6169
تستان	-6170
سیکنڈ	-6171
▁بولن	-6172
▁تارک	-6173
▁تقار	-6174
▁کھلی	-6175
▁جھوٹی	-6176
▁حاملہ	-6177
▁فوراً	-6178
▁گامزن	-6179
▁جامعات	-6180
▁پنجابی	-6181
▁آنکھوں	-6182
▁فنانسنگ	-6183
▁یوٹیوبر	-6184
▁وزیرداخلہ	-6185
سون	-6186
سمین	-6187
لیاں	-6188
▁الم	-6189
اقوام	-6190
کوٹکس	-6191
گریزی	-6192
▁ایسٹ	-6193
▁بریک	-6194
▁زاہد	-6195
▁سردی	-6196
▁سکھر	-6197
▁لیڈی	-6198
▁پیما	-6199
▁سگریٹ	-6200
▁درمدات	-6201
▁زبردست	-6202
▁مشاہدہ	-6203
▁پریمیر	-6204
▁انفیکشن	-6205
▁انگریزی	-6206
▁نارکوٹکس	-6207
صب	-6208
پڑ	-6209
انڈ	-6210
دھا	-6211
رہی	-6212
سٹی	-6213
مای	-6214
ندرز	-6215
▁ابیب	-6216
▁جانن	-6217
▁حماد	-6218
▁روہت	-6219
▁مطمن	-6220
▁پھوڑ	-6221
▁چہرہ	-6222
▁ڈانس	-6223
ترجمان	-6224
▁اولاد	-6225
▁تلاشی	-6226
▁داخلی	-6227
▁محبوب	-6228
▁اشتعال	-6229
▁بدستور	-6230
▁گووندا	-6231
▁بلتستان	-6232
▁عدالتیں	-6233
▁عملدرآمد	-6234
نید	-6235
پرا	-6236
▁کع	-6237
▁امر	-6238
▁اٹک	-6239
▁بٹھ	-6240
▁ریک	-6241
▁زہر	-6242
▁صفر	-6243
▁فای	-6244
داروں	-6245
▁بایو	-6246
▁رکشہ	-6247
▁ولیم	-6248
▁پالٹ	-6249
▁چینج	-6250
▁ڈیمو	-6251
▁آؤٹ	-6252
▁بدنام	-6253
▁تعزیت	-6254
▁حرمتی	-6255
▁ٹھکان	-6256
▁اشتہار	-6257
▁افریقی	-6258
▁خصوصاً	-6259
▁زیورات	-6260
▁مہینوں	-6261
▁کرایوں	-6262
▁پسندیدہ	-6263
▁غیرمعمولی	-6264
چول	-6265
▁الع	-6266
▁زخم	-6267
▁پمپ	-6268
▁ڈیو	-6269
▁جھڑپ	-6270
▁حامد	-6271
▁رمیز	-6272
▁سرور	-6273
▁طبقہ	-6274
▁عملہ	-6275
▁منصف	-6276
▁پروٹ	-6277
▁کلام	-6278
▁حلقوں	-6279
▁حوالہ	-6280
▁نااہل	-6281
▁پیمرا	-6282
▁چارٹر	-6283
▁گجرات	-6284
▁جارحانہ	-6285
▁خاندانوں	-6286
اما	-6287
تیں	-6288
فان	-6289
فیس	-6290
فیع	-6291
▁ڈن	-6292
ایٹڈ	-6293
▁خٹک	-6294
▁شرم	-6295
▁شکو	-6296
▁منع	-6297
▁ندا	-6298
▁ورد	-6299
▁پاں	-6300
اندھی	-6301
جنوبی	-6302
لوگوں	-6303
▁حمید	-6304
▁رانی	-6305
▁زبیر	-6306
▁زینت	-6307
▁مارخ	-6308
▁مشتا	-6309
▁پیپر	-6310
▁کھرب	-6311
▁روکنا	-6312
▁سانحہ	-6313
▁قادین	-6314
▁پرانا	-6315
▁پراپر	-6316
▁کلامی	-6317
امیدوار	-6318
انٹرنیٹ	-6319
▁ریاستوں	-6320
▁انکشافات	-6321
جک	-6322
لیت	-6323
▁ڈک	-6324
▁مغل	-6325
▁مور	-6326
ولینس	-6327
▁بنوں	-6328
▁بھڑک	-6329
▁بیرل	-6330
▁حصوں	-6331
▁ریجن	-6332
▁سارا	-6333
▁مدار	-6334
▁کرگی	-6335
فورنیا	-6336
▁اینکر	-6337
▁رومان	-6338
▁لیاری	-6339
▁مزاری	-6340
▁ناجاز	-6341
▁ہیڈکوچ	-6342
▁کیلیفورنیا	-6343
چن	-6344
▁ڑ	-6345
ظہر	-6346
متھ	-6347
منت	-6348
تھرز	-6349
ومنٹ	-6350
▁امب	-6351
▁انص	-6352
▁باک	-6353
▁داغ	-6354
▁مڈل	-6355
فہرست	-6356
▁مندر	-6357
▁پاکس	-6358
▁کمسن	-6359
گیندوں	-6360
▁بندرگ	-6361
▁بنگال	-6362
▁مدینہ	-6363
▁ٹریلر	-6364
اپوزیشن	-6365
▁تھراپی	-6366
▁رینکنگ	-6367
▁مکینوں	-6368
▁پھانسی	-6369
▁پراپرٹی	-6370
دھر	-6371
صیل	-6372
منو	-6373
تھرا	-6374
روسی	-6375
فوجی	-6376
▁اکن	-6377
▁روپی	-6378
▁سپرد	-6379
▁عجیب	-6380
▁نگار	-6381
▁کورس	-6382
▁گھٹن	-6383
ریکارڈ	-6384
▁اندھا	-6385
▁مانگا	-6386
▁مدنظر	-6387
▁مفتاح	-6388
▁ٹویٹر	-6389
▁کولمب	-6390
▁اسٹورز	-6391
▁کنٹینر	-6392
▁یرغمال	-6393
▁آلودگی	-6394
▁پیغامات	-6395
بیس	-6396
جنس	-6397
ہار	-6398
▁تذ	-6399
▁شق	-6400
سوسی	-6401
فاظت	-6402
▁ایز	-6403
▁سبق	-6404
▁شاپ	-6405
▁نجم	-6406
▁چھٹ	-6407
بلاول	-6408
مقامی	-6409
▁بازو	-6410
▁جھلک	-6411
▁صدقہ	-6412
▁عُمر	-6413
▁قافل	-6414
▁مقدس	-6415
▁گولہ	-6416
▁گھیر	-6417
▁ہلکی	-6418
▁ایٹمی	-6419
▁تعارف	-6420
▁رونما	-6421
▁پٹیشن	-6422
▁کیویز	-6423
رانوالہ	-6424
▁اثاثوں	-6425
▁آسانی	-6426
▁تخمینہ	-6427
▁تیاریاں	-6428
▁لیفٹیننٹ	-6429
کزی	-6430
گلو	-6431
ہیم	-6432
ذراع	-6433
زلزل	-6434
عامر	-6435
▁جال	-6436
▁دال	-6437
▁نمک	-6438
▁ویو	-6439
▁ٹنڈ	-6440
▁چتر	-6441
▁چنی	-6442
اسٹیٹ	-6443
تاریخ	-6444
شیانہ	-6445
▁اردن	-6446
▁تحاف	-6447
▁نہاد	-6448
▁جایگی	-6449
▁علیمہ	-6450
▁قابلِ	-6451
▁مارشل	-6452
▁ہاشمی	-6453
▁انحصار	-6454
▁بندیال	-6455
▁لبنانی	-6456
▁پرندوں	-6457
▁حکومتیں	-6458
▁درمیانی	-6459
▁لیجنڈری	-6460
▁پینتھرز	-6461
▁کرداروں	-6462
▁یادداشت	-6463
▁اعتراضات	-6464
بڑ	-6465
اعد	-6466
ثیر	-6467
ونک	-6468
گوی	-6469
▁شا	-6470
دانی	-6471
ریعہ	-6472
▁حرب	-6473
▁کپل	-6474
▁یکس	-6475
سیلاب	-6476
▁بلین	-6477
▁سکون	-6478
▁پڑیں	-6479
▁کہکش	-6480
▁الیاس	-6481
▁تہران	-6482
▁نمبرز	-6483
▁چیکنگ	-6484
▁ہیومن	-6485
▁قلندرز	-6486
▁ڈاریکٹ	-6487
▁کھیلوں	-6488
▁ابھیشیک	-6489
▁مارخورز	-6490
▁مہارتوں	-6491
▁یونایٹڈ	-6492
تج	-6493
سکی	-6494
ظاہ	-6495
ہنہ	-6496
▁نب	-6497
▁رخص	-6498
▁گھو	-6499
▁تمغہ	-6500
▁سانپ	-6501
▁سُپر	-6502
▁فلاٹ	-6503
▁مسلط	-6504
▁مغرب	-6505
▁ورژن	-6506
▁کاوش	-6507
▁ارباب	-6508
▁روپیہ	-6509
▁سویڈن	-6510
▁چھوڑا	-6511
▁کھیلت	-6512
▁اسٹوری	-6513
▁دورانی	-6514
▁فرانزک	-6515
▁مزاحیہ	-6516
▁پارٹنر	-6517
▁ہنگامہ	-6518
▁تیاریوں	-6519
▁معاہدوں	-6520
▁منصفانہ	-6521
▁دفترخارجہ	-6522
▁درخواستگزار	-6523
مج	-6524
اثر	-6525
مودی	-6526
▁تنز	-6527
▁فرض	-6528
▁کٹو	-6529
▁ہمت	-6530
▁بننا	-6531
▁جیمز	-6532
▁سافر	-6533
▁سینٹ	-6534
▁شاہی	-6535
▁لپیٹ	-6536
▁نظیر	-6537
▁وزنی	-6538
▁پلیر	-6539
▁گنتی	-6540
▁یورو	-6541
▁اسکاٹ	-6542
▁املاک	-6543
▁لگانا	-6544
▁مساجد	-6545
▁مشتاق	-6546
▁چھپای	-6547
▁تحقیقی	-6548
▁شفافیت	-6549
▁یاسمین	-6550
▁یوسفزی	-6551
▁فرانسیسی	-6552
▁ڈیپارٹمنٹ	-6553
سز	-6554
طف	-6555
ایل	-6556
بول	-6557
زین	-6558
شیخ	-6559
یای	-6560
ابھی	-6561
لینا	-6562
ندرہ	-6563
▁اکس	-6564
▁جاد	-6565
▁صبر	-6566
ارٹرز	-6567
وریڈا	-6568
▁برتن	-6569
▁خالص	-6570
▁کھات	-6571
▁بردار	-6572
▁بورڈز	-6573
▁بھیجی	-6574
▁منتظم	-6575
▁میچوں	-6576
▁پلانٹس	-6577
▁گیلانی	-6578
▁سفارشات	-6579
▁ایمبولینس	-6580
خال	-6581
مند	-6582
پال	-6583
کوں	-6584
▁گڈ	-6585
ادیہ	-6586
فرور	-6587
مراہ	-6588
وانی	-6589
▁غنی	-6590
▁قلب	-6591
▁ڈیز	-6592
▁ادبی	-6593
▁زیرِ	-6594
▁سوچا	-6595
▁شمال	-6596
▁پنجگ	-6597
▁ڈالی	-6598
▁کرپٹ	-6599
▁کھین	-6600
▁گیری	-6601
▁اسٹیک	-6602
▁اکٹھا	-6603
▁بزدار	-6604
▁حیدری	-6605
▁چوروں	-6606
▁ڈرافٹ	-6607
▁کامرس	-6608
▁مجرموں	-6609
▁اشرافیہ	-6610
▁وحشیانہ	-6611
▁کامیڈین	-6612
▁عہدیداروں	-6613
▁وزیرخزانہ	-6614
▁پروپیگنڈا	-6615
غر	-6616
پاب	-6617
چکی	-6618
▁نز	-6619
▁رنج	-6620
▁ٹیل	-6621
اریوں	-6622
▁انوش	-6623
▁اپار	-6624
▁ثاقب	-6625
▁دیہی	-6626
▁مدعو	-6627
▁پروم	-6628
▁ہجوم	-6629
▁انٹری	-6630
▁سلنڈر	-6631
▁سیارہ	-6632
▁مواصل	-6633
▁نارتھ	-6634
▁ہاسنگ	-6635
برطانوی	-6636
▁دورانیہ	-6637
▁کشمیریوں	-6638
بتہ	-6639
لیگ	-6640
▁بِ	-6641
مہنگ	-6642
ٹیشن	-6643
▁شنگ	-6644
▁ناخ	-6645
▁جیول	-6646
▁ساحل	-6647
▁ظہیر	-6648
▁فلور	-6649
▁ٹیزر	-6650
▁ہرگز	-6651
انسداد	-6652
▁جھوٹا	-6653
▁ملکیت	-6654
▁چھوٹا	-6655
▁گزارن	-6656
▁گلوبل	-6657
▁ہینڈل	-6658
▁جنگلات	-6659
▁میتھیو	-6660
▁نیلامی	-6661
▁پیشگوی	-6662
▁ریکارڈز	-6663
▁انجینرنگ	-6664
شع	-6665
ھم	-6666
بورڈ	-6667
حانی	-6668
فالٹ	-6669
یادہ	-6670
▁تہذ	-6671
▁سند	-6672
▁شوق	-6673
▁نین	-6674
حقیقت	-6675
▁بھری	-6676
▁زہرہ	-6677
▁ٹریب	-6678
حکومتی	-6679
▁بظاہر	-6680
▁ماتحت	-6681
▁مضمون	-6682
▁معذور	-6683
▁منگنی	-6684
▁نعمان	-6685
▁ہموار	-6686
▁احتیاط	-6687
▁بنادیا	-6688
▁مینیجر	-6689
▁ڈسچارج	-6690
▁گاندھی	-6691
▁ہمدردی	-6692
▁ڈیموکری	-6693
▁حیدرآباد	-6694
قار	-6695
قیر	-6696
نجی	-6697
ادیت	-6698
انکا	-6699
جعلی	-6700
سانہ	-6701
▁اَپ	-6702
▁ذہن	-6703
▁رکش	-6704
▁چکن	-6705
▁ڈری	-6706
▁اکٹھ	-6707
▁برہم	-6708
▁جعفر	-6709
▁سلای	-6710
▁شرمن	-6711
▁قلعہ	-6712
▁لکھی	-6713
▁نصیر	-6714
▁پرنٹ	-6715
▁چاقو	-6716
▁استحص	-6717
▁امتنا	-6718
▁باندھ	-6719
▁جیلوں	-6720
▁روایت	-6721
▁عبادت	-6722
▁مرتکب	-6723
▁مندوب	-6724
▁ورچول	-6725
▁ٹرمین	-6726
▁یکساں	-6727
▁امبانی	-6728
▁بذریعہ	-6729
▁کمیونی	-6730
▁سیالکوٹ	-6731
▁سینیٹرز	-6732
▁یرغمالیوں	-6733
ذی	-6734
ثرت	-6735
شبہ	-6736
شنا	-6737
طاف	-6738
▁تد	-6739
▁رگ	-6740
طلبا	-6741
▁فلا	-6742
▁معز	-6743
▁پھٹ	-6744
▁کاز	-6745
▁اثنا	-6746
▁جرمن	-6747
▁داعش	-6748
▁زیرو	-6749
▁شرپس	-6750
▁عابد	-6751
▁عزام	-6752
▁محاذ	-6753
▁محیط	-6754
▁وارڈ	-6755
▁ٹیبل	-6756
▁پہنن	-6757
▁استری	-6758
▁جانتا	-6759
▁ریڈیو	-6760
▁فیچرز	-6761
▁پندرہ	-6762
▁چیزوں	-6763
▁کنویں	-6764
▁اکیڈمی	-6765
▁مددگار	-6766
▁ٹرانسفر	-6767
ڈرن	-6768
انتظ	-6769
صادم	-6770
▁دیہ	-6771
▁فیز	-6772
▁چیٹ	-6773
▁ہند	-6774
▁بلان	-6775
▁بھرا	-6776
▁بھٹی	-6777
▁حبیب	-6778
▁شکوہ	-6779
▁عادت	-6780
▁مردم	-6781
▁ٹاور	-6782
▁پرسن	-6783
▁پنڈی	-6784
▁پہنا	-6785
▁بچایا	-6786
▁تشہیر	-6787
▁تنزلی	-6788
▁ضابطہ	-6789
▁عہدوں	-6790
▁مشتبہ	-6791
▁نیپال	-6792
▁اصولوں	-6793
▁شنگھای	-6794
▁تعمیرات	-6795
▁وارداتیں	-6796
سکو	-6797
لوم	-6798
منصوب	-6799
▁درجن	-6800
▁راٹس	-6801
▁صدیق	-6802
▁مانڈ	-6803
▁ویلی	-6804
▁پچاس	-6805
▁کثرت	-6806
ایگیاں	-6807
▁اٹھای	-6808
▁بیٹھا	-6809
▁تحصیل	-6810
▁جنھیں	-6811
▁زلزلہ	-6812
▁سزایں	-6813
▁مردان	-6814
▁نکلیں	-6815
▁ٹیکسز	-6816
▁کرایہ	-6817
▁ایڈیشن	-6818
▁ٹرینوں	-6819
▁ٹیکسوں	-6820
▁گمشدگی	-6821
▁اسٹیشنز	-6822
▁دہندگان	-6823
▁فالوورز	-6824
نیا	-6825
وڑا	-6826
▁کف	-6827
حملہ	-6828
خبری	-6829
کوان	-6830
▁اعص	-6831
▁ٹاس	-6832
▁ڈسپ	-6833
▁برقی	-6834
▁تنہا	-6835
▁دراز	-6836
▁ذرات	-6837
▁ساکھ	-6838
▁سماج	-6839
▁نگاہ	-6840
▁ڈیرہ	-6841
▁کسان	-6842
▁ہلال	-6843
▁اعوان	-6844
▁بناتا	-6845
▁لمحات	-6846
▁اکنامک	-6847
▁بڑھانا	-6848
▁تھانوں	-6849
▁ضروریہ	-6850
▁معیاری	-6851
▁خوشخبری	-6852
مغ	-6853
رہا	-6854
مرد	-6855
وند	-6856
ایوان	-6857
▁قسمت	-6858
▁ملکر	-6859
▁ممنو	-6860
▁ڈھان	-6861
▁گرہن	-6862
ونیشیا	-6863
▁اسٹیل	-6864
▁بلدیہ	-6865
▁میوزی	-6866
▁پوسٹر	-6867
▁اورنگی	-6868
▁اولمپک	-6869
▁آمدنی	-6870
▁ڈیفالٹ	-6871
جل	-6872
سٹل	-6873
سٹن	-6874
ولہ	-6875
حماس	-6876
صارف	-6877
نڈوں	-6878
نیکل	-6879
▁شبہ	-6880
▁عشق	-6881
▁ندی	-6882
▁کیش	-6883
▁براز	-6884
▁بسوں	-6885
▁بشیر	-6886
▁جایا	-6887
▁ناسا	-6888
▁ٹریڈ	-6889
▁ڈوگر	-6890
▁کوری	-6891
مولانا	-6892
▁بہنوی	-6893
▁زارین	-6894
▁منحرف	-6895
▁کٹوتی	-6896
▁انصاری	-6897
▁ثقافتی	-6898
▁استحصال	-6899
▁باشندوں	-6900
▁کنٹینرز	-6901
ڑو	-6902
برا	-6903
ندا	-6904
ٹرا	-6905
کاز	-6906
کرن	-6907
ینٹ	-6908
جنرل	-6909
▁ساح	-6910
یہونی	-6911
▁اشتر	-6912
▁سنگل	-6913
▁شبلی	-6914
▁فلیٹ	-6915
▁متحد	-6916
▁منای	-6917
ابتدای	-6918
ظاہرین	-6919
▁تھیٹر	-6920
▁دستبر	-6921
▁سہارا	-6922
▁خواہاں	-6923
▁سیوریج	-6924
▁عبدالع	-6925
▁فسادات	-6926
▁پاسدار	-6927
▁روزگاری	-6928
▁فانڈیشن	-6929
▁کینیڈین	-6930
▁ایڈوازری	-6931
▁سیکریٹریٹ	-6932
ظی	-6933
سول	-6934
▁خی	-6935
▁فش	-6936
ازنہ	-6937
ثنیٰ	-6938
پلان	-6939
▁لاک	-6940
▁نشہ	-6941
▁نیم	-6942
▁برسی	-6943
▁دریں	-6944
▁دیول	-6945
▁وینی	-6946
▁پردہ	-6947
▁کلیم	-6948
▁گنیز	-6949
یوکرین	-6950
▁آلات	-6951
▁بیٹھن	-6952
▁منیجر	-6953
▁مہینہ	-6954
▁پھیپھ	-6955
▁چلایا	-6956
▁بیلسٹک	-6957
▁پروٹین	-6958
▁سیکرٹریٹ	-6959
اسل	-6960
ٹکا	-6961
ٹیز	-6962
پنگ	-6963
▁بص	-6964
▁حس	-6965
▁ذی	-6966
دنوں	-6967
پورہ	-6968
▁اِس	-6969
▁برب	-6970
▁لطف	-6971
▁لود	-6972
▁نوش	-6973
اسٹار	-6974
ہفتوں	-6975
▁بچپن	-6976
▁راضی	-6977
▁سرنگ	-6978
▁مجید	-6979
▁نبوی	-6980
▁ویزہ	-6981
▁بشمول	-6982
▁بلڈنگ	-6983
▁دراصل	-6984
▁درانی	-6985
▁سنسنی	-6986
▁شیلنگ	-6987
▁صوابی	-6988
▁پلینگ	-6989
▁چینلز	-6990
▁اردوان	-6991
▁بینکنگ	-6992
▁طریقوں	-6993
▁ریٹرننگ	-6994
▁وزارتوں	-6995
▁تعمیراتی	-6996
▁ریگولیٹری	-6997
ھو	-6998
جلس	-6999
ڈھی	-7000
▁فط	-7001
▁ڈپ	-7002
▁سسر	-7003
▁ناچ	-7004
▁نوا	-7005
▁پام	-7006
شورنس	-7007
صولات	-7008
مبارک	-7009
▁باقر	-7010
▁بدلن	-7011
▁بھوک	-7012
▁جبری	-7013
▁خوری	-7014
▁طلبی	-7015
▁علیم	-7016
▁علیہ	-7017
▁مہتا	-7018
▁کونس	-7019
▁دلجیت	-7020
▁دوسان	-7021
ملازمین	-7022
▁ایجنڈا	-7023
▁باقیات	-7024
▁مطلوبہ	-7025
▁کروانا	-7026
▁کہکشاں	-7027
▁امتحانی	-7028
▁ادایگیاں	-7029
ڑن	-7030
خلا	-7031
وجا	-7032
کسن	-7033
امین	-7034
بابر	-7035
ماٹر	-7036
▁ادھ	-7037
▁عدی	-7038
دھماک	-7039
مخصوص	-7040
معاشی	-7041
▁باغی	-7042
▁عقیل	-7043
▁معاش	-7044
▁ناگز	-7045
▁نواب	-7046
▁کوچز	-7047
▁گردن	-7048
عدالتی	-7049
مریضوں	-7050
نٹنڈنٹ	-7051
▁اسمتھ	-7052
▁تشریح	-7053
▁خلیوں	-7054
▁قوتوں	-7055
▁پیروی	-7056
▁گیروں	-7057
▁اسٹوکس	-7058
▁بہادری	-7059
▁میگزین	-7060
▁کانپور	-7061
▁دکاندار	-7062
▁قربانیوں	-7063
▁ہدایتکار	-7064
غب	-7065
اصر	-7066
اقف	-7067
قتل	-7068
▁چٹ	-7069
زدوا	-7070
▁حوث	-7071
▁فہد	-7072
▁آلہ	-7073
▁بہان	-7074
▁تامل	-7075
▁توڑن	-7076
▁شوٹر	-7077
▁علمی	-7078
▁مظہر	-7079
▁مہاج	-7080
▁نسلی	-7081
▁چڑھا	-7082
▁کابل	-7083
▁کاشف	-7084
▁کھاد	-7085
▁کیپس	-7086
▁یابی	-7087
▁ازدوا	-7088
▁آرای	-7089
▁سیمنٹ	-7090
▁قبالی	-7091
▁چھینن	-7092
▁گلیڈی	-7093
▁انتقام	-7094
▁انچارج	-7095
▁اٹھانا	-7096
▁بیٹیوں	-7097
▁سایکلیں	-7098
▁کیٹیگری	-7099
مص	-7100
اوا	-7101
اکو	-7102
ججز	-7103
ستر	-7104
سلو	-7105
پرز	-7106
اریہ	-7107
کردہ	-7108
▁شیش	-7109
▁منج	-7110
▁ناپ	-7111
▁ڈیڈ	-7112
تقریب	-7113
▁بھرن	-7114
▁تھای	-7115
▁رانڈ	-7116
▁قادر	-7117
▁کالز	-7118
پابندی	-7119
▁تعطیل	-7120
▁جانوں	-7121
▁خریدی	-7122
▁دانیہ	-7123
▁سرحدی	-7124
▁نادیہ	-7125
▁ترجیحی	-7126
▁ناممکن	-7127
▁اپارٹمنٹ	-7128
▁سیاستدانوں	-7129
افظ	-7130
بوں	-7131
زدہ	-7132
سبت	-7133
لاز	-7134
ڑھی	-7135
مارک	-7136
▁حرف	-7137
▁نقد	-7138
▁نقش	-7139
▁کوک	-7140
▁گرل	-7141
مبابو	-7142
نگراں	-7143
▁ایکڑ	-7144
▁تماش	-7145
▁مسود	-7146
▁مشور	-7147
▁کانت	-7148
▁کثیر	-7149
▁گریج	-7150
درلینڈ	-7151
▁آپشن	-7152
▁جنھوں	-7153
▁روبرو	-7154
▁شگفتہ	-7155
▁عافیہ	-7156
▁منشور	-7157
▁چھینی	-7158
▁اشتراک	-7159
▁انعامی	-7160
▁بڑھایا	-7161
▁ستاروں	-7162
▁واجبات	-7163
▁انتہاپس	-7164
▁سرفہرست	-7165
▁محصولات	-7166
▁رہنماؤں	-7167
قد	-7168
مک	-7169
بیل	-7170
تھک	-7171
میرا	-7172
نہیں	-7173
▁روا	-7174
▁شاخ	-7175
▁فکس	-7176
انصاف	-7177
▁اذیت	-7178
▁زیدی	-7179
صارفین	-7180
▁بہبود	-7181
▁تہذیب	-7182
▁لگادی	-7183
▁مینار	-7184
▁کمانڈ	-7185
▁تارکین	-7186
▁تقاریر	-7187
▁روانگی	-7188
▁ٹرمینل	-7189
▁یادگار	-7190
▁اختتامی	-7191
▁پاسداران	-7192
▁ڈپارٹمنٹ	-7193
خل	-7194
اقی	-7195
ثاق	-7196
ریڈ	-7197
نیک	-7198
کتہ	-7199
ینس	-7200
▁تض	-7201
رامن	-7202
رکات	-7203
کاسی	-7204
▁سرغ	-7205
▁عشر	-7206
▁واہ	-7207
▁ٹکڑ	-7208
▁گشت	-7209
آینی	-7210
▁بسیں	-7211
▁بھجو	-7212
▁رضام	-7213
▁صراف	-7214
▁معین	-7215
▁نقطہ	-7216
▁نکات	-7217
▁پکڑا	-7218
▁پیکج	-7219
▁گالی	-7220
▁الطاف	-7221
▁آمیز	-7222
▁ایٹرز	-7223
▁بیٹوں	-7224
▁صحافت	-7225
▁کرچکا	-7226
▁کنگنا	-7227
▁اندھیر	-7228
▁مناسبت	-7229
▁گورنمنٹ	-7230
▁پروٹیکشن	-7231
تاً	-7232
ویو	-7233
اؤں	-7234
جہاں	-7235
دوسر	-7236
▁غصہ	-7237
▁لاب	-7238
▁لکی	-7239
▁مکی	-7240
▁وضع	-7241
▁چرچ	-7242
▁ڈیپ	-7243
شاہین	-7244
▁ادھر	-7245
▁حاجی	-7246
▁دلان	-7247
▁فینز	-7248
▁لازم	-7249
▁موخر	-7250
▁مونس	-7251
▁میان	-7252
▁کرنل	-7253
مہنگای	-7254
▁البتہ	-7255
▁ایدھی	-7256
▁بازوں	-7257
▁فقدان	-7258
▁مفرور	-7259
▁پتھرا	-7260
▁پسمان	-7261
▁کنندہ	-7262
▁ہارون	-7263
▁برداری	-7264
▁خوفزدہ	-7265
▁دشواری	-7266
▁صنعتوں	-7267
▁متصادم	-7268
▁موازنہ	-7269
▁ناگزیر	-7270
▁نشریات	-7271
بیہ	-7272
ظیر	-7273
عبد	-7274
قول	-7275
ٹرل	-7276
گنی	-7277
یون	-7278
▁سٹ	-7279
سناک	-7280
وریہ	-7281
▁تحف	-7282
▁فین	-7283
▁فیک	-7284
▁گرڈ	-7285
دوران	-7286
زیادہ	-7287
▁اصغر	-7288
▁آپس	-7289
▁بستی	-7290
▁تسلی	-7291
▁عمیر	-7292
ملاقات	-7293
▁ارشاد	-7294
▁بالنگ	-7295
▁بحیرہ	-7296
▁بدتمی	-7297
▁دعایں	-7298
▁ریٹرن	-7299
▁شارجہ	-7300
▁صرافہ	-7301
▁پڑتال	-7302
▁کپڑوں	-7303
▁گودام	-7304
مظاہرین	-7305
▁بحفاظت	-7306
▁شہزادہ	-7307
▁ورزیوں	-7308
▁چھٹیاں	-7309
▁انشورنس	-7310
▁اداکاراں	-7311
خیبرپختونخوا	-7312
بش	-7313
لڑ	-7314
وو	-7315
افع	-7316
تاط	-7317
جوش	-7318
لاش	-7319
ٹرن	-7320
چوہ	-7321
راچی	-7322
نامی	-7323
ڈپٹی	-7324
کٹیو	-7325
▁ہتک	-7326
▁حجاب	-7327
▁سعود	-7328
▁شمسی	-7329
▁فتنہ	-7330
▁ملکہ	-7331
▁مینٹ	-7332
▁ڈراپ	-7333
▁اچکزی	-7334
▁سواری	-7335
▁شوکاز	-7336
▁علامت	-7337
▁علامہ	-7338
▁محتاط	-7339
▁کرمنل	-7340
▁خودمخت	-7341
▁سعودیہ	-7342
▁بازاروں	-7343
▁خوشگوار	-7344
▁اشتہارات	-7345
خاص	-7346
شمہ	-7347
ماں	-7348
نگر	-7349
واض	-7350
▁رب	-7351
▁حبا	-7352
▁صام	-7353
▁ملر	-7354
▁کتب	-7355
▁کلپ	-7356
برسوں	-7357
کستان	-7358
▁براد	-7359
▁بلاگ	-7360
▁سوتی	-7361
▁شعور	-7362
▁محفل	-7363
▁مریخ	-7364
▁کلنگ	-7365
▁کمرہ	-7366
سوسناک	-7367
▁جوانٹ	-7368
▁دباؤ	-7369
▁دھوکا	-7370
▁دیوگن	-7371
▁زخموں	-7372
▁عمریں	-7373
▁لودگی	-7374
▁منجمد	-7375
▁پھلوں	-7376
▁پیسوں	-7377
میگاواٹ	-7378
ویلپمنٹ	-7379
▁سیاحتی	-7380
▁ٹیکساس	-7381
▁فلوریڈا	-7382
▁چانسلرز	-7383
▁ہلاکتیں	-7384
▁گوجرانوالہ	-7385
زو	-7386
الب	-7387
اہٹ	-7388
بچی	-7389
جاپ	-7390
دیک	-7391
روش	-7392
سوی	-7393
صلہ	-7394
الوی	-7395
▁نون	-7396
▁پنڈ	-7397
▁گال	-7398
▁ہیٹ	-7399
مملکت	-7400
▁تنظی	-7401
▁مشرف	-7402
▁نیٹو	-7403
▁پروف	-7404
▁پیاز	-7405
▁چلتی	-7406
▁کہتی	-7407
▁گاہی	-7408
اختیار	-7409
انسانی	-7410
▁آگیں	-7411
▁اپنان	-7412
▁بلاگر	-7413
▁حسنین	-7414
▁فلاحی	-7415
▁واپڈا	-7416
▁کلیدی	-7417
▁اندرون	-7418
▁آسمان	-7419
▁ڈیواسز	-7420
▁کاروای	-7421
▁کمشنرز	-7422
▁ایڈوکیٹ	-7423
▁سپرنٹنڈنٹ	-7424
ِک	-7425
سیٹ	-7426
ژری	-7427
گیں	-7428
▁عق	-7429
▁مٹ	-7430
ادیں	-7431
ضمام	-7432
طیار	-7433
لڈنگ	-7434
گرین	-7435
▁بلز	-7436
▁رنا	-7437
▁شری	-7438
▁گیت	-7439
▁اونچ	-7440
▁بھلا	-7441
▁تذکر	-7442
▁خوار	-7443
▁رضوی	-7444
▁مکال	-7445
▁اندوز	-7446
▁بانڈز	-7447
▁بولرز	-7448
▁سانسی	-7449
▁سرغنہ	-7450
▁معاوض	-7451
نامعلوم	-7452
▁اسکولز	-7453
▁توقعات	-7454
▁دورانِ	-7455
▁نشانات	-7456
▁پیچیدہ	-7457
▁گھومتی	-7458
▁المبارک	-7459
▁بدتمیزی	-7460
▁منتظمین	-7461
▁مہمانوں	-7462
▁پھیپھڑوں	-7463
▁یونیورسٹیز	-7464
تب	-7465
لگ	-7466
سار	-7467
مشت	-7468
موسم	-7469
▁الٹ	-7470
▁ثال	-7471
▁جبر	-7472
▁عتی	-7473
▁چلت	-7474
▁چچا	-7475
▁کیک	-7476
ازمین	-7477
اضلاع	-7478
حالیہ	-7479
ہیونی	-7480
▁اڑان	-7481
▁بدلہ	-7482
▁بھتہ	-7483
▁بیچن	-7484
▁بیگم	-7485
▁جوکہ	-7486
▁راحت	-7487
▁صوفی	-7488
▁فروش	-7489
▁لمحہ	-7490
▁محکم	-7491
▁مخلو	-7492
▁مظفر	-7493
▁ہاؤ	-7494
اسپیکر	-7495
▁الاول	-7496
▁آڈیو	-7497
▁بالای	-7498
▁برباد	-7499
▁خریدا	-7500
▁ذیشان	-7501
برطانیہ	-7502
▁صیہونی	-7503
▁فرمایا	-7504
▁پُرامن	-7505
▁پارٹیوں	-7506
▁درآمدات	-7507
▁انٹیلیجنس	-7508
▁گرفتاریوں	-7509
شکر	-7510
منز	-7511
ناف	-7512
یام	-7513
▁ارض	-7514
▁انٹ	-7515
▁ذکا	-7516
منتخب	-7517
▁بتات	-7518
▁بیلٹ	-7519
▁راغب	-7520
▁رخصت	-7521
▁لوکل	-7522
▁مطلع	-7523
▁نبوت	-7524
▁کیجی	-7525
ایجنسی	-7526
ایرانی	-7527
▁اثاثہ	-7528
▁ازخود	-7529
▁آرہا	-7530
▁بہنوں	-7531
▁رناوت	-7532
▁سیفٹی	-7533
▁عنایت	-7534
▁عکاسی	-7535
▁ٹماٹر	-7536
▁پھیلن	-7537
▁گروپس	-7538
▁جہازوں	-7539
▁پارکنگ	-7540
▁پھینکن	-7541
▁کرادیا	-7542
▁سلایڈنگ	-7543
▁گرفتارکر	-7544
حید	-7545
ریٰ	-7546
ڈنی	-7547
باری	-7548
روال	-7549
مزید	-7550
نمبر	-7551
▁بقا	-7552
▁مضر	-7553
▁ویس	-7554
سیاست	-7555
▁اٹیک	-7556
▁بنگل	-7557
▁مسرت	-7558
▁مہیا	-7559
▁کانگ	-7560
▁کرسی	-7561
آسانی	-7562
نشستوں	-7563
▁تیلگو	-7564
▁سینسر	-7565
▁میثاق	-7566
▁پروٹو	-7567
▁پلازہ	-7568
▁پیشگی	-7569
▁ڈیجیٹ	-7570
▁ساتویں	-7571
▁پلاننگ	-7572
▁ڈیمانڈ	-7573
▁کترینہ	-7574
▁ایتھلیٹ	-7575
▁خصوصیات	-7576
▁رکاوٹوں	-7577
▁مظاہروں	-7578
بہت	-7579
روب	-7580
زوں	-7581
طلی	-7582
نڈم	-7583
ونت	-7584
کام	-7585
▁چہ	-7586
دفاع	-7587
رایڈ	-7588
شادی	-7589
واضح	-7590
ھیوں	-7591
یدگی	-7592
▁بوٹ	-7593
▁سمج	-7594
▁سیز	-7595
▁لاٹ	-7596
▁آفت	-7597
▁جہاد	-7598
▁دلوں	-7599
▁ماسک	-7600
▁مسٹر	-7601
▁مسیح	-7602
▁کعبہ	-7603
▁کھای	-7604
افسران	-7605
فیکیشن	-7606
ورلڈکپ	-7607
▁بحرین	-7608
▁بہاول	-7609
▁بیٹرز	-7610
▁مینگل	-7611
▁کانگو	-7612
▁کرگیا	-7613
▁گمراہ	-7614
مسافروں	-7615
▁اسکینڈ	-7616
▁امتناع	-7617
▁چورنگی	-7618
▁کنڈیشن	-7619
▁عبدالرح	-7620
▁ٹریبونل	-7621
آسٹریلیا	-7622
▁ایگزیکٹیو	-7623
فرق	-7624
کوف	-7625
یور	-7626
اصلہ	-7627
ریتی	-7628
سلان	-7629
لیٹس	-7630
▁زکر	-7631
▁چون	-7632
الدین	-7633
▁بیوہ	-7634
▁شفیع	-7635
▁قیاس	-7636
▁معزز	-7637
▁پنیر	-7638
▁کیوی	-7639
▁گرما	-7640
▁ہیرا	-7641
▁اسکین	-7642
▁جنگجو	-7643
▁دربار	-7644
▁فاصلہ	-7645
▁مایکل	-7646
▁پہلوں	-7647
اسٹرکچر	-7648
درلینڈز	-7649
▁انوشکا	-7650
▁بھجوان	-7651
▁کسانوں	-7652
▁افواہوں	-7653
▁ترجیحات	-7654
▁خاندانی	-7655
▁مجرمانہ	-7656
▁ایرپورٹس	-7657
▁پیداواری	-7658
حدہ	-7659
فنز	-7660
مچھ	-7661
ڈنٹ	-7662
ادار	-7663
ماضی	-7664
کرام	-7665
▁بھا	-7666
▁بہہ	-7667
▁بیج	-7668
▁جتن	-7669
▁رقص	-7670
▁محر	-7671
▁مکھ	-7672
سالوں	-7673
▁اجمل	-7674
▁درود	-7675
▁قدمی	-7676
▁کولی	-7677
▁اقدار	-7678
▁بالوں	-7679
▁بیجنگ	-7680
▁قسمتی	-7681
▁ولادت	-7682
▁ٹکران	-7683
▁چھپان	-7684
▁کانات	-7685
▁کنکشن	-7686
▁آفیسر	-7687
▁بنالیا	-7688
▁جاسوسی	-7689
▁سبزیوں	-7690
▁صہیونی	-7691
▁مفاہمت	-7692
▁مکالمہ	-7693
▁جینیاتی	-7694
▁سرپرستی	-7695
▁ایجنسیوں	-7696
▁کوالیفای	-7697
فور	-7698
فیو	-7699
نیف	-7700
▁گُ	-7701
فران	-7702
فواد	-7703
وبیا	-7704
▁جرا	-7705
▁راٹ	-7706
▁سُن	-7707
▁سگن	-7708
▁شاٹ	-7709
▁مٹھ	-7710
▁کنڈ	-7711
▁یاب	-7712
آندہ	-7713
رپورٹ	-7714
مقدمہ	-7715
▁بخار	-7716
▁بہار	-7717
▁جوڑا	-7718
▁حلفی	-7719
▁رجنی	-7720
▁شیری	-7721
▁عمان	-7722
▁غیرت	-7723
▁معال	-7724
▁ملبو	-7725
▁مہلک	-7726
▁ٹینس	-7727
▁پریڈ	-7728
▁پکڑن	-7729
▁کپاس	-7730
▁گہرا	-7731
▁انخلا	-7732
▁مساوی	-7733
▁نزدیک	-7734
▁پروفی	-7735
▁ڈھونڈ	-7736
▁کلینک	-7737
انگلینڈ	-7738
▁رابطوں	-7739
▁روایات	-7740
▁سینٹرز	-7741
▁ناکارہ	-7742
▁اوورسیز	-7743
▁قاتلانہ	-7744
▁موضوعات	-7745
▁پروپیگنڈ	-7746
▁انڈونیشیا	-7747
▁گرفتاریاں	-7748
ادا	-7749
ازم	-7750
باح	-7751
راک	-7752
رمی	-7753
ودھ	-7754
کیم	-7755
سکون	-7756
لفیر	-7757
▁سحر	-7758
▁فول	-7759
▁چھو	-7760
▁گلا	-7761
سیریز	-7762
ویلین	-7763
ہمارا	-7764
▁اکمل	-7765
▁جادو	-7766
▁جھلس	-7767
▁رسوم	-7768
▁ریفر	-7769
▁ساٹس	-7770
▁عمدہ	-7771
▁فرنٹ	-7772
▁مرغی	-7773
▁مزاج	-7774
▁چلیں	-7775
▁کندھ	-7776
▁سمجھو	-7777
▁شہریت	-7778
▁قواعد	-7779
▁متفرق	-7780
▁وکٹوں	-7781
▁ٹینڈر	-7782
▁ٹیکسی	-7783
▁ڈسکوز	-7784
▁الیکٹر	-7785
▁تخلیقی	-7786
▁سیٹلاٹ	-7787
▁غلطیوں	-7788
▁کھیلنا	-7789
▁کیپسول	-7790
▁بھرتیوں	-7791
▁لابریری	-7792
▁کمانڈرز	-7793
▁افسوسناک	-7794
اگل	-7795
عین	-7796
▁ہا	-7797
بیون	-7798
رایا	-7799
ودھا	-7800
▁دھڑ	-7801
▁سجا	-7802
▁سرگ	-7803
▁کچر	-7804
▁ہنس	-7805
▁تمنا	-7806
▁تھپڑ	-7807
▁شیخو	-7808
▁عینی	-7809
▁لڑکا	-7810
▁مسکر	-7811
▁معنی	-7812
▁ناکہ	-7813
▁ورکس	-7814
▁ویژن	-7815
▁پیدل	-7816
▁ڈیول	-7817
اراکین	-7818
انگیری	-7819
بارٹری	-7820
▁ایلیٹ	-7821
▁جھانس	-7822
▁معطلی	-7823
▁کارڈز	-7824
▁استعفی	-7825
▁افسروں	-7826
▁رضاکار	-7827
▁فیلڈنگ	-7828
▁کمزوری	-7829
▁کھیلیں	-7830
نوجوانوں	-7831
▁اعدادوش	-7832
▁جہانگیری	-7833
▁ماحولیات	-7834
تھا	-7835
روہ	-7836
سپل	-7837
معی	-7838
وسہ	-7839
کوی	-7840
▁عذ	-7841
▁ند	-7842
ایسا	-7843
▁قال	-7844
▁وان	-7845
اویزی	-7846
نیشنل	-7847
پرویز	-7848
ڑکانہ	-7849
ینیشن	-7850
▁اعضا	-7851
▁بیکٹ	-7852
▁جھنڈ	-7853
▁سایڈ	-7854
▁مجاز	-7855
▁پکڑی	-7856
▁چھری	-7857
▁اسکیل	-7858
▁الہٰی	-7859
▁اوراس	-7860
▁تجدید	-7861
▁خلیات	-7862
▁ٹیلنٹ	-7863
▁ڈایلا	-7864
▁کانٹی	-7865
▁کوشاں	-7866
▁ہٹایا	-7867
▁انضمام	-7868
▁سمجھنا	-7869
▁عملیوں	-7870
▁اسٹرایک	-7871
▁اسکیموں	-7872
▁اکثریتی	-7873
▁ٹیکنیکل	-7874
▁تنخواہیں	-7875
▁خواہشمند	-7876
▁ریکارڈنگ	-7877
▁پروٹوکول	-7878
▁خبرایجنسی	-7879
چل	-7880
یش	-7881
ریٹ	-7882
سکا	-7883
امان	-7884
وپیا	-7885
▁بور	-7886
▁حلق	-7887
▁کاج	-7888
▁آلو	-7889
▁بکنگ	-7890
▁جنید	-7891
▁حکمن	-7892
▁دھون	-7893
▁رقوم	-7894
▁عطیہ	-7895
▁فنان	-7896
▁قاصر	-7897
▁لیبر	-7898
▁منکی	-7899
▁نارو	-7900
▁وارث	-7901
▁وفات	-7902
▁پرچہ	-7903
▁ڈوبن	-7904
▁کچرا	-7905
▁گھوم	-7906
▁ہایڈ	-7907
طالبان	-7908
▁باکسر	-7909
▁کرسکی	-7910
▁ارسلان	-7911
▁اپیلوں	-7912
▁بدنیتی	-7913
▁پرتشدد	-7914
▁پویلین	-7915
▁ہوسکیں	-7916
▁سنجیدگی	-7917
▁ہراسانی	-7918
ِن	-7919
انو	-7920
صحت	-7921
مزد	-7922
▁رز	-7923
▁شن	-7924
ابیر	-7925
ردوس	-7926
مداح	-7927
کیوں	-7928
▁بزد	-7929
▁جرح	-7930
▁ساس	-7931
▁عاش	-7932
▁عین	-7933
▁مخر	-7934
▁نظم	-7935
▁پوپ	-7936
▁ڈور	-7937
▁گور	-7938
▁تاری	-7939
▁جیکب	-7940
▁دیشی	-7941
▁سمان	-7942
▁سونپ	-7943
▁غذاں	-7944
▁لوٹن	-7945
▁لیگل	-7946
▁مومن	-7947
▁مہرب	-7948
▁نیلم	-7949
▁یوتھ	-7950
اسکرین	-7951
▁ابرار	-7952
▁ارجنٹ	-7953
▁بناتی	-7954
▁تذکرہ	-7955
▁تیمور	-7956
▁ٹریول	-7957
▁ڈیلیٹ	-7958
▁اسلامک	-7959
▁افادیت	-7960
▁تنازعہ	-7961
▁شرمناک	-7962
▁عبدالغ	-7963
▁ویلفیر	-7964
▁ڈولفنز	-7965
▁گورننس	-7966
انتخابات	-7967
▁تعلیمات	-7968
▁سنبھالن	-7969
▁فوٹوفال	-7970
▁دستبردار	-7971
▁سربراہان	-7972
▁لیبارٹری	-7973
▁ڈویلپمنٹ	-7974
رق	-7975
رلر	-7976
سید	-7977
مرت	-7978
مسل	-7979
موٹ	-7980
▁ڈا	-7981
ماڑی	-7982
پانچ	-7983
یونی	-7984
▁خلل	-7985
▁دوم	-7986
▁لوہ	-7987
▁نیر	-7988
مینار	-7989
▁استغ	-7990
▁افزا	-7991
▁اینٹ	-7992
▁تہای	-7993
▁سرما	-7994
▁قدرت	-7995
▁مینز	-7996
▁وردی	-7997
▁ٹیوٹ	-7998
▁کالم	-7999
احتساب	-8000
وفیکچر	-8001
گاڑیوں	-8002
▁بنارہ	-8003
▁جلسوں	-8004
▁سرطان	-8005
▁سنگھم	-8006
▁مرچنٹ	-8007
▁ورکنگ	-8008
▁کیمرہ	-8009
▁یونٹس	-8010
▁الحرام	-8011
▁روحانی	-8012
▁زمبابو	-8013
▁ممنوعہ	-8014
▁مکانات	-8015
▁ہریتھک	-8016
▁انسدادِ	-8017
▁پاسداری	-8018
▁ایڈمنسٹری	-8019
▁یونیورسٹیوں	-8020
غل	-8021
گیس	-8022
یاض	-8023
اقان	-8024
الیس	-8025
اموش	-8026
ستگی	-8027
وٹھی	-8028
یثیت	-8029
▁بیڈ	-8030
▁حرا	-8031
▁دری	-8032
▁لور	-8033
▁ورث	-8034
▁چمن	-8035
پرواز	-8036
پورٹر	-8037
▁آکس	-8038
▁بیطس	-8039
▁جلوہ	-8040
▁ریان	-8041
▁لالچ	-8042
▁مانس	-8043
▁مہدی	-8044
▁وحید	-8045
▁وراث	-8046
▁وقوع	-8047
▁کٹہر	-8048
▁کھپت	-8049
▁ہانگ	-8050
▁انجمن	-8051
▁اوگرا	-8052
▁جاچکا	-8053
▁دلایا	-8054
▁زدگان	-8055
▁صداقت	-8056
▁منافی	-8057
▁نکالی	-8058
▁ٹینکر	-8059
▁کالجز	-8060
▁کمنٹی	-8061
▁تدابیر	-8062
▁دھماکہ	-8063
▁مضبوطی	-8064
▁میوزیم	-8065
▁چھالیہ	-8066
▁آرلینڈ	-8067
▁رومانوی	-8068
▁سایکلوں	-8069
▁سدھارتھ	-8070
▁ڈرایونگ	-8071
▁کیمیکلز	-8072
▁بیکٹیریا	-8073
اطب	-8074
اہت	-8075
قاد	-8076
منش	-8077
ایکڑ	-8078
قیدی	-8079
میکا	-8080
▁بحر	-8081
▁بگڑ	-8082
▁سای	-8083
▁غرض	-8084
▁قاف	-8085
▁قوی	-8086
▁ونڈ	-8087
▁ہاو	-8088
رادیا	-8089
شنکوف	-8090
▁انوی	-8091
▁آغا	-8092
▁بالغ	-8093
▁جیسن	-8094
▁دھوم	-8095
▁سفاک	-8096
▁نعرہ	-8097
▁واجب	-8098
▁پورہ	-8099
▁پٹیل	-8100
▁پکار	-8101
▁پیکا	-8102
▁گایڈ	-8103
▁گزین	-8104
▁ایپلی	-8105
▁شیریں	-8106
▁فارمی	-8107
▁کرسٹن	-8108
▁گزارش	-8109
▁جاسکیں	-8110
▁فوٹیجز	-8111
▁پروفال	-8112
بابراعظم	-8113
▁اجتماعات	-8114
▁کلاشنکوف	-8115
مذ	-8116
الح	-8117
بای	-8118
بند	-8119
جیم	-8120
قیہ	-8121
▁سز	-8122
▁مُ	-8123
اردو	-8124
اہری	-8125
زمرہ	-8126
وانس	-8127
وایں	-8128
وجسٹ	-8129
ویسی	-8130
ہندو	-8131
▁بدر	-8132
▁بکر	-8133
▁بہو	-8134
▁تدف	-8135
▁جدہ	-8136
▁جرن	-8137
▁جیب	-8138
▁فنی	-8139
▁فیر	-8140
▁واش	-8141
▁وسط	-8142
▁چیخ	-8143
▁کرر	-8144
▁کنس	-8145
▁کنی	-8146
نیوزی	-8147
ونمنٹ	-8148
▁ادیب	-8149
▁آرا	-8150
▁بالر	-8151
▁بھتی	-8152
▁جنوب	-8153
▁خورد	-8154
▁صفدر	-8155
▁معان	-8156
▁مندو	-8157
▁ٹکٹس	-8158
▁کووڈ	-8159
گلوکار	-8160
▁اشاعت	-8161
▁انیمل	-8162
▁اٹھات	-8163
▁جیکسن	-8164
▁خاقان	-8165
▁زرتاج	-8166
▁عنوان	-8167
▁فرمان	-8168
▁لغاری	-8169
▁لگایں	-8170
▁مطالب	-8171
▁معینہ	-8172
▁پردیش	-8173
▁کوریج	-8174
▁اوسطاً	-8175
▁رسومات	-8176
▁سرجانی	-8177
▁غریبوں	-8178
▁کولکتہ	-8179
▁اسکینڈل	-8180
▁رپورٹنگ	-8181
▁پریانکا	-8182
▁بااختیار	-8183
▁بیوروکری	-8184
▁خوبصورتی	-8185
▁کالیکٹرک	-8186
▁کامیابیوں	-8187
غیب	-8188
فقت	-8189
چند	-8190
یکم	-8191
ارشد	-8192
استع	-8193
آخر	-8194
ٹرین	-8195
▁تقو	-8196
▁جنت	-8197
▁دخل	-8198
▁شکن	-8199
▁مرب	-8200
▁نرم	-8201
ازیشن	-8202
الفاظ	-8203
ونسپل	-8204
▁اسکر	-8205
▁اولی	-8206
▁بلیو	-8207
▁ذیلی	-8208
▁رہوں	-8209
▁سالی	-8210
▁شکنی	-8211
▁لیتی	-8212
▁محتر	-8213
▁پرند	-8214
منشیات	-8215
▁احاطہ	-8216
▁اکاؤ	-8217
▁اکرام	-8218
▁ترغیب	-8219
▁تہوار	-8220
▁ساختہ	-8221
▁مامور	-8222
▁مسمار	-8223
▁کورٹس	-8224
▁کیپٹن	-8225
▁گانوں	-8226
▁ہاؤس	-8227
▁برازیل	-8228
▁رفتاری	-8229
▁زہریلی	-8230
▁سبزیاں	-8231
▁عبدالق	-8232
▁فنانشل	-8233
▁پہنچای	-8234
▁چھٹیوں	-8235
▁انقلابی	-8236
▁میزالوں	-8237
▁نشریاتی	-8238
▁اعدادوشمار	-8239
روڑ	-8240
سای	-8241
فین	-8242
لاج	-8243
ملز	-8244
نگل	-8245
ویہ	-8246
ڈور	-8247
▁عظ	-8248
▁وش	-8249
▁ٹم	-8250
رومی	-8251
ٹیوٹ	-8252
▁الب	-8253
▁جعل	-8254
▁جوز	-8255
▁ذرا	-8256
▁ریف	-8257
▁معت	-8258
▁وژن	-8259
ایشیا	-8260
▁جھیل	-8261
▁رافل	-8262
▁سراں	-8263
▁ضمیر	-8264
▁فایو	-8265
▁قطار	-8266
▁مہار	-8267
▁نکلی	-8268
▁ٹوٹن	-8269
▁کیشن	-8270
▁بڑھتا	-8271
▁جمشید	-8272
▁سیریل	-8273
▁نکھوں	-8274
▁چھیپا	-8275
▁اتھلیٹ	-8276
▁امپارز	-8277
▁خورشید	-8278
▁دارانہ	-8279
▁ریکوری	-8280
▁سمجھتی	-8281
پارلیمنٹ	-8282
▁انگوٹھی	-8283
▁رضامندی	-8284
▁اسمبلیوں	-8285
▁دستاویزی	-8286
▁شاہراہوں	-8287
ِس	-8288
اقہ	-8289
خیل	-8290
دیو	-8291
ریو	-8292
عاد	-8293
ٹسٹ	-8294
پتی	-8295
کور	-8296
دریج	-8297
لیوں	-8298
مسلح	-8299
مطال	-8300
نیات	-8301
▁جگر	-8302
▁ربی	-8303
▁شاب	-8304
▁شمع	-8305
▁پنک	-8306
▁چھڑ	-8307
▁ڈیر	-8308
▁کاس	-8309
▁کھج	-8310
امیوں	-8311
آرمی	-8312
ایونٹ	-8313
تینوں	-8314
ٹینشن	-8315
▁بانو	-8316
▁بھرت	-8317
▁دادا	-8318
▁سانی	-8319
▁ماڑی	-8320
▁نصیب	-8321
▁وقفہ	-8322
▁ٹامز	-8323
▁کالا	-8324
▁آبای	-8325
▁تقاضا	-8326
▁خانوں	-8327
▁راہول	-8328
▁سکھوں	-8329
▁نظریہ	-8330
▁پروین	-8331
▁ڈرونز	-8332
▁کیمرا	-8333
▁یاسین	-8334
▁استوار	-8335
▁اطالوی	-8336
▁بتدریج	-8337
▁متوازن	-8338
▁ڈایلاگ	-8339
▁ہرادیا	-8340
اہلکاروں	-8341
▁بندرگاہ	-8342
▁جانبدار	-8343
▁درحقیقت	-8344
▁نظریاتی	-8345
▁پراسرار	-8346
▁کپتانوں	-8347
▁گریڈیشن	-8348
امیدواروں	-8349
▁اینڈرایڈ	-8350
صح	-8351
ِٹ	-8352
بیح	-8353
جات	-8354
مست	-8355
ڈان	-8356
▁ضو	-8357
اسکو	-8358
لوار	-8359
لوان	-8360
یوٹی	-8361
▁الج	-8362
▁بچھ	-8363
▁بکھ	-8364
▁جیو	-8365
▁رُخ	-8366
▁لفٹ	-8367
▁ویک	-8368
▁پوش	-8369
▁چنا	-8370
▁گچھ	-8371
▁ہمہ	-8372
الینز	-8373
اننگز	-8374
شمالی	-8375
متحدہ	-8376
▁برکت	-8377
▁جیکٹ	-8378
▁ریسی	-8379
▁ریٹی	-8380
▁شیٹی	-8381
▁محرم	-8382
▁چادر	-8383
▁کروز	-8384
▁کوسٹ	-8385
▁ہاشم	-8386
▁اسپیڈ	-8387
▁بجھان	-8388
▁تدفین	-8389
▁تھرلر	-8390
▁ساحلی	-8391
▁ضوابط	-8392
▁لاٹھی	-8393
▁پرستی	-8394
▁کاظمی	-8395
▁گردشی	-8396
▁گرینڈ	-8397
▁ہفوٹو	-8398
▁تقاضوں	-8399
▁فروشوں	-8400
▁ملازمہ	-8401
▁موومنٹ	-8402
▁پذیرای	-8403
▁کیماڑی	-8404
▁استثنیٰ	-8405
▁دوسانجھ	-8406
▁سیمینار	-8407
▁لاڑکانہ	-8408
▁کنڈیشنز	-8409
دمت	-8410
روٹ	-8411
شکل	-8412
ظور	-8413
ماد	-8414
نگا	-8415
پھر	-8416
ھوپ	-8417
▁تگ	-8418
▁غا	-8419
جدید	-8420
ربیع	-8421
روسہ	-8422
موعی	-8423
نافذ	-8424
ڈاری	-8425
▁بگا	-8426
▁چسپ	-8427
▁گھی	-8428
▁یتی	-8429
متوفی	-8430
پلانٹ	-8431
▁تھرو	-8432
▁جذبہ	-8433
▁جلان	-8434
▁درہم	-8435
▁ریال	-8436
▁ریکو	-8437
▁زارا	-8438
▁فیاض	-8439
▁مدتی	-8440
▁کینگ	-8441
گولیاں	-8442
▁اروند	-8443
▁افراط	-8444
▁اوورز	-8445
▁ثالثی	-8446
▁جانیں	-8447
▁دلوای	-8448
▁روپوش	-8449
▁ریٹنگ	-8450
▁مشاور	-8451
▁مشقوں	-8452
▁ملالہ	-8453
▁ڈراما	-8454
▁اسکرپٹ	-8455
▁بالاتر	-8456
▁بحیثیت	-8457
▁سوالیہ	-8458
▁شہریار	-8459
▁ڈھانچہ	-8460
▁گورنرز	-8461
▁وابستگی	-8462
▁پروفیشنل	-8463
شام	-8464
میک	-8465
وصل	-8466
پین	-8467
کون	-8468
▁نن	-8469
▁گم	-8470
ابرڈ	-8471
رتیب	-8472
ریان	-8473
قیمت	-8474
گالی	-8475
یلنس	-8476
▁بحد	-8477
▁ضمن	-8478
▁فام	-8479
▁پرد	-8480
▁پلس	-8481
▁کلف	-8482
▁کوت	-8483
جزیرہ	-8484
ڈاکوں	-8485
▁ارجن	-8486
▁اگین	-8487
▁تھرڈ	-8488
▁حروف	-8489
▁دامی	-8490
▁فرسٹ	-8491
▁مجلس	-8492
▁ملٹی	-8493
▁نیوک	-8494
▁ٹیپو	-8495
▁کشای	-8496
▁برانچ	-8497
▁سنیما	-8498
▁لگاکر	-8499
▁مخاطب	-8500
▁موزوں	-8501
▁نسلوں	-8502
▁پھندا	-8503
ہایکورٹ	-8504
▁بارشیں	-8505
▁ایڈوانس	-8506
▁ریفرنڈم	-8507
▁سنگاپور	-8508
▁ناانصاف	-8509
▁بہاولپور	-8510
▁قربانیاں	-8511
▁کنٹونمنٹ	-8512
▁یونیفارم	-8513
شیم	-8514
یرز	-8515
▁دِ	-8516
الحق	-8517
ذافی	-8518
سویں	-8519
سیاں	-8520
▁اڑا	-8521
▁سہر	-8522
▁صبا	-8523
▁متھ	-8524
▁مخد	-8525
▁ٹیگ	-8526
غیانی	-8527
ٹریفک	-8528
▁اترن	-8529
▁آفر	-8530
▁بزدل	-8531
▁بلوم	-8532
▁بوری	-8533
▁جرات	-8534
▁جرگہ	-8535
▁عتیق	-8536
▁عدیل	-8537
▁غالب	-8538
▁قلبی	-8539
▁محرر	-8540
▁مشال	-8541
▁پینٹ	-8542
جمہوری	-8543
ریسکیو	-8544
▁بااثر	-8545
▁بطورِ	-8546
▁روانی	-8547
▁مسلمہ	-8548
▁نکلنا	-8549
▁چالیس	-8550
▁گلزار	-8551
▁گھران	-8552
▁ہوجان	-8553
▁دانتوں	-8554
▁دکانیں	-8555
▁عازمین	-8556
▁مچلکوں	-8557
▁میرپور	-8558
▁ایرلانز	-8559
▁سرگودھا	-8560
▁سینکڑوں	-8561
▁معاشرتی	-8562
▁ٹربیونل	-8563
▁شیخوپورہ	-8564
▁ایکسٹینشن	-8565
▁نوٹیفیکیشن	-8566
▁کمیونیکیشن	-8567
ّل	-8568
آن	-8569
جمع	-8570
وقی	-8571
کیہ	-8572
اتھن	-8573
انتہ	-8574
شہید	-8575
غانی	-8576
فاسٹ	-8577
لمنٹ	-8578
ولکر	-8579
پرسن	-8580
ڈیمز	-8581
▁باہ	-8582
▁برگ	-8583
▁بیش	-8584
▁تما	-8585
▁تمب	-8586
▁شرٹ	-8587
▁واچ	-8588
دوسری	-8589
▁بیسڈ	-8590
▁تحمل	-8591
▁سنہا	-8592
▁شامی	-8593
▁غازی	-8594
▁ویوز	-8595
▁ٹرسٹ	-8596
▁گونج	-8597
▁دھاوا	-8598
▁سعادت	-8599
▁موٹاپ	-8600
▁میٹرو	-8601
▁میڈلز	-8602
▁ٹھاکر	-8603
▁پروان	-8604
▁چترال	-8605
▁چلانا	-8606
▁چوہوں	-8607
الترتیب	-8608
▁اسلامو	-8609
▁آفتاب	-8610
▁آگاہی	-8611
▁اپنانا	-8612
▁ایونٹس	-8613
▁بزرگوں	-8614
▁روزمرہ	-8615
▁مگرمچھ	-8616
▁کھوکھر	-8617
▁گروپوں	-8618
▁میونسپل	-8619
▁اسٹالینز	-8620
▁آتشزدگی	-8621
▁آپریشنز	-8622
▁نظرانداز	-8623
▁انسٹیٹیوٹ	-8624
▁مینوفیکچر	-8625
بٹ	-8626
افہ	-8627
آل	-8628
اپی	-8629
تیش	-8630
تیہ	-8631
سلی	-8632
مرک	-8633
نیش	-8634
وما	-8635
صغیر	-8636
عارف	-8637
پہلی	-8638
یازی	-8639
▁بدع	-8640
▁جری	-8641
▁راد	-8642
▁عکس	-8643
▁نسو	-8644
▁وکی	-8645
اداری	-8646
عدلیہ	-8647
ودھری	-8648
ڈونلڈ	-8649
▁اگلا	-8650
▁بتان	-8651
▁بندھ	-8652
▁سوچن	-8653
▁سگنل	-8654
▁طلحہ	-8655
▁لگتی	-8656
▁مصدق	-8657
▁میسج	-8658
▁چارہ	-8659
▁کویت	-8660
▁کھود	-8661
اسپتال	-8662
زرلینڈ	-8663
▁اسامہ	-8664
▁باجوڑ	-8665
▁خارجی	-8666
▁محافظ	-8667
▁چلینج	-8668
▁کوبھی	-8669
▁ہانیہ	-8670
ڈاکوؤں	-8671
▁استثنا	-8672
▁باکسنگ	-8673
▁بینظیر	-8674
▁حکمراں	-8675
▁طغیانی	-8676
▁فراموش	-8677
▁پرایوٹ	-8678
▁کردیجی	-8679
▁اٹھادیا	-8680
▁سپلیمنٹ	-8681
▁فرنچازز	-8682
▁مشاورتی	-8683
▁ریسٹورنٹ	-8684
▁ملاقاتوں	-8685
▁ڈیولپمنٹ	-8686
تف	-8687
قرض	-8688
لوڈ	-8689
نین	-8690
ونز	-8691
وڑو	-8692
▁اث	-8693
▁جگ	-8694
▁نگ	-8695
طینہ	-8696
ممکن	-8697
ویلی	-8698
▁تان	-8699
▁جوت	-8700
▁جیا	-8701
▁جیز	-8702
▁دفن	-8703
▁عبر	-8704
▁لوں	-8705
خصوصی	-8706
معیشت	-8707
ملتان	-8708
▁الاح	-8709
▁انجم	-8710
▁اٹھی	-8711
▁جرنل	-8712
▁جلال	-8713
▁جھٹک	-8714
▁حوصل	-8715
▁سدرن	-8716
▁منور	-8717
▁نشتر	-8718
▁ڈپاز	-8719
▁کمنٹ	-8720
▁ہیلم	-8721
▁الادا	-8722
▁جانسن	-8723
▁جڑواں	-8724
▁لیویز	-8725
▁مدافع	-8726
▁نالوں	-8727
▁پارسل	-8728
▁پچھلی	-8729
▁اعزازی	-8730
▁اٹھایں	-8731
▁بندیوں	-8732
▁شرپسند	-8733
▁عبدالح	-8734
▁فاروقی	-8735
▁لانڈھی	-8736
▁نمونوں	-8737
سیکریٹری	-8738
▁براجمان	-8739
▁مصروفیات	-8740
▁ڈاریکٹرز	-8741
▁خودمختاری	-8742
لٹی	-8743
ڈرڈ	-8744
▁چُ	-8745
بوری	-8746
جانب	-8747
ربای	-8748
علاق	-8749
▁احد	-8750
▁تہہ	-8751
▁لرن	-8752
▁نعت	-8753
▁کہی	-8754
اسکول	-8755
تعلیم	-8756
معاہد	-8757
▁اینی	-8758
▁ایڈم	-8759
▁ایگز	-8760
▁توڑا	-8761
▁جونی	-8762
▁حالی	-8763
▁سونگ	-8764
▁شبیر	-8765
▁لیکس	-8766
▁مضاف	-8767
▁نالہ	-8768
▁نوری	-8769
▁وہیل	-8770
▁ٹریس	-8771
▁چراغ	-8772
▁گریپ	-8773
اہیوال	-8774
▁بنادی	-8775
▁بچانا	-8776
▁تنہای	-8777
▁سیکرٹ	-8778
▁عراقی	-8779
▁فردوس	-8780
▁کھجور	-8781
▁ہابرڈ	-8782
▁دشمنوں	-8783
▁دیکھتا	-8784
▁طوفانی	-8785
▁قاتلوں	-8786
▁ٹریکٹر	-8787
▁کیاگیا	-8788
▁یکطرفہ	-8789
▁امتیازی	-8790
▁انٹرٹین	-8791
▁دھمکیوں	-8792
▁دیوالیہ	-8793
▁طالبعلم	-8794
▁مزاحمتی	-8795
▁مواصلات	-8796
▁مارکیٹنگ	-8797
پیپلزپارٹی	-8798
▁نیدرلینڈز	-8799
▁ہدایتکاری	-8800
▁ایڈمنسٹریٹر	-8801
مم	-8802
حزب	-8803
ربا	-8804
موم	-8805
یوم	-8806
▁خم	-8807
▁کڑ	-8808
ادگی	-8809
انزٹ	-8810
اکشی	-8811
شاہد	-8812
منٹس	-8813
▁حاک	-8814
▁شای	-8815
▁عقل	-8816
▁قدی	-8817
▁پات	-8818
انہیں	-8819
اینٹی	-8820
جاوید	-8821
خواجہ	-8822
عوامی	-8823
فیصلہ	-8824
گرافر	-8825
▁بادل	-8826
▁بھان	-8827
▁تفری	-8828
▁حسان	-8829
▁حلیم	-8830
▁خلیج	-8831
▁دوری	-8832
▁دینگ	-8833
▁شرقی	-8834
▁عظمت	-8835
▁ماور	-8836
▁کتوں	-8837
چوہدری	-8838
▁باشند	-8839
▁داموں	-8840
▁دلاور	-8841
▁غداری	-8842
▁لاٹری	-8843
▁ماننا	-8844
▁مخلوق	-8845
▁معمار	-8846
▁ٹیچرز	-8847
▁پودوں	-8848
▁ڈینٹل	-8849
▁کارگو	-8850
▁کلفٹن	-8851
▁کھینچ	-8852
▁امیدیں	-8853
▁تایوان	-8854
▁خوشحال	-8855
▁سویلین	-8856
▁صاحبان	-8857
▁پارٹیز	-8858
▁پرامری	-8859
▁پرتگال	-8860
▁پھولوں	-8861
▁ڈیزانر	-8862
▁کیفوٹو	-8863
ٹورنامنٹ	-8864
▁امپورٹڈ	-8865
▁سمجھوتہ	-8866
▁ضمانتیں	-8867
▁متنازعہ	-8868
▁ہندوؤں	-8869
▁وزیرِاعظم	-8870
▁ہیڈکوارٹر	-8871
تص	-8872
صود	-8873
پای	-8874
ہدم	-8875
▁صل	-8876
ابری	-8877
▁الن	-8878
▁بام	-8879
▁بوڑ	-8880
▁دھی	-8881
▁رجب	-8882
▁ٹرو	-8883
▁پیا	-8884
▁ہنر	-8885
▁اربن	-8886
▁اسپر	-8887
▁برپا	-8888
▁جسٹن	-8889
▁خطیر	-8890
▁دورِ	-8891
▁رویت	-8892
▁زینب	-8893
▁سجاد	-8894
▁فابر	-8895
▁لوٹا	-8896
▁ٹران	-8897
▁پھوٹ	-8898
▁کنسل	-8899
▁ہوشی	-8900
▁یکجا	-8901
لازیشن	-8902
پیٹرول	-8903
▁الیکٹ	-8904
▁اُٹھا	-8905
▁بھاگن	-8906
▁خوانی	-8907
▁سبسکر	-8908
▁سومرو	-8909
▁مارجن	-8910
▁مصطفی	-8911
▁مظلوم	-8912
▁چوتھا	-8913
▁چھاتی	-8914
▁کوچنگ	-8915
▁کوہاٹ	-8916
ربایجان	-8917
▁بلاشبہ	-8918
▁بلدیات	-8919
▁بھروسہ	-8920
▁دروازہ	-8921
▁لگاتار	-8922
▁مینٹور	-8923
▁گلستان	-8924
▁ہایڈرو	-8925
▁جانیوال	-8926
▁مانیٹری	-8927
▁کنندگان	-8928
انٹرنیشنل	-8929
▁سنبھالیں	-8930
▁پالیسیاں	-8931
ّت	-8932
ڈس	-8933
اسد	-8934
جوڑ	-8935
طار	-8936
نجر	-8937
نکن	-8938
▁ضم	-8939
ارہا	-8940
بارش	-8941
ردھا	-8942
وارج	-8943
وریٹ	-8944
▁خطہ	-8945
▁فسط	-8946
▁انکا	-8947
▁بقیہ	-8948
▁تغیر	-8949
▁جناب	-8950
▁ظہور	-8951
▁مادہ	-8952
▁مجسم	-8953
▁ملبہ	-8954
▁پنکھ	-8955
▁پڑھا	-8956
▁کیوب	-8957
▁یتیم	-8958
▁الفطر	-8959
▁بڑھای	-8960
▁جگہوں	-8961
▁رکوان	-8962
▁فیسرز	-8963
▁لگژری	-8964
▁ماورا	-8965
▁مصباح	-8966
▁منسٹر	-8967
▁وینیو	-8968
▁چوٹیں	-8969
▁ڈھانچ	-8970
▁کنڈکٹ	-8971
▁کھوسہ	-8972
▁گاہوں	-8973
▁گلیوں	-8974
▁بناسکی	-8975
▁سلیمان	-8976
▁مانگیں	-8977
▁مضامین	-8978
▁ملیالم	-8979
▁ناکافی	-8980
▁ٹیسٹنگ	-8981
▁کیمپوں	-8982
▁گروہوں	-8983
▁بھجوایا	-8984
▁مدافعتی	-8985
▁نومنتخب	-8986
▁ایتھوپیا	-8987
▁باآسانی	-8988
▁بالترتیب	-8989
▁فیکٹریوں	-8990
▁ناانصافی	-8991
قص	-8992
انٹ	-8993
بجٹ	-8994
خوش	-8995
درہ	-8996
ضور	-8997
ناد	-8998
نڈز	-8999
ومر	-9000
چوک	-9001
ہاک	-9002
▁طو	-9003
علقہ	-9004
میاں	-9005
چیمپ	-9006
گوگل	-9007
▁بوس	-9008
▁جڑی	-9009
▁سنت	-9010
▁فرم	-9011
▁چاک	-9012
سماجی	-9013
نوانی	-9014
▁اجرت	-9015
▁اللّ	-9016
▁برآ	-9017
▁بھیک	-9018
▁راول	-9019
▁ربیع	-9020
▁ریسل	-9021
▁سنیل	-9022
▁عربی	-9023
▁لاکر	-9024
▁مچھر	-9025
▁پوٹن	-9026
▁کھیپ	-9027
مجموعی	-9028
▁آپری	-9029
▁ایگری	-9030
▁خیبرپ	-9031
▁فیضان	-9032
▁قذافی	-9033
▁قیامت	-9034
▁ماروی	-9035
▁مشاہد	-9036
▁منحصر	-9037
▁نرخوں	-9038
▁نیلام	-9039
▁چلڈرن	-9040
▁چھاپا	-9041
▁کلاسز	-9042
▁ناردرن	-9043
▁الجزیرہ	-9044
▁تبادلوں	-9045
▁خیرمقدم	-9046
▁معدنیات	-9047
▁پروڈیوس	-9048
▁پسماندہ	-9049
یونیورسٹی	-9050
▁آرڈیننس	-9051
▁انٹرٹینمنٹ	-9052
رج	-9053
ٰہ	-9054
اثہ	-9055
▁تُ	-9056
▁دت	-9057
▁لق	-9058
اتوں	-9059
امیر	-9060
ایڈی	-9061
شعیب	-9062
ڑیوں	-9063
▁سیڈ	-9064
▁عدل	-9065
▁پشن	-9066
▁کٹھ	-9067
▁یمن	-9068
اعلیٰ	-9069
ایشین	-9070
جامعہ	-9071
زندگی	-9072
سٹرول	-9073
قیراط	-9074
میڈیا	-9075
چریاں	-9076
▁انجی	-9077
▁انشا	-9078
▁اننگ	-9079
▁اکیل	-9080
▁بولا	-9081
▁جزیر	-9082
▁دلہا	-9083
▁رومی	-9084
▁سویا	-9085
▁شرعی	-9086
▁فہیم	-9087
▁مصری	-9088
▁وضاح	-9089
▁ٹانک	-9090
▁پریم	-9091
▁کامل	-9092
احتجاج	-9093
حکمران	-9094
مسلمان	-9095
ٹیلیٹی	-9096
▁آکسی	-9097
▁اکھاڑ	-9098
▁بلنکن	-9099
▁بہانہ	-9100
▁ترانہ	-9101
▁جوڑوں	-9102
▁درمدی	-9103
▁سہراب	-9104
▁شاباش	-9105
▁شاستہ	-9106
▁مثالی	-9107
▁منہدم	-9108
▁پریتی	-9109
▁کریگی	-9110
▁ہیلمٹ	-9111
▁یادیو	-9112
غیرملکی	-9113
▁اونچای	-9114
▁دکھایں	-9115
▁راہگیر	-9116
▁عورتوں	-9117
▁نظریات	-9118
▁ٹرانزٹ	-9119
▁چودھری	-9120
▁کاوشوں	-9121
▁آنکھیں	-9122
▁ریفرنسز	-9123
▁پنجگانہ	-9124
▁چوکیدار	-9125
▁کوارٹرز	-9126
▁وزیردفاع	-9127
الز	-9128
روک	-9129
نیو	-9130
سینر	-9131
شدید	-9132
فادہ	-9133
▁تری	-9134
▁حنا	-9135
▁صلح	-9136
▁لاگ	-9137
▁لنگ	-9138
▁مچا	-9139
▁پرن	-9140
▁کُل	-9141
▁کُن	-9142
سینیٹ	-9143
▁اندی	-9144
▁بانڈ	-9145
▁بایں	-9146
▁جرید	-9147
▁حریم	-9148
▁دبنگ	-9149
▁سلور	-9150
▁فاٹر	-9151
▁فتاب	-9152
▁نصاب	-9153
▁نچلی	-9154
▁ووٹر	-9155
▁پتنگ	-9156
▁پرور	-9157
▁چوٹی	-9158
▁کیرو	-9159
▁گلاس	-9160
▁گوری	-9161
مقبوضہ	-9162
▁اتارن	-9163
▁اسٹاپ	-9164
▁اکسان	-9165
▁برانز	-9166
▁بندوق	-9167
▁تقویت	-9168
▁حضرات	-9169
▁دھکیل	-9170
▁سالار	-9171
▁سعدیہ	-9172
▁سفاری	-9173
▁شاپنگ	-9174
▁علموں	-9175
▁فوبیا	-9176
▁ماموں	-9177
▁معدوم	-9178
▁مقصود	-9179
▁ووٹوں	-9180
▁حریفوں	-9181
▁سرحدوں	-9182
▁شاہدین	-9183
▁شروعات	-9184
▁شہزادی	-9185
▁مستفید	-9186
▁معاشرہ	-9187
▁ولیمسن	-9188
▁کوالٹی	-9189
▁احتیاطی	-9190
▁تجاوزات	-9191
▁سنگجانی	-9192
▁قاداعظم	-9193
▁قرنطینہ	-9194
▁والڈلاف	-9195
▁ٹنڈولکر	-9196
▁چیرپرسن	-9197
▁کینگروز	-9198
▁ہونیوال	-9199
▁الیکٹرانک	-9200
▁عبدالعزیز	-9201
اُ	-9202
بلد	-9203
دیر	-9204
سنی	-9205
سڑک	-9206
ٹای	-9207
ٹنٹ	-9208
ٹھہ	-9209
ہام	-9210
احسن	-9211
احمد	-9212
قیوم	-9213
مدان	-9214
گولر	-9215
▁اقص	-9216
▁اُڑ	-9217
▁لٹک	-9218
▁میت	-9219
▁نیت	-9220
▁ہمد	-9221
▁ہین	-9222
تھانہ	-9223
صفحات	-9224
مبھیر	-9225
ڈالرز	-9226
▁انفو	-9227
▁انیس	-9228
▁بابو	-9229
▁بولڈ	-9230
▁بڑھی	-9231
▁تاید	-9232
▁حریت	-9233
▁دعاں	-9234
▁راؤ	-9235
▁غبار	-9236
▁مکین	-9237
▁مہوش	-9238
▁نادر	-9239
▁نیشن	-9240
▁واقف	-9241
▁پسٹل	-9242
▁پڑھت	-9243
▁پیرو	-9244
ورسمنٹ	-9245
یالوجی	-9246
▁المیہ	-9247
▁اُردو	-9248
▁بیٹھی	-9249
▁ترجمہ	-9250
▁حرکات	-9251
▁ریزرو	-9252
▁سازوں	-9253
▁سیارچ	-9254
▁عمومی	-9255
▁ماسکو	-9256
▁نومول	-9257
▁وڈیوز	-9258
▁پوچھن	-9259
▁چلایں	-9260
▁ڈالیں	-9261
▁کرپات	-9262
▁کیپشن	-9263
▁بھگتنا	-9264
▁خودکار	-9265
▁دکانوں	-9266
▁دیوالی	-9267
▁طاقتوں	-9268
▁وضاحتی	-9269
▁چھوڑیں	-9270
▁کالجوں	-9271
▁گالیاں	-9272
▁خالصتان	-9273
▁شاخسانہ	-9274
▁مندوخیل	-9275
▁پاسپورٹس	-9276
▁انفورسمنٹ	-9277
رور	-9278
سوں	-9279
نجو	-9280
ٹیج	-9281
▁سخ	-9282
سودہ	-9283
طلبہ	-9284
ونما	-9285
▁بشن	-9286
▁جوا	-9287
▁دھن	-9288
▁فلو	-9289
▁فہم	-9290
▁قصہ	-9291
▁مؤ	-9292
▁مکہ	-9293
▁گدھ	-9294
صحافی	-9295
مرکزی	-9296
مغربی	-9297
ھوپیر	-9298
▁حنیف	-9299
▁راٹر	-9300
▁ریکی	-9301
▁سنیں	-9302
▁طلای	-9303
▁مانن	-9304
▁محقق	-9305
▁نادہ	-9306
▁نقشہ	-9307
▁ہارن	-9308
▁ہنگی	-9309
▁اجناس	-9310
▁اشفاق	-9311
▁باجود	-9312
▁برہنہ	-9313
▁تکنیک	-9314
▁تھوڑی	-9315
▁راتوں	-9316
▁سنہری	-9317
▁سیلنگ	-9318
▁سیکھا	-9319
▁قادری	-9320
▁پرجوش	-9321
▁پٹھوں	-9322
▁چارلس	-9323
▁چڑھای	-9324
▁ڈولفن	-9325
▁کیمپس	-9326
▁گرگیں	-9327
بنگلادی	-9328
▁ایکسپو	-9329
▁ریسورس	-9330
▁مالدیپ	-9331
▁میٹرول	-9332
موسمیاتی	-9333
وزیراعلی	-9334
▁ایشیاکپ	-9335
▁زندگیوں	-9336
▁مہاجرین	-9337
حج	-9338
تار	-9339
جوں	-9340
جیا	-9341
سلا	-9342
سپر	-9343
شاں	-9344
طوب	-9345
غور	-9346
قرن	-9347
یٹا	-9348
اسکت	-9349
الیں	-9350
جوان	-9351
خبیر	-9352
دکان	-9353
فعلی	-9354
لندن	-9355
وبکر	-9356
وسٹی	-9357
ویسٹ	-9358
کریٹ	-9359
کیٹس	-9360
▁جدت	-9361
▁راش	-9362
▁سیم	-9363
▁لوک	-9364
▁مرہ	-9365
▁پہر	-9366
▁چشم	-9367
▁ہلا	-9368
اسٹاک	-9369
انیاں	-9370
ساتھی	-9371
گھروں	-9372
یونٹس	-9373
▁ابھر	-9374
▁اسجد	-9375
▁اونٹ	-9376
▁بقول	-9377
▁دیوی	-9378
▁ریشم	-9379
▁سنان	-9380
▁طیفی	-9381
▁فرید	-9382
▁فیفا	-9383
▁قاری	-9384
▁پایں	-9385
ٹریلین	-9386
▁اسکوپ	-9387
▁افیون	-9388
▁آمدن	-9389
▁بڑھنا	-9390
▁جاسکا	-9391
▁جانبر	-9392
▁رسولی	-9393
▁ریموٹ	-9394
▁ریویو	-9395
▁صدیوں	-9396
▁لڑکوں	-9397
▁مذموم	-9398
▁مکانی	-9399
▁پامال	-9400
▁کانسی	-9401
▁کرفیو	-9402
▁کھولا	-9403
▁کیوجہ	-9404
▁▁▁▁▁▁	-9405
ایڈیشنل	-9406
دہشتگرد	-9407
ذیابیطس	-9408
ڈاریکٹر	-9409
▁ازدواج	-9410
▁اسٹینڈ	-9411
▁باغیوں	-9412
▁تمباکو	-9413
▁عمادین	-9414
▁کولمبو	-9415
▁سنجرانی	-9416
▁فوجداری	-9417
▁نومولود	-9418
▁ٹھکانوں	-9419
▁اثرانداز	-9420
▁یوٹیلیٹی	-9421
▁کولیسٹرول	-9422
ذب	-9423
ارم	-9424
اہب	-9425
باس	-9426
بیٹ	-9427
ثیق	-9428
دوز	-9429
لون	-9430
نیڈ	-9431
چیز	-9432
یرت	-9433
▁لٹ	-9434
ارین	-9435
انکہ	-9436
توشہ	-9437
راور	-9438
سینٹ	-9439
سیکو	-9440
صورت	-9441
گراف	-9442
▁ادی	-9443
▁انح	-9444
▁ثار	-9445
▁ثمر	-9446
▁جمی	-9447
▁فزی	-9448
▁محت	-9449
▁پیج	-9450
▁پیڈ	-9451
▁ڈرن	-9452
▁ینگ	-9453
لبنان	-9454
مانتی	-9455
▁الام	-9456
▁المد	-9457
▁آرٹ	-9458
▁بالک	-9459
▁برین	-9460
▁تربت	-9461
▁حوثی	-9462
▁دلکش	-9463
▁رسمی	-9464
▁روٹس	-9465
▁طیبہ	-9466
▁لیلا	-9467
▁لیور	-9468
اعتماد	-9469
▁اکیلا	-9470
▁توثیق	-9471
▁ثانیہ	-9472
▁خوشبو	-9473
▁سوچنا	-9474
▁شردھا	-9475
▁موساد	-9476
▁پرومو	-9477
▁پیسکو	-9478
▁چکنای	-9479
▁ڈنڈوں	-9480
▁گزارا	-9481
چیمپینز	-9482
▁ایڈہاک	-9483
▁غلطیاں	-9484
▁فلکیات	-9485
▁ناقدین	-9486
▁پہاڑوں	-9487
▁یقیناً	-9488
▁حالانکہ	-9489
▁مقتولین	-9490
▁وصولیوں	-9491
▁پارٹیاں	-9492
▁کوالیفار	-9493
▁میٹرولوجسٹ	-9494
بید	-9495
سوب	-9496
صبح	-9497
ضلع	-9498
وتا	-9499
پاس	-9500
پلی	-9501
ڈھو	-9502
یوز	-9503
▁زو	-9504
صلاح	-9505
ضدار	-9506
ظہبی	-9507
کنسن	-9508
یروں	-9509
▁جوس	-9510
▁فات	-9511
▁لچک	-9512
▁لگت	-9513
▁مجس	-9514
▁مرغ	-9515
▁نشو	-9516
▁پنگ	-9517
▁ڈرگ	-9518
▁کلہ	-9519
اعدگی	-9520
حادثہ	-9521
شاقین	-9522
متعدد	-9523
ولوجی	-9524
پستول	-9525
یمانہ	-9526
▁تالی	-9527
▁تھیل	-9528
▁جاگا	-9529
▁جواد	-9530
▁حاکم	-9531
▁رسید	-9532
▁سلطن	-9533
▁سپار	-9534
▁ظالم	-9535
▁نانی	-9536
▁نظری	-9537
▁وانگ	-9538
▁گوتم	-9539
▁ہارر	-9540
▁ہیری	-9541
اداروں	-9542
▁اصولی	-9543
▁اوڈھو	-9544
▁برادر	-9545
▁بڑھیں	-9546
▁تھوڑا	-9547
▁دھوکہ	-9548
▁سیلفی	-9549
▁نیوٹر	-9550
▁پڑھنا	-9551
▁پیچھا	-9552
▁اپیلیں	-9553
▁بدفعلی	-9554
▁براستہ	-9555
▁داریوں	-9556
▁رونمای	-9557
▁میڈیسن	-9558
▁گمبھیر	-9559
انتظامیہ	-9560
زرمبادلہ	-9561
▁استغاثہ	-9562
▁برفباری	-9563
▁کمنٹیٹر	-9564
▁کولمبیا	-9565
آسٹریلوی	-9566
▁ملازمتوں	-9567
▁قراردادوں	-9568
پک	-9569
جلد	-9570
روح	-9571
لاً	-9572
گون	-9573
روقہ	-9574
ظرین	-9575
فورڈ	-9576
لڑکی	-9577
گروپ	-9578
▁بون	-9579
▁بٹن	-9580
▁جتھ	-9581
▁راس	-9582
▁رفح	-9583
▁ستا	-9584
▁سجل	-9585
▁ماد	-9586
▁معج	-9587
▁واں	-9588
▁ٹرن	-9589
▁پست	-9590
▁ڈوم	-9591
▁کزن	-9592
▁ہجر	-9593
عالیہ	-9594
میزال	-9595
▁ازکم	-9596
▁الٹی	-9597
▁تندر	-9598
▁حضور	-9599
▁خالق	-9600
▁دایں	-9601
▁سوزش	-9602
▁سیکو	-9603
▁شمیم	-9604
▁شہاب	-9605
▁فطرت	-9606
▁نینو	-9607
▁ٹھہر	-9608
▁پوجا	-9609
▁چودہ	-9610
▁کاٹا	-9611
طالبات	-9612
واقعات	-9613
▁امانت	-9614
▁تفریح	-9615
▁تلوار	-9616
▁ثمینہ	-9617
▁جاننا	-9618
▁رویوں	-9619
▁ریجنل	-9620
▁زیارت	-9621
▁سندھی	-9622
▁لرننگ	-9623
▁مراسل	-9624
▁ٹکٹوں	-9625
▁ٹھہرا	-9626
▁ڈالنا	-9627
▁کھدای	-9628
▁ہمدرد	-9629
▁ہوتیں	-9630
استعمال	-9631
▁آہستہ	-9632
▁بتادیا	-9633
▁تفریحی	-9634
▁جھانسہ	-9635
▁سالمیت	-9636
▁سواروں	-9637
▁سوگوار	-9638
▁لڑکیاں	-9639
▁پرسکون	-9640
▁پیداشی	-9641
▁کمپنیز	-9642
▁الصوبای	-9643
▁عمارتیں	-9644
▁انٹرویوز	-9645
▁بیماریاں	-9646
▁انتہاپسند	-9647
نٹا	-9648
وقع	-9649
ہان	-9650
▁یش	-9651
اسکر	-9652
برمد	-9653
جاری	-9654
حمزہ	-9655
رہای	-9656
ریوں	-9657
علاج	-9658
ماہی	-9659
نوکر	-9660
ولیا	-9661
کیان	-9662
گیشن	-9663
ھیکا	-9664
▁سچن	-9665
▁شوز	-9666
▁فتو	-9667
▁وول	-9668
▁ٹال	-9669
▁کنا	-9670
▁کود	-9671
▁ہات	-9672
▁ہیک	-9673
ریاست	-9674
سنوار	-9675
پولنگ	-9676
کولین	-9677
▁الاس	-9678
▁اورم	-9679
▁آٹا	-9680
▁جینی	-9681
▁دواں	-9682
▁زوال	-9683
▁سوفٹ	-9684
▁لیگز	-9685
▁مانت	-9686
▁مزمل	-9687
▁ملان	-9688
▁میتھ	-9689
▁نوکر	-9690
▁پربھ	-9691
▁پرمٹ	-9692
▁کپڑا	-9693
▁ایجاد	-9694
▁	-9695
ا	-9696
ی	-9697
ر	-9698
ک	-9699
و	-9700
م	-9701
ن	-9702
س	-9703
ہ	-9704
ل	-9705
ت	-9706
د	-9707
ب	-9708
ں	-9709
پ	-9710
ج	-9711
ح	-9712
ٹ	-9713
ف	-9714
گ	-9715
ق	-9716
ع	-9717
ز	-9718
ش	-9719
ھ	-9720
خ	-9721
ڈ	-9722
چ	-9723
ظ	-9724
ص	-9725
ط	-9726
ض	-9727
ٓ	-9728
ڑ	-9729
ذ	-9730
غ	-9731
ث	-9732
ٰ	-9733
ُ	-9734
ِ	-9735
ٔ	-9736
ً	-9737
ژ	-9738
َ	-9739
ّ	-9740
