<unk>	0
<s>	0
</s>	0
<0x00>	0
<0x01>	0
<0x02>	0
<0x03>	0
<0x04>	0
<0x05>	0
<0x06>	0
<0x07>	0
<0x08>	0
<0x09>	0
<0x0A>	0
<0x0B>	0
<0x0C>	0
<0x0D>	0
<0x0E>	0
<0x0F>	0
<0x10>	0
<0x11>	0
<0x12>	0
<0x13>	0
<0x14>	0
<0x15>	0
<0x16>	0
<0x17>	0
<0x18>	0
<0x19>	0
<0x1A>	0
<0x1B>	0
<0x1C>	0
<0x1D>	0
<0x1E>	0
<0x1F>	0
<0x20>	0
<0x21>	0
<0x22>	0
<0x23>	0
<0x24>	0
<0x25>	0
<0x26>	0
<0x27>	0
<0x28>	0
<0x29>	0
<0x2A>	0
<0x2B>	0
<0x2C>	0
<0x2D>	0
<0x2E>	0
<0x2F>	0
<0x30>	0
<0x31>	0
<0x32>	0
<0x33>	0
<0x34>	0
<0x35>	0
<0x36>	0
<0x37>	0
<0x38>	0
<0x39>	0
<0x3A>	0
<0x3B>	0
<0x3C>	0
<0x3D>	0
<0x3E>	0
<0x3F>	0
<0x40>	0
<0x41>	0
<0x42>	0
<0x43>	0
<0x44>	0
<0x45>	0
<0x46>	0
<0x47>	0
<0x48>	0
<0x49>	0
<0x4A>	0
<0x4B>	0
<0x4C>	0
<0x4D>	0
<0x4E>	0
<0x4F>	0
<0x50>	0
<0x51>	0
<0x52>	0
<0x53>	0
<0x54>	0
<0x55>	0
<0x56>	0
<0x57>	0
<0x58>	0
<0x59>	0
<0x5A>	0
<0x5B>	0
<0x5C>	0
<0x5D>	0
<0x5E>	0
<0x5F>	0
<0x60>	0
<0x61>	0
<0x62>	0
<0x63>	0
<0x64>	0
<0x65>	0
<0x66>	0
<0x67>	0
<0x68>	0
<0x69>	0
<0x6A>	0
<0x6B>	0
<0x6C>	0
<0x6D>	0
<0x6E>	0
<0x6F>	0
<0x70>	0
<0x71>	0
<0x72>	0
<0x73>	0
<0x74>	0
<0x75>	0
<0x76>	0
<0x77>	0
<0x78>	0
<0x79>	0
<0x7A>	0
<0x7B>	0
<0x7C>	0
<0x7D>	0
<0x7E>	0
<0x7F>	0
<0x80>	0
<0x81>	0
<0x82>	0
<0x83>	0
<0x84>	0
<0x85>	0
<0x86>	0
<0x87>	0
<0x88>	0
<0x89>	0
<0x8A>	0
<0x8B>	0
<0x8C>	0
<0x8D>	0
<0x8E>	0
<0x8F>	0
<0x90>	0
<0x91>	0
<0x92>	0
<0x93>	0
<0x94>	0
<0x95>	0
<0x96>	0
<0x97>	0
<0x98>	0
<0x99>	0
<0x9A>	0
<0x9B>	0
<0x9C>	0
<0x9D>	0
<0x9E>	0
<0x9F>	0
<0xA0>	0
<0xA1>	0
<0xA2>	0
<0xA3>	0
<0xA4>	0
<0xA5>	0
<0xA6>	0
<0xA7>	0
<0xA8>	0
<0xA9>	0
<0xAA>	0
<0xAB>	0
<0xAC>	0
<0xAD>	0
<0xAE>	0
<0xAF>	0
<0xB0>	0
<0xB1>	0
<0xB2>	0
<0xB3>	0
<0xB4>	0
<0xB5>	0
<0xB6>	0
<0xB7>	0
<0xB8>	0
<0xB9>	0
<0xBA>	0
<0xBB>	0
<0xBC>	0
<0xBD>	0
<0xBE>	0
<0xBF>	0
<0xC0>	0
<0xC1>	0
<0xC2>	0
<0xC3>	0
<0xC4>	0
<0xC5>	0
<0xC6>	0
<0xC7>	0
<0xC8>	0
<0xC9>	0
<0xCA>	0
<0xCB>	0
<0xCC>	0
<0xCD>	0
<0xCE>	0
<0xCF>	0
<0xD0>	0
<0xD1>	0
<0xD2>	0
<0xD3>	0
<0xD4>	0
<0xD5>	0
<0xD6>	0
<0xD7>	0
<0xD8>	0
<0xD9>	0
<0xDA>	0
<0xDB>	0
<0xDC>	0
<0xDD>	0
<0xDE>	0
<0xDF>	0
<0xE0>	0
<0xE1>	0
<0xE2>	0
<0xE3>	0
<0xE4>	0
<0xE5>	0
<0xE6>	0
<0xE7>	0
<0xE8>	0
<0xE9>	0
<0xEA>	0
<0xEB>	0
<0xEC>	0
<0xED>	0
<0xEE>	0
<0xEF>	0
<0xF0>	0
<0xF1>	0
<0xF2>	0
<0xF3>	0
<0xF4>	0
<0xF5>	0
<0xF6>	0
<0xF7>	0
<0xF8>	0
<0xF9>	0
<0xFA>	0
<0xFB>	0
<0xFC>	0
<0xFD>	0
<0xFE>	0
<0xFF>	0
▁ک	-0
▁ا	-1
▁م	-2
▁ہ	-3
▁س	-4
یں	-5
▁ب	-6
▁پ	-7
▁کے	-8
▁کی	-9
ور	-10
▁ن	-11
ان	-12
▁ت	-13
ار	-14
▁ج	-15
▁میں	-16
▁د	-17
▁کر	-18
یا	-19
ائ	-20
▁ہے	-21
ری	-22
▁و	-23
▁ل	-24
▁گ	-25
وں	-26
ال	-27
▁ر	-28
▁کو	-29
▁اور	-30
▁سے	-31
▁کا	-32
▁ای	-33
▁اس	-34
ات	-35
ین	-36
▁ف	-37
▁ان	-38
▁کہ	-39
▁ہو	-40
▁پر	-41
ام	-42
نے	-43
▁نے	-44
▁ش	-45
▁،	-46
ھی	-47
▁خ	-48
ٹی	-49
ئے	-50
▁ہیں	-51
▁ع	-52
لی	-53
▁ح	-54
▁چ	-55
اک	-56
اہ	-57
ست	-58
اب	-59
ون	-60
▁ی	-61
لا	-62
▁آ	-63
▁ایک	-64
می	-65
ئی	-66
▁ڈ	-67
▁ق	-68
یک	-69
نا	-70
تا	-71
یر	-72
تی	-73
تے	-74
▁ط	-75
اد	-76
نگ	-77
ٹر	-78
▁پی	-79
▁ہے۔	-80
▁بھی	-81
▁ٹی	-82
ائی	-83
▁ز	-84
▁کیا	-85
ول	-86
▁رہ	-87
ھا	-88
▁یہ	-89
▁نہ	-90
سی	-91
▁ص	-92
نی	-93
ند	-94
▁اپ	-95
▁می	-96
in	-97
ستان	-98
▁کرنے	-99
اری	-100
ew	-101
دہ	-102
لے	-103
▁رو	-104
▁سی	-105
▁جو	-106
از	-107
▁سک	-108
at	-109
▁ٹ	-110
رو	-111
شن	-112
▁نہیں	-113
▁وال	-114
اکستان	-115
بر	-116
▁دی	-117
▁U	-118
▁لئے	-119
سٹ	-120
یم	-121
گر	-122
▁پاکستان	-123
▁لی	-124
یل	-125
▁مو	-126
اتھ	-127
▁وہ	-128
▁جس	-129
▁دو	-130
▁تو	-131
انے	-132
▁N	-133
اف	-134
▁گیا	-135
▁پہ	-136
ائن	-137
عد	-138
▁بی	-139
ews	-140
▁تھا	-141
▁فی	-142
▁D	-143
st	-144
ist	-145
▁News	-146
▁بہ	-147
▁ساتھ	-148
کی	-149
▁بن	-150
▁E	-151
▁Ex	-152
▁مع	-153
et	-154
▁مل	-155
دی	-156
as	-157
لم	-158
ing	-159
ائے	-160
ets	-161
▁Dat	-162
wn	-163
asets	-164
▁Exist	-165
▁Datasets	-166
▁Existing	-167
▁کم	-168
▁ہیں۔	-169
no	-170
▁Un	-171
kno	-172
known	-173
▁Unknown	-174
انی	-175
کہ	-176
▁کہا	-177
▁بر	-178
رین	-179
▁من	-180
▁ہم	-181
ھے	-182
▁بھ	-183
▁یا	-184
▁بہت	-185
لہ	-186
وم	-187
وی	-188
ود	-189
▁در	-190
▁جب	-191
کٹ	-192
گی	-193
زی	-194
اس	-195
▁ٹیم	-196
▁ذ	-197
یت	-198
▁کھ	-199
وب	-200
▁آپ	-201
▁گا	-202
▁۱	-203
▁اب	-204
یس	-205
▁مق	-206
▁مح	-207
▁تک	-208
▁مط	-209
تع	-210
▁ہی	-211
▁اد	-212
▁ری	-213
اں	-214
▁کرتے	-215
▁ہوئے	-216
وٹ	-217
▁اپنے	-218
ابق	-219
""	-220
▁سر	-221
▁کار	-222
خت	-223
▁ال	-224
وری	-225
ڑی	-226
قی	-227
▁غ	-228
▁طور	-229
▁بعد	-230
کھ	-231
▁اف	-232
▁جان	-233
ما	-234
▁ام	-235
▁انہ	-236
▁کام	-237
▁دیا	-238
▁پو	-239
یو	-240
را	-241
اص	-242
جہ	-243
شت	-244
▁عم	-245
رف	-246
▁زیا	-247
مال	-248
▁ایس	-249
▁زیادہ	-250
▁فلم	-251
▁کریں	-252
▁سال	-253
ارے	-254
▁والے	-255
▁لیے	-256
▁سو	-257
▁فر	-258
نٹ	-259
▁رہے	-260
▁ض	-261
▁جن	-262
▁جات	-263
▁اع	-264
ئر	-265
▁گے	-266
قت	-267
رح	-268
▁وا	-269
▁دور	-270
▁میچ	-271
▁(	-272
▁ار	-273
▁ڈی	-274
▁خان	-275
دا	-276
▁تع	-277
الی	-278
▁مطابق	-279
▁کھی	-280
▁جا	-281
سر	-282
▁گئی	-283
ٹس	-284
مد	-285
▁تر	-286
▁گی	-287
پور	-288
▁۲	-289
کا	-290
▁ہونے	-291
ھر	-292
کار	-293
▁وی	-294
دار	-295
▁سب	-296
امل	-297
نز	-298
چھ	-299
▁بڑ	-300
وج	-301
▁او	-302
▁با	-303
▁فیص	-304
▁اپنی	-305
نڈ	-306
▁لیک	-307
بی	-308
لو	-309
an	-310
▁استع	-311
▁مر	-312
در	-313
▁استعمال	-314
ارہ	-315
▁جائے	-316
کم	-317
▁دن	-318
▁ضر	-319
اہم	-320
ہر	-321
▁مش	-322
▁لیکن	-323
حت	-324
▁کرنا	-325
ارت	-326
قع	-327
امی	-328
▁تھی	-329
▁نم	-330
اصل	-331
▁اخ	-332
▁چھ	-333
ینڈ	-334
▁ور	-335
▁خو	-336
کس	-337
▁تی	-338
▁انہوں	-339
پے	-340
▁لو	-341
▁ہوا	-342
▁کرکٹ	-343
ورت	-344
▁دیک	-345
کر	-346
▁کسی	-347
ثر	-348
▁پہلے	-349
انہ	-350
کن	-351
▁T	-352
▁اہ	-353
▁جبکہ	-354
▁شامل	-355
▁رہا	-356
وا	-357
▁مس	-358
▁حاصل	-359
بل	-360
▁مد	-361
▁بچ	-362
▁انت	-363
ائل	-364
▁طرح	-365
on	-366
▁کیل	-367
eb	-368
▁اے	-369
دو	-370
▁F	-371
▁لگ	-372
▁Fin	-373
eweb	-374
▁Fineweb	-375
▁رکھ	-376
▁تھے	-377
▁گئے	-378
یاں	-379
▁""	-380
▁سکتا	-381
▁گر	-382
▁ہوں	-383
▁چاہ	-384
لق	-385
ion	-386
▁کپ	-387
▁پڑ	-388
▁نظ	-389
ation	-390
ran	-391
sl	-392
▁Tran	-393
▁کمی	-394
▁Transl	-395
▁Translation	-396
▁مج	-397
▁پیش	-398
کل	-399
با	-400
▁اض	-401
▁کیلئے	-402
▁وقت	-403
نس	-404
▁مار	-405
لاف	-406
▁تج	-407
فر	-408
▁کچھ	-409
▁کھلا	-410
▁اداک	-411
یات	-412
▁بات	-413
▁علا	-414
▁وز	-415
ائیں	-416
▁والی	-417
شی	-418
فی	-419
▁نام	-420
▁مت	-421
▁کہنا	-422
▁اضاف	-423
سم	-424
▁کوئی	-425
▁تم	-426
▁.	-427
▁کھلاڑی	-428
اہر	-429
ٹری	-430
▁ہر	-431
▁جاتا	-432
▁انڈ	-433
▁بل	-434
▁روپے	-435
چی	-436
▁نی	-437
▁اج	-438
لام	-439
▁دوران	-440
▁ڈال	-441
▁اگر	-442
اہور	-443
▁سکتے	-444
▁جانب	-445
زہ	-446
▁کھیل	-447
▁این	-448
▁جاری	-449
کے	-450
▁ما	-451
عہ	-452
فت	-453
▁ترین	-454
▁چی	-455
نچ	-456
▁رہی	-457
▁حک	-458
▁ملک	-459
▁رنز	-460
رز	-461
▁لاہور	-462
ینی	-463
▁حص	-464
ینے	-465
▁جی	-466
▁تب	-467
▁پوائن	-468
بار	-469
▁ذری	-470
تم	-471
▁کرتا	-472
زید	-473
▁وجہ	-474
صو	-475
▁لوگ	-476
▁کرا	-477
▁شر	-478
جی	-479
▁بنا	-480
ادی	-481
ھیں	-482
▁ہوتا	-483
زار	-484
فا	-485
▁مہ	-486
▁موج	-487
ریق	-488
ائر	-489
▁پرو	-490
▁مخت	-491
▁بار	-492
ریز	-493
▁سم	-494
▁تح	-495
وع	-496
▁سیک	-497
▁تق	-498
ومی	-499
پی	-500
مین	-501
▁مزید	-502
▁صرف	-503
du	-504
▁را	-505
▁خلاف	-506
▁بال	-507
▁قیم	-508
ڈی	-509
rdu	-510
▁متع	-511
▁علی	-512
بہ	-513
▁میڈ	-514
▁کل	-515
▁سام	-516
ونی	-517
وڑ	-518
انا	-519
▁Urdu	-520
▁نق	-521
کت	-522
نج	-523
لف	-524
▁جیس	-525
یرا	-526
وال	-527
ومت	-528
وس	-529
▁دیکھ	-530
▁کمپ	-531
▁ٹیسٹ	-532
▁بج	-533
مان	-534
▁عام	-535
▁قیمت	-536
▁خبر	-537
▁اسک	-538
▁شرو	-539
یہ	-540
▁۳	-541
▁بین	-542
▁ہوئی	-543
▁شروع	-544
▁بارے	-545
▁عمر	-546
وار	-547
پر	-548
▁دوسر	-549
▁مم	-550
▁غیر	-551
شتہ	-552
▁امری	-553
ونوں	-554
▁ات	-555
▁اسے	-556
وہ	-557
▁مقاب	-558
▁لیا	-559
▁روز	-560
▁اح	-561
▁محمد	-562
گل	-563
▁مص	-564
▁انہیں	-565
▁مدد	-566
▁تمام	-567
کٹر	-568
▁خط	-569
▁اخبار	-570
لس	-571
▁مختلف	-572
▁حکومت	-573
▁آ	-574
ندگی	-575
▁دے	-576
▁نظر	-577
▁نو	-578
▁اسٹ	-579
▁پری	-580
▁دل	-581
▁دنیا	-582
▁تف	-583
▁ئی	-584
لیم	-585
▁شاہ	-586
▁جم	-587
دم	-588
▁پوائنٹ	-589
وت	-590
▁پہنچ	-591
▁شی	-592
▁اچ	-593
▁تاہم	-594
▁بڑھ	-595
▁پیدا	-596
▁تین	-597
لان	-598
▁جہ	-599
ارف	-600
▁ایم	-601
▁ث	-602
▁دوسرے	-603
▁کراچی	-604
▁بھر	-605
ورڈ	-606
▁موجود	-607
▁پاکستانی	-608
▁دونوں	-609
▁انٹر	-610
تان	-611
۰۰	-612
ندی	-613
▁کن	-614
▁اہم	-615
▁گھ	-616
ارتی	-617
▁پور	-618
▁رپور	-619
▁سیریز	-620
لڈ	-621
ائٹ	-622
▁تیار	-623
رار	-624
▁بتا	-625
رے	-626
▁متعلق	-627
▁اق	-628
▁ڈالر	-629
▁اضافہ	-630
▁ضرورت	-631
▁تھا۔	-632
راد	-633
▁ماہ	-634
▁کامیا	-635
▁جیسے	-636
▁نا	-637
▁عمل	-638
▁P	-639
▁دیگر	-640
▁قومی	-641
▁جانے	-642
رہ	-643
یال	-644
وز	-645
سن	-646
▁شہ	-647
▁گز	-648
اتی	-649
ائد	-650
▁مین	-651
عت	-652
ظم	-653
کمل	-654
▁تھ	-655
▁ٹر	-656
ریب	-657
▁ایل	-658
▁بنانے	-659
مل	-660
▁درمی	-661
▁دوس	-662
انچ	-663
▁افراد	-664
▁طریق	-665
▁اسلام	-666
▁ہوتی	-667
▁مض	-668
کیٹ	-669
رب	-670
▁کور	-671
اکھ	-672
▁وکٹ	-673
▁ہزار	-674
▁میڈیا	-675
▁ملا	-676
▁اٹ	-677
▁نیو	-678
صوص	-679
ئن	-680
▁کردار	-681
▁فیصد	-682
▁اگ	-683
▁سن	-684
شنل	-685
▁سین	-686
▁بتایا	-687
▁بد	-688
▁ایف	-689
▁فراہم	-690
▁ذریعہ	-691
ولی	-692
▁سکتی	-693
▁کھلاڑیوں	-694
میت	-695
▁درمیان	-696
▁شک	-697
▁پھر	-698
▁بیٹ	-699
ڈیو	-700
دگی	-701
▁مست	-702
▁ہوگ	-703
▁صحت	-704
▁دھ	-705
▁چار	-706
ائم	-707
▁حوال	-708
ونکہ	-709
▁دہ	-710
▁لوگوں	-711
▁ٹو	-712
کھا	-713
▁اردو	-714
▁پاس	-715
▁بورڈ	-716
ابل	-717
▁فیصلہ	-718
زا	-719
کان	-720
شش	-721
▁حال	-722
▁گھر	-723
▁لے	-724
وجی	-725
▁زندگی	-726
سے	-727
▁بھارت	-728
▁نمبر	-729
▁بہتر	-730
ریف	-731
ائش	-732
▁اسٹی	-733
امات	-734
▁آر	-735
اور	-736
▁فرو	-737
▁ڈر	-738
▁دینے	-739
▁تن	-740
▁یق	-741
▁معی	-742
▁خود	-743
لاس	-744
▁سط	-745
▁نش	-746
▁کمپنی	-747
▁اند	-748
▁معا	-749
▁کپتان	-750
ظاہر	-751
▁سطح	-752
ٹا	-753
یاتی	-754
لاح	-755
بت	-756
▁تش	-757
▁عال	-758
وان	-759
ائع	-760
▁انس	-761
▁وزیر	-762
▁کیے	-763
▁موقع	-764
▁کرتی	-765
▁طرف	-766
وڈ	-767
شل	-768
ورن	-769
▁مکمل	-770
▁قبل	-771
▁لائن	-772
▁۴	-773
▁واقع	-774
عداد	-775
گہ	-776
▁بے	-777
▁تص	-778
جن	-779
لوم	-780
▁کوشش	-781
▁بنیا	-782
▁شع	-783
▁جہاں	-784
ونٹ	-785
▁پہلی	-786
▁لا	-787
باد	-788
انس	-789
▁ورلڈ	-790
عے	-791
گرام	-792
ریل	-793
ئیں	-794
▁مجھے	-795
▁بح	-796
▁اداکارہ	-797
ید	-798
اروں	-799
es	-800
تھ	-801
▁سمج	-802
▁کاروب	-803
غیر	-804
تازہ	-805
سپ	-806
اکہ	-807
▁چل	-808
مار	-809
▁کیونکہ	-810
دید	-811
رم	-812
▁اخبارتازہ	-813
▁آئی	-814
▁انگل	-815
ضح	-816
▁حصہ	-817
▁’	-818
▁۵	-819
▁بند	-820
پس	-821
جے	-822
دال	-823
ائنل	-824
▁حوالے	-825
ویز	-826
ارم	-827
▁لاکھ	-828
▁علاق	-829
▁نئی	-830
▁شہر	-831
▁بہترین	-832
▁بھارتی	-833
ڈر	-834
▁اسی	-835
▁منص	-836
▁کرے	-837
اج	-838
▁پانی	-839
منٹ	-840
عث	-841
▁انداز	-842
▁مث	-843
مہ	-844
کو	-845
▁جیت	-846
▁جل	-847
چر	-848
▁شکست	-849
▁اظ	-850
▁عو	-851
▁سابق	-852
▁باز	-853
▁فائنل	-854
▁باعث	-855
▁مارکیٹ	-856
▁باد	-857
▁عالمی	-858
▁ریا	-859
▁ارب	-860
ندہ	-861
▁دست	-862
گری	-863
▁میر	-864
▁طل	-865
▁گزشتہ	-866
یکل	-867
▁خیال	-868
▁جگہ	-869
میر	-870
گو	-871
▁ہمارے	-872
▁تعلق	-873
▁مال	-874
▁اعلان	-875
قات	-876
▁اش	-877
▁احمد	-878
کارڈ	-879
▁فٹ	-880
▁چیم	-881
▁سہ	-882
▁معلوم	-883
▁خصوص	-884
▁جائیں	-885
▁پار	-886
پن	-887
▁اص	-888
▁گا۔	-889
▁سیا	-890
مب	-891
▁پنج	-892
▁ادا	-893
▁پس	-894
▁۱۰	-895
▁نئے	-896
انوں	-897
اریخ	-898
▁یہاں	-899
▁سائن	-900
▁اینڈ	-901
اتے	-902
▁دوسری	-903
▁ریکارڈ	-904
▁انتظ	-905
▁صارف	-906
لیس	-907
▁کریں۔	-908
▁کت	-909
▁لیگ	-910
Su	-911
مپ	-912
ابط	-913
▁گو	-914
▁"	-915
▁مرک	-916
▁اداکار	-917
یں۔	-918
▁تاریخ	-919
▁صدر	-920
▁لینڈ	-921
▁کب	-922
ٹریل	-923
▁منت	-924
▁بیان	-925
▁خری	-926
▁Po	-927
▁مقابلے	-928
▁بڑی	-929
▁پھ	-930
صان	-931
اخ	-932
▁امریکی	-933
▁پنجاب	-934
▁بینک	-935
خص	-936
سل	-937
▁نقصان	-938
ونا	-939
▁منصوب	-940
ینا	-941
it	-942
▁کس	-943
تح	-944
▁بڑے	-945
▁متا	-946
▁شو	-947
▁اک	-948
▁رکھنے	-949
▁ضروری	-950
▁ختم	-951
▁ہوتے	-952
▁چین	-953
▁پانچ	-954
سط	-955
نگز	-956
لط	-957
وبی	-958
وٹو	-959
▁جاتی	-960
les	-961
▁سامنے	-962
▁ہوگی	-963
tit	-964
▁گرو	-965
Sub	-966
Subtit	-967
▁الی	-968
Subtitles	-969
سیم	-970
▁قابل	-971
اؤ	-972
▁انج	-973
زم	-974
الوجی	-975
ائز	-976
▁رپورٹ	-977
یکس	-978
▁لن	-979
▁فون	-980
ھنے	-981
▁ائی	-982
لز	-983
▁تیس	-984
▁بچوں	-985
کنالوجی	-986
قل	-987
ہار	-988
▁رس	-989
ڑے	-990
ٹن	-991
▁ترقی	-992
▁کروڑ	-993
▁سمیت	-994
▁ون	-995
ریک	-996
▁شخص	-997
▁اثر	-998
▁منا	-999
▁کئی	-1000
▁سنگ	-1001
بان	-1002
▁واضح	-1003
▁انگلینڈ	-1004
▁اپنا	-1005
صیل	-1006
int	-1007
▁مصن	-1008
▁ڈاک	-1009
▁الح	-1010
▁ذریعے	-1011
▁متاثر	-1012
انڈ	-1013
▁اعلی	-1014
▁اخت	-1015
▁خاص	-1016
▁Point	-1017
▁امی	-1018
سٹری	-1019
بئی	-1020
ورس	-1021
▁ٹیکس	-1022
روف	-1023
▁قسم	-1024
بو	-1025
اتین	-1026
▁بول	-1027
▁مطال	-1028
صد	-1029
ذا	-1030
اپ	-1031
ٹو	-1032
خوا	-1033
▁چاہئے	-1034
▁رنگ	-1035
کشن	-1036
▁یو	-1037
▁سع	-1038
خاب	-1039
▁دیتے	-1040
▁عب	-1041
▁علاوہ	-1042
▁ایسا	-1043
▁حس	-1044
شہ	-1045
▁انتخاب	-1046
▁کان	-1047
▁از	-1048
پورٹس	-1049
▁جنگ	-1050
ستہ	-1051
▁سا	-1052
▁خواتین	-1053
▁صورت	-1054
▁۶	-1055
▁مشکل	-1056
افی	-1057
▁تحقی	-1058
قو	-1059
حول	-1060
▁منظ	-1061
▁مشت	-1062
رائع	-1063
▁آس	-1064
▁ہدا	-1065
▁قرار	-1066
▁فن	-1067
ودی	-1068
گا	-1069
ضی	-1070
سب	-1071
▁ماحول	-1072
وعی	-1073
▁سائنس	-1074
▁ملکی	-1075
▁کامیابی	-1076
▁سری	-1077
او	-1078
رات	-1079
▁ضرور	-1080
▁اظہار	-1081
▁:	-1082
▁انٹرنی	-1083
▁مند	-1084
من	-1085
▁سرما	-1086
▁یاد	-1087
▁قان	-1088
▁تاکہ	-1089
▁یون	-1090
ویں	-1091
لاحیت	-1092
▁ہمیں	-1093
فظ	-1094
مون	-1095
▁بلکہ	-1096
▁ڈے	-1097
▁پروگرام	-1098
▁ویڈیو	-1099
▁۲۰	-1100
▁سکے	-1101
▁مجم	-1102
یند	-1103
▁شرکت	-1104
▁چیز	-1105
ٹل	-1106
▁دکھ	-1107
ٹرز	-1108
مالک	-1109
▁لڑ	-1110
▁گول	-1111
▁جسم	-1112
ازہ	-1113
▁تقری	-1114
▁فل	-1115
▁کیس	-1116
ھوں	-1117
▁خر	-1118
ایا	-1119
▁تفصیل	-1120
▁پولیس	-1121
دان	-1122
▁مخ	-1123
عق	-1124
یب	-1125
▁جاتے	-1126
▁ممالک	-1127
▁رک	-1128
▁ممکن	-1129
▁میچز	-1130
▁وائر	-1131
▁حد	-1132
▁ایش	-1133
صر	-1134
ai	-1135
▁جلد	-1136
▁قدر	-1137
ران	-1138
ای	-1139
▁میرے	-1140
ریشن	-1141
▁دار	-1142
▁خوش	-1143
وسی	-1144
▁مضمون	-1145
▁والا	-1146
▁ایپ	-1147
ہائی	-1148
▁صارفین	-1149
▁جنوبی	-1150
▁نظام	-1151
وک	-1152
فاظ	-1153
وظ	-1154
▁پت	-1155
▁سرمایہ	-1156
▁مالی	-1157
▁صلاحیت	-1158
▁صن	-1159
▁تلا	-1160
▁عمران	-1161
▁ڈاکٹر	-1162
یز	-1163
▁پڑھیں	-1164
▁لہ	-1165
▁تازہ	-1166
▁ئے	-1167
▁فری	-1168
▁کاروبار	-1169
▁کوچ	-1170
en	-1171
▁کردہ	-1172
▁چیئر	-1173
▁یقینی	-1174
لوں	-1175
▁کامیاب	-1176
▁نتی	-1177
▁۷	-1178
دیل	-1179
▁جمع	-1180
▁سوال	-1181
▁ذرائع	-1182
▁بغیر	-1183
▁دیں	-1184
▁شادی	-1185
▁پیر	-1186
بال	-1187
توں	-1188
▁تحت	-1189
ٹریلیا	-1190
ویل	-1191
ارا	-1192
ضا	-1193
ندھ	-1194
▁باہر	-1195
▁بیم	-1196
▁مگر	-1197
▁کبھی	-1198
▁شان	-1199
خر	-1200
▁اضافے	-1201
▁ویب	-1202
▁دع	-1203
..	-1204
▁ریلی	-1205
▁روک	-1206
▁گے۔	-1207
▁تعداد	-1208
▁اقد	-1209
▁تبدیل	-1210
▁تلاش	-1211
زیشن	-1212
دے	-1213
▁کھیلے	-1214
▁تھیں	-1215
▁حی	-1216
▁سات	-1217
تد	-1218
▁بجلی	-1219
▁ایسے	-1220
▁اندر	-1221
▁اچھی	-1222
صویر	-1223
سٹم	-1224
امنٹ	-1225
▁اباد	-1226
▁پہلا	-1227
▁کال	-1228
▁تقریبا	-1229
▁گروپ	-1230
▁شا	-1231
ائیڈ	-1232
▁ڈیز	-1233
دت	-1234
سٹر	-1235
▁ظاہر	-1236
ورنامنٹ	-1237
▁قائم	-1238
▁متح	-1239
▁سما	-1240
▁سپر	-1241
▁رواں	-1242
▁زیر	-1243
▁سٹی	-1244
▁اط	-1245
▁پسند	-1246
▁اٹھ	-1247
▁حکم	-1248
ازت	-1249
عظم	-1250
▁ایڈ	-1251
▁۱۲	-1252
▁رابط	-1253
▁ایونٹ	-1254
▁ہدایت	-1255
▁اللہ	-1256
▁کاری	-1257
▁ٹیکنالوجی	-1258
▁اننگز	-1259
▁ناک	-1260
▁بنائے	-1261
▁بنایا	-1262
▁اجازت	-1263
▁محف	-1264
▁سٹ	-1265
▁مری	-1266
▁ٹورنامنٹ	-1267
خواست	-1268
▁حم	-1269
▁معلومات	-1270
▁غلط	-1271
▁تفصیلات	-1272
▁سوشل	-1273
▁سپ	-1274
▁سامنا	-1275
کاری	-1276
ڈل	-1277
▁مقامی	-1278
▁مذ	-1279
▁اسپ	-1280
▁نک	-1281
ابر	-1282
وبر	-1283
▁کیا۔	-1284
▁جون	-1285
▁۹	-1286
▁نوج	-1287
▁ہاتھ	-1288
▁کش	-1289
▁تھے۔	-1290
کیل	-1291
دیلی	-1292
▁بنیادی	-1293
▁ہونا	-1294
▁درخواست	-1295
▁کردگی	-1296
▁عدال	-1297
▁بچے	-1298
حی	-1299
▁ابھی	-1300
▁لکھ	-1301
▁تبدیلی	-1302
▁فروخت	-1303
▁کمیٹی	-1304
▁پوری	-1305
ٹرول	-1306
▁ٹیموں	-1307
▁مب	-1308
▁بنگ	-1309
▁۱۵	-1310
ولائی	-1311
▁حقی	-1312
▁جھ	-1313
▁طریقہ	-1314
▁علاج	-1315
سمبر	-1316
▁شمار	-1317
▁برس	-1318
غاز	-1319
▁حل	-1320
▁حر	-1321
▁سرگر	-1322
▁مطل	-1323
▁شہری	-1324
کش	-1325
▁چھوٹ	-1326
▁دوب	-1327
ودہ	-1328
▁مجموعی	-1329
▁ہماری	-1330
فتے	-1331
ظیم	-1332
▁۸	-1333
▁وڈ	-1334
▁اجلاس	-1335
بے	-1336
▁میری	-1337
رل	-1338
عدد	-1339
▁برط	-1340
▁خدم	-1341
▁ڈرام	-1342
▁شکار	-1343
▁ایکس	-1344
▁رج	-1345
اردو	-1346
▁مرت	-1347
▁دوبارہ	-1348
▁واپس	-1349
▁انتہائی	-1350
▁لینے	-1351
تال	-1352
ڑا	-1353
▁امکان	-1354
▁برق	-1355
▁رق	-1356
▁محفوظ	-1357
ومبر	-1358
▁ء	-1359
▁درجہ	-1360
▁چیمپ	-1361
▁ہفتے	-1362
قین	-1363
▁ووڈ	-1364
▁'	-1365
میں	-1366
▁تھی۔	-1367
▁سلس	-1368
▁قیا	-1369
ائری	-1370
لیٹ	-1371
▁آف	-1372
▁تقریب	-1373
▁فوٹو	-1374
▁کئے	-1375
▁بڑا	-1376
▁تعلیم	-1377
▁پوائنٹس	-1378
▁عر	-1379
▁والوں	-1380
▁سوچ	-1381
▁خصوصی	-1382
▁زمین	-1383
▁تجویز	-1384
▁خوب	-1385
یے	-1386
▁سمجھ	-1387
▁پاب	-1388
رنز	-1389
▁کرکٹر	-1390
حال	-1391
▁اعظم	-1392
سوس	-1393
▁الا	-1394
شر	-1395
▁ایشن	-1396
انگ	-1397
▁ڈیو	-1398
▁آج	-1399
▁سائٹ	-1400
عی	-1401
زاد	-1402
▁سائ	-1403
▁فائ	-1404
▁آن	-1405
▁عوام	-1406
▁دوست	-1407
▁پیرا	-1408
ولت	-1409
▁میٹر	-1410
▁برقرار	-1411
ابت	-1412
▁معیشت	-1413
▁عرب	-1414
▁خات	-1415
▁اوور	-1416
▁گیس	-1417
سک	-1418
گراف	-1419
▁فو	-1420
▁آب	-1421
▁آگ	-1422
▁نواز	-1423
▁میز	-1424
یور	-1425
▁اکت	-1426
وش	-1427
▁کیوں	-1428
▁لہذا	-1429
▁توجہ	-1430
▁ایسی	-1431
▁دلچ	-1432
▁دیکھا	-1433
pen	-1434
▁بیماری	-1435
▁ڈھ	-1436
▁تنا	-1437
ینہ	-1438
▁انٹرنیشنل	-1439
رن	-1440
لمان	-1441
▁عامر	-1442
▁نمائ	-1443
ڈیم	-1444
▁متعدد	-1445
▁شیئر	-1446
▁زائد	-1447
▁ذہ	-1448
▁افریق	-1449
ینس	-1450
▁نیوز	-1451
▁شدہ	-1452
▁شپ	-1453
▁مثال	-1454
بھ	-1455
▁ہند	-1456
aw	-1457
▁ہل	-1458
ورہ	-1459
اکی	-1460
رفت	-1461
▁لنکا	-1462
▁مقصد	-1463
▁پیم	-1464
▁یور	-1465
یکی	-1466
بول	-1467
▁دیکھنے	-1468
▁مارچ	-1469
▁قریب	-1470
▁ثابت	-1471
▁کھانے	-1472
▁ٹھ	-1473
▁اکتوبر	-1474
راج	-1475
▁چھوڑ	-1476
▁نیا	-1477
▁جولائی	-1478
اتا	-1479
بوط	-1480
▁فیس	-1481
▁ایسوسی	-1482
▁سعودی	-1483
▁انے	-1484
▁جسے	-1485
▁فروغ	-1486
▁بالی	-1487
▁کھیلا	-1488
▁گیا۔	-1489
▁داخ	-1490
▁طلبا	-1491
▁ڈیٹا	-1492
▁مسائل	-1493
وعات	-1494
▁صف	-1495
تدائی	-1496
▁نیشنل	-1497
اون	-1498
▁گل	-1499
▁چیف	-1500
گز	-1501
تیار	-1502
▁راست	-1503
▁مدا	-1504
انیہ	-1505
▁اسکول	-1506
نڈی	-1507
▁تصویر	-1508
▁جرم	-1509
▁گفت	-1510
▁پھی	-1511
▁تعمیر	-1512
▁دسمبر	-1513
▁بیٹنگ	-1514
▁شکل	-1515
دف	-1516
▁الحق	-1517
دوں	-1518
▁رہن	-1519
▁تا	-1520
داری	-1521
▁مقابلہ	-1522
▁گلو	-1523
▁کہانی	-1524
▁وزیرا	-1525
▁جانا	-1526
▁یونی	-1527
▁عدالت	-1528
▁انڈسٹری	-1529
▁ستم	-1530
▁عن	-1531
ارک	-1532
▁ڈیزائن	-1533
▁ابتدائی	-1534
اہی	-1535
ہور	-1536
روپے	-1537
▁چاہتے	-1538
وٹی	-1539
پاکستان	-1540
▁گیند	-1541
▁گفتگو	-1542
▁اوپن	-1543
▁کیم	-1544
▁احت	-1545
دین	-1546
یاب	-1547
▁دورہ	-1548
▁اچھا	-1549
گار	-1550
▁ریلیز	-1551
▁بیر	-1552
▁دیے	-1553
▁اکثر	-1554
▁جنوری	-1555
▁ملاقات	-1556
پورٹ	-1557
▁نت	-1558
دیا	-1559
▁تیز	-1560
وپ	-1561
▁کلو	-1562
جر	-1563
▁نیوزی	-1564
▁سندھ	-1565
چہ	-1566
▁صوب	-1567
▁قر	-1568
▁ملین	-1569
روس	-1570
▁سخت	-1571
▁شاندار	-1572
سیع	-1573
▁ڈائری	-1574
▁نومبر	-1575
▁فار	-1576
ریڈ	-1577
وجود	-1578
▁ہوگئے	-1579
▁مظاہر	-1580
▁فا	-1581
▁ویسٹ	-1582
▁اقدامات	-1583
ئٹ	-1584
▁۱۱	-1585
▁رکھتے	-1586
▁چند	-1587
▁فلموں	-1588
▁سپورٹس	-1589
▁قیمتوں	-1590
▁بلے	-1591
▁سسٹم	-1592
ائج	-1593
▁ستمبر	-1594
▁ایچ	-1595
▁وائرس	-1596
▁W	-1597
اہمی	-1598
▁بک	-1599
▁کین	-1600
▁پیراگراف	-1601
▁شرح	-1602
روں	-1603
ونٹی	-1604
▁تحقیق	-1605
▁رکھا	-1606
▁موسم	-1607
▁ہمی	-1608
▁دان	-1609
ژن	-1610
▁معاہ	-1611
▁معیار	-1612
▁باوجود	-1613
▁نوٹ	-1614
▁مرح	-1615
▁میرا	-1616
▁لم	-1617
▁وزیراعظم	-1618
▁خواہ	-1619
▁پاک	-1620
▁الز	-1621
▁سفر	-1622
▁ریاست	-1623
▁گئیں	-1624
▁مقر	-1625
▁معروف	-1626
▁معم	-1627
▁اختت	-1628
▁سف	-1629
▁انائی	-1630
▁ساز	-1631
تر	-1632
چے	-1633
▁ذمہ	-1634
▁موجودہ	-1635
▁کرو	-1636
ڈز	-1637
▁مواد	-1638
▁ہمیشہ	-1639
▁وفا	-1640
▁ممبئی	-1641
▁سیٹ	-1642
▁عرص	-1643
▁پابندی	-1644
ثیت	-1645
▁۱۹	-1646
▁نما	-1647
وے	-1648
▁چاہیے	-1649
▁کلب	-1650
▁فارم	-1651
▁دیتا	-1652
ورسٹی	-1653
فتہ	-1654
▁تفری	-1655
▁طا	-1656
▁ئ	-1657
▁انسانی	-1658
▁میل	-1659
▁۳۰	-1660
طہ	-1661
▁مئی	-1662
طر	-1663
▁نتائج	-1664
لیو	-1665
قوامی	-1666
▁اگست	-1667
▁پش	-1668
▁O	-1669
▁جنرل	-1670
▁رپورٹر	-1671
▁علام	-1672
▁سیل	-1673
ائس	-1674
جم	-1675
▁نوجو	-1676
▁اختیار	-1677
▁گھنٹ	-1678
▁نشان	-1679
▁الاقوامی	-1680
▁کورونا	-1681
▁طریقے	-1682
▁Wa	-1683
▁طلباء	-1684
▁ہار	-1685
qt	-1686
▁Naw	-1687
▁امید	-1688
▁Waqt	-1689
▁Nawai	-1690
ابین	-1691
قبل	-1692
▁امریکہ	-1693
▁معام	-1694
▁چکے	-1695
▁حیر	-1696
▁مصنوعات	-1697
▁شدید	-1698
یورٹی	-1699
▁پیداوار	-1700
▁وق	-1701
▁تیزی	-1702
▁پن	-1703
▁لگا	-1704
ابی	-1705
▁اطلا	-1706
▁یونیورسٹی	-1707
▁بیک	-1708
▁شریف	-1709
▁نتیجے	-1710
▁ہدف	-1711
▁طاقت	-1712
▁Open	-1713
گن	-1714
▁Subtitles	-1715
▁کیلی	-1716
▁OpenSubtitles	-1717
ٹنگ	-1718
▁فروری	-1719
▁کتاب	-1720
▁مابین	-1721
▁ویں	-1722
▁زر	-1723
▁ہندو	-1724
▁فائدہ	-1725
▁رہنے	-1726
▁کھیلنے	-1727
▁گاڑی	-1728
اق	-1729
انوی	-1730
ائیک	-1731
▁پین	-1732
▁ڈیس	-1733
▁عہ	-1734
▁فیڈ	-1735
▁ورک	-1736
▁ظ	-1737
بات	-1738
شم	-1739
▁علاقوں	-1740
▁تخ	-1741
الیہ	-1742
▁مشتمل	-1743
▁اعداد	-1744
اٹ	-1745
▁پتہ	-1746
▁وار	-1747
istan	-1748
▁حیثیت	-1749
▁۲۵	-1750
▁ماڈل	-1751
▁نمائش	-1752
▁۱۴	-1753
▁بنیاد	-1754
▁بننے	-1755
قا	-1756
▁قسط	-1757
▁مرکزی	-1758
▁گرفت	-1759
▁اول	-1760
ڑوں	-1761
▁اثرات	-1762
▁گرد	-1763
▁بخ	-1764
▁جذ	-1765
ڈا	-1766
▁ایوار	-1767
▁انھوں	-1768
رس	-1769
▁ڈائریکٹر	-1770
وروں	-1771
▁ائ	-1772
▁مبنی	-1773
▁غاز	-1774
▁دیش	-1775
▁۲۴	-1776
▁پشاور	-1777
▁سلمان	-1778
▁مستقبل	-1779
▁یقین	-1780
▁مسئ	-1781
▁مشہور	-1782
▁مضبوط	-1783
▁اسکور	-1784
▁مظاہرہ	-1785
▁چیل	-1786
▁سالہ	-1787
▁پوزیشن	-1788
یکٹ	-1789
▁حسین	-1790
▁نص	-1791
▁گی۔	-1792
▁حالات	-1793
ائب	-1794
▁حسن	-1795
▁خدمات	-1796
▁علاقے	-1797
▁تیل	-1798
▁فائل	-1799
▁ٹوئن	-1800
▁اپریل	-1801
▁سرگرمی	-1802
▁افریقہ	-1803
وف	-1804
غان	-1805
عات	-1806
▁منٹ	-1807
زاز	-1808
▁دوسرا	-1809
▁تشکیل	-1810
▁چینی	-1811
خلاف	-1812
▁صدی	-1813
مت	-1814
▁نیٹ	-1815
▁۱۳	-1816
▁چھوٹے	-1817
▁لکھا	-1818
▁نمایاں	-1819
▁جنہ	-1820
▁صورتحال	-1821
اویر	-1822
▁گیم	-1823
▁کلاس	-1824
▁شم	-1825
▁سٹریلیا	-1826
▁ناق	-1827
▁علم	-1828
▁ٹوئنٹی	-1829
▁سونے	-1830
▁طویل	-1831
▁وفاقی	-1832
▁رقم	-1833
▁اختتام	-1834
▁مطلب	-1835
▁حفاظ	-1836
▁درج	-1837
▁چکی	-1838
▁میچوں	-1839
▁جدید	-1840
▁متحدہ	-1841
▁اسٹار	-1842
▁کنٹرول	-1843
▁جائ	-1844
▁کاررو	-1845
▁بلو	-1846
جو	-1847
▁تیسرے	-1848
▁کپور	-1849
▁صنعت	-1850
▁بندی	-1851
▁اعزاز	-1852
▁ہاکی	-1853
▁تصاویر	-1854
▁وس	-1855
▁متعارف	-1856
▁رات	-1857
▁بنگلہ	-1858
▁وہاں	-1859
ہرست	-1860
▁۱۶	-1861
کاروں	-1862
▁پورا	-1863
▁شاہد	-1864
▁بجا	-1865
ضوں	-1866
نسل	-1867
لسل	-1868
کرو	-1869
▁حق	-1870
▁تعاون	-1871
▁کیسے	-1872
▁چیلنج	-1873
خب	-1874
▁محسوس	-1875
▁چیمپئن	-1876
▁تقسیم	-1877
▁کاروباری	-1878
▁فتح	-1879
▁الگ	-1880
▁مہنگ	-1881
▁تفریح	-1882
اکت	-1883
▁زبان	-1884
▁پالی	-1885
▁پیچ	-1886
▁منعق	-1887
▁چوت	-1888
رک	-1889
▁کرن	-1890
▁پود	-1891
انہوں	-1892
داد	-1893
▁رسائی	-1894
▁اگرچہ	-1895
▁انڈیز	-1896
▁پیغ	-1897
▁تحفظ	-1898
▁ملے	-1899
▁حکام	-1900
امد	-1901
▁وزارت	-1902
▁۱۸	-1903
▁سلی	-1904
▁عملی	-1905
▁ڈیسک	-1906
▁مرتبہ	-1907
فارم	-1908
▁افغان	-1909
▁اہل	-1910
▁پالیسی	-1911
▁غور	-1912
ڈنگ	-1913
▁فوری	-1914
▁قانون	-1915
▁وکٹوں	-1916
ربہ	-1917
▁کارروائی	-1918
جا	-1919
▁پوسٹ	-1920
▁فیصلے	-1921
▁فیڈریشن	-1922
▁رہیں	-1923
ادہ	-1924
ندن	-1925
▁تجربہ	-1926
▁عنوان	-1927
▁کون	-1928
▁ماہرین	-1929
▁میک	-1930
▁پریش	-1931
▁مناسب	-1932
▁تیاری	-1933
▁عائد	-1934
▁لیں	-1935
▁دیئے	-1936
▁قانونی	-1937
▁ہوگا	-1938
▁ادارے	-1939
▁دریا	-1940
▁تعلقات	-1941
▁براہ	-1942
▁بلا	-1943
▁حقیقت	-1944
▁سیاسی	-1945
▁دس	-1946
▁کیخلاف	-1947
واز	-1948
▁باک	-1949
▁مداح	-1950
ؤں	-1951
▁بت	-1952
بائل	-1953
▁رن	-1954
▁خبروں	-1955
▁لگتا	-1956
▁کمپنیوں	-1957
▁رفت	-1958
▁فیل	-1959
▁وضا	-1960
▁سنچ	-1961
▁حصے	-1962
نہ	-1963
▁پیسے	-1964
▁دستیاب	-1965
▁ملی	-1966
▁معاشی	-1967
لیئر	-1968
ستی	-1969
ونڈ	-1970
▁منصوبہ	-1971
▁عبدال	-1972
حان	-1973
▁ہائی	-1974
خی	-1975
دھ	-1976
▁احس	-1977
▁۰	-1978
ٹڈ	-1979
▁گلوکار	-1980
وید	-1981
▁روزہ	-1982
ٹنے	-1983
▁ایکشن	-1984
▁واپ	-1985
▁گرین	-1986
▁وکٹیں	-1987
امیہ	-1988
▁سرفر	-1989
▁سیکھنے	-1990
▁ہندوستان	-1991
▁شائ	-1992
▁خوبص	-1993
▁ممکنہ	-1994
▁کردیا	-1995
زن	-1996
صول	-1997
ندر	-1998
▁محکم	-1999
▁جائزہ	-2000
▁پارٹی	-2001
▁اعتم	-2002
▁چاہئے۔	-2003
▁سرفراز	-2004
▁رین	-2005
▁سبب	-2006
ak	-2007
▁روش	-2008
▁سیمی	-2009
▁محبت	-2010
▁اخراج	-2011
▁ہیر	-2012
▁وضاحت	-2013
▁موبائل	-2014
ریس	-2015
▁درجے	-2016
▁بز	-2017
▁سکیں	-2018
ائیو	-2019
▁مزا	-2020
نت	-2021
▁پلان	-2022
ینگ	-2023
ینک	-2024
▁کی۔	-2025
▁طے	-2026
▁اداروں	-2027
یاء	-2028
▁منتقل	-2029
▁گذ	-2030
حد	-2031
▁بس	-2032
▁مثبت	-2033
▁میدان	-2034
▁کہیں	-2035
▁بلوچ	-2036
▁مہارت	-2037
کام	-2038
▁حو	-2039
▁تنظیم	-2040
▁دنوں	-2041
اح	-2042
▁سربر	-2043
قاف	-2044
▁لندن	-2045
▁٪	-2046
▁ذیل	-2047
▁آئ	-2048
▁کورٹ	-2049
اسک	-2050
▁۱۷	-2051
▁بلی	-2052
مر	-2053
عال	-2054
باح	-2055
▁کونسل	-2056
▁A	-2057
▁ٹرین	-2058
ڑھ	-2059
▁ٹھی	-2060
شنز	-2061
▁ٹک	-2062
▁پڑا	-2063
پو	-2064
▁ہیڈ	-2065
▁سرکاری	-2066
▁)	-2067
▁انڈیکس	-2068
▁پیمانے	-2069
▁دبئی	-2070
▁پرفارم	-2071
▁رد	-2072
▁منصوبے	-2073
▁دینا	-2074
▁حصص	-2075
▁آسان	-2076
▁داری	-2077
خبر	-2078
▁نیچے	-2079
▁رہنما	-2080
▁اصل	-2081
▁زخ	-2082
▁اعتماد	-2083
ضہ	-2084
▁انف	-2085
▁کہتے	-2086
▁تاج	-2087
▁مقدم	-2088
▁ست	-2089
ہا	-2090
ادری	-2091
▁دیا۔	-2092
▁بنائیں	-2093
▁ماہر	-2094
▁۵۰	-2095
▁پیچھے	-2096
▁نگر	-2097
▁دکھائی	-2098
▁روشنی	-2099
▁ریٹ	-2100
▁تجرب	-2101
▁یہی	-2102
▁لگانے	-2103
▁بو	-2104
بن	-2105
▁اگلے	-2106
▁برت	-2107
▁انص	-2108
▁بٹ	-2109
▁مک	-2110
▁تنقی	-2111
ائیگی	-2112
▁جسمانی	-2113
▁منتخب	-2114
▁بارش	-2115
▁قیادت	-2116
▁قل	-2117
▁حما	-2118
سٹک	-2119
ایک	-2120
▁تجزی	-2121
▁موثر	-2122
▁ایئر	-2123
▁شائقین	-2124
▁تعین	-2125
دود	-2126
فرنس	-2127
▁ٹیمیں	-2128
بانی	-2129
▁خوشی	-2130
▁مقام	-2131
▁شیخ	-2132
تیب	-2133
▁بھائی	-2134
▁ایوارڈ	-2135
▁رابطہ	-2136
▁بہتری	-2137
▁ثقاف	-2138
▁فض	-2139
حہ	-2140
▁۱۰۰	-2141
▁تس	-2142
▁منی	-2143
▁کیری	-2144
▁وسیع	-2145
▁فاسٹ	-2146
▁فیصل	-2147
ارٹ	-2148
▁گذشتہ	-2149
لات	-2150
▁کری	-2151
▁درست	-2152
▁است	-2153
▁الیکٹر	-2154
دیم	-2155
▁خرید	-2156
▁حمایت	-2157
▁طریقوں	-2158
▁توقع	-2159
▁پائی	-2160
▁افسر	-2161
▁کیلیے	-2162
ڈول	-2163
▁عرصے	-2164
▁خواہش	-2165
ماغ	-2166
▁وسیم	-2167
▁فہرست	-2168
▁لمب	-2169
دیق	-2170
▁پک	-2171
▁منگ	-2172
▁ٹیک	-2173
گت	-2174
▁نمائندگی	-2175
▁خاتون	-2176
املات	-2177
لائی	-2178
ہم	-2179
▁طلب	-2180
▁خطرہ	-2181
▁دبا	-2182
▁خام	-2183
رکہ	-2184
▁آباد	-2185
▁سروس	-2186
▁چکا	-2187
▁سائیکل	-2188
▁ترج	-2189
▁تحریک	-2190
▁جے	-2191
یائی	-2192
▁۲۲	-2193
▁فراہمی	-2194
▁راہ	-2195
▁لفظ	-2196
▁تصور	-2197
▁مخصوص	-2198
▁پیغام	-2199
▁انجام	-2200
▁معاملات	-2201
▁دماغ	-2202
▁رخ	-2203
ریم	-2204
سو	-2205
▁مسلسل	-2206
▁بڑھا	-2207
ڑک	-2208
▁پٹ	-2209
▁استح	-2210
▁خز	-2211
▁قاب	-2212
▁جیسا	-2213
فید	-2214
▁سور	-2215
افٹ	-2216
ظر	-2217
▁تصدیق	-2218
دہی	-2219
▁چیت	-2220
▁نکال	-2221
▁ٹھیک	-2222
▁مقدار	-2223
▁شعبے	-2224
ایتی	-2225
▁حوص	-2226
▁منعقد	-2227
▁سید	-2228
▁نجی	-2229
زمین	-2230
ولپ	-2231
▁فنڈ	-2232
▁ٹینس	-2233
چین	-2234
یسے	-2235
▁ماحولیاتی	-2236
▁۲۱	-2237
▁ترب	-2238
▁ایڈی	-2239
شا	-2240
ہری	-2241
▁انع	-2242
▁تکن	-2243
ولہ	-2244
ویو	-2245
▁اہمیت	-2246
▁نشاندہی	-2247
▁ذخ	-2248
▁محکمہ	-2249
▁رفتار	-2250
▁قدرتی	-2251
▁مغ	-2252
▁ٹرافی	-2253
لمی	-2254
لیوں	-2255
▁حالت	-2256
عقاد	-2257
▁دفا	-2258
▁فور	-2259
▁تجارتی	-2260
▁وسائل	-2261
▁فرق	-2262
▁گھروں	-2263
▁دلچسپ	-2264
▁خار	-2265
▁نقطہ	-2266
▁افت	-2267
▁اغاز	-2268
▁اون	-2269
▁شیڈول	-2270
▁اضافی	-2271
▁انعقاد	-2272
▁لک	-2273
▁حفاظت	-2274
▁شنا	-2275
▁بری	-2276
▁پال	-2277
یرہ	-2278
▁ناکام	-2279
▁رائے	-2280
▁پورے	-2281
▁انسٹ	-2282
▁سود	-2283
▁مشترکہ	-2284
▁انتظامیہ	-2285
▁کاشت	-2286
اکر	-2287
▁مستقل	-2288
ہزار	-2289
پا	-2290
▁گزار	-2291
ٹک	-2292
▁مسلم	-2293
▁آئی	-2294
داشت	-2295
▁سینئر	-2296
▁سلسلے	-2297
▁B	-2298
▁ممبر	-2299
▁ویم	-2300
▁دہشت	-2301
▁کرس	-2302
▁موسی	-2303
▁حیات	-2304
▁بڑھانے	-2305
▁تربیت	-2306
▁محدود	-2307
▁بھال	-2308
▁سنگھ	-2309
▁کاروں	-2310
▁جنہوں	-2311
▁منظوری	-2312
▁اقت	-2313
▁ٹاپ	-2314
فیظ	-2315
▁خراب	-2316
▁سیکر	-2317
akistan	-2318
▁گرفتار	-2319
▁سماعت	-2320
▁روایتی	-2321
▁تجزیہ	-2322
▁مطالبہ	-2323
▁پا	-2324
▁پائے	-2325
▁طرز	-2326
▁آیا	-2327
▁لڑکی	-2328
▁لط	-2329
▁سلسلہ	-2330
تمام	-2331
انک	-2332
▁پڑتا	-2333
▁مائ	-2334
▁گزر	-2335
▁دہائی	-2336
▁ویل	-2337
▁انصاف	-2338
▁...	-2339
▁موت	-2340
▁پلا	-2341
▁نسل	-2342
▁چھوٹی	-2343
▁تنقید	-2344
▁مندر	-2345
اند	-2346
▁داخل	-2347
▁برطانوی	-2348
انت	-2349
بح	-2350
ونگ	-2351
سٹس	-2352
▁بالکل	-2353
تل	-2354
▁واب	-2355
▁پچھ	-2356
▁اسٹاک	-2357
▁میزبان	-2358
ٹھ	-2359
▁بنے	-2360
عدہ	-2361
▁خون	-2362
▁زور	-2363
▁سیکیورٹی	-2364
▁آخر	-2365
▁الفاظ	-2366
▁طبی	-2367
▁رکھتی	-2368
ادر	-2369
▁پول	-2370
▁۲۳	-2371
▁معاملے	-2372
▁کیں	-2373
▁شکر	-2374
ٹے	-2375
ربی	-2376
▁اکی	-2377
▁شعیب	-2378
ڈن	-2379
▁بجٹ	-2380
▁ٹرانس	-2381
▁جین	-2382
▁ذاتی	-2383
▁اوورز	-2384
▁حوصلہ	-2385
▁بجے	-2386
▁اسٹیڈیم	-2387
▁اداکاری	-2388
▁شاید	-2389
▁معمولی	-2390
▁برطانیہ	-2391
▁متعلقہ	-2392
ئل	-2393
لیف	-2394
▁ڈب	-2395
▁لکھیں۔	-2396
▁کانفرنس	-2397
▁کھانا	-2398
▁صاف	-2399
▁اتنا	-2400
عنی	-2401
▁مہم	-2402
▁ہسپ	-2403
▁اندازہ	-2404
▁خصوصیات	-2405
▁سنی	-2406
واڈ	-2407
▁وزن	-2408
▁حیرت	-2409
▁خال	-2410
▁کیریئر	-2411
▁واپسی	-2412
رائی	-2413
سپی	-2414
خیص	-2415
▁باقا	-2416
▁باقی	-2417
▁طال	-2418
▁میوز	-2419
▁صح	-2420
▁سنچری	-2421
▁افری	-2422
▁وج	-2423
▁درد	-2424
▁تشخیص	-2425
▁اینٹی	-2426
▁خور	-2427
▁اسمب	-2428
بوں	-2429
▁تباد	-2430
▁پل	-2431
▁توڑ	-2432
▁جز	-2433
▁بیس	-2434
جنسی	-2435
▁سماجی	-2436
فیس	-2437
▁الزام	-2438
▁آنے	-2439
▁اٹھا	-2440
▁خی	-2441
▁ٹوئ	-2442
▁سیکرٹری	-2443
ئیر	-2444
▁آہ	-2445
▁زم	-2446
▁جار	-2447
▁عمدہ	-2448
ولیت	-2449
▁مستح	-2450
▁امریکا	-2451
▁شمال	-2452
▁زخمی	-2453
▁ہوں۔	-2454
▁شراکت	-2455
▁جانچ	-2456
▁شہزاد	-2457
▁کلی	-2458
▁ترجی	-2459
▁چوہ	-2460
▁انڈر	-2461
▁والدین	-2462
▁تجارت	-2463
سٹریل	-2464
▁منظر	-2465
▁جاوید	-2466
جنگ	-2467
▁حرارت	-2468
▁خوف	-2469
▁بنانا	-2470
▁جما	-2471
▁کمیشن	-2472
بارک	-2473
▁برادری	-2474
▁خوبصورت	-2475
ٹرو	-2476
▁گورن	-2477
▁کوہ	-2478
▁ٹن	-2479
▁دکھا	-2480
▁وف	-2481
▁نر	-2482
اویز	-2483
امہ	-2484
ئٹہ	-2485
▁اسٹریلیا	-2486
▁ریاض	-2487
▁جانوروں	-2488
▁بیل	-2489
▁سارے	-2490
▁ساتھی	-2491
▁انسان	-2492
▁الیکشن	-2493
▁بط	-2494
▁مداحوں	-2495
علی	-2496
▁رض	-2497
▁اسٹیٹ	-2498
▁بحالی	-2499
شک	-2500
▁قتل	-2501
وٹنگ	-2502
▁مصباح	-2503
ly	-2504
فیصد	-2505
عتی	-2506
▁بنائی	-2507
▁برائے	-2508
ارات	-2509
▁انتظام	-2510
حل	-2511
▁کیمپ	-2512
▁کھیلوں	-2513
▁صاح	-2514
▁اقبال	-2515
▁اچھے	-2516
▁نشانہ	-2517
▁اسمبلی	-2518
▁مہمان	-2519
▁کینسر	-2520
▁سالوں	-2521
▁آگے	-2522
ارب	-2523
مق	-2524
▁جانتے	-2525
▁فٹبال	-2526
▁مرحلے	-2527
▁لوڈ	-2528
▁سلو	-2529
aily	-2530
▁ناقابل	-2531
▁ایج	-2532
▁جائی	-2533
▁دا	-2534
▁Daily	-2535
▁حفیظ	-2536
ریہ	-2537
یکشن	-2538
▁پودوں	-2539
▁ہٹ	-2540
▁حالیہ	-2541
▁حکمت	-2542
▁صحی	-2543
▁برابر	-2544
▁ادائیگی	-2545
▁گلی	-2546
ہی	-2547
om	-2548
▁گھنٹے	-2549
▁کمپیو	-2550
▁ٹونٹی	-2551
▁تخلی	-2552
▁بھیج	-2553
▁افغانستان	-2554
سال	-2555
▁نکل	-2556
▁دلچسپی	-2557
▁فوج	-2558
ولپنڈی	-2559
▁پہن	-2560
لیہ	-2561
▁سہولت	-2562
▁Pakistan	-2563
▁قوم	-2564
▁سالانہ	-2565
کردگی	-2566
▁اکر	-2567
▁انھیں	-2568
۰۰۰	-2569
زد	-2570
▁روکنے	-2571
▁سان	-2572
دری	-2573
▁ذہنی	-2574
▁معاہدے	-2575
▁رہتے	-2576
▁۴۰	-2577
▁استحکام	-2578
شاہ	-2579
▁افز	-2580
▁کرکٹرز	-2581
▁گرام	-2582
▁سزا	-2583
▁دریافت	-2584
▁خطرے	-2585
▁بطور	-2586
واری	-2587
▁پریس	-2588
▁احساس	-2589
▁گئی۔	-2590
▁معاشر	-2591
▁سرگرمیوں	-2592
▁خطاب	-2593
▁یونس	-2594
▁مصروف	-2595
ویٹ	-2596
▁PK	-2597
▁مف	-2598
اگر	-2599
▁جاپ	-2600
▁بیٹس	-2601
▁تعریف	-2602
▁گاہ	-2603
▁فریدی	-2604
▁دیکھیں	-2605
کٹس	-2606
▁ملتان	-2607
▁ملنے	-2608
▁ہیل	-2609
▁کھل	-2610
صل	-2611
شید	-2612
▁دھم	-2613
▁انٹرویو	-2614
▁رجحان	-2615
▁اسرائی	-2616
▁ماضی	-2617
▁مقبول	-2618
▁پڑے	-2619
خری	-2620
▁وابستہ	-2621
▁منفی	-2622
▁مقرر	-2623
لاکھ	-2624
▁ٹوئٹر	-2625
▁دیتی	-2626
▁مسئلہ	-2627
▁اوپر	-2628
کنگ	-2629
▁خبریں	-2630
▁شریک	-2631
▁برو	-2632
▁اُ	-2633
▁مٹی	-2634
کاوٹ	-2635
▁H	-2636
▁قری	-2637
شتر	-2638
▁صحیح	-2639
▁آنکھ	-2640
شد	-2641
▁روم	-2642
قوق	-2643
▁اظہر	-2644
باز	-2645
▁چاہتا	-2646
▁ترجمان	-2647
▁اسل	-2648
کروڑ	-2649
▁صاحب	-2650
▁خیبر	-2651
▁مالیت	-2652
▁ہاتھوں	-2653
▁باکس	-2654
▁بابر	-2655
▁لوٹ	-2656
▁رکھنا	-2657
▁انفر	-2658
▁پخت	-2659
▁حقوق	-2660
▁کوئٹہ	-2661
▁ڈرامہ	-2662
▁بزنس	-2663
▁دائر	-2664
▁مزاح	-2665
▁جت	-2666
▁شناخت	-2667
▁گن	-2668
قہ	-2669
▁آغاز	-2670
▁ڈبلیو	-2671
▁کارکردگی	-2672
ائپ	-2673
یکا	-2674
▁بیٹی	-2675
واہ	-2676
▁رکھی	-2677
▁امن	-2678
▁مچ	-2679
▁سلط	-2680
تھی	-2681
▁قدم	-2682
▁دعوی	-2683
▁گرم	-2684
▁جیتنے	-2685
بیر	-2686
▁برتری	-2687
▁تھام	-2688
میل	-2689
▁سل	-2690
▁ٹائم	-2691
▁واقعی	-2692
ڈو	-2693
▁رابطے	-2694
▁بیٹسمین	-2695
▁ٹائٹ	-2696
▁رکھیں	-2697
▁صلاحیتوں	-2698
▁زندہ	-2699
▁راولپنڈی	-2700
▁مندرجہ	-2701
▁۲۶	-2702
لیمی	-2703
▁جہاز	-2704
▁جیسی	-2705
▁ہاں	-2706
▁غذ	-2707
▁چلا	-2708
▁جماعت	-2709
▁معاون	-2710
▁محم	-2711
▁ڈان	-2712
▁مشکلات	-2713
ئین	-2714
▁موا	-2715
تمی	-2716
▁واقعات	-2717
▁مدت	-2718
▁صبح	-2719
▁نس	-2720
▁کھیلی	-2721
قف	-2722
لت	-2723
▁جام	-2724
▁سربراہ	-2725
▁پیچی	-2726
جب	-2727
▁قب	-2728
▁غلطی	-2729
▁اولمپ	-2730
▁فال	-2731
▁پھیل	-2732
▁عوامی	-2733
▁مان	-2734
خبروں	-2735
▁چیک	-2736
▁کیپ	-2737
فس	-2738
▁مواقع	-2739
▁اخری	-2740
▁بلوچستان	-2741
▁سون	-2742
▁مشین	-2743
▁انکار	-2744
راف	-2745
ولر	-2746
ائٹس	-2747
▁قابو	-2748
▁معاشرتی	-2749
▁پاور	-2750
▁سکور	-2751
▁نامی	-2752
▁یعنی	-2753
▁فوائد	-2754
▁میگا	-2755
▁کیٹ	-2756
ذیر	-2757
▁حملہ	-2758
▁پچ	-2759
سام	-2760
طن	-2761
کسی	-2762
▁کوار	-2763
▁معاش	-2764
ہرے	-2765
▁پروج	-2766
▁نتیجہ	-2767
▁سینٹر	-2768
▁عدم	-2769
ومتی	-2770
▁منسل	-2771
▁انڈیا	-2772
▁نمو	-2773
▁چیمبر	-2774
▁ہا	-2775
▁۲۸	-2776
▁باب	-2777
▁بولی	-2778
▁دیکھتے	-2779
▁یونٹ	-2780
▁اسکرین	-2781
▁حصول	-2782
▁منسلک	-2783
▁والد	-2784
▁خیالات	-2785
▁کاسٹ	-2786
▁بدل	-2787
▁سامان	-2788
▁اوسط	-2789
▁ہلاک	-2790
جیٹل	-2791
▁تعلیمی	-2792
▁لمبے	-2793
▁موض	-2794
▁لگایا	-2795
▁بلند	-2796
▁ملازم	-2797
▁برا	-2798
▁پیشہ	-2799
▁ترجیح	-2800
▁کرنی	-2801
ارٹی	-2802
▁عظیم	-2803
▁حمل	-2804
▁فائر	-2805
▁شائع	-2806
▁آواز	-2807
▁خزانہ	-2808
▁وٹ	-2809
زش	-2810
▁فوجی	-2811
ارش	-2812
▁ترتیب	-2813
▁گانے	-2814
▁فخر	-2815
▁سست	-2816
ریا	-2817
▁بع	-2818
▁سعید	-2819
میم	-2820
▁تحقیقات	-2821
▁دیر	-2822
واں	-2823
▁کشی	-2824
▁حقیقی	-2825
▁ہفتہ	-2826
ذہ	-2827
فع	-2828
▁نقل	-2829
▁آبادی	-2830
▁پلیٹ	-2831
▁ملز	-2832
▁پرفارمنس	-2833
▁ضروریات	-2834
▁تحری	-2835
▁خدا	-2836
▁۲۷	-2837
▁مختصر	-2838
▁غذائی	-2839
▁سمجھا	-2840
▁محنت	-2841
▁انکش	-2842
▁ایگز	-2843
▁سیزن	-2844
▁سنبھ	-2845
▁گری	-2846
▁تاریخی	-2847
▁اشیاء	-2848
▁مانی	-2849
▁صوبائی	-2850
▁کھو	-2851
▁بدھ	-2852
▁پہنچا	-2853
▁انکشاف	-2854
▁راج	-2855
▁اجزا	-2856
ولوں	-2857
مے	-2858
الیف	-2859
ورز	-2860
▁ٹکنالوجی	-2861
▁کرپ	-2862
▁بیٹے	-2863
▁عرف	-2864
دن	-2865
▁انڈین	-2866
▁ٹول	-2867
▁نگرانی	-2868
▁ڈیجیٹل	-2869
▁مبارک	-2870
▁سہیل	-2871
▁حملے	-2872
ادث	-2873
▁قرض	-2874
یابی	-2875
▁نیوی	-2876
▁میاں	-2877
▁مریضوں	-2878
▁انتخابات	-2879
▁قبول	-2880
▁ٹیلی	-2881
▁انسٹا	-2882
▁درخت	-2883
جد	-2884
نگی	-2885
▁حرکت	-2886
▁ریس	-2887
▁فرانس	-2888
▁کرکے	-2889
▁کشمیر	-2890
▁بعض	-2891
▁مطالعہ	-2892
▁انتظار	-2893
▁علامات	-2894
▁نوع	-2895
شے	-2896
▁محمود	-2897
▁کمپیوٹر	-2898
شیا	-2899
▁سیاست	-2900
▁وطن	-2901
▁سائز	-2902
▁اتھ	-2903
لر	-2904
ورٹ	-2905
پوائن	-2906
مباب	-2907
▁لمبی	-2908
▁کروں	-2909
آمد	-2910
ئنز	-2911
▁رکھے	-2912
▁روشن	-2913
▁کھول	-2914
▁مقررہ	-2915
▁گیمز	-2916
▁مصنف	-2917
▁انٹرنیٹ	-2918
▁روس	-2919
▁حوالہ	-2920
▁اخراجات	-2921
ینئر	-2922
▁عباس	-2923
▁تبادلہ	-2924
▁نع	-2925
روم	-2926
▁شہباز	-2927
▁خد	-2928
▁حتمی	-2929
کوں	-2930
▁پیک	-2931
باس	-2932
▁رح	-2933
▁ایجنسی	-2934
کیشن	-2935
▁حادث	-2936
▁کینی	-2937
▁واحد	-2938
▁یافتہ	-2939
▁ملازمین	-2940
▁؛	-2941
▁انگی	-2942
▁تیسری	-2943
▁سفارش	-2944
▁برمد	-2945
صادی	-2946
▁اکرم	-2947
▁کردی	-2948
▁سمجھنے	-2949
▁اجزاء	-2950
▁جسٹس	-2951
▁منصوبوں	-2952
▁نائب	-2953
▁موٹر	-2954
جمنٹ	-2955
▁ہسپتال	-2956
▁منظور	-2957
▁کہہ	-2958
▁مقامات	-2959
▁مور	-2960
▁چم	-2961
▁پایا	-2962
▁کامرس	-2963
▁ملتی	-2964
▁افزائی	-2965
▁خاندان	-2966
▁ہمارا	-2967
▁پہنچنے	-2968
تو	-2969
▁نوٹس	-2970
▁کالج	-2971
▁دورے	-2972
▁کوالیف	-2973
▁وقف	-2974
▁قدیم	-2975
▁پڑھ	-2976
▁باغ	-2977
▁جر	-2978
▁مشر	-2979
▁چلنے	-2980
حا	-2981
▁چیئرمین	-2982
▁حیدر	-2983
یلین	-2984
▁چوتھے	-2985
▁مرکز	-2986
▁ناز	-2987
▁کنگ	-2988
▁مقابلوں	-2989
▁متو	-2990
▁ذکر	-2991
▁وسط	-2992
▁ڈپ	-2993
▁وغیر	-2994
▁ہیرو	-2995
▁بناتے	-2996
راہ	-2997
▁مستحکم	-2998
▁شام	-2999
▁پرج	-3000
▁رکاوٹ	-3001
▁انگلش	-3002
▁اختر	-3003
▁لاگت	-3004
برد	-3005
▁بھا	-3006
▁گوگل	-3007
▁میٹ	-3008
نر	-3009
▁فعال	-3010
▁کارڈ	-3011
ہبی	-3012
▁کٹ	-3013
▁ہوگی۔	-3014
▁پچھلے	-3015
بور	-3016
▁لاز	-3017
▁جارہ	-3018
▁ضل	-3019
چینج	-3020
▁انح	-3021
▁عث	-3022
▁پہلو	-3023
ایت	-3024
▁ئندہ	-3025
▁ہالی	-3026
ڈین	-3027
▁قط	-3028
رت	-3029
▁ٹری	-3030
▁ساری	-3031
▁ہوم	-3032
▁گند	-3033
▁ایران	-3034
▁بدولت	-3035
▁جائے۔	-3036
▁وغیرہ	-3037
▁چلتا	-3038
▁مرا	-3039
▁ٹائٹل	-3040
▁حریف	-3041
▁کنٹ	-3042
اتذہ	-3043
ائڈ	-3044
▁منہ	-3045
▁آئے	-3046
▁شعبوں	-3047
▁خیز	-3048
عمل	-3049
▁رکھتا	-3050
▁مخال	-3051
▁لانے	-3052
▁تباہ	-3053
▁ویر	-3054
▁لگے	-3055
▁روڈ	-3056
▁سازی	-3057
لن	-3058
▁اقتصادی	-3059
▁پورٹ	-3060
▁اکمل	-3061
▁زمباب	-3062
▁اوقات	-3063
▁کوارٹر	-3064
▁افتتا	-3065
▁ڈرائی	-3066
▁جیل	-3067
▁رون	-3068
انسی	-3069
ny	-3070
▁کارکن	-3071
▁حجم	-3072
▁انگیز	-3073
▁سوالات	-3074
▁عمارت	-3075
▁پختون	-3076
ہیم	-3077
pr	-3078
▁مشورہ	-3079
▁سٹیڈیم	-3080
گان	-3081
▁مرد	-3082
▁دانتوں	-3083
▁سچ	-3084
▁ہو۔	-3085
▁ٹاس	-3086
▁سنبھال	-3087
▁اساتذہ	-3088
▁منگل	-3089
دد	-3090
▁کورس	-3091
▁فلمیں	-3092
▁تکلیف	-3093
اہد	-3094
زادی	-3095
▁پید	-3096
ندوں	-3097
▁اتنی	-3098
▁کررہ	-3099
▁کرل	-3100
▁کمز	-3101
▁ایشیا	-3102
▁اعت	-3103
ess	-3104
▁پروڈیو	-3105
▁جمعرات	-3106
مائی	-3107
▁بازی	-3108
▁۲۹	-3109
▁ہمراہ	-3110
▁محق	-3111
▁آخری	-3112
▁ایگزیک	-3113
▁عید	-3114
▁سٹار	-3115
▁ایکسچینج	-3116
▁یکم	-3117
ٹین	-3118
▁تناز	-3119
▁موسیقی	-3120
▁مرکوز	-3121
▁نور	-3122
وبز	-3123
▁امت	-3124
حک	-3125
▁رائ	-3126
▁شعبہ	-3127
▁تہ	-3128
▁نہیں۔	-3129
am	-3130
▁C	-3131
▁زرا	-3132
▁شہریوں	-3133
▁جملے	-3134
▁تھر	-3135
طل	-3136
▁ہوگئی	-3137
▁انجینئر	-3138
▁ماس	-3139
▁اکا	-3140
▁شہرت	-3141
▁لیتے	-3142
▁منافع	-3143
پل	-3144
نڈا	-3145
▁سڑک	-3146
یلی	-3147
▁اہلیہ	-3148
▁شکا	-3149
▁گار	-3150
▁لائ	-3151
▁اقسام	-3152
▁زبرد	-3153
انڈر	-3154
▁ایکسپ	-3155
اوی	-3156
press	-3157
اط	-3158
▁Express	-3159
▁ٹریڈ	-3160
▁یاسر	-3161
ٹرک	-3162
میٹ	-3163
▁جذب	-3164
▁۳۱	-3165
▁تیسرا	-3166
▁کوہلی	-3167
نٹس	-3168
ٹرولیم	-3169
▁اسد	-3170
▁فیلڈ	-3171
▁ڈھانچ	-3172
▁شوہر	-3173
▁دہلی	-3174
▁شیر	-3175
ائشی	-3176
فلم	-3177
▁بالر	-3178
▁جمعہ	-3179
▁ہنگ	-3180
▁امور	-3181
▁ویئر	-3182
▁پروجیکٹ	-3183
ٹیف	-3184
▁تناؤ	-3185
▁الیون	-3186
▁سفید	-3187
▁پریشانی	-3188
▁ڈرامے	-3189
▁ہونی	-3190
▁سمند	-3191
وتھ	-3192
▁ڈبل	-3193
▁شمالی	-3194
▁سبز	-3195
▁الرح	-3196
فیق	-3197
راض	-3198
▁سانس	-3199
▁زراعت	-3200
نٹی	-3201
▁متن	-3202
▁ہال	-3203
▁شوٹنگ	-3204
▁ترق	-3205
▁پریشان	-3206
جاج	-3207
▁بیرونی	-3208
▁صدار	-3209
ینوں	-3210
▁پلیئر	-3211
دانوں	-3212
▁اتوار	-3213
▁‘	-3214
▁کرنسی	-3215
حکومت	-3216
▁کرایا	-3217
▁سلطان	-3218
وجھ	-3219
ama	-3220
لیل	-3221
▁سورج	-3222
▁شرما	-3223
▁پروڈ	-3224
▁اعلیٰ	-3225
▁انسٹاگرام	-3226
فری	-3227
▁متحرک	-3228
▁اہتمام	-3229
▁زمبابوے	-3230
▁سیف	-3231
▁وصول	-3232
▁قیام	-3233
سری	-3234
▁کمار	-3235
▁فکس	-3236
▁اکان	-3237
▁اکیڈ	-3238
▁راستے	-3239
▁آسانی	-3240
▁عثمان	-3241
▁دوسروں	-3242
▁بڑھتی	-3243
▁دفاع	-3244
▁متباد	-3245
▁جواب	-3246
▁ایپلی	-3247
▁زرعی	-3248
▁بولنگ	-3249
یاز	-3250
▁زلمی	-3251
▁گاڑیوں	-3252
لینڈ	-3253
▁چونکہ	-3254
▁چوہدری	-3255
▁مینجمنٹ	-3256
▁دش	-3257
▁روب	-3258
▁ڈیم	-3259
▁شہروں	-3260
اریہ	-3261
▁فوڈ	-3262
بوت	-3263
▁طی	-3264
▁خریداری	-3265
▁ہےاس	-3266
▁فٹنس	-3267
▁اث	-3268
▁خس	-3269
▁بش	-3270
▁ماں	-3271
▁دباؤ	-3272
▁فیم	-3273
ویر	-3274
▁واقعہ	-3275
▁عالم	-3276
▁ٹریل	-3277
▁ریٹائر	-3278
▁سینی	-3279
▁انگ	-3280
زل	-3281
حات	-3282
▁اسم	-3283
▁کیر	-3284
گاہ	-3285
فاق	-3286
▁روانہ	-3287
▁ظفر	-3288
▁اپیل	-3289
▁ترکی	-3290
رد	-3291
▁رہائش	-3292
▁واٹس	-3293
▁انتق	-3294
▁بص	-3295
ٹریٹ	-3296
▁بحران	-3297
▁ترقیاتی	-3298
▁باس	-3299
▁خواب	-3300
▁بوجھ	-3301
▁۶۰	-3302
▁ورزی	-3303
پٹ	-3304
▁دستاویز	-3305
▁وائرل	-3306
▁پذیر	-3307
▁موجودگی	-3308
▁پڑھنے	-3309
▁سوئ	-3310
▁پرجاتی	-3311
▁سافٹ	-3312
▁عرفان	-3313
نوں	-3314
▁جونی	-3315
▁پانے	-3316
▁سرگرم	-3317
سین	-3318
▁گرمی	-3319
▁الم	-3320
▁بائی	-3321
▁جنسی	-3322
▁خشک	-3323
▁آد	-3324
▁مسئلے	-3325
مح	-3326
▁خانہ	-3327
▁تکنیک	-3328
▁بھاری	-3329
▁معاہدہ	-3330
شنگ	-3331
▁بلاک	-3332
▁پانچویں	-3333
▁ہوا۔	-3334
▁یورپی	-3335
▁صفر	-3336
▁لنکن	-3337
▁ہرا	-3338
▁برامد	-3339
▁رپورٹس	-3340
▁ے	-3341
▁مایو	-3342
▁خطرات	-3343
▁اتھارٹی	-3344
نگے	-3345
▁شوبز	-3346
واضح	-3347
وبہ	-3348
▁امارات	-3349
▁معاملہ	-3350
▁نفس	-3351
▁فلس	-3352
▁ہوکر	-3353
▁بائ	-3354
▁متبادل	-3355
▁توسیع	-3356
▁دیکھنا	-3357
▁تشدد	-3358
▁کمشن	-3359
▁اڑ	-3360
▁سج	-3361
▁پرواز	-3362
▁امپ	-3363
▁ایشین	-3364
ہے	-3365
▁دف	-3366
جز	-3367
▁رہتا	-3368
eo	-3369
کورہ	-3370
▁اخلا	-3371
▁معمول	-3372
▁اکیڈمی	-3373
▁ردعمل	-3374
وانین	-3375
▁باہمی	-3376
▁وہی	-3377
▁زین	-3378
▁حا	-3379
▁آزاد	-3380
حاظ	-3381
▁بیگ	-3382
▁یونین	-3383
▁لین	-3384
وث	-3385
صار	-3386
▁تسلیم	-3387
ضم	-3388
▁چیزوں	-3389
▁پھل	-3390
فوٹو	-3391
غذ	-3392
▁بچنے	-3393
▁نار	-3394
▁فورس	-3395
▁مجھ	-3396
یاس	-3397
▁نیند	-3398
ھیر	-3399
ائیوں	-3400
لک	-3401
▁قوانین	-3402
▁وجوہ	-3403
▁جیو	-3404
▁ائے	-3405
▁سکے۔	-3406
▁صنعتی	-3407
رام	-3408
▁مطالعے	-3409
اقب	-3410
▁سپریم	-3411
▁سکی	-3412
▁خدمت	-3413
▁روزانہ	-3414
▁پسندی	-3415
▁چا	-3416
▁کیساتھ	-3417
گریزی	-3418
▁جائیگا	-3419
▁رم	-3420
▁پہچ	-3421
اتح	-3422
سٹن	-3423
▁ثبوت	-3424
▁انوں	-3425
وئل	-3426
▁دیں۔	-3427
لوے	-3428
▁بناتا	-3429
▁محققین	-3430
▁معاشرے	-3431
▁مجبور	-3432
▁خلا	-3433
▁بیماریوں	-3434
ناک	-3435
▁قائد	-3436
▁لطف	-3437
▁پیچیدہ	-3438
um	-3439
▁طب	-3440
▁دیو	-3441
اہے	-3442
▁لحاظ	-3443
ھم	-3444
▁بخش	-3445
▁حیران	-3446
▁اقدام	-3447
چک	-3448
▁ٹیکسٹ	-3449
اؤن	-3450
▁ذخائر	-3451
▁کہاں	-3452
▁..	-3453
▁پوچھ	-3454
▁اسپورٹس	-3455
▁نصف	-3456
▁سکا	-3457
یف	-3458
▁سیکھ	-3459
▁سپورٹ	-3460
▁داد	-3461
▁سہول	-3462
▁ڈیوڈ	-3463
▁انحصار	-3464
▁جوڑ	-3465
مارٹ	-3466
▁ناف	-3467
▁ویکس	-3468
▁سیشن	-3469
▁عز	-3470
▁اشرف	-3471
▁گرا	-3472
یرے	-3473
▁گئے۔	-3474
اصر	-3475
وڑا	-3476
▁سینما	-3477
▁پویلین	-3478
▁ائندہ	-3479
▁بالنگ	-3480
ریت	-3481
رانی	-3482
▁تے	-3483
▁وین	-3484
▁احتجاج	-3485
▁ولیم	-3486
▁کیچ	-3487
ینگے	-3488
▁لباس	-3489
▁پریکٹس	-3490
▁دکھایا	-3491
▁پیس	-3492
▁آل	-3493
▁خارجہ	-3494
تھر	-3495
▁فواد	-3496
▁انفرادی	-3497
ؤٹ	-3498
▁متاثرہ	-3499
▁حامل	-3500
▁مالک	-3501
▁نامور	-3502
▁لازمی	-3503
▁کوڈ	-3504
▁c	-3505
▁ڈیل	-3506
▁ڈوی	-3507
▁ہڈی	-3508
▁چن	-3509
▁معیاری	-3510
▁سکیورٹی	-3511
▁اطلاع	-3512
▁ریسر	-3513
▁وجوہات	-3514
▁۳۵	-3515
▁زبردست	-3516
▁ڈین	-3517
▁متوقع	-3518
زیز	-3519
▁ادارہ	-3520
▁بولر	-3521
وریج	-3522
▁جوش	-3523
▁باقاعدہ	-3524
▁پوچ	-3525
خط	-3526
▁خیر	-3527
▁دعوت	-3528
▁پیمائش	-3529
▁فاص	-3530
▁اسپن	-3531
▁سمندری	-3532
▁ناکامی	-3533
▁انگریزی	-3534
ریلو	-3535
خواہ	-3536
▁جاپان	-3537
▁مشق	-3538
▁سلام	-3539
▁سلوک	-3540
▁لاہوراردو	-3541
▁بحال	-3542
▁تینوں	-3543
▁گہری	-3544
وام	-3545
▁پیپ	-3546
▁خطے	-3547
▁کینیڈا	-3548
زر	-3549
▁چاہے	-3550
▁وفد	-3551
▁چاند	-3552
▁ٹکٹ	-3553
▁صحافی	-3554
▁گیل	-3555
▁مبت	-3556
▁اسکواڈ	-3557
▁چر	-3558
▁حساب	-3559
▁خالد	-3560
▁غریب	-3561
▁بچانے	-3562
▁اسپتال	-3563
▁بگ	-3564
▁پختونخوا	-3565
▁مول	-3566
▁پیٹ	-3567
▁نیل	-3568
لکت	-3569
ڈٹ	-3570
▁مسترد	-3571
▁جرمنی	-3572
▁پروفیس	-3573
▁عوامل	-3574
▁کیو	-3575
▁عاد	-3576
▁تھری	-3577
▁Hum	-3578
▁امیدو	-3579
فرد	-3580
▁کہاکہ	-3581
▁جیک	-3582
▁پرا	-3583
▁انو	-3584
▁لینا	-3585
▁انی	-3586
▁مشن	-3587
▁مغربی	-3588
▁مبتلا	-3589
▁ہاؤ	-3590
امن	-3591
▁بان	-3592
de	-3593
▁ٹریف	-3594
▁دی۔	-3595
▁شف	-3596
▁یورپ	-3597
▁سرو	-3598
▁افسوس	-3599
▁زون	-3600
▁فنکاروں	-3601
▁نرخ	-3602
▁کمر	-3603
▁کرپشن	-3604
▁میزبانی	-3605
▁کمیونٹی	-3606
▁درو	-3607
▁غذا	-3608
▁ڈگری	-3609
▁ایگزیکٹو	-3610
▁اصلاح	-3611
▁کروا	-3612
▁ڈالیں	-3613
▁مانگ	-3614
▁جذبات	-3615
▁ایٹ	-3616
nya	-3617
unya	-3618
▁جیم	-3619
▁فاتح	-3620
▁اتح	-3621
▁گندم	-3622
▁عورت	-3623
▁دھو	-3624
▁رینکنگ	-3625
▁ریسرچ	-3626
▁انتقال	-3627
▁مرحلہ	-3628
▁آتی	-3629
▁اسمارٹ	-3630
نو	-3631
▁آباد	-3632
▁گھریلو	-3633
▁دب	-3634
رناک	-3635
▁رضا	-3636
الہ	-3637
▁منفرد	-3638
ندگان	-3639
▁حصوں	-3640
▁مذکورہ	-3641
▁چڑ	-3642
▁فیچر	-3643
▁آہستہ	-3644
▁سینٹ	-3645
وکٹ	-3646
پت	-3647
▁ڈیلی	-3648
▁ٹوٹ	-3649
▁عط	-3650
▁مصنوعی	-3651
▁نافذ	-3652
▁پرست	-3653
جس	-3654
▁ہوٹل	-3655
شور	-3656
ودگی	-3657
▁ڈویل	-3658
▁سمندر	-3659
▁کاموں	-3660
▁مریم	-3661
ئیے	-3662
▁بنی	-3663
▁حکومتی	-3664
▁سیاہ	-3665
▁مقدمہ	-3666
▁عرصہ	-3667
▁محض	-3668
وون	-3669
▁یک	-3670
▁داخلہ	-3671
▁امد	-3672
▁میڈیکل	-3673
▁درکار	-3674
▁پروفیسر	-3675
▁کرلیا	-3676
▁فیملی	-3677
▁سیکنڈ	-3678
ڈیا	-3679
▁خطرناک	-3680
ss	-3681
وٹین	-3682
ورا	-3683
▁مفت	-3684
▁ٹریننگ	-3685
▁ترمیم	-3686
یوں	-3687
▁پارک	-3688
▁موضوع	-3689
▁انفیکشن	-3690
وق	-3691
▁مریض	-3692
کاسی	-3693
▁ڈار	-3694
▁ماد	-3695
گیا	-3696
▁الزامات	-3697
▁ہدایات	-3698
▁نوجوان	-3699
▁کنگز	-3700
▁گیندوں	-3701
▁پروڈیوسر	-3702
▁مردوں	-3703
▁شدت	-3704
▁بیج	-3705
▁شخصیات	-3706
▁پرجاتیوں	-3707
▁سمی	-3708
▁com	-3709
▁فصل	-3710
▁کاربن	-3711
▁مظ	-3712
▁کاغذ	-3713
▁ہاؤس	-3714
پوری	-3715
فیہ	-3716
▁فیشن	-3717
▁کیٹگری	-3718
کری	-3719
▁خرچ	-3720
▁پرت	-3721
▁شاع	-3722
▁ثقافت	-3723
▁ملازمت	-3724
▁Ass	-3725
▁روح	-3726
▁معذ	-3727
▁برداشت	-3728
▁شمسی	-3729
▁نمٹنے	-3730
▁علامت	-3731
وط	-3732
▁دودھ	-3733
▁فنکار	-3734
▁Human	-3735
istant	-3736
▁کیف	-3737
▁بڑھنے	-3738
▁Assistant	-3739
ٹریلوی	-3740
▁خرابی	-3741
▁چال	-3742
▁راستہ	-3743
▁فکسنگ	-3744
اث	-3745
ونیو	-3746
صہ	-3747
▁مساف	-3748
یاد	-3749
▁اتر	-3750
▁مداخ	-3751
۲۰	-3752
▁ونڈ	-3753
▁ڈرا	-3754
▁دیکھی	-3755
▁سیکٹر	-3756
▁ثقافتی	-3757
▁ریڈ	-3758
▁آلات	-3759
پوائنٹس	-3760
▁رانا	-3761
▁ہوگیا	-3762
▁جامع	-3763
▁چیزیں	-3764
▁کوششوں	-3765
سٹریلیا	-3766
▁مواصل	-3767
▁انعام	-3768
▁ہونگے	-3769
▁گوئی	-3770
▁آمد	-3771
▁پہنچے	-3772
▁سلیکٹر	-3773
▁لگی	-3774
داروں	-3775
▁مچھ	-3776
▁ئیں	-3777
ابطہ	-3778
▁بیوی	-3779
▁گریڈ	-3780
ضمام	-3781
▁مرزا	-3782
▁فیڈر	-3783
▁زی	-3784
▁ضلع	-3785
▁اسرائیل	-3786
▁ملوث	-3787
▁رکنی	-3788
▁فلمی	-3789
▁سہولیات	-3790
▁اداکاروں	-3791
▁طالب	-3792
▁اعص	-3793
▁تخلیق	-3794
▁کسٹم	-3795
▁لگائے	-3796
▁مالیاتی	-3797
▁دوستوں	-3798
▁تجربے	-3799
▁خوا	-3800
▁میوزک	-3801
▁منڈی	-3802
▁نگار	-3803
▁پائیدار	-3804
▁گوشت	-3805
▁پہا	-3806
ضان	-3807
گرہ	-3808
▁چاہتی	-3809
▁گولڈ	-3810
▁جانی	-3811
▁پیٹر	-3812
گریز	-3813
لیت	-3814
▁ماہی	-3815
امین	-3816
▁ہوئیں	-3817
▁تمہ	-3818
▁بلیک	-3819
اکرات	-3820
▁فونز	-3821
▁تجربات	-3822
▁جارح	-3823
▁ٹور	-3824
▁ووٹ	-3825
▁شاد	-3826
▁گلوکارہ	-3827
▁کلین	-3828
▁جونیئر	-3829
▁اطلاق	-3830
▁آتا	-3831
▁تولہ	-3832
▁سرخ	-3833
سیس	-3834
ونس	-3835
ریٹری	-3836
▁ہولڈ	-3837
ینڈر	-3838
▁پبل	-3839
▁۷۰	-3840
ٹرنگ	-3841
▁کمزور	-3842
▁دین	-3843
▁کلک	-3844
▁خوراک	-3845
▁چلے	-3846
▁بچہ	-3847
▁ٹریفک	-3848
▁پیار	-3849
▁تشوی	-3850
▁ڈھانچے	-3851
▁اطلاعات	-3852
▁کمشنر	-3853
▁جوڑی	-3854
▁جاننے	-3855
ha	-3856
▁ڈالرز	-3857
▁سنا	-3858
▁۸۰	-3859
▁ٹریلر	-3860
▁ڈویژن	-3861
▁زمان	-3862
▁رہنمائی	-3863
▁دم	-3864
بادلہ	-3865
▁رکن	-3866
▁بیچ	-3867
▁جاں	-3868
▁مشا	-3869
▁ویمن	-3870
▁چینل	-3871
▁انچ	-3872
▁عنا	-3873
▁قوت	-3874
▁نیویارک	-3875
▁نشر	-3876
ائیٹڈ	-3877
▁مطلوبہ	-3878
▁نج	-3879
▁مذاکرات	-3880
▁ملزم	-3881
رینہ	-3882
▁شمولیت	-3883
ٹیل	-3884
▁پلانٹ	-3885
▁اسلامی	-3886
▁یوس	-3887
▁امتح	-3888
▁ریلوے	-3889
▁دستخط	-3890
▁رہتی	-3891
شمول	-3892
کیا	-3893
▁میکس	-3894
▁پھیلا	-3895
▁نیک	-3896
▁افریدی	-3897
▁انضمام	-3898
▁کلیدی	-3899
▁ایڈیشن	-3900
داف	-3901
▁نشوون	-3902
▁فریم	-3903
▁آرام	-3904
▁درمد	-3905
▁سول	-3906
▁ذہن	-3907
رجی	-3908
▁ڈیوائس	-3909
▁آؤٹ	-3910
طی	-3911
▁نشوونما	-3912
گوار	-3913
▁بیرون	-3914
▁گرانڈ	-3915
▁امداد	-3916
▁بیٹری	-3917
▁انسٹی	-3918
عکس	-3919
▁لیٹر	-3920
▁اقوام	-3921
ینز	-3922
پری	-3923
▁دیوار	-3924
▁اہداف	-3925
▁عزم	-3926
▁اتار	-3927
▁سلیم	-3928
▁جڑ	-3929
▁سراہ	-3930
▁ورزش	-3931
▁مائیک	-3932
▁ٹیل	-3933
کپ	-3934
▁پرنٹ	-3935
▁G	-3936
▁فائرنگ	-3937
ائیں۔	-3938
اش	-3939
▁رشید	-3940
▁مداخلت	-3941
▁اتفاق	-3942
لیکس	-3943
▁بحث	-3944
▁اشارہ	-3945
▁مؤ	-3946
▁امکانات	-3947
▁پلاسٹک	-3948
▁معطل	-3949
▁تبص	-3950
▁مندی	-3951
▁الدین	-3952
▁اختلاف	-3953
▁برعکس	-3954
▁ائیں	-3955
شیات	-3956
ورو	-3957
▁چہرے	-3958
▁قیمتی	-3959
میشن	-3960
▁وکیل	-3961
▁روبوٹ	-3962
▁رہائشی	-3963
▁ہائیڈ	-3964
▁لائٹ	-3965
▁ٹیوٹ	-3966
▁ویرات	-3967
▁خواجہ	-3968
▁مہنگائی	-3969
▁چھوٹا	-3970
▁ڈویلپ	-3971
▁علیح	-3972
▁ہزاروں	-3973
▁بلڈ	-3974
▁وقار	-3975
فتوں	-3976
▁بھرپور	-3977
▁میس	-3978
▁امتحان	-3979
▁ڈائی	-3980
▁الیکٹرک	-3981
▁یونائیٹڈ	-3982
▁ٹیبل	-3983
▁مخالف	-3984
▁پہچان	-3985
▁محروم	-3986
▁نچ	-3987
▁چلانے	-3988
Kha	-3989
▁ویمنز	-3990
▁افسران	-3991
▁برمدات	-3992
▁اینج	-3993
ڑھے	-3994
ؤنٹ	-3995
▁والدہ	-3996
▁اکٹ	-3997
▁مواصلات	-3998
▁ہن	-3999
▁گانا	-4000
▁تفتی	-4001
▁ضمان	-4002
▁عہدی	-4003
▁موصول	-4004
▁۴۵	-4005
▁منح	-4006
▁لاس	-4007
جری	-4008
▁نوعیت	-4009
▁منظم	-4010
▁کولم	-4011
▁کلچر	-4012
▁آزادی	-4013
▁ریجن	-4014
قلی	-4015
▁بہن	-4016
▁یار	-4017
▁ہائ	-4018
▁پیدائش	-4019
▁الحال	-4020
▁۳۲	-4021
یکٹر	-4022
▁براز	-4023
rat	-4024
▁بیٹھ	-4025
▁ٹائی	-4026
▁لار	-4027
▁برسوں	-4028
▁رول	-4029
▁منشیات	-4030
▁دارال	-4031
▁کوئ	-4032
ویڈ	-4033
▁کیپر	-4034
▁مہر	-4035
▁چو	-4036
▁اچانک	-4037
▁دفت	-4038
▁تاخ	-4039
▁قریبی	-4040
▁ورژن	-4041
ازن	-4042
ڑیوں	-4043
▁گھوم	-4044
▁سنج	-4045
▁میم	-4046
▁کامی	-4047
▁کوالیفائی	-4048
▁اندو	-4049
▁عرو	-4050
▁امام	-4051
▁تبدیلیوں	-4052
▁افریقی	-4053
▁انا	-4054
▁ایکٹ	-4055
▁دعا	-4056
▁سنس	-4057
▁ایتھ	-4058
▁طوف	-4059
▁سرگرمیاں	-4060
۱۰	-4061
پہ	-4062
▁۹۰	-4063
▁کھڑے	-4064
ارث	-4065
ناز	-4066
▁تھرا	-4067
▁شخصیت	-4068
▁آنکھوں	-4069
▁فرد	-4070
▁چوری	-4071
ثی	-4072
▁تنخواہ	-4073
lo	-4074
ضے	-4075
▁گورنر	-4076
▁بینکوں	-4077
ندرز	-4078
▁پارلیم	-4079
▁رہنا	-4080
▁پاؤ	-4081
ستہائے	-4082
▁کرم	-4083
شو	-4084
▁گردی	-4085
▁ویکسین	-4086
▁بڑھتے	-4087
جاز	-4088
▁بالغ	-4089
▁خلائی	-4090
ڈال	-4091
▁صدارت	-4092
▁ایپل	-4093
▁بیشتر	-4094
تصویر	-4095
ختی	-4096
▁بشمول	-4097
▁غلام	-4098
▁ہفتوں	-4099
▁تھوڑا	-4100
▁مشاورت	-4101
▁پینل	-4102
▁تاخیر	-4103
▁ویڈیوز	-4104
▁عزت	-4105
▁ملتا	-4106
▁ضمانت	-4107
▁Geo	-4108
روز	-4109
▁ٹرمپ	-4110
▁سروے	-4111
▁پلے	-4112
▁[	-4113
▁واقعے	-4114
▁مرتب	-4115
▁سالگرہ	-4116
▁خلیوں	-4117
▁لیا۔	-4118
▁وہاب	-4119
▁توازن	-4120
اگ	-4121
▁تار	-4122
▁قی	-4123
▁مراد	-4124
▁ہوج	-4125
▁حدود	-4126
▁رشتہ	-4127
▁فنڈز	-4128
▁انتظامات	-4129
▁درامد	-4130
▁ڈسپ	-4131
▁آتے	-4132
▁واٹر	-4133
▁ناقص	-4134
▁لچک	-4135
▁سکول	-4136
▁اپن	-4137
▁پیپلز	-4138
▁ہینڈ	-4139
▁ابر	-4140
▁ملت	-4141
▁سنٹر	-4142
▁ریگ	-4143
چکے	-4144
▁نیپ	-4145
▁اعتر	-4146
▁ھ	-4147
▁لیس	-4148
وین	-4149
▁کھا	-4150
▁ہیلتھ	-4151
چرز	-4152
اداک	-4153
▁عناصر	-4154
▁پروڈکشن	-4155
یکر	-4156
▁وہیں	-4157
▁یوسف	-4158
▁ایا	-4159
▁عکاسی	-4160
▁پکڑ	-4161
▁ٹیکسٹائل	-4162
▁چیمپی	-4163
▁بانی	-4164
▁خل	-4165
▁دارالحکومت	-4166
ومیسٹک	-4167
انکہ	-4168
کرا	-4169
▁عبور	-4170
تیس	-4171
▁چوٹ	-4172
گھ	-4173
▁اسلم	-4174
▁احتیا	-4175
▁سبزی	-4176
▁Kha	-4177
▁ائوٹ	-4178
▁اختیارات	-4179
▁رمضان	-4180
▁”	-4181
▁ارادہ	-4182
▁دفتر	-4183
▁تکنیکی	-4184
▁بازوں	-4185
▁جذباتی	-4186
▁جنہیں	-4187
▁رام	-4188
▁معنی	-4189
▁ریاستہائے	-4190
ثیر	-4191
▁مارک	-4192
▁ماہرہ	-4193
▁کھڑا	-4194
▁مبارکباد	-4195
▁کمپن	-4196
نام	-4197
▁اعتراف	-4198
نک	-4199
فق	-4200
▁ریاضی	-4201
طینی	-4202
▁قرب	-4203
والی	-4204
▁نامہ	-4205
▁سیر	-4206
▁مذہبی	-4207
▁لہر	-4208
▁کرائی	-4209
▁پرویز	-4210
▁فرنچ	-4211
▁اسٹیشن	-4212
▁کتنا	-4213
▁ناصر	-4214
▁قرضوں	-4215
نامہ	-4216
▁جلدی	-4217
▁خاتمے	-4218
جسٹ	-4219
▁لاکھوں	-4220
میٹڈ	-4221
▁لاک	-4222
▁تاب	-4223
ودھ	-4224
▁وسطی	-4225
راء	-4226
▁کھیلتے	-4227
▁تھیں۔	-4228
▁قلندرز	-4229
▁گال	-4230
▁پوچھا	-4231
▁جدو	-4232
▁کوریا	-4233
اصد	-4234
▁یورو	-4235
▁اشتہ	-4236
▁چھٹی	-4237
رمبادلہ	-4238
log	-4239
▁بانڈ	-4240
▁جج	-4241
▁ٹین	-4242
▁چوک	-4243
▁افس	-4244
شوں	-4245
▁علاقہ	-4246
▁پٹھوں	-4247
▁کافی	-4248
حے	-4249
▁ملزمان	-4250
▁دکان	-4251
▁شرکا	-4252
ادو	-4253
پیکا	-4254
▁ڈیوٹی	-4255
یکچر	-4256
▁مملکت	-4257
▁جیمز	-4258
▁پیشکش	-4259
▁معد	-4260
▁بادشاہ	-4261
▁تحریر	-4262
▁عہدے	-4263
نم	-4264
▁ڈومیسٹک	-4265
ریوں	-4266
▁I	-4267
میچ	-4268
▁S	-4269
▁۳۳	-4270
▁انور	-4271
ائزیشن	-4272
▁تفہیم	-4273
▁آرٹ	-4274
▁حارث	-4275
انٹ	-4276
▁جنی	-4277
ندے	-4278
▁ایندھ	-4279
▁مشاہ	-4280
▁بارہ	-4281
▁دوڑ	-4282
▁حلق	-4283
▁منتقلی	-4284
جہد	-4285
▁ازیں	-4286
دل	-4287
ٹیول	-4288
▁مواز	-4289
▁کاب	-4290
▁Blog	-4291
▁باتیں	-4292
▁ملکوں	-4293
▁پناہ	-4294
▁سلیکشن	-4295
▁برف	-4296
ent	-4297
کیو	-4298
▁ایندھن	-4299
▁کنٹری	-4300
▁اتنے	-4301
▁ہیم	-4302
▁مقاصد	-4303
▁بائیو	-4304
▁مشرقی	-4305
▁کارپوری	-4306
انکا	-4307
▁انقل	-4308
▁احترام	-4309
ئس	-4310
▁بیٹھے	-4311
▁تھراپی	-4312
▁چائے	-4313
▁Blogs	-4314
▁ٹوی	-4315
▁TV	-4316
▁شاداب	-4317
▁پینے	-4318
▁پتھر	-4319
نڈے	-4320
▁چیمپئنز	-4321
▁جدوجہد	-4322
▁انکی	-4323
▁تل	-4324
▁حض	-4325
▁سیٹھی	-4326
▁مہینے	-4327
▁ثنا	-4328
▁لیج	-4329
فٹ	-4330
▁ایکسپریس	-4331
▁یوٹی	-4332
▁آلودگی	-4333
ہیر	-4334
▁ڈسٹر	-4335
عدگی	-4336
▁بچن	-4337
عام	-4338
▁سیکریٹری	-4339
▁چوپ	-4340
▁افتتاحی	-4341
▁فضائی	-4342
▁اوپنر	-4343
ارٹمنٹ	-4344
▁Dunya	-4345
▁پبلک	-4346
▁رئی	-4347
▁ٹاک	-4348
▁رومان	-4349
نڈر	-4350
▁سٹاک	-4351
▁منسو	-4352
ورتی	-4353
▁کیڑے	-4354
▁چرچ	-4355
▁ریونیو	-4356
انسیسی	-4357
▁ہری	-4358
خیال	-4359
▁سنجی	-4360
▁مائکرو	-4361
ڑیاں	-4362
برگ	-4363
▁کتے	-4364
▁اندوز	-4365
▁۳۶	-4366
▁دفاعی	-4367
اکے	-4368
▁رب	-4369
▁برانڈ	-4370
▁ٹولز	-4371
والے	-4372
درن	-4373
▁شاہین	-4374
▁خفیہ	-4375
▁لطیف	-4376
ترین	-4377
▁مون	-4378
▁ریال	-4379
▁تاجروں	-4380
▁ترسی	-4381
▁تربی	-4382
▁مضامین	-4383
▁آپریشن	-4384
کول	-4385
▁فیسٹیول	-4386
▁کرائے	-4387
▁چکر	-4388
▁ہندوستانی	-4389
▁اکانٹ	-4390
▁مشیر	-4391
▁سمجھتے	-4392
▁کھین	-4393
▁اینڈر	-4394
▁تاجر	-4395
▁بچت	-4396
▁مہنگا	-4397
▁اشیا	-4398
▁لنک	-4399
ٹیکل	-4400
▁بیکٹی	-4401
▁حالانکہ	-4402
▁پودے	-4403
▁موازنہ	-4404
ائق	-4405
▁وقفے	-4406
فہ	-4407
▁طاہر	-4408
▁کرداروں	-4409
موں	-4410
▁مچھلی	-4411
▁یوں	-4412
▁بحق	-4413
▁دھر	-4414
▁سائنسی	-4415
▁اٹھانے	-4416
▁مہیا	-4417
▁مبینہ	-4418
▁پروٹین	-4419
▁قسمتی	-4420
▁حفاظتی	-4421
▁بلین	-4422
▁طاقتور	-4423
فائل	-4424
▁شرٹس	-4425
▁برامدات	-4426
میز	-4427
▁وبا	-4428
▁انسانوں	-4429
شات	-4430
طرت	-4431
▁اعجاز	-4432
▁گھنٹوں	-4433
▁احسان	-4434
▁مفاد	-4435
▁کچ	-4436
▁کمرے	-4437
▁صفائی	-4438
▁سبق	-4439
▁قص	-4440
▁گلیڈی	-4441
▁انہوںنے	-4442
▁مالکان	-4443
سع	-4444
▁خا	-4445
▁موقف	-4446
▁روسی	-4447
▁آپ	-4448
▁عار	-4449
▁حج	-4450
▁تھیٹر	-4451
▁انجری	-4452
▁راک	-4453
▁سیلاب	-4454
▁شور	-4455
ٹیو	-4456
مزید	-4457
کیٹگری	-4458
▁واشنگ	-4459
▁وے	-4460
▁گروہ	-4461
یکو	-4462
▁جتنا	-4463
▁فرین	-4464
▁فلاح	-4465
▁اتحاد	-4466
وعہ	-4467
ائٹی	-4468
ہو	-4469
▁صوبے	-4470
▁بھول	-4471
▁پریشر	-4472
بود	-4473
▁ذخیرہ	-4474
▁کرسک	-4475
▁کول	-4476
▁ٹریک	-4477
▁۲۰۰	-4478
▁In	-4479
▁اوٹ	-4480
▁ساڑھے	-4481
ائط	-4482
▁خاتمہ	-4483
▁سفیر	-4484
▁درجوں	-4485
▁اثاث	-4486
▁عزیز	-4487
▁سپلائی	-4488
▁رش	-4489
اکو	-4490
▁باقاعدگی	-4491
دیوں	-4492
ویت	-4493
▁سوچا	-4494
▁مینوف	-4495
▁منیجر	-4496
ڈنی	-4497
▁قبضہ	-4498
▁کریڈٹ	-4499
▁چارج	-4500
▁امیر	-4501
▁ہوئے۔	-4502
۳۰	-4503
ومین	-4504
▁فکر	-4505
▁شرائط	-4506
▁شفیق	-4507
ارق	-4508
BC	-4509
کیٹگریز	-4510
▁حرا	-4511
▁جوڑے	-4512
منگ	-4513
▁تکمیل	-4514
ابھ	-4515
▁تشویش	-4516
▁سربراہی	-4517
▁شکایت	-4518
اسی	-4519
پنی	-4520
▁ایڈجسٹ	-4521
▁فرانسیسی	-4522
▁بھٹ	-4523
ھیل	-4524
صف	-4525
▁وٹامن	-4526
اے	-4527
▁کیشنز	-4528
▁۹۲	-4529
▁حادثے	-4530
▁انجن	-4531
▁ہدایتکار	-4532
▁میں۔	-4533
باسی	-4534
▁زیاد	-4535
ثار	-4536
▁پیداواری	-4537
▁BBC	-4538
ایس	-4539
▁امین	-4540
▁بنتا	-4541
زوں	-4542
▁گیارہ	-4543
▁باکسر	-4544
▁کریم	-4545
▁پریمی	-4546
▁نمونے	-4547
▁ٹیلنٹ	-4548
▁تعاقب	-4549
▁زرمبادلہ	-4550
▁کروانے	-4551
▁مجموعہ	-4552
▁تفتیش	-4553
▁مناظر	-4554
▁اجاگر	-4555
▁اسٹیل	-4556
جنٹ	-4557
▁اندرونی	-4558
▁وائٹ	-4559
▁تربیتی	-4560
▁نسب	-4561
▁ملتوی	-4562
▁اسٹر	-4563
▁قیمتیں	-4564
▁ہوائی	-4565
▁شیئرز	-4566
▁سیکشن	-4567
▁لایا	-4568
▁اٹھایا	-4569
▁جنگل	-4570
▁امیدوار	-4571
ریٹ	-4572
▁گراف	-4573
▁عملے	-4574
▁جعلی	-4575
جان	-4576
▁بم	-4577
▁خطوط	-4578
▁زینت	-4579
▁سمجھنا	-4580
▁چھا	-4581
▁ٹویٹ	-4582
▁دکھانے	-4583
شان	-4584
▁چپ	-4585
▁ڈیزل	-4586
dent	-4587
▁خدشات	-4588
▁مینوفیکچر	-4589
▁اچھ	-4590
▁قطر	-4591
▁سیال	-4592
پیش	-4593
▁اسکا	-4594
▁پسندیدہ	-4595
▁بھٹو	-4596
▁جانور	-4597
▁گیت	-4598
▁جانتا	-4599
▁ڈپٹی	-4600
ونٹس	-4601
واش	-4602
تک	-4603
▁راز	-4604
▁کابینہ	-4605
depen	-4606
▁مزاحمت	-4607
▁ڈویلپمنٹ	-4608
ائسنس	-4609
▁ڈسٹرکٹ	-4610
▁پاکستانیوں	-4611
بتہ	-4612
▁Indepen	-4613
▁کمپنیاں	-4614
ٹیک	-4615
▁۳۴	-4616
▁صو	-4617
▁Independent	-4618
▁قریشی	-4619
▁تبدیلیاں	-4620
▁رضوان	-4621
▁تاثر	-4622
جھ	-4623
▁نامزد	-4624
قومی	-4625
▁مایوس	-4626
▁محسن	-4627
میکل	-4628
▁معاو	-4629
عود	-4630
▁منحصر	-4631
▁نجم	-4632
▁اسپی	-4633
▁مائیکل	-4634
نگا	-4635
گے	-4636
▁پھول	-4637
▁رجسٹر	-4638
▁ہوس	-4639
▁گریز	-4640
▁لسٹ	-4641
▁افریقا	-4642
▁ڈیپ	-4643
طلاح	-4644
▁باپ	-4645
▁خالی	-4646
▁پلیئرز	-4647
▁سودے	-4648
▁صدیقی	-4649
▁اونس	-4650
▁مشغ	-4651
▁سابقہ	-4652
▁بہاؤ	-4653
▁پیشرفت	-4654
▁لکڑی	-4655
▁آر	-4656
▁لائف	-4657
▁مسعود	-4658
▁عباسی	-4659
▁نب	-4660
ئرلینڈ	-4661
▁ساحل	-4662
▁فطرت	-4663
▁فرائ	-4664
▁روزگار	-4665
▁کارکنوں	-4666
▁لائسنس	-4667
اتر	-4668
▁چوپڑا	-4669
▁تنظیموں	-4670
▁نظریہ	-4671
▁سنگین	-4672
▁شراب	-4673
▁لمیٹڈ	-4674
▁اولمپکس	-4675
▁تخلیقی	-4676
▁سکھ	-4677
▁کھینچ	-4678
▁گنا	-4679
ولنگ	-4680
ضابطہ	-4681
▁شہید	-4682
▁چمپ	-4683
▁ضائع	-4684
▁اصطلاح	-4685
ودھری	-4686
▁عماد	-4687
▁برآ	-4688
دس	-4689
مع	-4690
الے	-4691
▁کراچ	-4692
▁صد	-4693
▁دیدی	-4694
▁مربوط	-4695
▁حاض	-4696
وشن	-4697
▁بہار	-4698
بیا	-4699
▁ایٹرز	-4700
▁فرائض	-4701
▁ریگولی	-4702
▁جاسک	-4703
▁عہد	-4704
▁ڈالنے	-4705
▁رانڈر	-4706
سٹریشن	-4707
▁درواز	-4708
ry	-4709
▁طوفان	-4710
طس	-4711
▁ٹرائل	-4712
▁یقینا	-4713
▁اسکیم	-4714
▁اولمپک	-4715
▁امپائر	-4716
▁مختص	-4717
▁گردش	-4718
▁آکسی	-4719
▁ساخت	-4720
▁نفسیاتی	-4721
شاریہ	-4722
▁ویو	-4723
▁جارحانہ	-4724
▁رینج	-4725
▁مشاہدہ	-4726
وزیشن	-4727
ولین	-4728
▁راشد	-4729
▁کتنی	-4730
▁نان	-4731
▁ارکان	-4732
ائنگ	-4733
وڑی	-4734
▁باڈی	-4735
▁شار	-4736
▁منسوخ	-4737
▁مکی	-4738
وات	-4739
▁جادو	-4740
▁پیرس	-4741
▁ڈراموں	-4742
▁ایوارڈز	-4743
▁انجینئرنگ	-4744
▁کوچنگ	-4745
▁فالو	-4746
▁تمغ	-4747
▁کامران	-4748
▁تباہی	-4749
▁لانچ	-4750
▁رساں	-4751
▁لیجنڈ	-4752
▁جاس	-4753
▁سنسنی	-4754
▁گھا	-4755
▁۷۵	-4756
جیسے	-4757
الت	-4758
ٹرن	-4759
▁فیر	-4760
▁کھاد	-4761
▁دہانی	-4762
▁وک	-4763
دوسری	-4764
▁صنعتوں	-4765
▁استق	-4766
▁چان	-4767
ائو	-4768
▁روٹ	-4769
ورے	-4770
یابیطس	-4771
▁اشارے	-4772
▁دانوں	-4773
▁ارشد	-4774
▁قید	-4775
▁اعل	-4776
▁اجمل	-4777
▁جشن	-4778
مبر	-4779
▁مینز	-4780
▁دشمن	-4781
▁سونا	-4782
▁اسپنر	-4783
▁زیادتی	-4784
▁مزد	-4785
▁کہنے	-4786
حق	-4787
▁اسرائیلی	-4788
▁اہلکار	-4789
▁شوگر	-4790
▁بینڈ	-4791
▁صوبہ	-4792
ذرائع	-4793
▁سوئی	-4794
ud	-4795
▁ندیم	-4796
ہرا	-4797
▁ترک	-4798
▁عنصر	-4799
▁اسکر	-4800
▁دئیے	-4801
▁کیسز	-4802
▁بیٹا	-4803
▁کاپی	-4804
واج	-4805
▁کھیلنا	-4806
▁جرمن	-4807
▁پٹرولیم	-4808
▁جنید	-4809
▁ہتھی	-4810
رڈ	-4811
▁قمر	-4812
▁کمرشل	-4813
▁مدتی	-4814
وبل	-4815
▁ڈون	-4816
▁ڈاؤن	-4817
▁نائٹ	-4818
▁ہےانہوں	-4819
▁اسٹیج	-4820
▁مراحل	-4821
▁خاطر	-4822
ٹیج	-4823
▁Q	-4824
▁فیلڈنگ	-4825
▁واشنگٹن	-4826
▁ہائیک	-4827
▁کوٹ	-4828
▁سمت	-4829
▁ریڈیو	-4830
▁آدمی	-4831
▁مراک	-4832
▁سادہ	-4833
▁سنجے	-4834
▁برآں	-4835
▁طارق	-4836
▁ڈیٹ	-4837
▁ذیابیطس	-4838
▁دولت	-4839
▁اسکولوں	-4840
مینہ	-4841
▁تفص	-4842
▁ہنگامی	-4843
▁چودھری	-4844
ترتیب	-4845
▁بلال	-4846
ٹرکچر	-4847
▁اینجلس	-4848
▁Qud	-4849
▁جلو	-4850
▁ہائیڈرو	-4851
▁دستاویزات	-4852
▁Qudrat	-4853
▁پریانکا	-4854
▁وو	-4855
▁پریمیئر	-4856
▁کررہے	-4857
جیل	-4858
▁ناٹ	-4859
▁نکات	-4860
عل	-4861
▁پابند	-4862
▁اگلی	-4863
▁مقب	-4864
▁رانڈ	-4865
▁فہ	-4866
▁چھپ	-4867
▁ڈس	-4868
▁کرنا۔	-4869
▁ھے	-4870
ازی	-4871
کمپنی	-4872
▁ریز	-4873
▁کمپلیکس	-4874
ونک	-4875
▁سرف	-4876
▁بنگلا	-4877
▁اخلاقی	-4878
▁دیکر	-4879
▁!	-4880
▁سوس	-4881
▁اشتر	-4882
▁بازار	-4883
▁ذہانت	-4884
▁مسجد	-4885
▁میڈل	-4886
▁ایمان	-4887
▁سڈنی	-4888
▁سرجری	-4889
▁مشرو	-4890
▁گھٹ	-4891
▁R	-4892
▁خارج	-4893
▁مقبولیت	-4894
▁عش	-4895
▁سکواڈ	-4896
▁کیمیکل	-4897
▁مقیم	-4898
▁لیم	-4899
▁راحت	-4900
▁کرونا	-4901
▁سیلز	-4902
▁اموات	-4903
▁جرمانہ	-4904
▁سراہا	-4905
▁اصول	-4906
▁معال	-4907
سپورٹس	-4908
زے	-4909
▁فرم	-4910
▁اسٹو	-4911
▁نگہ	-4912
ورنیا	-4913
وریہ	-4914
▁جھوٹ	-4915
etry	-4916
▁ہوئی۔	-4917
▁ریسل	-4918
بھارتی	-4919
امری	-4920
▁برازیل	-4921
▁باضابطہ	-4922
▁Poetry	-4923
▁پروگراموں	-4924
▁ڈیب	-4925
▁کرلی	-4926
ندرہ	-4927
▁سننے	-4928
ڈلز	-4929
جیب	-4930
ہت	-4931
▁گنج	-4932
▁چوتھی	-4933
▁نسبتا	-4934
علوم	-4935
▁اشتراک	-4936
▁فس	-4937
وما	-4938
سعودی	-4939
▁شہریار	-4940
▁یارک	-4941
سٹی	-4942
▁عروج	-4943
▁پھنس	-4944
▁واقف	-4945
▁ڈوب	-4946
▁گرفتاری	-4947
▁معافی	-4948
▁مسی	-4949
▁چھت	-4950
▁کپاس	-4951
▁چلی	-4952
▁فیڈرل	-4953
▁تعینات	-4954
▁اجت	-4955
▁اسکی	-4956
▁سرور	-4957
▁متواز	-4958
▁قسمت	-4959
اکا	-4960
▁عاب	-4961
▁۳۷	-4962
▁آکس	-4963
ونل	-4964
▁فارمیٹ	-4965
▁ریف	-4966
▁جنگلات	-4967
▁حساس	-4968
لاہور	-4969
اطہ	-4970
▁چمک	-4971
▁کوویڈ	-4972
ریاں	-4973
▁خوبصورتی	-4974
▁ادب	-4975
▁ریٹائرمنٹ	-4976
▁احاطہ	-4977
وچ	-4978
یسر	-4979
▁انتہا	-4980
محمد	-4981
▁اسٹریٹ	-4982
▁مدن	-4983
بالی	-4984
▁سوار	-4985
▁کیٹی	-4986
جین	-4987
▁فرنچائز	-4988
▁پراج	-4989
▁جمہ	-4990
▁حمزہ	-4991
▁گام	-4992
▁خسارہ	-4993
ٹم	-4994
▁فضل	-4995
▁شرکاء	-4996
▁دلا	-4997
▁Da	-4998
▁مفید	-4999
▁یادگار	-5000
▁ویسے	-5001
▁البتہ	-5002
▁اٹلی	-5003
▁ملائی	-5004
▁چھوڑنے	-5005
اہٹ	-5006
بوس	-5007
▁شب	-5008
▁ڈرائیور	-5009
▁ریاستوں	-5010
▁چڑھ	-5011
▁امراض	-5012
▁لڑکیوں	-5013
این	-5014
▁نمائندہ	-5015
▁چاول	-5016
▁تحریری	-5017
▁ہورہ	-5018
▁اونچ	-5019
▁بجائے	-5020
▁آگاہ	-5021
▁سروسز	-5022
▁الرحمان	-5023
▁مولانا	-5024
ائنہ	-5025
▁پہنچانے	-5026
▁مودی	-5027
▁ادو	-5028
▁ہٹا	-5029
▁درپیش	-5030
▁آپری	-5031
▁تفصیلی	-5032
ونز	-5033
▁۳۸	-5034
واعد	-5035
▁گرنے	-5036
▁نیز	-5037
▁اسپین	-5038
ٹیز	-5039
شین	-5040
▁آمدنی	-5041
▁حقائق	-5042
▁ازاں	-5043
▁تیر	-5044
▁،""	-5045
▁ورانہ	-5046
▁ابت	-5047
▁عق	-5048
▁ڈانس	-5049
▁اختلافات	-5050
▁اکاؤنٹ	-5051
▁یوم	-5052
▁کانگ	-5053
▁ہےان	-5054
▁پھلوں	-5055
▁باکسنگ	-5056
▁۴۸	-5057
▁لکھنے	-5058
▁موڑ	-5059
پیسے	-5060
▁Dawn	-5061
▁انعامات	-5062
▁سرٹیف	-5063
▁فاصلے	-5064
▁دانت	-5065
خار	-5066
ارتھ	-5067
▁منعقدہ	-5068
▁دپیکا	-5069
▁کاٹ	-5070
▁پیروی	-5071
چار	-5072
▁بنک	-5073
▁سبس	-5074
▁پارلیمنٹ	-5075
▁ہاس	-5076
▁ناس	-5077
▁عجیب	-5078
▁کامیڈی	-5079
▁بہبود	-5080
▁گہر	-5081
▁ہائیکورٹ	-5082
▁قواعد	-5083
تاز	-5084
▁ادھر	-5085
▁دوستی	-5086
ہرہ	-5087
▁جارج	-5088
▁تال	-5089
▁پڑتال	-5090
▁ٹائپ	-5091
▁پائپ	-5092
▁چاندی	-5093
▁چیلنجوں	-5094
گزشتہ	-5095
▁بچپن	-5096
▁روپ	-5097
▁پندرہ	-5098
▁گرما	-5099
▁داروں	-5100
▁فنانس	-5101
ضل	-5102
▁الہ	-5103
▁مشرق	-5104
▁ٹکڑے	-5105
▁خریدنے	-5106
▁تما	-5107
▁گرینڈ	-5108
▁فرسٹ	-5109
▁ٹویٹر	-5110
منی	-5111
▁پیکی	-5112
▁مصر	-5113
▁ماسٹر	-5114
▁جنوب	-5115
▁خصوصیت	-5116
▁ہموار	-5117
▁عارف	-5118
ذافی	-5119
▁ولی	-5120
▁ابھر	-5121
وشی	-5122
▁ائیر	-5123
اسم	-5124
دانی	-5125
پھ	-5126
▁عقی	-5127
▁بالترتیب	-5128
▁نوازا	-5129
▁بھیجا	-5130
انز	-5131
ra	-5132
▁بناتی	-5133
▁Com	-5134
▁نمک	-5135
mon	-5136
▁نماز	-5137
▁مات	-5138
افظ	-5139
▁کمال	-5140
▁راجہ	-5141
▁چیمپیئن	-5142
▁ریپ	-5143
▁رگ	-5144
▁نگہداشت	-5145
▁رنبیر	-5146
سا	-5147
سٹنٹ	-5148
▁Cr	-5149
▁سائبر	-5150
▁ویٹ	-5151
▁ممبران	-5152
▁سیریل	-5153
▁اصلاحات	-5154
▁درختوں	-5155
▁جوائن	-5156
▁فق	-5157
▁نسیم	-5158
▁کترینہ	-5159
▁حملوں	-5160
▁۵۵	-5161
▁واز	-5162
▁تجا	-5163
awl	-5164
▁نامعلوم	-5165
▁Common	-5166
▁Crawl	-5167
▁امیت	-5168
▁وول	-5169
▁کنڈی	-5170
▁آٹ	-5171
▁اپوزیشن	-5172
▁نیب	-5173
▁پچاس	-5174
▁چمپئن	-5175
بین	-5176
▁رچر	-5177
▁بولرز	-5178
▁اکث	-5179
▁''	-5180
▁نسبت	-5181
▁شرم	-5182
▁فورا	-5183
▁ابلا	-5184
▁اڈ	-5185
▁اعتراض	-5186
▁؟	-5187
▁پرائی	-5188
▁بالوں	-5189
▁ں	-5190
▁ریلیف	-5191
▁ٹیکنالوجیز	-5192
▁نوٹیف	-5193
▁شیل	-5194
▁سیاح	-5195
▁ڈو	-5196
▁کرینگے	-5197
▁انقلاب	-5198
▁دت	-5199
▁۵۰۰	-5200
▁نکالنے	-5201
▁پڑھی	-5202
▁خانے	-5203
▁عالیہ	-5204
▁کاؤ	-5205
▁لائب	-5206
▁شیٹ	-5207
▁کیرئیر	-5208
▁زرداری	-5209
▁بریف	-5210
▁کنٹریکٹ	-5211
اللہ	-5212
▁وائس	-5213
▁میوزیم	-5214
▁مسلمان	-5215
▁علیحدگی	-5216
▁اسٹوریج	-5217
▁تقریر	-5218
▁سمارٹ	-5219
▁سختی	-5220
▁ٹھوس	-5221
▁مہنگی	-5222
▁سمیع	-5223
▁تحقیقی	-5224
▁معین	-5225
▁اسمتھ	-5226
دیش	-5227
▁مشغول	-5228
▁آج	-5229
▁اقدار	-5230
▁اسٹاف	-5231
▁بیمار	-5232
▁ریاستی	-5233
▁بیکٹیریا	-5234
▁ڈالا	-5235
▁۴۲	-5236
▁ایجو	-5237
▁شوق	-5238
▁موزوں	-5239
مقابل	-5240
▁کیمیائی	-5241
فرت	-5242
▁چاروں	-5243
▁سستی	-5244
▁سگن	-5245
▁مہینوں	-5246
▁دھات	-5247
▁ادویات	-5248
▁دکھائے	-5249
▁بنیادوں	-5250
▁باج	-5251
▁فیک	-5252
مارچ	-5253
▁لمبائی	-5254
▁چربی	-5255
▁مارکیٹوں	-5256
انیاں	-5257
الٹی	-5258
▁متناز	-5259
▁زیب	-5260
وشکا	-5261
▁گھنٹہ	-5262
▁گلے	-5263
▁غزہ	-5264
▁قد	-5265
▁خوفناک	-5266
▁وعدہ	-5267
▁یوٹیوب	-5268
▁مطالعات	-5269
▁چٹ	-5270
▁ٹوئٹ	-5271
▁فص	-5272
تانی	-5273
▁ابتدا	-5274
▁جارہا	-5275
▁لال	-5276
▁بالرز	-5277
انو	-5278
لاق	-5279
▁پرندوں	-5280
▁تجدید	-5281
▁مقدمات	-5282
▁سبزیوں	-5283
ڈوک	-5284
▁وژن	-5285
▁صراف	-5286
افت	-5287
▁ڈیر	-5288
▁بوٹ	-5289
▁درآمد	-5290
اوات	-5291
▁جائز	-5292
▁انیس	-5293
▁تجاویز	-5294
▁زلز	-5295
▁بھیجنے	-5296
▁مجرم	-5297
▁“	-5298
کرز	-5299
▁نمی	-5300
▁گئیں۔	-5301
▁۶۵	-5302
▁پاپ	-5303
▁اگے	-5304
▁ئل	-5305
▁اکٹھا	-5306
▁ابلاغ	-5307
ائنڈ	-5308
▁ماڈلز	-5309
▁مکھی	-5310
۱۵	-5311
ہب	-5312
▁کوششیں	-5313
▁Sama	-5314
▁جاپانی	-5315
▁Samaa	-5316
▁شین	-5317
▁تد	-5318
▁دروازے	-5319
▁غم	-5320
▁’’	-5321
▁سٹریلوی	-5322
کھلا	-5323
▁ایکڑ	-5324
▁اسٹائل	-5325
▁وائی	-5326
▁تناسب	-5327
▁دماغی	-5328
▁بلاول	-5329
▁زبانی	-5330
▁قذافی	-5331
گریس	-5332
▁ماہانہ	-5333
▁ارجنٹ	-5334
▁گاڑیاں	-5335
▁فلو	-5336
رون	-5337
▁اسپاٹ	-5338
یرت	-5339
▁کپتانی	-5340
▁لڑائی	-5341
▁سنبھالنے	-5342
▁لائبری	-5343
▁ایوان	-5344
ادم	-5345
▁ناول	-5346
جبکہ	-5347
▁دھمکی	-5348
▁مساوات	-5349
▁سوسائٹی	-5350
▁ملتے	-5351
▁اعشاریہ	-5352
▁نرم	-5353
کوٹ	-5354
عم	-5355
▁افتتاح	-5356
▁استا	-5357
اکین	-5358
▁ثانی	-5359
▁پیٹرولیم	-5360
▁سوزش	-5361
▁اجتما	-5362
▁برآمد	-5363
▁الف	-5364
▁خراج	-5365
▁ایرانی	-5366
شپ	-5367
▁شفاف	-5368
▁تیاریاں	-5369
▁فلی	-5370
ٹنر	-5371
▁علمی	-5372
▁کثیر	-5373
▁نمون	-5374
▁پلس	-5375
▁اصولوں	-5376
رنل	-5377
▁جنا	-5378
▁پانڈ	-5379
▁ماخ	-5380
یسن	-5381
▁احسن	-5382
▁ریفری	-5383
▁ملبوس	-5384
▁یہودی	-5385
▁تسلسل	-5386
▁ہیک	-5387
مو	-5388
وابط	-5389
▁لیڈر	-5390
▁سیمنٹ	-5391
▁چیٹ	-5392
▁ہیںاس	-5393
▁بھگ	-5394
▁فین	-5395
▁ساتھیوں	-5396
▁نظم	-5397
▁سائیکلنگ	-5398
▁تجاوز	-5399
لیکن	-5400
▁لاش	-5401
والہ	-5402
▁تنگ	-5403
▁ایشیائی	-5404
▁ثانیہ	-5405
▁میان	-5406
▁بندر	-5407
▁کسانوں	-5408
▁اغ	-5409
▁خدشہ	-5410
کراچی	-5411
▁سینٹی	-5412
▁گزرنے	-5413
▁واپڈا	-5414
▁افی	-5415
▁فریق	-5416
▁سلامتی	-5417
▁بدترین	-5418
▁یکس	-5419
دسمبر	-5420
ماہ	-5421
▁طیارے	-5422
▁فرار	-5423
▁مؤثر	-5424
بع	-5425
▁آرڈر	-5426
▁پہنچایا	-5427
▁جیتا	-5428
▁عطا	-5429
▁۴۴	-5430
▁لگائی	-5431
▁کیلیف	-5432
ٹیلی	-5433
▁نہایت	-5434
▁ارت	-5435
ڈیز	-5436
▁ہاف	-5437
▁گائیڈ	-5438
▁سپن	-5439
ائلڈ	-5440
▁علاقائی	-5441
▁پکس	-5442
▁لاگو	-5443
کلو	-5444
▁افتخار	-5445
▁ایبل	-5446
ائزر	-5447
▁تعارف	-5448
▁کتنے	-5449
▁مرضی	-5450
▁بائیں	-5451
▁تقر	-5452
▁کھیلیں	-5453
▁بریک	-5454
▁مسٹر	-5455
▁آٹھ	-5456
▁موڈ	-5457
▁رقص	-5458
▁اننگ	-5459
▁مدمقابل	-5460
تیں	-5461
▁کاٹنے	-5462
ائلٹ	-5463
▁دائیں	-5464
▁پٹرول	-5465
▁ساتویں	-5466
▁کرسٹ	-5467
▁بچا	-5468
▁ہانگ	-5469
ٹریلین	-5470
▁پھینک	-5471
▁فیفا	-5472
▁تائی	-5473
نومبر	-5474
▁نمونوں	-5475
▁سارا	-5476
▁جرنل	-5477
▁دراصل	-5478
▁پروسیس	-5479
▁بنائیں۔	-5480
▁۳۹	-5481
▁پینٹ	-5482
▁نشست	-5483
لاع	-5484
▁مرغ	-5485
▁نبھ	-5486
▁اہلکاروں	-5487
▁مسلمانوں	-5488
بائی	-5489
▁ڈوپ	-5490
▁بلندی	-5491
▁نیم	-5492
▁پڑی	-5493
▁امیتابھ	-5494
▁سنچریاں	-5495
▁مذہب	-5496
سکون	-5497
یکیشن	-5498
▁کاش	-5499
▁کیلیفورنیا	-5500
ئم	-5501
▁ڈھیر	-5502
ملین	-5503
▁تھوڑی	-5504
▁خسارے	-5505
▁عارضی	-5506
حاق	-5507
▁جینیاتی	-5508
▁نصاب	-5509
▁کیمرے	-5510
ولا	-5511
▁ایسڈ	-5512
▁سائیڈ	-5513
▁ٹرک	-5514
▁سینٹرل	-5515
▁بھٹی	-5516
▁مذا	-5517
▁باخبر	-5518
▁مں	-5519
▁سرفہرست	-5520
بری	-5521
ٹیشن	-5522
بھی	-5523
اما	-5524
ارڈ	-5525
▁درجن	-5526
گاری	-5527
ستور	-5528
▁کرچکے	-5529
▁دال	-5530
▁جنس	-5531
▁نفا	-5532
▁سرحد	-5533
▁اکثریت	-5534
قے	-5535
سمان	-5536
▁دلی	-5537
▁مانچ	-5538
▁کپڑے	-5539
▁کک	-5540
۱۲	-5541
▁عابد	-5542
▁لڑکے	-5543
▁لائیو	-5544
▁لگنے	-5545
کرین	-5546
▁کرینہ	-5547
▁چڑھا	-5548
▁نوشی	-5549
▁انوشکا	-5550
ارمیشن	-5551
▁کلوگرام	-5552
▁تاحال	-5553
▁آسٹریلیا	-5554
▁سستا	-5555
▁سیارے	-5556
▁بھاگ	-5557
▁ملیں	-5558
تیوں	-5559
ورین	-5560
▁عدن	-5561
▁مایہ	-5562
▁کنٹین	-5563
اداکارہ	-5564
▁اراکین	-5565
میری	-5566
▁ڈاٹ	-5567
▁جنم	-5568
▁استاد	-5569
▁مے	-5570
▁تز	-5571
▁بیرل	-5572
▁امر	-5573
۱۹	-5574
▁مکان	-5575
▁ضوابط	-5576
▁ڈسپلے	-5577
or	-5578
▁لگانا	-5579
▁داغ	-5580
▁سنگلز	-5581
▁۳۰۰	-5582
▁مداف	-5583
ربت	-5584
▁اٹھائے	-5585
▁رنگوں	-5586
▁ڈیبیو	-5587
تاہم	-5588
ولک	-5589
ائشہ	-5590
▁تبصرہ	-5591
▁مثالی	-5592
اع	-5593
▁ابوظ	-5594
فن	-5595
▁باری	-5596
▁مذاق	-5597
▁رکھیں۔	-5598
▁استد	-5599
▁کھلے	-5600
▁مسافروں	-5601
ائقہ	-5602
پاکستانی	-5603
▁فش	-5604
▁میٹنگ	-5605
لنگ	-5606
▁انکے	-5607
▁انڈے	-5608
▁انکو	-5609
▁بریفنگ	-5610
▁غذائیت	-5611
▁رسی	-5612
▁محتا	-5613
ئرز	-5614
▁ڈیڑھ	-5615
گنی	-5616
▁کھپت	-5617
▁زہری	-5618
▁آئیے	-5619
▁ترغ	-5620
جون	-5621
▁دہائیوں	-5622
▁شن	-5623
▁نظریات	-5624
▁سڑکوں	-5625
▁بالا	-5626
▁براڈ	-5627
▁الحسن	-5628
▁اسحاق	-5629
ؤنڈ	-5630
▁نکھ	-5631
وڑے	-5632
جھے	-5633
▁ممتاز	-5634
▁ٹائیگر	-5635
▁جلوہ	-5636
ولوجی	-5637
▁زد	-5638
▁ٹرانسپورٹ	-5639
▁تنوع	-5640
▁دائرہ	-5641
▁کنارے	-5642
▁بصیرت	-5643
▁بنتی	-5644
گریٹ	-5645
ڈس	-5646
‘‘	-5647
▁ہمدر	-5648
ینو	-5649
▁لائی	-5650
rain	-5651
▁ریم	-5652
▁دہشتگر	-5653
▁جرائم	-5654
▁لیب	-5655
▁منق	-5656
▁تصورات	-5657
▁گرانٹ	-5658
▁بڑھایا	-5659
▁سنیما	-5660
▁نرس	-5661
▁انشور	-5662
ڈوکون	-5663
▁مادے	-5664
ادیا	-5665
▁پتے	-5666
▁ترغیب	-5667
brain	-5668
▁سرچ	-5669
▁فنکشن	-5670
▁فضلہ	-5671
▁مڈل	-5672
انج	-5673
اسلام	-5674
▁کھرب	-5675
▁نرخوں	-5676
▁مچل	-5677
▁کرسکے	-5678
▁کوچز	-5679
▁Khabrain	-5680
▁تعالی	-5681
▁فلسطینی	-5682
▁اسپیس	-5683
▁Ro	-5684
▁شارٹ	-5685
▁الک	-5686
▁مراکز	-5687
▁دھونی	-5688
▁اسسٹنٹ	-5689
▁کانگریس	-5690
▁ڈراپ	-5691
▁۶۴	-5692
ورٹی	-5693
▁سینسر	-5694
▁گہرائی	-5695
▁کلیئر	-5696
وریا	-5697
▁جڑی	-5698
▁سارہ	-5699
ابلہ	-5700
فیع	-5701
▁ڈیف	-5702
▁بازو	-5703
خان	-5704
مئی	-5705
ادیت	-5706
▁مانچسٹر	-5707
▁ایجوکیشن	-5708
▁پراجیکٹ	-5709
▁روی	-5710
▁ویژن	-5711
▁نقاب	-5712
▁عدنان	-5713
اکار	-5714
اہتمام	-5715
▁جارہی	-5716
۱۱	-5717
▁جگہوں	-5718
▁گولی	-5719
▁ذائقہ	-5720
...	-5721
▁پیغامات	-5722
▁مدع	-5723
▁ٹیلر	-5724
▁بناکر	-5725
الم	-5726
▁وصو	-5727
▁پھولوں	-5728
▁کلچرل	-5729
▁مسکر	-5730
▁شاٹ	-5731
▁اصف	-5732
▁ملائیشیا	-5733
▁سردار	-5734
روی	-5735
▁مخلو	-5736
▁کارپوریشن	-5737
ایم	-5738
▁پتا	-5739
باکو	-5740
▁غربت	-5741
ویسٹ	-5742
▁فورم	-5743
▁پروٹو	-5744
▁اُس	-5745
▁کائن	-5746
▁۴۳	-5747
zn	-5748
▁چوتھا	-5749
▁Rozn	-5750
▁انرجی	-5751
▁انوک	-5752
▁Roznama	-5753
▁بیجنگ	-5754
امت	-5755
▁مانیٹرنگ	-5756
▁جمال	-5757
▁مارکیٹنگ	-5758
▁پالتو	-5759
▁مجسم	-5760
▁نصب	-5761
▁احتیاط	-5762
▁فورسز	-5763
▁ہمت	-5764
▁عکس	-5765
▁ناموں	-5766
▁وجود	-5767
▁دفعہ	-5768
ائونڈ	-5769
ڈیشن	-5770
▁بیڈ	-5771
لح	-5772
▁ہٹانے	-5773
▁تخمینہ	-5774
▁اخلاق	-5775
▁فائیو	-5776
▁تحسین	-5777
▁ویک	-5778
ch	-5779
ساب	-5780
▁صحافیوں	-5781
▁معاونت	-5782
راعظم	-5783
▁تعمیراتی	-5784
ھایا	-5785
▁ابو	-5786
▁کوک	-5787
▁انفارمیشن	-5788
▁فاصلہ	-5789
کوک	-5790
▁فام	-5791
▁رنویر	-5792
▁برین	-5793
▁پیسہ	-5794
▁نفاذ	-5795
▁تردید	-5796
ومن	-5797
▁کاشتکاروں	-5798
▁دائ	-5799
آپ	-5800
▁لاٹری	-5801
▁لرن	-5802
▁انشورنس	-5803
▁موس	-5804
▁صرافہ	-5805
▁غال	-5806
▁شارجہ	-5807
▁چور	-5808
▁۴۱	-5809
▁مذمت	-5810
▁سٹیٹ	-5811
▁خالص	-5812
ائون	-5813
▁اسکے	-5814
ولوج	-5815
▁ملٹی	-5816
ثیق	-5817
▁پے	-5818
▁رنگین	-5819
▁موضوعات	-5820
▁نمونہ	-5821
▁جائیداد	-5822
اپریل	-5823
▁خاندانی	-5824
ہن	-5825
▁نامیاتی	-5826
▁ہوسکے	-5827
▁ٹار	-5828
▁اواز	-5829
▁لیبار	-5830
▁سعد	-5831
ائرز	-5832
▁الع	-5833
اسٹرکچر	-5834
تش	-5835
▁لیون	-5836
▁۴۷	-5837
▁الب	-5838
▁انسداد	-5839
▁کھوج	-5840
▁ایمر	-5841
برا	-5842
▁پہنچی	-5843
▁۴۶	-5844
▁توثیق	-5845
▁سپی	-5846
▁زیراہتمام	-5847
قیہ	-5848
چکا	-5849
▁تزئین	-5850
▁جزیرے	-5851
▁میتھی	-5852
▁ایڈو	-5853
▁محب	-5854
▁پرچ	-5855
غب	-5856
ینڈل	-5857
▁جلس	-5858
▁نفرت	-5859
▁مصط	-5860
▁اکبر	-5861
▁رجسٹریشن	-5862
اعت	-5863
سالہ	-5864
▁بڑھتا	-5865
▁انتخابی	-5866
▁تمباکو	-5867
▁شرجیل	-5868
▁قبر	-5869
بینک	-5870
وکٹوں	-5871
▁سینیٹ	-5872
▁عہدیدار	-5873
▁طلاق	-5874
▁ٹم	-5875
▁اضطر	-5876
▁کروایا	-5877
▁فلا	-5878
▁قا	-5879
▁روئی	-5880
▁کرانے	-5881
▁تقریباً	-5882
▁امتیاز	-5883
▁ہیٹ	-5884
▁اضلاع	-5885
ٹیم	-5886
▁جنگلی	-5887
▁کیڑوں	-5888
شیم	-5889
▁تفریحی	-5890
▁بچی	-5891
گرا	-5892
▁کھڑی	-5893
اریوں	-5894
▁تقویت	-5895
▁بلاگ	-5896
بانوں	-5897
▁پڈوکون	-5898
▁میکسیکو	-5899
▁راغب	-5900
▁لیبارٹری	-5901
چوئل	-5902
▁تحفظات	-5903
▁ڈونلڈ	-5904
▁لگائیں	-5905
▁اُن	-5906
▁فیکٹری	-5907
▁یکساں	-5908
▁میسی	-5909
▁سکون	-5910
▁خاموش	-5911
▁پالیسیوں	-5912
▁معاوضہ	-5913
uj	-5914
▁ماسک	-5915
▁نوید	-5916
اجد	-5917
▁ین	-5918
ژاد	-5919
▁استقبال	-5920
▁مددگار	-5921
▁دیکھے	-5922
▁عملدر	-5923
▁سرد	-5924
کامات	-5925
▁ہوسک	-5926
▁قاسم	-5927
صے	-5928
▁نژاد	-5929
ناسب	-5930
▁سنجیدہ	-5931
▁ہیںان	-5932
کیاں	-5933
▁مائیکرو	-5934
▁اوائل	-5935
▁لئے۔	-5936
▁احکامات	-5937
▁شاعری	-5938
▁بور	-5939
ستمبر	-5940
▁فصلوں	-5941
▁اونچائی	-5942
▁چوکوں	-5943
جنوری	-5944
سرے	-5945
▁اکشے	-5946
▁بیانات	-5947
▁منیر	-5948
▁دہی	-5949
زادہ	-5950
ماٹر	-5951
▁پلاٹ	-5952
▁گھاس	-5953
▁عائشہ	-5954
▁کمائی	-5955
▁اسٹور	-5956
▁بق	-5957
▁ٹام	-5958
▁بصری	-5959
▁لرننگ	-5960
▁ذوال	-5961
▁گزارنے	-5962
الا	-5963
▁J	-5964
▁انسانیت	-5965
▁ایونٹس	-5966
▁لیول	-5967
▁کراچیاردو	-5968
▁عاص	-5969
▁مرض	-5970
▁تنازعات	-5971
مکن	-5972
▁حیاتیات	-5973
▁امریکن	-5974
▁نارا	-5975
ائیاں	-5976
▁خاموشی	-5977
▁ہڑ	-5978
▁سفارشات	-5979
جک	-5980
▁ضمن	-5981
▁چک	-5982
لاد	-5983
تاق	-5984
▁توقعات	-5985
▁وارنر	-5986
▁کھاتے	-5987
▁رائٹ	-5988
▁مرمت	-5989
▁غر	-5990
گس	-5991
▁پرم	-5992
▁دھماکے	-5993
▁پرستی	-5994
▁مقدمے	-5995
▁اختتامی	-5996
▁نقشہ	-5997
▁کھلی	-5998
▁مزاج	-5999
ایف	-6000
▁لائے	-6001
▁گیر	-6002
▁منزل	-6003
▁ایجنٹ	-6004
▁ٹان	-6005
▁فرحان	-6006
▁رابطوں	-6007
▁گھومتی	-6008
شلز	-6009
▁ناسا	-6010
▁طالبان	-6011
▁نائ	-6012
▁متوازن	-6013
▁ورث	-6014
▁رسول	-6015
▁ایشیاء	-6016
▁خلاصہ	-6017
▁کاؤنٹی	-6018
▁افواہ	-6019
▁سلطانز	-6020
▁مخالفت	-6021
بط	-6022
▁بہا	-6023
بیہ	-6024
▁چلتے	-6025
▁فلپ	-6026
▁ایپس	-6027
▁پھیلاؤ	-6028
▁گون	-6029
▁خوشگوار	-6030
▁چھکے	-6031
پوائنٹ	-6032
▁مدافعتی	-6033
▁رہنماؤں	-6034
▁جائیں۔	-6035
▁آلہ	-6036
▁رائل	-6037
▁اضطراب	-6038
▁پیڈ	-6039
▁روایت	-6040
▁سٹر	-6041
▁پیٹرول	-6042
▁قرضے	-6043
▁الیکٹرانک	-6044
▁معیارات	-6045
▁ٹنڈ	-6046
سابق	-6047
▁میموری	-6048
▁الر	-6049
▁برادریوں	-6050
▁پڑھیے	-6051
▁کہا۔	-6052
▁مسافر	-6053
پرو	-6054
▁وارم	-6055
۱۴	-6056
▁زاہد	-6057
▁نقصانات	-6058
▁کلا	-6059
▁Ab	-6060
▁محتاط	-6061
چا	-6062
▁عوض	-6063
▁کیشن	-6064
▁کہتا	-6065
▁دہندگان	-6066
▁سکیں۔	-6067
▁رونال	-6068
▁کھولنے	-6069
▁قلت	-6070
▁پروفی	-6071
جولائی	-6072
▁ہڈیوں	-6073
یتھ	-6074
▁مایوسی	-6075
▁سرزمین	-6076
▁لیتا	-6077
▁دریائے	-6078
▁گائے	-6079
▁عبداللہ	-6080
▁حکومتوں	-6081
لیج	-6082
کمپنیوں	-6083
▁گنجائش	-6084
ونڈر	-6085
▁جائیگی	-6086
▁ترجمہ	-6087
۲۵	-6088
▁ٹماٹر	-6089
▁کمانڈ	-6090
▁لائنز	-6091
▁فہیم	-6092
اہل	-6093
مینان	-6094
طرف	-6095
▁مدنظر	-6096
▁Tak	-6097
▁اسٹریلوی	-6098
▁وح	-6099
ائف	-6100
▁شاعر	-6101
▁بٹن	-6102
▁نگاہ	-6103
▁ورچوئل	-6104
▁بغ	-6105
▁نوٹیفکیشن	-6106
ستانہ	-6107
▁آئیں	-6108
ولرز	-6109
نگل	-6110
▁لکھے	-6111
▁آہنگی	-6112
▁کیمرہ	-6113
▁مصطفی	-6114
▁بولنے	-6115
▁حمی	-6116
▁اوسطا	-6117
▁بندھ	-6118
▁مشورے	-6119
▁شواہد	-6120
▁ہارم	-6121
ظمی	-6122
▁گلگت	-6123
▁معائنہ	-6124
بھارت	-6125
▁لاہورسپورٹس	-6126
▁نگران	-6127
ثرت	-6128
▁فاروق	-6129
▁عین	-6130
▁وبائی	-6131
▁دیسی	-6132
▁ٹکر	-6133
▁۴۹	-6134
▁اسرار	-6135
▁ڈری	-6136
▁پکسل	-6137
▁حیاتیاتی	-6138
▁رچرڈ	-6139
▁بوڑ	-6140
▁جمشید	-6141
سرز	-6142
بورن	-6143
▁شرط	-6144
▁کہتی	-6145
ڑھی	-6146
چکی	-6147
ومر	-6148
▁متنوع	-6149
▁زمینی	-6150
▁تمغہ	-6151
▁چاہیں	-6152
▁گردوں	-6153
▁دوا	-6154
▁مرچ	-6155
▁مغرب	-6156
▁بروقت	-6157
▁نجات	-6158
ھائی	-6159
▁پارٹنر	-6160
▁ڈیپارٹمنٹ	-6161
▁بحر	-6162
▁لیکر	-6163
▁مشتاق	-6164
▁پروسیسنگ	-6165
بیب	-6166
اموں	-6167
▁حضرت	-6168
▁بست	-6169
▁جیتے	-6170
▁سگنل	-6171
▁الرحمن	-6172
▁انٹری	-6173
▁آئین	-6174
بندی	-6175
▁جھلک	-6176
▁فول	-6177
▁سفارت	-6178
▁پراپر	-6179
اکتوبر	-6180
▁مزاحیہ	-6181
▁دائمی	-6182
▁حامی	-6183
▁عشق	-6184
بس	-6185
▁سوچنے	-6186
▁معذرت	-6187
▁سکواش	-6188
▁اسما	-6189
▁انکم	-6190
▁لیپ	-6191
▁اطمینان	-6192
▁جدت	-6193
▁بابراعظم	-6194
▁جماعتوں	-6195
▁مینی	-6196
▁تناظر	-6197
▁سنگل	-6198
▁پرسکون	-6199
▁ترسیل	-6200
فصیل	-6201
▁افسردگی	-6202
▁دوپ	-6203
▁پیج	-6204
▁غائب	-6205
▁چھو	-6206
▁عیس	-6207
▁باش	-6208
▁محرک	-6209
▁ملبوسات	-6210
▁"""	-6211
▁گوج	-6212
▁زاد	-6213
▁بمق	-6214
▁فلور	-6215
۲۶	-6216
آن	-6217
کور	-6218
▁ورلڈکپ	-6219
▁ورنہ	-6220
▁تمہیں	-6221
▁زائ	-6222
▁گروپوں	-6223
▁بننا	-6224
ائندہ	-6225
▁ورڈ	-6226
▁اسٹری	-6227
▁ہات	-6228
▁ٹائمز	-6229
▁ہنس	-6230
▁گیٹ	-6231
غر	-6232
▁لگاتے	-6233
▁جلا	-6234
▁جاسکتا	-6235
▁سٹاف	-6236
▁فوٹ	-6237
▁دوں	-6238
▁تقا	-6239
ینٹ	-6240
▁پرک	-6241
▁کثرت	-6242
▁طلبہ	-6243
▁وادی	-6244
▁ول	-6245
▁ٹانگ	-6246
▁مینڈ	-6247
ٹرا	-6248
▁دشواری	-6249
▁Su	-6250
▁عی	-6251
ثرین	-6252
▁رہے۔	-6253
▁برگ	-6254
▁یوتھ	-6255
▁تنویر	-6256
▁زمانے	-6257
ضاء	-6258
▁سردی	-6259
ورتھم	-6260
▁اقتدار	-6261
▁سیم	-6262
▁فائبر	-6263
ناس	-6264
▁دراز	-6265
▁ثناء	-6266
▁جتنی	-6267
▁علیہ	-6268
▁روزم	-6269
ذر	-6270
▁گلوبل	-6271
نیات	-6272
▁کائنات	-6273
▁کروائی	-6274
ئٹم	-6275
▁رہا۔	-6276
نگر	-6277
▁گرل	-6278
▁ڈالی	-6279
فصیلات	-6280
خصوص	-6281
▁مواف	-6282
▁۵۲	-6283
▁صوبوں	-6284
▁ابات	-6285
▁چھٹے	-6286
▁کبڈی	-6287
▁توڑنے	-6288
▁لائبریری	-6289
▁پرع	-6290
▁ہوگئے۔	-6291
بٹ	-6292
اگست	-6293
نیوز	-6294
ورلڈ	-6295
▁گود	-6296
▁فارغ	-6297
۱۶	-6298
مدی	-6299
▁پشت	-6300
▁دیوی	-6301
▁کٹائی	-6302
▁تھائی	-6303
▁سنائی	-6304
▁ایجاد	-6305
▁فرا	-6306
▁رجوع	-6307
▁بوت	-6308
وڑوں	-6309
▁فاؤ	-6310
▁کنڈ	-6311
▁الگورتھم	-6312
▁فیصلوں	-6313
دونوں	-6314
▁سدرن	-6315
ویب	-6316
▁اٹھانا	-6317
▁ٹینک	-6318
▁سنگا	-6319
▁مسیح	-6320
ائنس	-6321
▁سیاحت	-6322
▁ہسپانوی	-6323
▁کتابیں	-6324
▁پیا	-6325
اپنے	-6326
▁۸۵	-6327
▁کتابوں	-6328
▁متاثرین	-6329
▁پرائم	-6330
▁دیہی	-6331
فروری	-6332
▁پرنس	-6333
غراف	-6334
طرفہ	-6335
▁بائیک	-6336
▁پروم	-6337
▁Such	-6338
سیٹ	-6339
▁دیشی	-6340
▁کررہی	-6341
▁جنگی	-6342
▁فلک	-6343
▁ہلکے	-6344
عین	-6345
طمہ	-6346
▁ٹرائلز	-6347
آخر	-6348
▁امدادی	-6349
▁یوکرین	-6350
▁ڈرون	-6351
▁فرض	-6352
▁انفراسٹرکچر	-6353
▁ماخذ	-6354
▁ارا	-6355
▁کروڑوں	-6356
▁کہانیاں	-6357
▁مینوفیکچرنگ	-6358
▁مشکوک	-6359
جہتی	-6360
▁قربانی	-6361
▁ستاروں	-6362
▁خواہشات	-6363
▁۱۵۰	-6364
▁گھی	-6365
▁لمبا	-6366
۱۷	-6367
▁دستیابی	-6368
▁بولڈ	-6369
▁جرا	-6370
▁عہدیداروں	-6371
▁سوی	-6372
▁مساوی	-6373
▁اخذ	-6374
▁خاندانوں	-6375
▁تیم	-6376
▁جھگ	-6377
▁تقریبات	-6378
▁بنتے	-6379
▁ڈاکٹروں	-6380
▁ساح	-6381
▁مسابق	-6382
▁رویہ	-6383
▁نیور	-6384
▁ڈبلز	-6385
▁لیبل	-6386
▁ٹھنڈا	-6387
▁عدالتی	-6388
▁ارد	-6389
یریا	-6390
فیل	-6391
▁دوپہر	-6392
▁ہڑتال	-6393
▁صفحہ	-6394
▁بھری	-6395
اطف	-6396
▁کرد	-6397
▁سگریٹ	-6398
▁ٹیوب	-6399
▁شماریات	-6400
فقار	-6401
▁عاصم	-6402
▁رع	-6403
▁ناراض	-6404
▁مرکب	-6405
▁شوٹ	-6406
▁مفادات	-6407
▁جمہور	-6408
▁مربع	-6409
▁مائع	-6410
▁شاہی	-6411
۱۳	-6412
▁گیری	-6413
▁h	-6414
▁کاپ	-6415
▁رف	-6416
▁سکیم	-6417
▁جغراف	-6418
ڈالر	-6419
مش	-6420
▁روہت	-6421
▁پلی	-6422
▁سوا	-6423
▁شیشے	-6424
خانہ	-6425
▁۶۳	-6426
▁ہولڈرز	-6427
▁پرس	-6428
▁گہرے	-6429
▁برقی	-6430
▁رکاوٹوں	-6431
▁پائلٹ	-6432
▁اسکاٹ	-6433
▁پمپ	-6434
▁ڈیرن	-6435
اؤں	-6436
▁تبصرے	-6437
▁ایتھلیٹ	-6438
▁تنازعہ	-6439
▁عمارتوں	-6440
▁دعویٰ	-6441
▁انسٹال	-6442
۱۸	-6443
▁بیت	-6444
▁جولائیء	-6445
▁منایا	-6446
▁واک	-6447
▁فرنٹ	-6448
▁بنیں	-6449
▁ہیںانہوں	-6450
▁پڑنے	-6451
▁مارنے	-6452
▁صفحات	-6453
▁مصنفین	-6454
▁رئیس	-6455
گیر	-6456
صوب	-6457
▁پروفیشنل	-6458
▁بریڈ	-6459
▁بڑھانا	-6460
▁ابوظہبی	-6461
▁چاہی	-6462
ائوں	-6463
▁دلکش	-6464
▁مہوش	-6465
▁سیڈ	-6466
▁ذیلی	-6467
▁بمقابلہ	-6468
گال	-6469
اصلاحیت	-6470
▁جوہر	-6471
▁شہزادہ	-6472
▁بچھ	-6473
روش	-6474
▁اوپری	-6475
▁جزو	-6476
▁مارشل	-6477
▁ریل	-6478
▁دلوں	-6479
▁بخاری	-6480
▁نالی	-6481
صب	-6482
▁چیلنجز	-6483
▁رے	-6484
▁افواج	-6485
▁سیکھیں	-6486
▁آکسیجن	-6487
▁نایاب	-6488
▁اربوں	-6489
▁حکمرانی	-6490
▁ریگولیٹری	-6491
▁بتائیں	-6492
▁سیکورٹی	-6493
▁کیک	-6494
یکٹس	-6495
▁لات	-6496
▁ملکہ	-6497
رانوالہ	-6498
اہوں	-6499
▁حلقوں	-6500
▁دھوم	-6501
▁مدعو	-6502
فل	-6503
▁انتظامی	-6504
فے	-6505
▁۶۲	-6506
▁اسکرپٹ	-6507
▁ولیمز	-6508
▁ایریا	-6509
▁سمجھتا	-6510
▁ماحولیات	-6511
▁نارتھ	-6512
▁طبقے	-6513
مئن	-6514
▁جمہوریت	-6515
گوں	-6516
▁کیٹیگری	-6517
▁پرور	-6518
▁مارا	-6519
▁واٹ	-6520
کون	-6521
امک	-6522
▁باجوہ	-6523
▁توان	-6524
▁دلہ	-6525
▁ملکیت	-6526
▁روزمرہ	-6527
▁میڈرڈ	-6528
▁نبی	-6529
▁دینی	-6530
▁پیپر	-6531
▁ضمنی	-6532
ذی	-6533
ٹھی	-6534
▁نکا	-6535
ننگ	-6536
▁مہنگے	-6537
▁گنتی	-6538
▁صبا	-6539
▁ویس	-6540
▁رٹ	-6541
▁آپشن	-6542
▁ڈائریکٹ	-6543
▁۵۴	-6544
▁کتوں	-6545
ملکی	-6546
▁اعصابی	-6547
▁مز	-6548
زاج	-6549
▁فاطمہ	-6550
نیا	-6551
▁منانے	-6552
▁مئیء	-6553
▁نفسیات	-6554
▁دیکھیں۔	-6555
▁رمی	-6556
▁ٹیکن	-6557
▁باصلاحیت	-6558
▁کنی	-6559
عا	-6560
▁گہرا	-6561
▁بھرا	-6562
▁صدارتی	-6563
▁امجد	-6564
▁جاننا	-6565
سہ	-6566
▁لانا	-6567
اہیم	-6568
▁ارجنٹائن	-6569
ٹیسٹ	-6570
▁رجسٹرڈ	-6571
عالمی	-6572
▁دیدیا	-6573
▁اوپننگ	-6574
▁شاپ	-6575
▁غصے	-6576
▁باتوں	-6577
نڈیشن	-6578
▁پیکیج	-6579
▁تنازع	-6580
▁شعور	-6581
▁ٹیگ	-6582
▁اسپر	-6583
▁عل	-6584
▁غالب	-6585
▁واہ	-6586
▁سیکھنا	-6587
ساز	-6588
▁آنکھیں	-6589
▁ڈیوائسز	-6590
▁اینی	-6591
▁پہننے	-6592
▁ہنر	-6593
▁جزوی	-6594
▁سونم	-6595
▁جونء	-6596
ولس	-6597
شار	-6598
▁امان	-6599
▁سماء	-6600
▁ریو	-6601
▁مطمئن	-6602
▁حافظ	-6603
▁مارٹن	-6604
aj	-6605
▁مقنا	-6606
زدگی	-6607
▁ٹریڈنگ	-6608
▁سکر	-6609
▁اگاہ	-6610
▁اینٹ	-6611
▁،)	-6612
گلنگ	-6613
▁چاہیے۔	-6614
شمی	-6615
▁چینج	-6616
▁سنڈ	-6617
▁مقص	-6618
▁لڑنے	-6619
▁تعامل	-6620
▁آئندہ	-6621
▁اثنا	-6622
▁جال	-6623
▁روکا	-6624
▁جھیل	-6625
▁سکرین	-6626
اکس	-6627
▁ستمبرء	-6628
▁a	-6629
▁پہلوؤں	-6630
نیف	-6631
▁رہائی	-6632
▁تشہیر	-6633
▁کینگ	-6634
▁ریڑھ	-6635
▁ضبط	-6636
صال	-6637
▁۵۳	-6638
▁نامے	-6639
مانی	-6640
▁اینڈرسن	-6641
▁کالی	-6642
▁معدنیات	-6643
وائی	-6644
▁سلور	-6645
▁پرعزم	-6646
امریکی	-6647
▁کسان	-6648
▁سائنسدانوں	-6649
ol	-6650
یرو	-6651
ائنا	-6652
▁ویلز	-6653
"""	-6654
مجھے	-6655
▁احتساب	-6656
ضاد	-6657
▁سباق	-6658
▁آفس	-6659
▁Aaj	-6660
▁اعتبار	-6661
عیل	-6662
▁۵۶	-6663
▁ایڈم	-6664
▁بھوک	-6665
وٹا	-6666
▁مرحوم	-6667
▁سیاق	-6668
▁گرائونڈ	-6669
▁جھا	-6670
▁اذ	-6671
▁پیچیدگی	-6672
انڈیکس	-6673
▁ایکسپورٹ	-6674
▁بندش	-6675
▁سولہ	-6676
واٹ	-6677
▁اسٹوڈیو	-6678
▁درمیانی	-6679
▁انڈونی	-6680
▁لچکدار	-6681
لیڈ	-6682
▁میلبورن	-6683
▁پنجابی	-6684
▁آزم	-6685
▁ایڈمن	-6686
▁بلت	-6687
▁پراپرٹی	-6688
وریل	-6689
▁وڈیو	-6690
▁بالآخر	-6691
▁۴۰۰	-6692
▁فیروز	-6693
▁شفیع	-6694
▁ہیز	-6695
آ	-6696
▁ستارے	-6697
▁پتلی	-6698
▁بتاتے	-6699
▁پُ	-6700
▁ہالینڈ	-6701
▁تغیر	-6702
▁چھکوں	-6703
▁ایسٹ	-6704
▁بالغوں	-6705
▁زبانوں	-6706
▁گلیکسی	-6707
▁ٹشو	-6708
▁پولی	-6709
▁ورکس	-6710
▁۹۵	-6711
▁پھیپھ	-6712
▁ضلعی	-6713
▁آرمی	-6714
▁فوجیوں	-6715
گلینڈ	-6716
▁زہر	-6717
▁وان	-6718
▁فائی	-6719
▁رائونڈ	-6720
میٹر	-6721
▁بھیجے	-6722
▁n	-6723
آئی	-6724
▁نچلے	-6725
▁زائرین	-6726
▁بلائنڈ	-6727
▁نمائندوں	-6728
▁سیٹل	-6729
شاد	-6730
پورٹرز	-6731
▁۵۷	-6732
▁ہمدردی	-6733
▁دھی	-6734
▁اسٹیک	-6735
▁شاخ	-6736
▁ہیلی	-6737
▁ماڈلنگ	-6738
▁بلتستان	-6739
▁محل	-6740
▁روٹی	-6741
▁ہیری	-6742
▁لوک	-6743
▁اگستء	-6744
▁زدہ	-6745
▁اپریلء	-6746
خلا	-6747
▁عادل	-6748
▁کند	-6749
وند	-6750
▁نکلنے	-6751
▁ڈک	-6752
▁نسلی	-6753
▁۵۸	-6754
▁اسٹین	-6755
▁سینیٹر	-6756
ریعہ	-6757
حالی	-6758
▁آلو	-6759
▁ٹوکیو	-6760
▁اگلا	-6761
بلی	-6762
▁گاؤں	-6763
▁میگز	-6764
▁پیز	-6765
▁اسکین	-6766
▁چھٹ	-6767
▁توانائی	-6768
▁ظلم	-6769
▁ڈھونڈ	-6770
▁زیور	-6771
▁اجتماعی	-6772
▁مقدس	-6773
▁اشاعت	-6774
▁حاجی	-6775
▁تیاریوں	-6776
▁ناممکن	-6777
▁فلیٹ	-6778
▁امتزاج	-6779
▁حبیب	-6780
▁سیکوئل	-6781
▁آرہ	-6782
▁بندرگاہ	-6783
▁مالا	-6784
▁کمیون	-6785
یش	-6786
▁جگر	-6787
گٹ	-6788
ٹیٹ	-6789
▁ذرات	-6790
▁آتش	-6791
لٹی	-6792
سس	-6793
گون	-6794
▁رتھر	-6795
گنا	-6796
▁فتو	-6797
▁مکھ	-6798
چل	-6799
▁وش	-6800
▁ورکش	-6801
▁پام	-6802
▁ہارون	-6803
▁کرے۔	-6804
▁عاطف	-6805
▁دوائیوں	-6806
▁گلاس	-6807
▁ڈوم	-6808
▁ذوالفقار	-6809
▁غلطیوں	-6810
▁گوہر	-6811
▁ڈرائیونگ	-6812
▁اٹھاتے	-6813
▁ممبروں	-6814
▁خواہاں	-6815
▁یں	-6816
▁ڈور	-6817
▁تحفہ	-6818
▁اِ	-6819
نمائندہ	-6820
▁لیتی	-6821
▁ابراہیم	-6822
ہین	-6823
▁آم	-6824
▁کنبہ	-6825
▁گامزن	-6826
▁افر	-6827
▁اوریا	-6828
▁زلزلے	-6829
زدہ	-6830
▁شبہ	-6831
گئی	-6832
▁نیپال	-6833
▁ہارڈ	-6834
▁فیچرز	-6835
▁داخلی	-6836
▁موٹا	-6837
▁تنز	-6838
▁لاحق	-6839
▁جیسن	-6840
▁افعال	-6841
▁جمیل	-6842
وخ	-6843
▁کردے	-6844
ps	-6845
ریو	-6846
▁دھا	-6847
▁استعفی	-6848
▁بظاہر	-6849
▁بھجو	-6850
▁مقابل	-6851
▁وصولی	-6852
News	-6853
▁عہدہ	-6854
▁آئر	-6855
▁روحانی	-6856
▁رونالڈو	-6857
▁سیکھا	-6858
▁اساں	-6859
▁سازش	-6860
پیٹ	-6861
▁فتوحات	-6862
▁عادت	-6863
ur	-6864
▁ثقل	-6865
▁پریشانیوں	-6866
بنگ	-6867
▁اسٹارز	-6868
▁گراونڈ	-6869
▁ائل	-6870
▁دھند	-6871
tt	-6872
▁اخر	-6873
▁رابر	-6874
▁ائر	-6875
▁اغوا	-6876
urdu	-6877
▁شکلوں	-6878
جاری	-6879
▁پروٹوکول	-6880
▁مراعات	-6881
▁قار	-6882
▁داریاں	-6883
▁سپنر	-6884
▁بتائی	-6885
▁بوٹی	-6886
▁مقصود	-6887
وزہ	-6888
▁بابا	-6889
▁کشش	-6890
▁شوکت	-6891
▁اعضاء	-6892
صیب	-6893
▁سوراخ	-6894
▁اشتہار	-6895
شاء	-6896
یروں	-6897
مایا	-6898
▁صبر	-6899
▁تماش	-6900
▁انکوائری	-6901
▁میگزین	-6902
▁لمحے	-6903
▁انوکھا	-6904
ادت	-6905
▁قات	-6906
▁کیبل	-6907
▁ونڈوز	-6908
▁نعیم	-6909
▁آئس	-6910
▁پھیپھڑوں	-6911
▁اپنایا	-6912
▁عامہ	-6913
▁لمحہ	-6914
▁سکتا۔	-6915
▁صدم	-6916
▁۵۱	-6917
▁سے۔	-6918
▁کوالٹی	-6919
▁غل	-6920
▁عملہ	-6921
▁افادیت	-6922
▁چہرہ	-6923
▁جناح	-6924
؟""	-6925
لانگ	-6926
▁ویلیو	-6927
▁داستان	-6928
▁کلینیکل	-6929
▁مسلح	-6930
▁ٹرانز	-6931
▁htt	-6932
▁وکلا	-6933
//	-6934
://	-6935
▁کیتھ	-6936
-%	-6937
▁ہاشم	-6938
▁برج	-6939
▁سرا	-6940
مس	-6941
▁گارڈ	-6942
▁رشتے	-6943
▁خرم	-6944
▁شکایات	-6945
▁https	-6946
▁میون	-6947
▁مردہ	-6948
لور	-6949
فورڈ	-6950
):	-6951
▁گروہوں	-6952
▁کہی	-6953
▁سامعین	-6954
▁نذیر	-6955
▁کالونی	-6956
▁نن	-6957
▁مدنی	-6958
طیسی	-6959
▁قارئین	-6960
▁فز	-6961
▁واس	-6962
▁تنہا	-6963
▁کنگنا	-6964
▁فاؤنڈیشن	-6965
▁سدھ	-6966
▁فائٹ	-6967
▁انکا	-6968
▁سہارا	-6969
▁کپل	-6970
▁طول	-6971
▁موسیق	-6972
▁آنے	-6973
▁امیدواروں	-6974
▁دانش	-6975
▁جوان	-6976
▁بدن	-6977
▁بقا	-6978
▁اندراج	-6979
▁منتظر	-6980
▁نکاح	-6981
▁میڈیسن	-6982
بوضہ	-6983
▁مرے	-6984
▁سبسڈی	-6985
▁گئ	-6986
▁اٹھارہ	-6987
▁لیف	-6988
▁پرکشش	-6989
▁آثار	-6990
▁قبضے	-6991
وکٹیں	-6992
▁مما	-6993
▁مادہ	-6994
▁موافقت	-6995
▁میسر	-6996
▁پرائیویٹ	-6997
▁سرکل	-6998
▁دوستانہ	-6999
▁عد	-7000
▁اعصاب	-7001
▁ملاح	-7002
وئی	-7003
▁جوز	-7004
▁انتب	-7005
▁رضام	-7006
▁پھیلنے	-7007
▁فاس	-7008
▁لیں۔	-7009
▁احتیاطی	-7010
▁کارروائیوں	-7011
شمند	-7012
▁چودہ	-7013
▁اسماعیل	-7014
▁تنصیب	-7015
▁ہیروئن	-7016
سٹھ	-7017
▁بلڈنگ	-7018
▁کارنامہ	-7019
▁اندھی	-7020
انگیر	-7021
▁ہولی	-7022
طین	-7023
۵۰	-7024
▁کمزوری	-7025
▁لمحات	-7026
▁نویں	-7027
▁۶۶	-7028
▁صنف	-7029
▁پروفائل	-7030
▁جمی	-7031
▁۹۹	-7032
▁لارڈز	-7033
▁معاہدوں	-7034
▁نقوی	-7035
انٹر	-7036
▁توہین	-7037
،،	-7038
▁روا	-7039
▁جمعے	-7040
▁میجر	-7041
سلونا	-7042
جنوبی	-7043
وزیر	-7044
کرکٹ	-7045
▁عرا	-7046
عب	-7047
▁خوشبو	-7048
▁پرچم	-7049
لال	-7050
نیو	-7051
▁کاشتکار	-7052
▁انٹ	-7053
▁سینڈ	-7054
▁کامیابیوں	-7055
▁نذر	-7056
▁ڈاکو	-7057
▁جمہوریہ	-7058
▁پڑھنا	-7059
▁چوٹی	-7060
▁اسان	-7061
▁بخار	-7062
▁گوجرانوالہ	-7063
اہو	-7064
ولکر	-7065
▁کاغذات	-7066
▁ڈھال	-7067
باب	-7068
▁کولمبو	-7069
▁اوگرا	-7070
▁دبنگ	-7071
UM	-7072
۲۴	-7073
▁بینکنگ	-7074
▁مقناطیسی	-7075
▁گھڑی	-7076
▁شے	-7077
▁لیڈ	-7078
▁قابلیت	-7079
ذب	-7080
ابیر	-7081
▁بھائیوں	-7082
▁وائلڈ	-7083
▁عقیدت	-7084
▁درمدات	-7085
▁خبردار	-7086
▁کشتی	-7087
▁جدہ	-7088
▁سنہ	-7089
▁فیسر	-7090
▁بوم	-7091
▁لکھی	-7092
▁دھوکہ	-7093
▁راہداری	-7094
▁دھون	-7095
▁بذ	-7096
زیر	-7097
▁گوادر	-7098
▁ناد	-7099
▁ڈیک	-7100
▁عمومی	-7101
یشی	-7102
▁میٹرک	-7103
▁مہلک	-7104
▁گرڈ	-7105
▁یونانی	-7106
▁بزر	-7107
▁اطراف	-7108
▁سڑ	-7109
▁چینلز	-7110
▁رویے	-7111
▁معاف	-7112
▁جع	-7113
▁Khauj	-7114
▁رومن	-7115
کھلاڑیوں	-7116
▁ہتھیار	-7117
▁صلی	-7118
▁الل	-7119
ینیشن	-7120
▁قرضہ	-7121
▁تعیناتی	-7122
▁رہیں۔	-7123
▁HUM	-7124
▁پیروں	-7125
▁گردن	-7126
▁۷۲	-7127
ھار	-7128
▁زاوی	-7129
▁الیکٹران	-7130
▁ٹیپ	-7131
کھر	-7132
▁شری	-7133
ویس	-7134
▁بینچ	-7135
▁برش	-7136
▁لگتے	-7137
▁فلمساز	-7138
▁شیڈنگ	-7139
▁چاہئیں	-7140
▁تیری	-7141
▁تدابیر	-7142
▁ارتقا	-7143
پولی	-7144
▁حراست	-7145
▁کوش	-7146
▁گورنمنٹ	-7147
ائرہ	-7148
▁اپنانے	-7149
راط	-7150
▁پوشی	-7151
▁چھین	-7152
اویزی	-7153
▁قصور	-7154
▁جانسن	-7155
▁پھیلانے	-7156
طیل	-7157
لاگ	-7158
▁نثار	-7159
▁تیرہ	-7160
۳۷	-7161
▁اوز	-7162
▁گانوں	-7163
ثنی	-7164
▁مثالوں	-7165
▁سیالکوٹ	-7166
▁میلے	-7167
▁بیلٹ	-7168
▁نوائے	-7169
ٹیکس	-7170
▁سائٹس	-7171
▁متغیر	-7172
▁نسلوں	-7173
▁بوس	-7174
▁نمائندے	-7175
▁بستر	-7176
▁جوئے	-7177
وجن	-7178
▁درخواستیں	-7179
اوت	-7180
▁چالیس	-7181
▁تندر	-7182
لیئرز	-7183
▁فرینڈ	-7184
▁ورکنگ	-7185
▁کالم	-7186
سکی	-7187
فاقی	-7188
▁ٹاسک	-7189
ولز	-7190
▁مدار	-7191
سبین	-7192
▁بلیو	-7193
▁مرغی	-7194
حمد	-7195
ازاں	-7196
▁شوز	-7197
▁بیٹسمینوں	-7198
▁کارب	-7199
▁مرنے	-7200
▁نوکری	-7201
▁پرورش	-7202
زیب	-7203
▁جرمانے	-7204
▁زوال	-7205
▁سودوں	-7206
▁فرش	-7207
▁مقبوضہ	-7208
▁مویشی	-7209
▁کینگروز	-7210
▁پابندیوں	-7211
▁اوم	-7212
▁الق	-7213
▁شفا	-7214
▁۵۹	-7215
▁سرکار	-7216
▁جری	-7217
▁راضی	-7218
▁اثاثوں	-7219
▁میشا	-7220
▁کاٹن	-7221
▁علیحدہ	-7222
نجر	-7223
▁پہاڑی	-7224
▁عطیہ	-7225
▁پہاڑ	-7226
▁اسلحہ	-7227
▁دفاتر	-7228
▁ژ	-7229
پک	-7230
▁بیو	-7231
▁فنی	-7232
پش	-7233
▁کیون	-7234
▁آلے	-7235
▁لف	-7236
▁شہد	-7237
▁الجھ	-7238
▁ظہیر	-7239
وکر	-7240
▁مارے	-7241
▁سبزیاں	-7242
▁ساتھ۔	-7243
نیشنل	-7244
▁اناج	-7245
▁پڑوسی	-7246
▁قرن	-7247
▁اوہ	-7248
▁میکان	-7249
▁نیلے	-7250
▁ہلکی	-7251
▁سنٹرل	-7252
▁جہانگیر	-7253
▁فیو	-7254
▁بتانے	-7255
▁کیویز	-7256
▁راف	-7257
▁دلانے	-7258
▁ٹیکساس	-7259
▁باق	-7260
▁خودکار	-7261
گیاں	-7262
▁مکر	-7263
▁Bol	-7264
ri	-7265
▁سپین	-7266
▁پولیو	-7267
▁حفظ	-7268
▁تھانہ	-7269
▁نگ	-7270
▁دھوپ	-7271
▁ہندی	-7272
▁برٹ	-7273
▁سیٹلائٹ	-7274
▁اکانٹس	-7275
▁کیمرا	-7276
▁دستاویزی	-7277
▁دھن	-7278
▁اولین	-7279
▁واٹسن	-7280
▁تلے	-7281
▁فضا	-7282
▁مماث	-7283
ءمیں	-7284
▁کورسز	-7285
▁وہیل	-7286
▁آسٹریل	-7287
▁راستوں	-7288
▁ماڈی	-7289
اض	-7290
▁بقیہ	-7291
▁باسکٹ	-7292
اوورز	-7293
▁پیاز	-7294
تفصیلات	-7295
▁روابط	-7296
▁بانڈز	-7297
▁۶۷	-7298
▁رڈر	-7299
▁تارک	-7300
▁سرح	-7301
ستا	-7302
▁پسندوں	-7303
▁بیگم	-7304
چن	-7305
▁لاگ	-7306
▁صاب	-7307
▁قطع	-7308
▁انڈونیشیا	-7309
سکتے	-7310
▁برتن	-7311
▁ریکارڈنگ	-7312
wor	-7313
▁سیلفی	-7314
▁کشیدگی	-7315
▁ڈھائی	-7316
▁بارسلونا	-7317
▁اصغر	-7318
▁سانپ	-7319
▁نکالا	-7320
▁دوائیں	-7321
▁دستبر	-7322
▁ہولڈر	-7323
▁مضح	-7324
▁ایبٹ	-7325
▁واش	-7326
▁منط	-7327
▁کرایہ	-7328
▁مضحکہ	-7329
ظہ	-7330
▁ہےس	-7331
▁تیرے	-7332
▁سرٹیفکیٹ	-7333
▁مطابقت	-7334
▁بھیڑ	-7335
مول	-7336
▁ترجم	-7337
▁دھواں	-7338
▁درامدات	-7339
▁۰۲	-7340
▁سپاٹ	-7341
▁منصور	-7342
▁دعوے	-7343
▁آگاہی	-7344
pp	-7345
▁سیدھے	-7346
▁اونچی	-7347
▁ریت	-7348
▁اعانت	-7349
▁مووی	-7350
▁الس	-7351
▁شکیل	-7352
▁بیورو	-7353
▁عبد	-7354
▁ریٹائرڈ	-7355
▁ذرا	-7356
تہ	-7357
▁سجاد	-7358
▁ممبئیاردو	-7359
▁منج	-7360
▁ضیا	-7361
صوبائی	-7362
▁پڑا۔	-7363
▁بحریہ	-7364
▁کیپٹن	-7365
▁غصہ	-7366
▁مستحق	-7367
▁ٹکرا	-7368
▁فوکس	-7369
▁الج	-7370
▁کوئلے	-7371
امیے	-7372
▁مخلوق	-7373
▁سرکٹ	-7374
▁قدیمہ	-7375
▁ہلاکت	-7376
▁ہول	-7377
▁بیش	-7378
▁دریں	-7379
▁ڈریس	-7380
▁چاک	-7381
▁ٹنڈولکر	-7382
▁نیلامی	-7383
▁ترتی	-7384
▁تیزاب	-7385
▁ڈھانچہ	-7386
▁ترکیب	-7387
وگ	-7388
▁گراؤنڈ	-7389
▁پانچواں	-7390
▁کلام	-7391
▁سنگاپور	-7392
پہلے	-7393
▁۷۶	-7394
▁اتحادی	-7395
▁گٹ	-7396
▁ترسیلات	-7397
▁بارشوں	-7398
▁نقد	-7399
▁کریک	-7400
▁بحری	-7401
▁تشری	-7402
▁تنقیدی	-7403
▁متنازعہ	-7404
▁بشیر	-7405
▁حراستی	-7406
وکی	-7407
▁انگوٹ	-7408
▁ذمے	-7409
کووچ	-7410
ڑہ	-7411
▁درستگی	-7412
▁تعمیل	-7413
▁بدلے	-7414
▁ترجیحات	-7415
▁کنندگان	-7416
▁بہادر	-7417
▁مےں	-7418
وایا	-7419
▁ناردرن	-7420
▁غازی	-7421
▁میلہ	-7422
▁آئینی	-7423
▁کمپی	-7424
▁رجحانات	-7425
▁پیشاب	-7426
▁سوئٹ	-7427
▁چہ	-7428
▁۶۸	-7429
▁جاؤ	-7430
▁تھرو	-7431
▁ازم	-7432
▁فہمی	-7433
حقی	-7434
کیب	-7435
▁زمانہ	-7436
▁لیبر	-7437
الر	-7438
▁۷۴	-7439
▁افضل	-7440
▁محت	-7441
▁پیکج	-7442
لیٹس	-7443
▁ہےم	-7444
▁کنندہ	-7445
▁افیسر	-7446
باق	-7447
وانے	-7448
اہاہ	-7449
▁گھٹنے	-7450
▁بھی۔	-7451
▁میانداد	-7452
▁ٹوئی	-7453
انگی	-7454
▁انعامی	-7455
▁لگیں	-7456
▁تابکاری	-7457
▁ریسلنگ	-7458
نبی	-7459
▁پردہ	-7460
▁کانسی	-7461
▁امریکیوں	-7462
▁شاہر	-7463
▁نرمی	-7464
▁پریشن	-7465
▁میتھ	-7466
▁خوشحالی	-7467
▁مشینری	-7468
▁رفیق	-7469
▁معذور	-7470
▁حکمران	-7471
▁سردیوں	-7472
▁یس	-7473
▁مریخ	-7474
▁پوٹ	-7475
▁حسی	-7476
▁پر۔	-7477
work	-7478
ڈان	-7479
▁عاش	-7480
▁کسٹمز	-7481
▁ونگ	-7482
▁بوتل	-7483
اختیار	-7484
▁ناخ	-7485
▁حادثہ	-7486
▁بولٹ	-7487
▁سینک	-7488
▁روزنامہ	-7489
▁مجوزہ	-7490
▁موسمی	-7491
▁ڈیزائنر	-7492
وسس	-7493
▁برسبین	-7494
▁پاؤں	-7495
▁ریجنل	-7496
▁چھلانگ	-7497
▁ایڈون	-7498
▁پریم	-7499
▁ٹکڑوں	-7500
▁آنا	-7501
▁نسخ	-7502
▁انڈسٹریل	-7503
▁عادات	-7504
▁اکن	-7505
▁قیصر	-7506
▁حام	-7507
▁چھی	-7508
▁ابی	-7509
▁مغل	-7510
▁تارکین	-7511
افہ	-7512
▁انٹیلی	-7513
▁ایوب	-7514
▁رحمان	-7515
▁چھاتی	-7516
تن	-7517
▁کیوی	-7518
▁بدستور	-7519
▁انیل	-7520
▁رانی	-7521
▁مرو	-7522
▁البم	-7523
▁رخص	-7524
▁چاہیئے	-7525
▁سح	-7526
▁Net	-7527
▁نیپرا	-7528
▁ناظ	-7529
▁سنجیدگی	-7530
▁اینڈرائیڈ	-7531
▁ارتھر	-7532
▁ملنا	-7533
▁تقرری	-7534
لیے	-7535
ph	-7536
▁اسکو	-7537
▁سلطنت	-7538
ائزنگ	-7539
▁گپ	-7540
▁کرنل	-7541
▁نامزدگی	-7542
▁منصف	-7543
▁جنون	-7544
▁مکہ	-7545
▁اشتہارات	-7546
▁جوہ	-7547
▁ھو	-7548
▁پچھلی	-7549
▁ماری	-7550
▁پیلے	-7551
▁ہجر	-7552
▁بروز	-7553
▁کرائم	-7554
▁Network	-7555
▁Neo	-7556
▁قدرے	-7557
▁آرک	-7558
▁خوفزدہ	-7559
▁مزہ	-7560
▁بورڈز	-7561
عدم	-7562
▁قلم	-7563
▁فرن	-7564
▁تان	-7565
▁نعمان	-7566
▁گورننگ	-7567
▁ساؤ	-7568
▁پاؤنڈ	-7569
▁تاثرات	-7570
پاک	-7571
ادق	-7572
!"	-7573
بہت	-7574
اء	-7575
▁گج	-7576
پنگ	-7577
ودھا	-7578
ذیب	-7579
ایل	-7580
اچ	-7581
▁کاج	-7582
▁پگھ	-7583
اہرین	-7584
▁کلید	-7585
▁لڑکوں	-7586
▁کنٹینر	-7587
▁سمری	-7588
ایوں	-7589
▁پہنچیں	-7590
▁app	-7591
▁نڈال	-7592
یافت	-7593
▁لوئس	-7594
▁۷۷	-7595
▁نری	-7596
گنائزیشن	-7597
▁آکسائیڈ	-7598
سمس	-7599
▁منگنی	-7600
▁ٹا	-7601
▁میزائل	-7602
رزاق	-7603
لائن	-7604
▁news	-7605
▁شروعات	-7606
▁دیکھو	-7607
▁جنت	-7608
▁مختار	-7609
▁کٹو	-7610
▁ہےفلم	-7611
ضع	-7612
▁ٹاور	-7613
مری	-7614
▁سینے	-7615
▁کروائے	-7616
▁سار	-7617
▁صدیوں	-7618
▁عسک	-7619
آباد	-7620
ڑنے	-7621
▁انٹربینک	-7622
▁ڈالتے	-7623
ارہے	-7624
▁ڈن	-7625
مخت	-7626
▁سوچتے	-7627
▁سٹریلین	-7628
▁حاضر	-7629
خو	-7630
▁ملاحظہ	-7631
▁مطالبات	-7632
ستے	-7633
گرافی	-7634
تھک	-7635
▁بذریعہ	-7636
▁کنس	-7637
▁جونز	-7638
۲۲	-7639
▁سرم	-7640
▁ریفرنس	-7641
اداری	-7642
رلینڈ	-7643
سٹین	-7644
▁خلل	-7645
▁کمانے	-7646
▁ینگ	-7647
▁سیب	-7648
▁امتیا	-7649
▁تائید	-7650
▁ساختہ	-7651
▁اسباق	-7652
▁ہیںیہ	-7653
▁مکس	-7654
▁وعد	-7655
▁فلٹر	-7656
▁تندرستی	-7657
جرز	-7658
▁عبوری	-7659
▁سمجھے	-7660
▁راونڈ	-7661
▁سز	-7662
دوس	-7663
▁سجا	-7664
▁جواز	-7665
▁ناظرین	-7666
امدی	-7667
▁کلیم	-7668
▁نازک	-7669
اتار	-7670
▁ایمرجنسی	-7671
▁ملہ	-7672
▁نجکاری	-7673
▁مثالیں	-7674
▁پروڈکٹ	-7675
نٹری	-7676
▁ڈومین	-7677
▁بناء	-7678
▁پروگرامنگ	-7679
▁پان	-7680
▁نغ	-7681
▁....	-7682
▁تعطیل	-7683
▁ہائیڈروجن	-7684
▁بولا	-7685
▁ایڈجسٹمنٹ	-7686
▁برانچ	-7687
▁لگتی	-7688
▁حادثات	-7689
▁نال	-7690
▁لیاقت	-7691
▁پوسٹر	-7692
ائزڈ	-7693
▁ٹیکسوں	-7694
▁ہین	-7695
▁استحصال	-7696
▁جھٹ	-7697
▁تعصب	-7698
▁شامی	-7699
▁کاشف	-7700
▁سنیل	-7701
▁بلیوں	-7702
۲۳	-7703
ٹیبل	-7704
▁روایات	-7705
ڈیل	-7706
▁ہواوے	-7707
▁ہوجائے	-7708
▁دیکھتا	-7709
▁جغرافیائی	-7710
▁کولمبیا	-7711
سنگ	-7712
▁کھلانے	-7713
▁کوکی	-7714
ینٹی	-7715
▁فہد	-7716
▁دستی	-7717
▁بادل	-7718
امید	-7719
▁کلارک	-7720
▁کینٹ	-7721
▁سٹیج	-7722
▁ہونیوالے	-7723
ومیہ	-7724
▁پتی	-7725
▁کیوب	-7726
▁زادی	-7727
▁مرتضی	-7728
▁مکین	-7729
▁اسپیکر	-7730
سوب	-7731
▁پروڈیوس	-7732
▁سازوں	-7733
اتھن	-7734
▁نادر	-7735
▁کوری	-7736
▁سنڈروم	-7737
ائمہ	-7738
▁تمہارے	-7739
▁۶۱	-7740
▁اداکاراں	-7741
▁فلوری	-7742
▁آغاز	-7743
ھان	-7744
▁۷۸	-7745
▁جہازوں	-7746
▁فاٹا	-7747
▁سیاحوں	-7748
▁ڈرائنگ	-7749
▁سوم	-7750
▁ڈاکٹرز	-7751
▁دائرے	-7752
▁بااختیار	-7753
۲۱	-7754
▁فکشن	-7755
▁خورد	-7756
▁اسپیشل	-7757
▁بشری	-7758
▁حاملہ	-7759
▁ڈسک	-7760
▁فارمی	-7761
▁ڈرائیو	-7762
دھا	-7763
▁کنڈیشنز	-7764
▁سطحوں	-7765
▁تنزلی	-7766
▁AR	-7767
▁اٹھائیں	-7768
▁بھوری	-7769
ٹز	-7770
اہری	-7771
خبری	-7772
▁چوب	-7773
▁آسمان	-7774
▁لانگ	-7775
▁ویز	-7776
▁پوشیدہ	-7777
▁چون	-7778
▁دلائی	-7779
▁دھول	-7780
▁گڑ	-7781
▁سپیشل	-7782
▁مورگن	-7783
▁اراضی	-7784
▁شکریہ	-7785
▁۰۳	-7786
▁مشروبات	-7787
ملک	-7788
▁آبی	-7789
▁حلف	-7790
▁جمہوری	-7791
▁گھبر	-7792
▁امتیازی	-7793
ڈیٹ	-7794
▁ازاد	-7795
▁پہنے	-7796
▁منائی	-7797
ٹلر	-7798
▁حامد	-7799
▁ڈینی	-7800
▁تجرباتی	-7801
▁ٹائر	-7802
▁صادق	-7803
▁,	-7804
▁واچ	-7805
▁تھیم	-7806
▁سند	-7807
▁مشروط	-7808
سکو	-7809
▁سمتھ	-7810
سٹا	-7811
صوم	-7812
▁نیازی	-7813
▁غلطیاں	-7814
ٰی	-7815
▁چکن	-7816
▁شبیہ	-7817
Dunya	-7818
▁آف	-7819
▁غیرملکی	-7820
▁سرگ	-7821
▁ایڈیشنل	-7822
▁پائیں	-7823
▁انسپ	-7824
▁فٹبالر	-7825
▁درخواستوں	-7826
inde	-7827
▁چلتی	-7828
▁تدری	-7829
ئنگ	-7830
گرو	-7831
▁گوتم	-7832
▁غف	-7833
▁زبیر	-7834
▁منصفانہ	-7835
ذکر	-7836
▁قاتل	-7837
▁اینڈی	-7838
▁کہانیوں	-7839
انگلینڈ	-7840
▁سائٹوں	-7841
وسیم	-7842
▁یاب	-7843
گول	-7844
▁یومیہ	-7845
ڈے	-7846
▁کاوش	-7847
▁یادداشت	-7848
index	-7849
▁خواہشمند	-7850
ظمین	-7851
▁ناگوار	-7852
▁کیلوری	-7853
▁ٹرانسمیشن	-7854
▁پاگل	-7855
▁رسوخ	-7856
tv	-7857
▁عیسائی	-7858
▁تیمور	-7859
▁طیارہ	-7860
▁پاسپورٹ	-7861
انجام	-7862
پاشی	-7863
php	-7864
▁بھرے	-7865
nyan	-7866
nyanews	-7867
▁جوئی	-7868
▁ایشوریا	-7869
dunyanews	-7870
▁ویلی	-7871
▁صلاح	-7872
▁۷۳	-7873
▁اپریشن	-7874
▁آئن	-7875
قدر	-7876
▁کارپوریٹ	-7877
کارا	-7878
سکتی	-7879
▁میڈیم	-7880
▁خوشخبری	-7881
▁ارمی	-7882
▁قیاس	-7883
▁یونٹس	-7884
▁صفحے	-7885
▁شنگ	-7886
نیٹ	-7887
ندو	-7888
▁دھڑ	-7889
▁بیجوں	-7890
▁کیش	-7891
▁اعلامیے	-7892
▁وسعت	-7893
ہیں	-7894
▁عند	-7895
الوی	-7896
▁آصف	-7897
لاک	-7898
▁دلیل	-7899
▁ڈالے	-7900
▁لاتے	-7901
نگٹن	-7902
▁مکئی	-7903
▁جوتے	-7904
▁ہتھیاروں	-7905
تالیس	-7906
یا۔	-7907
▁سٹو	-7908
▁سٹریٹ	-7909
▁جگ	-7910
▁میڈلز	-7911
سیف	-7912
پارٹی	-7913
ثیم	-7914
▁امیج	-7915
▁کارٹ	-7916
▁بازیافت	-7917
▁کامل	-7918
▁برہ	-7919
▁لب	-7920
▁عباد	-7921
▁ضابطہ	-7922
▁ہمایوں	-7923
▁ساجد	-7924
زرلینڈ	-7925
دھی	-7926
دنیا	-7927
▁واج	-7928
▁افراط	-7929
▁پُر	-7930
ریدی	-7931
▁تحقیقاتی	-7932
▁جارہے	-7933
▁سرانجام	-7934
▁مومن	-7935
▁گروپس	-7936
▁کیے۔	-7937
▁بنالی	-7938
▁منڈیوں	-7939
▁t	-7940
▁ایڈونچر	-7941
▁گلوکاری	-7942
پین	-7943
▁یکجہتی	-7944
▁لکھتے	-7945
▁تہوار	-7946
▁ساد	-7947
▁بلد	-7948
▁جریدے	-7949
یادہ	-7950
▁سینکڑوں	-7951
▁۱۲۰	-7952
▁ہونگی	-7953
رفی	-7954
کپتان	-7955
▁کما	-7956
▁چنا	-7957
▁نکلا	-7958
▁بون	-7959
▁بہاول	-7960
انیے	-7961
▁سجل	-7962
▁حنیف	-7963
▁الکحل	-7964
▁خصوصا	-7965
▁ڈول	-7966
سرٹ	-7967
▁تنہائی	-7968
▁مچا	-7969
▁انجمن	-7970
▁شہریت	-7971
▁ریک	-7972
▁ہجرت	-7973
▁ہاشمی	-7974
۲۸	-7975
▁کث	-7976
تق	-7977
لنے	-7978
▁ساکھ	-7979
▁کیمسٹری	-7980
▁خلیل	-7981
▁نعرے	-7982
▁جوڈی	-7983
▁بنگلادیش	-7984
▁داخلے	-7985
▁طرفہ	-7986
▁اسٹوری	-7987
▁ڈیوس	-7988
▁منجمد	-7989
▁اسپیڈ	-7990
▁جائزے	-7991
▁محی	-7992
▁سیکڑوں	-7993
▁الرجی	-7994
▁اعلامیہ	-7995
▁غرض	-7996
▁سیفٹی	-7997
▁بڑھے	-7998
نیچر	-7999
▁دہر	-8000
▁سلیکٹرز	-8001
سٹار	-8002
▁راکٹ	-8003
▁وفاق	-8004
▁لیٹ	-8005
▁کولکت	-8006
▁کھانوں	-8007
▁پٹی	-8008
▁اسکریننگ	-8009
▁رابرٹ	-8010
▁بوٹیوں	-8011
▁بارڈر	-8012
▁ئرلینڈ	-8013
سیا	-8014
▁ذی	-8015
▁پینٹنگ	-8016
۱۰۰	-8017
بیس	-8018
▁کریز	-8019
▁فنڈنگ	-8020
وٹکس	-8021
▁سٹیشن	-8022
▁وقفہ	-8023
▁جایا	-8024
▁ٹی۲۰	-8025
قوف	-8026
▁سرمائے	-8027
▁سترہ	-8028
▁ریسکیو	-8029
پنے	-8030
▁عیسی	-8031
▁گرلز	-8032
▁تبادلے	-8033
▁سچن	-8034
▁کلاسیکی	-8035
▁تہذیب	-8036
▁رضاکار	-8037
▁سیمین	-8038
▁پرائمری	-8039
نسو	-8040
▁جراثیم	-8041
لگ	-8042
▁مزدور	-8043
▁ٹرسٹ	-8044
▁ازد	-8045
ڈیلی	-8046
آر	-8047
▁ٹیسٹنگ	-8048
▁باولر	-8049
▁دلائل	-8050
▁بھج	-8051
▁چوکے	-8052
▁کرسمس	-8053
▁ٹکڑا	-8054
▁چانس	-8055
▁منسوب	-8056
▁کالعدم	-8057
▁سنسر	-8058
▁کرسکتے	-8059
عمران	-8060
▁لائنوں	-8061
▁ڈٹ	-8062
▁کنکشن	-8063
▁معصوم	-8064
▁ضابط	-8065
▁گناہ	-8066
▁تھرمل	-8067
▁نزد	-8068
▁عملیوں	-8069
طری	-8070
چیئر	-8071
ڑکی	-8072
▁انہی	-8073
▁نکلے	-8074
▁ایان	-8075
▁فلسطین	-8076
▁بیٹھا	-8077
▁ماف	-8078
وو	-8079
▁مینوفیکچررز	-8080
▁سستے	-8081
ائمر	-8082
▁آئ	-8083
▁بھرتی	-8084
روسہ	-8085
▁۰۴	-8086
▁شکیب	-8087
▁حمید	-8088
▁مارجن	-8089
▁ترتیبات	-8090
▁راب	-8091
▁ٹیرف	-8092
▁ٹارگٹ	-8093
▁لائٹس	-8094
▁پرنٹنگ	-8095
▁سمجھوت	-8096
▁پیرو	-8097
▁ساحلی	-8098
سان	-8099
▁لینس	-8100
پولیس	-8101
▁تصادم	-8102
▁مڈ	-8103
▁امدنی	-8104
رپورٹ	-8105
▁منتظمین	-8106
چرل	-8107
▁باولنگ	-8108
ویض	-8109
۲۷	-8110
▁دارانہ	-8111
▁نصیب	-8112
▁زندگیوں	-8113
▁اسکینڈل	-8114
▁۸۴	-8115
▁فلوریڈا	-8116
▁جوڑا	-8117
▁استدلال	-8118
▁پڑتی	-8119
▁بتانا	-8120
▁جذبہ	-8121
▁ارجن	-8122
▁اسانی	-8123
▁محبوب	-8124
▁کانٹی	-8125
اداکار	-8126
▁ہوش	-8127
ہمارے	-8128
جہاں	-8129
▁تکنیکوں	-8130
▁میگ	-8131
▁کھیتوں	-8132
میڈیا	-8133
سلا	-8134
▁کرنٹ	-8135
کچھ	-8136
▁لبن	-8137
▁قاصر	-8138
▁میوزیکل	-8139
▁آبائی	-8140
▁روانگی	-8141
▁درجنوں	-8142
▁الیاس	-8143
▁فیض	-8144
▁زہریلا	-8145
▁شنواری	-8146
ریج	-8147
▁پلاننگ	-8148
▁بھرنے	-8149
▁رضامندی	-8150
▁بعدازاں	-8151
▁لیئے	-8152
▁بوائز	-8153
سٹل	-8154
▁جوکووچ	-8155
....	-8156
▁بائبل	-8157
▁تاثیر	-8158
▁۸۸	-8159
▁۶۹	-8160
▁کولیس	-8161
▁ظاہری	-8162
زئی	-8163
مک	-8164
▁ذات	-8165
▁اعوان	-8166
▁رہی۔	-8167
▁بائولنگ	-8168
الح	-8169
ستگی	-8170
▁۰۱	-8171
▁ادائیگیوں	-8172
▁۸۶	-8173
▁ادبی	-8174
▁بوڑھے	-8175
▁لیزر	-8176
▁مضبوطی	-8177
▁تفویض	-8178
er	-8179
▁دوائی	-8180
▁ٹیکسی	-8181
▁اتے	-8182
▁لاطینی	-8183
▁ویزا	-8184
دما	-8185
▁مدینہ	-8186
▁محصول	-8187
▁انک	-8188
▁فیڈرر	-8189
▁ہےواضح	-8190
▁کیسا	-8191
دیپ	-8192
▁فائنلز	-8193
▁گریج	-8194
▁متنازع	-8195
▁سرگودھا	-8196
▁اگیا	-8197
▁آزادانہ	-8198
▁طیاروں	-8199
کٹرز	-8200
▁اوپ	-8201
▁اوپنرز	-8202
▁انتباہ	-8203
▁سکندر	-8204
انھوں	-8205
▁سرنگ	-8206
مرات	-8207
▁مسکراہٹ	-8208
▁نیت	-8209
▁متحد	-8210
▁رحمت	-8211
▁گولڈن	-8212
▁انوکھی	-8213
▁ایڈیلیڈ	-8214
▁نہوں	-8215
▁دیواروں	-8216
▁کمانڈر	-8217
لئے	-8218
▁تالاب	-8219
▁ترجیحی	-8220
▁اولاد	-8221
▁ٹیومر	-8222
▁داریوں	-8223
▁ٹکٹوں	-8224
رادف	-8225
▁بیسٹ	-8226
▁رحم	-8227
▁پروف	-8228
▁فت	-8229
▁مجموع	-8230
▁المبارک	-8231
▁پچیس	-8232
▁بچایا	-8233
باحث	-8234
▁کیئر	-8235
▁آرٹیکل	-8236
▁بلایا	-8237
▁پیرزادہ	-8238
لیٹی	-8239
عزیز	-8240
▁صدمے	-8241
ولوجیکل	-8242
▁بدع	-8243
▁گردے	-8244
▁بدر	-8245
▁جنھیں	-8246
▁سکھر	-8247
▁علامہ	-8248
میگا	-8249
▁دسویں	-8250
▁چارہ	-8251
بجے	-8252
▁موسیقار	-8253
ؤ	-8254
اکشی	-8255
دائی	-8256
چری	-8257
▁اطالوی	-8258
▁ارسال	-8259
▁وارد	-8260
▁ریٹنگ	-8261
▁اسکیل	-8262
▁مترادف	-8263
برط	-8264
▁اکاونٹ	-8265
▁آئے	-8266
▁فرنیچر	-8267
▁عندیہ	-8268
▁ولیمسن	-8269
▁چلو	-8270
▁جذبے	-8271
▁لیور	-8272
▁گڑھ	-8273
▁تحصیل	-8274
▁فطری	-8275
▁اکٹھے	-8276
▁کوریج	-8277
شع	-8278
▁سکاٹ	-8279
▁سمجھوتہ	-8280
▁فریقین	-8281
▁ہج	-8282
ڈاک	-8283
▁خاکہ	-8284
▁پرف	-8285
▁مباحث	-8286
▁بغاوت	-8287
▁لپیٹ	-8288
▁لائیں	-8289
▁کولکتہ	-8290
ماں	-8291
▁کثافت	-8292
▁وفات	-8293
▁پرستاروں	-8294
▁اہلیت	-8295
▁قطار	-8296
▁جیکسن	-8297
▁ہدایتکاری	-8298
▁وینا	-8299
▁ترا	-8300
حقیقت	-8301
تھرا	-8302
▁گھومنے	-8303
قیان	-8304
▁پالیس	-8305
▁مظاہرین	-8306
▁خوان	-8307
▁ہارنے	-8308
▁سبھی	-8309
▁حساسی	-8310
▁سیون	-8311
▁ٹاؤن	-8312
▁نواب	-8313
▁باندھ	-8314
▁ڈھاکہ	-8315
▁نریندر	-8316
▁انٹرایک	-8317
▁چوبیس	-8318
▁وولٹیج	-8319
▁عبدالرح	-8320
▁ونڈو	-8321
اختی	-8322
روسافٹ	-8323
▁عراق	-8324
▁مکھیوں	-8325
دوسرے	-8326
▁جناب	-8327
▁اعصام	-8328
▁ویزے	-8329
گئے	-8330
▁ایوی	-8331
▁تنخواہوں	-8332
▁سرے	-8333
▁بتایاکہ	-8334
▁نوعمر	-8335
اپنی	-8336
▁رسمی	-8337
▁مظہر	-8338
▁توں	-8339
▁رائی	-8340
▁بیٹر	-8341
▁پیٹرسن	-8342
▁الت	-8343
▁پروٹیز	-8344
▁ڈاون	-8345
▁رنا	-8346
▁کاس	-8347
▁انٹرفیس	-8348
فائنل	-8349
▁ٹائون	-8350
گرد	-8351
▁صنم	-8352
▁عرض	-8353
▁بلوں	-8354
▁ہورہی	-8355
▁چارلس	-8356
▁الو	-8357
▁آمین	-8358
▁فالج	-8359
مند	-8360
▁۰۵	-8361
جیئم	-8362
ویٹی	-8363
▁چیر	-8364
▁نمٹ	-8365
سٹریز	-8366
نیپ	-8367
ولے	-8368
▁گینگ	-8369
▁بھروسہ	-8370
▁تاریک	-8371
▁انٹرٹین	-8372
▁سیٹس	-8373
▁ڈرامائی	-8374
▁فلائٹ	-8375
▁اسکواش	-8376
▁عدالتوں	-8377
▁تعدد	-8378
▁ولا	-8379
▁آنتوں	-8380
عامر	-8381
▁۰۶	-8382
▁مقالے	-8383
▁متفق	-8384
لٹن	-8385
▁عبدالرزاق	-8386
▁نوجوانوں	-8387
ٹروجن	-8388
▁گندگی	-8389
▁شناختی	-8390
▁نوز	-8391
▁میٹاب	-8392
▁فنچ	-8393
▁تدریسی	-8394
▁ہوشی	-8395
▁بازیابی	-8396
▁عربی	-8397
▁معذوری	-8398
وائے	-8399
▁حساسیت	-8400
▁سواری	-8401
برٹ	-8402
▁""""	-8403
▁وسلم	-8404
▁حب	-8405
▁ڈائریکٹرز	-8406
▁اوب	-8407
▁اندازی	-8408
▁روکتا	-8409
▁اجے	-8410
▁پڑھا	-8411
پتہ	-8412
▁جملہ	-8413
▁خاک	-8414
▁واں	-8415
وکری	-8416
▁نچلی	-8417
طان	-8418
پلان	-8419
▁میگاواٹ	-8420
▁رخصت	-8421
▁حسنین	-8422
لوس	-8423
▁مہاج	-8424
▁پرتگال	-8425
▁پرن	-8426
▁مسابقتی	-8427
سیل	-8428
▁دروازہ	-8429
زب	-8430
▁موسمیات	-8431
▁تھکاوٹ	-8432
▁ئوٹ	-8433
▁عمرہ	-8434
▁عظم	-8435
▁لی۔	-8436
▁شفقت	-8437
▁معالجے	-8438
▁باداردو	-8439
▁ڈائ	-8440
▁میئر	-8441
ائیس	-8442
▁اعتدال	-8443
▁وحید	-8444
ائیڈن	-8445
وانی	-8446
▁ہیرا	-8447
▁حرک	-8448
کیٹس	-8449
▁۰۷	-8450
▁قادر	-8451
▁امتحانات	-8452
▁زخم	-8453
▁اسٹورز	-8454
پوت	-8455
▁فقدان	-8456
▁ایکسل	-8457
▁رمیز	-8458
کھی	-8459
▁سیکھتے	-8460
▁طبیعت	-8461
▁دہشتگردی	-8462
▁ہونیوالی	-8463
پیر	-8464
قیم	-8465
▁برائن	-8466
▁اسٹیو	-8467
▁رومانوی	-8468
▁تھامس	-8469
؟؟	-8470
▁عص	-8471
▁کولن	-8472
▁تشریح	-8473
▁رضوی	-8474
▁فیول	-8475
▁مہمانوں	-8476
▁اڈے	-8477
▁ٹرمین	-8478
▁دوروں	-8479
اتھا	-8480
▁گونج	-8481
واس	-8482
▁کوالیفائنگ	-8483
▁نوا	-8484
▁۷۱	-8485
▁خامی	-8486
▁۸۳	-8487
▁دیہ	-8488
▁سوز	-8489
▁ایلی	-8490
▁رونما	-8491
▁جڑے	-8492
▁تمہاری	-8493
▁سراغ	-8494
▁بیئر	-8495
▁چوہوں	-8496
کھوں	-8497
▁عاشق	-8498
▁بیری	-8499
▁ایشز	-8500
▁کھج	-8501
▁استدعا	-8502
▁دخ	-8503
▁امپائرز	-8504
▁خیا	-8505
▁طر	-8506
▁سحر	-8507
▁نصر	-8508
▁وں	-8509
▁چیمہ	-8510
سوں	-8511
▁بالخصوص	-8512
▁لکی	-8513
▁کنبے	-8514
▁لکھنا	-8515
▁فیورٹ	-8516
ویشن	-8517
نہیں	-8518
▁ادی	-8519
▁دکھائیں	-8520
▁منقولہ	-8521
▁کوائن	-8522
زانہ	-8523
▁گور	-8524
▁ناگز	-8525
طینہ	-8526
▁اوول	-8527
▁لغ	-8528
▁۲۵۰	-8529
▁جموں	-8530
▁بلندیوں	-8531
▁ریسٹ	-8532
▁خٹک	-8533
▁لیو	-8534
▁گلابی	-8535
▁ود	-8536
▁چارٹ	-8537
▁ہنگامہ	-8538
▁باشندوں	-8539
▁خزاں	-8540
▁نیورو	-8541
▁سوئچ	-8542
▁آڈیو	-8543
▁برے	-8544
▁کوشاں	-8545
صن	-8546
▁زمرے	-8547
▁دلہن	-8548
▁اورنگ	-8549
▁ہرن	-8550
منگھم	-8551
▁چاہنے	-8552
▁چیخ	-8553
▁روپی	-8554
▁گمب	-8555
▁کیمپس	-8556
▁پروسی	-8557
▁پوچھے	-8558
▁ایڈوان	-8559
▁انڈسٹریز	-8560
▁میونسپ	-8561
▁شاپنگ	-8562
▁حاضری	-8563
▁سالی	-8564
▁ہلکا	-8565
▁سوان	-8566
▁کڑی	-8567
▁بھڑک	-8568
▁۰۸	-8569
ھوری	-8570
سانی	-8571
▁۹۶	-8572
▁۸۷	-8573
▁لگاتار	-8574
▁شبیہہ	-8575
وائن	-8576
▁بازاروں	-8577
▁دوری	-8578
▁انگلی	-8579
▁رینجرز	-8580
مارک	-8581
▁ناگزیر	-8582
▁پدما	-8583
▁صحرا	-8584
▁بہاولپور	-8585
▁روکنا	-8586
▁آنسو	-8587
▁جینی	-8588
▁سٹیل	-8589
▁چئیر	-8590
▁پیارے	-8591
شانت	-8592
▁ہارٹ	-8593
▁کروز	-8594
▁پابندیاں	-8595
▁اسٹینڈ	-8596
▁گجرات	-8597
▁گاہوں	-8598
▁سینا	-8599
▁ڈیڈ	-8600
▁ایلن	-8601
▁کرش	-8602
▁ناپس	-8603
▁گرے	-8604
▁اتا	-8605
▁پریرا	-8606
ھو	-8607
▁انٹرایکٹو	-8608
▁ویت	-8609
یعنی	-8610
▁غزل	-8611
▁ورکشاپ	-8612
▁قرآن	-8613
▁نگری	-8614
▁ورکرز	-8615
▁اسٹیشنز	-8616
▁شنگھائی	-8617
▁مہارتوں	-8618
▁کولیسٹرول	-8619
▁علامتوں	-8620
لکہ	-8621
▁نیشن	-8622
▁لڑکیاں	-8623
کارہ	-8624
▁وغیرہ۔	-8625
▁ذہین	-8626
▁کروم	-8627
▁ہاتھی	-8628
▁۷۹	-8629
▁برن	-8630
▁ثاقب	-8631
▁پرتھ	-8632
▁طالبات	-8633
▁کویت	-8634
▁بانٹ	-8635
امان	-8636
کوئی	-8637
▁پکڑنے	-8638
▁ہورہا	-8639
▁واجبات	-8640
▁گھوڑے	-8641
▁میرٹ	-8642
▁رافیل	-8643
▁پہنا	-8644
▁رحیم	-8645
▁چارجنگ	-8646
▁فائز	-8647
ؤڈ	-8648
▁سانگ	-8649
▁کنون	-8650
▁کاپٹر	-8651
▁پھٹ	-8652
▁نوآباد	-8653
▁کھر	-8654
▁جڑوں	-8655
▁اثاثہ	-8656
▁خلیات	-8657
▁گڈ	-8658
▁مزاحم	-8659
▁پولینڈ	-8660
راز	-8661
▁اصلی	-8662
▁۹۸	-8663
▁قون	-8664
ارج	-8665
▁ماسکو	-8666
▁اوری	-8667
▁مظاہرے	-8668
▁زیورات	-8669
▁۰۹	-8670
▁چیمپیئنز	-8671
▁باغات	-8672
▁پہاڑوں	-8673
▁سوئٹزرلینڈ	-8674
▁ڈیری	-8675
▁انصاری	-8676
۲۹	-8677
الین	-8678
▁قاضی	-8679
▁کےلئے	-8680
▁جلسے	-8681
▁بھلا	-8682
▁نشریات	-8683
▁نزدیک	-8684
▁بخود	-8685
▁پنک	-8686
▁عبادت	-8687
ؤنٹس	-8688
▁پٹیل	-8689
▁خزانے	-8690
▁شکلیں	-8691
▁یسوع	-8692
▁کونے	-8693
▁کرت	-8694
▁وینس	-8695
▁یوا	-8696
ضحی	-8697
▁نیدر	-8698
▁فریک	-8699
▁ذیشان	-8700
▁قرنطینہ	-8701
اباد	-8702
▁پرنسپل	-8703
جائے	-8704
▁اللّ	-8705
▁اونٹ	-8706
▁رازداری	-8707
▁جنری	-8708
▁سیمینار	-8709
▁کیلے	-8710
▁استف	-8711
▁پیرامی	-8712
▁نصیر	-8713
▁کارڈز	-8714
▁گواہ	-8715
▁سوجن	-8716
▁ایگزیکٹیو	-8717
▁چرا	-8718
▁جنھوں	-8719
▁سنت	-8720
▁مرہ	-8721
▁ماؤنٹ	-8722
▁مٹ	-8723
ولو	-8724
▁ندی	-8725
▁لان	-8726
▁سایہ	-8727
رساں	-8728
▁رجب	-8729
۴۰	-8730
▁مکال	-8731
▁تہلکہ	-8732
▁بدنام	-8733
▁جانیں	-8734
▁اکاؤنٹس	-8735
▁تحلیل	-8736
▁تماشائیوں	-8737
▁پکانے	-8738
گرین	-8739
کٹک	-8740
▁اتی	-8741
▁محترم	-8742
▁رعایت	-8743
گریشن	-8744
سٹو	-8745
▁مظفر	-8746
▁فعل	-8747
میرے	-8748
▁بوائے	-8749
▁رائٹر	-8750
ومنٹ	-8751
▁ریزرو	-8752
▁ساختی	-8753
▁فیشل	-8754
▁راجپوت	-8755
▁نائن	-8756
چیف	-8757
▁ہنری	-8758
عمر	-8759
ang	-8760
▁نظریاتی	-8761
▁الط	-8762
▁موسمیاتی	-8763
▁اورم	-8764
▁جاسکے	-8765
▁اترے	-8766
▁اگئی	-8767
▁شائر	-8768
▁لڑکا	-8769
▁پلانٹس	-8770
▁کیمیکلز	-8771
▁شق	-8772
▁گیاس	-8773
▁پھانسی	-8774
لیگ	-8775
▁افرادی	-8776
▁کنسرٹ	-8777
▁یابی	-8778
▁پیپلزپارٹی	-8779
▁ارہی	-8780
▁شیو	-8781
پنج	-8782
سلو	-8783
▁جوڈیشل	-8784
▁زیڈ	-8785
▁۶۰۰	-8786
▁راجر	-8787
ائلی	-8788
▁کرین	-8789
▁پارلیمانی	-8790
▁خلیج	-8791
▁بیٹھنے	-8792
▁بینر	-8793
▁بیلجیئم	-8794
الدین	-8795
▁سپیکر	-8796
▁کمپوز	-8797
▁فیا	-8798
بیل	-8799
▁ازادی	-8800
▁اپس	-8801
▁فرام	-8802
ابھی	-8803
▁گھس	-8804
▁زیرو	-8805
▁اندازے	-8806
▁ائرلینڈ	-8807
▁نقش	-8808
▁گمبھیر	-8809
▁رشی	-8810
فیڈ	-8811
▁ثال	-8812
▁کشمیری	-8813
▁انوکھے	-8814
▁دوم	-8815
▁الہی	-8816
▁گیلے	-8817
▁میدانوں	-8818
پال	-8819
▁کیں۔	-8820
▁کیلشیم	-8821
▁ٹیکنیکل	-8822
▁کرائ	-8823
▁حفظان	-8824
▁کرروپے	-8825
▁گایا	-8826
▁کوم	-8827
▁سوٹ	-8828
برڈ	-8829
▁کامن	-8830
▁ہارمون	-8831
یکن	-8832
ائیدہ	-8833
▁برمنگھم	-8834
▁پروٹ	-8835
▁مدر	-8836
ویسی	-8837
چینی	-8838
▁کررہا	-8839
▁مائیکروسافٹ	-8840
ڑو	-8841
ٰہ	-8842
▁برسی	-8843
ولپمنٹ	-8844
▁کیمروں	-8845
▁لت	-8846
▁ٹیزر	-8847
▁آیا۔	-8848
db	-8849
▁عکسبندی	-8850
▁فزی	-8851
▁مصری	-8852
▁گلوک	-8853
▁لاپتہ	-8854
▁نہی	-8855
▁ہجوم	-8856
▁کینیا	-8857
▁شہن	-8858
▁پہلوان	-8859
زنی	-8860
▁کتا	-8861
▁فارمز	-8862
عفی	-8863
▁کمپیوٹنگ	-8864
علا	-8865
▁خریدا	-8866
▁سورس	-8867
▁کہکش	-8868
▁نظاموں	-8869
▁میلان	-8870
▁پذیرائی	-8871
▁کاک	-8872
▁بروئے	-8873
▁پالیسیاں	-8874
▁جولی	-8875
تیم	-8876
▁فرمایا	-8877
▁لانڈر	-8878
▁ڈھی	-8879
"")	-8880
واگ	-8881
▁نازی	-8882
▁مینو	-8883
بند	-8884
▁دنیائے	-8885
عیات	-8886
▁اسٹون	-8887
▁شہزادی	-8888
▁ترام	-8889
▁بدلنے	-8890
▁کشمی	-8891
▁ایڈریس	-8892
نوانی	-8893
▁سانی	-8894
اشم	-8895
▁اسٹیم	-8896
▁اکنامک	-8897
▁عج	-8898
▁ارٹ	-8899
▁ماننا	-8900
▁گنگ	-8901
جیکٹ	-8902
▁اترنے	-8903
▁مشاہد	-8904
▁بیا	-8905
▁بائیکاٹ	-8906
▁عنوانات	-8907
▁بھیجی	-8908
▁رقبہ	-8909
وفاقی	-8910
▁کیرول	-8911
▁سبسکر	-8912
▁عبدالق	-8913
▁نائی	-8914
▁چلیں	-8915
▁الاس	-8916
▁اراد	-8917
▁عقائد	-8918
مقدم	-8919
▁اری	-8920
▁لیڈی	-8921
▁بحیرہ	-8922
بعد	-8923
▁وضع	-8924
وٹک	-8925
▁آئل	-8926
▁پریٹنگ	-8927
▁بلب	-8928
▁آسٹریلیائی	-8929
▁آتے	-8930
▁محکموں	-8931
▁قائمہ	-8932
▁لکیر	-8933
ویری	-8934
▁براؤ	-8935
▁دھماکہ	-8936
▁سوچنا	-8937
پخت	-8938
▁موم	-8939
▁ہاض	-8940
▁بشکر	-8941
▁ممبئیبالی	-8942
▁سچائی	-8943
▁مویشیوں	-8944
ہروں	-8945
▁دوطرفہ	-8946
▁سائنسدان	-8947
▁راونڈر	-8948
لوار	-8949
▁منع	-8950
گیند	-8951
▁مکینیکل	-8952
▁نوزائیدہ	-8953
▁تجز	-8954
▁آپریٹنگ	-8955
▁پریز	-8956
ڈاکٹر	-8957
▁انجم	-8958
▁فیشلز	-8959
▁مفاہم	-8960
▁کنونشن	-8961
پیگ	-8962
▁ناروے	-8963
▁آسک	-8964
▁برڈ	-8965
▁صدا	-8966
▁آرمی	-8967
▁لانڈرنگ	-8968
▁درہم	-8969
▁حماس	-8970
▁مصد	-8971
▁لوہے	-8972
▁شفافیت	-8973
▁جوکہ	-8974
▁شیئرنگ	-8975
▁آدھے	-8976
▁جوہانس	-8977
▁سرینا	-8978
صرف	-8979
طلی	-8980
پیئن	-8981
▁نشانات	-8982
ٹیننٹ	-8983
▁مائک	-8984
▁پیری	-8985
▁کانوں	-8986
▁۸۹	-8987
▁عادی	-8988
کاس	-8989
▁خاصی	-8990
▁عظمی	-8991
▁سازگار	-8992
▁مارش	-8993
▁مرکبات	-8994
▁ڈیرہ	-8995
▁پسندانہ	-8996
▁نامکمل	-8997
▁اٹیک	-8998
▁صوتی	-8999
روب	-9000
▁خواندگی	-9001
▁اکیس	-9002
▁السلام	-9003
▁انٹرٹینمنٹ	-9004
▁ساہ	-9005
▁وم	-9006
▁بزرگ	-9007
asa	-9008
▁استثنی	-9009
▁رسم	-9010
▁بسم	-9011
▁ملازمتوں	-9012
▁دلو	-9013
▁کھیت	-9014
▁مشقیں	-9015
▁بدعنوانی	-9016
▁۹۷	-9017
▁گولیاں	-9018
▁کرون	-9019
▁فیئر	-9020
▁پرستار	-9021
▁ایجنسیوں	-9022
▁ہاوس	-9023
▁سمجھیں	-9024
▁مضر	-9025
▁جانتی	-9026
▁دکھاتے	-9027
▁مونگ	-9028
▁۹۴	-9029
▁ججز	-9030
▁پیدل	-9031
▁ہائے	-9032
▁دلایا	-9033
▁فلکیات	-9034
▁قائل	-9035
▁چشم	-9036
▁کھڑکی	-9037
▁صنفی	-9038
▁لنکس	-9039
پٹو	-9040
▁مفرو	-9041
▁اشیائے	-9042
▁ناج	-9043
▁مصروفیات	-9044
▁خروش	-9045
▁فہم	-9046
▁ترامیم	-9047
▁انخلا	-9048
▁گزرتے	-9049
▁استفادہ	-9050
▁موہ	-9051
▁کیسی	-9052
▁خبررساں	-9053
▁Jasa	-9054
▁جیب	-9055
▁کرسٹی	-9056
▁Jasarat	-9057
َّ	-9058
افر	-9059
▁میسج	-9060
▁جڑواں	-9061
▁Jang	-9062
نٹن	-9063
ِل	-9064
▁۹۳	-9065
▁ایکسپو	-9066
کمہ	-9067
▁سرکلر	-9068
▁۸۰۰	-9069
▁بہہ	-9070
▁تلخ	-9071
▁گیلانی	-9072
ولیشن	-9073
▁اسمگلنگ	-9074
▁گلوکاروں	-9075
▁آپریشن	-9076
▁رکاوٹیں	-9077
انہیں	-9078
▁طبقہ	-9079
▁ستارہ	-9080
▁سولر	-9081
جل	-9082
شاہد	-9083
▁مجسمہ	-9084
▁نامناسب	-9085
▁گارڈن	-9086
▁ارام	-9087
▁مستعفی	-9088
گلو	-9089
پول	-9090
▁رسک	-9091
▁سنہری	-9092
▁کیپس	-9093
▁تشریف	-9094
▁افسوسناک	-9095
▁کلینک	-9096
▁دھمکیاں	-9097
▁یونان	-9098
▁سلنڈر	-9099
▁برٹش	-9100
▁پرائس	-9101
ائنمنٹ	-9102
▁شہنشاہ	-9103
جاجی	-9104
▁تعزی	-9105
▁سلا	-9106
▁چئیرمین	-9107
▁ڈینگی	-9108
▁مشینوں	-9109
▁شرٹ	-9110
▁لیلا	-9111
▁ادوار	-9112
▁اڑا	-9113
▁اردوپوائنٹ	-9114
▁انقلابی	-9115
نیتی	-9116
▁۸۲	-9117
▁ﷺ	-9118
▁مجید	-9119
▁کوی	-9120
▁پروازوں	-9121
▁مہدی	-9122
▁معطلی	-9123
▁ہڈ	-9124
وتی	-9125
▁پرندے	-9126
▁لع	-9127
▁مطلع	-9128
▁دوگنا	-9129
▁بلاکچین	-9130
▁کشمیریوں	-9131
یہاں	-9132
▁سنہا	-9133
▁برینڈن	-9134
▁ڈیلرز	-9135
▁ہائپر	-9136
چوں	-9137
▁(.	-9138
▁بتائے	-9139
▁دادا	-9140
▁موٹاپا	-9141
▁بندھن	-9142
▁فان	-9143
▁مافیا	-9144
الف	-9145
▁رائیڈ	-9146
▁قیدیوں	-9147
ٹرل	-9148
▁طبیعیات	-9149
▁تجزیے	-9150
▁علیم	-9151
▁شیک	-9152
▁جیواشم	-9153
▁عہدوں	-9154
▁جلانے	-9155
▁پڑسکتی	-9156
▁ترجمانی	-9157
لیسی	-9158
▁یوگا	-9159
▁ماریہ	-9160
▁رسوم	-9161
▁پروجیکٹس	-9162
▁کوا	-9163
▁منصب	-9164
▁حزب	-9165
▁تخم	-9166
▁مائن	-9167
▁چلائی	-9168
▁واردات	-9169
▁سوات	-9170
انوے	-9171
▁انڈوں	-9172
▁اپری	-9173
سٹائل	-9174
▁ہرایا	-9175
زبان	-9176
▁نشستوں	-9177
سیوں	-9178
▁بائولر	-9179
▁نمبروں	-9180
پورہ	-9181
▁انٹم	-9182
▁راہول	-9183
▁بنگلور	-9184
دیہ	-9185
خاص	-9186
▁اسٹریلین	-9187
▁ثانوی	-9188
▁ارو	-9189
▁کارگو	-9190
▁گم	-9191
▁جد	-9192
▁اخلاقیات	-9193
▁پھوٹ	-9194
▁خطوں	-9195
▁ضرب	-9196
▁قبرستان	-9197
ہمیں	-9198
▁ماڈیول	-9199
ڑپ	-9200
▁کبھار	-9201
کوچ	-9202
رواں	-9203
ندوستان	-9204
▁بچاؤ	-9205
▁سنتے	-9206
نیوزی	-9207
▁قدمی	-9208
▁حلقہ	-9209
▁چلایا	-9210
▁باقیات	-9211
▁آن	-9212
▁مینیجر	-9213
نیش	-9214
▁ورثہ	-9215
▁درحقیقت	-9216
کال	-9217
▁الحم	-9218
▁سنچریوں	-9219
صباح	-9220
▁راس	-9221
▁جانبدار	-9222
اذ	-9223
▁اکھ	-9224
▁ایڈیٹر	-9225
▁اسٹریٹجک	-9226
کرن	-9227
فیو	-9228
ینیٹر	-9229
▁انتھ	-9230
▁کانٹے	-9231
▁احتجاجی	-9232
▁الجھن	-9233
▁ابتداء	-9234
▁متضاد	-9235
▁حکمر	-9236
▁ریستور	-9237
▁اولڈ	-9238
▁پرسن	-9239
▁آور	-9240
▁مضمرات	-9241
اجمان	-9242
▁عوار	-9243
وطہ	-9244
نیز	-9245
▁ئند	-9246
▁یمن	-9247
مارکس	-9248
▁پیچیدگیوں	-9249
▁باور	-9250
▁ویگن	-9251
اکارا	-9252
▁سائنسز	-9253
یکسپ	-9254
▁بیرسٹر	-9255
▁ہراس	-9256
اندھی	-9257
▁ڈریسنگ	-9258
▁لیکچر	-9259
شناک	-9260
▁ہارر	-9261
▁بحی	-9262
ٹائی	-9263
▁لہروں	-9264
▁لیفٹیننٹ	-9265
▁روزگاری	-9266
پنجاب	-9267
▁بمب	-9268
▁فلائی	-9269
▁ڈیلیٹ	-9270
▁چالو	-9271
▁دباو	-9272
▁نشریاتی	-9273
▁جاگ	-9274
▁حماد	-9275
▁لبنان	-9276
▁تہائی	-9277
▁نوش	-9278
▁پردے	-9279
وسٹ	-9280
▁حسینہ	-9281
▁کندھے	-9282
الٹ	-9283
▁ارتھ	-9284
▁اندرون	-9285
▁براعظم	-9286
سیک	-9287
▁کالا	-9288
▁عظمت	-9289
▁مجموعے	-9290
مٹ	-9291
▁رقوم	-9292
▁دھڑکن	-9293
▁میموریل	-9294
▁ارے	-9295
▁عوارض	-9296
▁وقاص	-9297
▁رہائشیوں	-9298
▁معالج	-9299
▁فارمولا	-9300
▁بائیس	-9301
غرل	-9302
▁تھااس	-9303
▁رہو	-9304
▁ایئرلائن	-9305
▁ریشم	-9306
▁پیسٹ	-9307
نسٹی	-9308
▁ایکسائز	-9309
▁تقاضوں	-9310
▁صوفی	-9311
▁دیکھا۔	-9312
▁لوگو	-9313
▁پولو	-9314
۳۱	-9315
▁نیلم	-9316
▁کوئین	-9317
▁حنا	-9318
▁الود	-9319
▁مچھر	-9320
▁مائی	-9321
احمد	-9322
▁تھوک	-9323
▁ربڑ	-9324
▁حضرات	-9325
▁چیمپین	-9326
▁بوری	-9327
▁ٹے	-9328
▁رنگا	-9329
▁سپرد	-9330
▁تعالیٰ	-9331
▁جوہانسبرگ	-9332
کریٹ	-9333
▁پشن	-9334
مانیٹرنگ	-9335
▁ضم	-9336
▁رونمائی	-9337
جیت	-9338
▁ایز	-9339
▁بھنگ	-9340
▁بحیثیت	-9341
▁جوس	-9342
▁سانحہ	-9343
▁تشویشناک	-9344
انسر	-9345
▁مخاط	-9346
▁کرسٹل	-9347
▁جتنے	-9348
▁عتی	-9349
▁فراز	-9350
طے	-9351
▁مدثر	-9352
▁کپڑوں	-9353
▁فوق	-9354
▁فیاض	-9355
▁کیفیت	-9356
▁بنگال	-9357
▁ویٹرن	-9358
▁سمیٹ	-9359
▁محفل	-9360
▁جائینگے	-9361
▁گالف	-9362
▁اسٹیون	-9363
▁گیمنگ	-9364
▁ارڈر	-9365
▁ریٹرن	-9366
▁ناجائز	-9367
▁براو	-9368
▁مہینہ	-9369
▁سوناکشی	-9370
▁ڈچ	-9371
مروں	-9372
▁ملاقاتیں	-9373
سرت	-9374
▁پزیر	-9375
▁بتد	-9376
پختون	-9377
▁زکر	-9378
▁ڈیزائنرز	-9379
▁جاسوس	-9380
▁کٹوتی	-9381
بز	-9382
▁معق	-9383
لین	-9384
▁شہادت	-9385
▁نہاد	-9386
وزیرا	-9387
▁پاتے	-9388
▁ٹچ	-9389
▁سوئنگ	-9390
▁درمیانے	-9391
▁۸۱	-9392
گلی	-9393
▁وابستگی	-9394
▁سمر	-9395
خزانہ	-9396
▁فوڈز	-9397
▁افزا	-9398
میچز	-9399
▁نز	-9400
▁لکھیں	-9401
مراہ	-9402
▁محور	-9403
▁موٹی	-9404
▁پلٹ	-9405
▁ریمارکس	-9406
▁مزدوروں	-9407
▁الطاف	-9408
▁کروش	-9409
خیر	-9410
▁بندہ	-9411
▁ئر	-9412
▁براجمان	-9413
▁کھود	-9414
▁ایڈوانس	-9415
▁افزائش	-9416
فرو	-9417
▁دیوگن	-9418
کھرب	-9419
▁کامیابیاں	-9420
وتھی	-9421
میٹک	-9422
▁ہنسی	-9423
▁پرواہ	-9424
▁پارکنگ	-9425
▁تیرا	-9426
▁عسکری	-9427
▁پروٹی	-9428
▁ذکا	-9429
▁میکانزم	-9430
▁ناکا	-9431
▁بڑوں	-9432
▁وارن	-9433
دیک	-9434
وریٹ	-9435
▁کرائیں	-9436
▁عدلیہ	-9437
▁تشخیصی	-9438
▁شوقین	-9439
▁پسمان	-9440
پڑ	-9441
▁سعود	-9442
▁سیاستدان	-9443
یکیو	-9444
▁ہیںفلم	-9445
▁ایلس	-9446
▁پتھروں	-9447
▁نہر	-9448
بلیو	-9449
▁سوئس	-9450
▁زیدی	-9451
▁کامیڈین	-9452
▁مکانات	-9453
▁کریگی	-9454
▁شہدا	-9455
▁ہاضمہ	-9456
▁عورتوں	-9457
▁بالاتر	-9458
▁لفظوں	-9459
بتھ	-9460
جیم	-9461
▁تغیرات	-9462
▁ثقافتوں	-9463
▁مشرف	-9464
▁مخاطب	-9465
▁کلر	-9466
ائمنڈ	-9467
قان	-9468
▁پکڑا	-9469
▁واقعتا	-9470
یلہ	-9471
▁سٹین	-9472
▁عبدالعزیز	-9473
▁بتدریج	-9474
▁دھونے	-9475
▁پردیش	-9476
▁نشے	-9477
▁جوزف	-9478
▁ایاز	-9479
▁اینگ	-9480
مث	-9481
میرا	-9482
▁ساٹھ	-9483
▁ٹوینٹی	-9484
▁کاروائی	-9485
▁آرکی	-9486
▁افیشلز	-9487
پشاور	-9488
▁تاز	-9489
▁انٹی	-9490
▁ڈسپلن	-9491
▁سلوا	-9492
والا	-9493
شکل	-9494
▁ہیروز	-9495
▁ضیاء	-9496
کین	-9497
▁تخمینے	-9498
▁گلاب	-9499
▁اشفاق	-9500
▁گیسوں	-9501
▁ارتقاء	-9502
▁علوم	-9503
▁مارکر	-9504
وسن	-9505
منٹن	-9506
▁شاہراہ	-9507
▁اجناس	-9508
▁میتھیوز	-9509
گھر	-9510
▁جزیرہ	-9511
▁نقشے	-9512
▁نظیر	-9513
▁کولی	-9514
▁فشاں	-9515
▁ٹھنڈے	-9516
▁جیٹ	-9517
▁کھایا	-9518
▁اسٹڈی	-9519
اگرچہ	-9520
▁فلاحی	-9521
▁مادوں	-9522
▁عبر	-9523
▁الٹی	-9524
▁کمب	-9525
َل	-9526
▁متوجہ	-9527
▁ریئل	-9528
▁دعائیں	-9529
▁ایجنڈے	-9530
▁حروف	-9531
▁ویلیئرز	-9532
عدی	-9533
▁میٹھے	-9534
قدرت	-9535
▁خاں	-9536
▁ایڈن	-9537
▁سفارتی	-9538
▁چھڑ	-9539
▁تنظیمیں	-9540
▁ہونٹ	-9541
▁معقول	-9542
▁لگن	-9543
▁چڑیا	-9544
▁ڈیولپمنٹ	-9545
▁آیا	-9546
سٹریٹ	-9547
▁دفن	-9548
▁فورڈ	-9549
▁ایگری	-9550
لٹ	-9551
▁ڈرافٹ	-9552
▁پڑھتے	-9553
ویہ	-9554
▁ڈیفنس	-9555
▁بینکاری	-9556
▁نوعمروں	-9557
▁دھارے	-9558
▁اکیلے	-9559
▁پروازیں	-9560
▁دستبردار	-9561
▁ایر	-9562
انشل	-9563
▁شفٹ	-9564
▁ٹرمینل	-9565
▁وزیرِ	-9566
▁رضاکارانہ	-9567
▁کینیڈین	-9568
شمنی	-9569
▁سہواگ	-9570
▁رسومات	-9571
▁زاویہ	-9572
▁سیدھا	-9573
▁وکالت	-9574
▁اعمال	-9575
ادار	-9576
▁میتھیو	-9577
وشمار	-9578
▁وکی	-9579
▁چاکلیٹ	-9580
▁ماؤ	-9581
▁ریمپ	-9582
▁مہربانی	-9583
▁لوٹے	-9584
▁طورپر	-9585
▁فلپائن	-9586
شیک	-9587
▁قلیل	-9588
▁تعمیرات	-9589
▁فراموش	-9590
▁بدلہ	-9591
▁کلاؤڈ	-9592
▁باسانی	-9593
▁ویلتھ	-9594
▁افواہیں	-9595
▁سکس	-9596
▁ڈکی	-9597
▁ڈسٹری	-9598
▁ایمنسٹی	-9599
▁محصولات	-9600
▁لیوک	-9601
امے	-9602
▁لیموں	-9603
ٓمد	-9604
ونیا	-9605
▁مانگی	-9606
▁رئیل	-9607
راک	-9608
▁بای	-9609
▁دھچکا	-9610
▁دوچار	-9611
▁تھرلر	-9612
▁ذہنیت	-9613
▁رائٹس	-9614
▁شئیر	-9615
▁ہوشیار	-9616
▁کلیئرنس	-9617
:"	-9618
▁فائلوں	-9619
▁‘‘	-9620
▁نبھا	-9621
▁وائرلیس	-9622
ویا	-9623
▁ریسلر	-9624
▁کابل	-9625
▁کرنیوالے	-9626
▁چمچ	-9627
▁بستی	-9628
قسم	-9629
▁طلعت	-9630
▁ٹاکر	-9631
▁ندا	-9632
▁سیاروں	-9633
he	-9634
▁بریگی	-9635
▁نظارہ	-9636
ائیکی	-9637
برن	-9638
▁کنکریٹ	-9639
▁براد	-9640
▁میگنی	-9641
▁اجراء	-9642
▁الیکٹرانکس	-9643
واک	-9644
▁سکولوں	-9645
▁انڈرائیڈ	-9646
▁الٹ	-9647
▁انجیکشن	-9648
▁نیدرلینڈ	-9649
▁ڈپارٹمنٹ	-9650
▁ناظم	-9651
▁ناش	-9652
▁پروان	-9653
▁جسٹن	-9654
▁بڑھاتا	-9655
▁سویڈن	-9656
▁زبردستی	-9657
ڈم	-9658
▁دشمنی	-9659
▁نوب	-9660
▁اوزار	-9661
▁حیدرباد	-9662
اسکتے	-9663
▁قبائلی	-9664
فار	-9665
زز	-9666
▁جیتنا	-9667
▁ہےب	-9668
▁داس	-9669
▁دورانیہ	-9670
▁برتنوں	-9671
▁رسل	-9672
▁دھار	-9673
اقان	-9674
عون	-9675
ادیہ	-9676
وائنٹس	-9677
ارہی	-9678
▁ہسٹری	-9679
▁ٹیچر	-9680
▁ڈھان	-9681
▁نمود	-9682
▁آرہا	-9683
▁نائٹروجن	-9684
فو	-9685
کاروب	-9686
▁روپیہ	-9687
لیک	-9688
▁چھپا	-9689
▁جلسہ	-9690
▁تانبے	-9691
▁ملکیوں	-9692
یما	-9693
ندرا	-9694
▁عبدالح	-9695
▁لہجے	-9696
ڈرز	-9697
▁کھوکھر	-9698
ھاڑ	-9699
▁کراٹے	-9700
▁،،	-9701
▁زخموں	-9702
ڈیننس	-9703
▁ڈائیلاگ	-9704
تین	-9705
ائیر	-9706
▁پیسر	-9707
گیٹ	-9708
▁لام	-9709
▁ٹھویں	-9710
گھنٹ	-9711
▁قلبی	-9712
▁بسٹر	-9713
▁گولز	-9714
▁سمجھتی	-9715
▁صدیق	-9716
▁ٹھہر	-9717
▁پیٹرن	-9718
▁گان	-9719
▁علوی	-9720
▁کمپیوٹرز	-9721
▁محاذ	-9722
▁چائنا	-9723
▁کھلو	-9724
رفراز	-9725
▁ہائبرڈ	-9726
▁دکانوں	-9727
ولیا	-9728
▁مایا	-9729
▁Web	-9730
▁چٹان	-9731
▁ابھرتے	-9732
طع	-9733
▁دھیان	-9734
▁بائیڈن	-9735
▁تلف	-9736
▁برانڈز	-9737
▁چہروں	-9738
▁اکس	-9739
▁پیسوں	-9740
یوال	-9741
▁راتوں	-9742
▁افواہوں	-9743
▁پاؤڈر	-9744
سیریز	-9745
▁سپلیم	-9746
▁غلامی	-9747
▁بخوبی	-9748
▁جھگڑا	-9749
ووں	-9750
amari	-9751
▁الصوبائی	-9752
▁خاور	-9753
▁بناسکتے	-9754
▁شبیر	-9755
▁سلیمان	-9756
▁Hamari	-9757
▁اقلی	-9758
▁۔	-9759
▁جدی	-9760
اضافہ	-9761
▁بٹلر	-9762
▁ہائوس	-9763
▁میمن	-9764
▁کووڈ	-9765
شکر	-9766
سوشل	-9767
▁چھوڑا	-9768
▁مجاز	-9769
▁کوال	-9770
طغرل	-9771
▁تیراکی	-9772
▁حقدار	-9773
▁فریال	-9774
▁بلدیاتی	-9775
یکسپوائنٹس	-9776
▁تسلی	-9777
وبھی	-9778
ائنٹ	-9779
▁معاوضے	-9780
▁آرٹس	-9781
▁خاقان	-9782
▁فنگر	-9783
▁رابی	-9784
▁جینوم	-9785
▁ہےمزید	-9786
▁کسٹمر	-9787
▁انشاء	-9788
▁انگلیوں	-9789
▁شماری	-9790
▁شت	-9791
▁دھکیل	-9792
▁املاک	-9793
▁سیارہ	-9794
▁احساسات	-9795
▁کچرے	-9796
▁تعطیلات	-9797
▁بخارات	-9798
▁بکی	-9799
▁معمولات	-9800
▁میا	-9801
▁جاندار	-9802
▁انڈور	-9803
کمی	-9804
▁یادوں	-9805
▁کہے	-9806
▁امیجنگ	-9807
▁محقق	-9808
▁یر	-9809
▁ناص	-9810
▁پوپ	-9811
شیر	-9812
▁فیز	-9813
▁گزارا	-9814
▁فرید	-9815
▁وزیراعلی	-9816
▁رہوں	-9817
▁ملبے	-9818
▁ہیکرز	-9819
▁نٹ	-9820
▁مکرمہ	-9821
▁مزار	-9822
▁مختاری	-9823
▁تمیم	-9824
▁پرائز	-9825
کھلاڑی	-9826
▁فضائیہ	-9827
▁لگائیں۔	-9828
فور	-9829
▁ڈریگن	-9830
▁پیتھ	-9831
نگس	-9832
وزارت	-9833
▁کرسکیں	-9834
گیندوں	-9835
ازم	-9836
میک	-9837
کنار	-9838
▁فریکچر	-9839
▁اشن	-9840
کتہ	-9841
لسن	-9842
▁وعدے	-9843
زمیں	-9844
▁کود	-9845
▁اثاثے	-9846
▁پولنگ	-9847
ضر	-9848
▁بندوق	-9849
▁چلنا	-9850
▁اسٹوکس	-9851
▁مرتک	-9852
▁جوڈو	-9853
وکا	-9854
بنگلہ	-9855
▁اورنگزیب	-9856
گالی	-9857
▁کھانسی	-9858
▁قونصل	-9859
▁لالی	-9860
۵۰۰	-9861
▁تھیا	-9862
ینیٹ	-9863
▁ندیوں	-9864
▁یکطرفہ	-9865
▁بھگت	-9866
▁براوو	-9867
▁سلائیڈ	-9868
▁تصویری	-9869
▁لیز	-9870
▁چوڑ	-9871
▁نفیس	-9872
▁کالے	-9873
▁بلاکس	-9874
حم	-9875
▁صلاحیتیں	-9876
▁تھلگ	-9877
▁مشقوں	-9878
▁نوم	-9879
خواتین	-9880
▁پنڈ	-9881
▁اجرت	-9882
▁بیٹھی	-9883
▁قوی	-9884
▁جنازہ	-9885
▁وکلاء	-9886
▁کرائسٹ	-9887
▁مُ	-9888
▁فارن	-9889
▁ہز	-9890
▁برلن	-9891
ہارا	-9892
▁غنی	-9893
▁نوٹوں	-9894
▁جوائنٹ	-9895
▁نین	-9896
▁میسنجر	-9897
راور	-9898
وزیراعظم	-9899
▁۷۰۰	-9900
▁ریڈی	-9901
▁رائٹرز	-9902
▁ریکارڈز	-9903
مپٹن	-9904
▁معاشیات	-9905
▁فاریکس	-9906
▁دنگل	-9907
▁سینیئر	-9908
▁گھوڑوں	-9909
درہ	-9910
افراد	-9911
زیادہ	-9912
▁چھونے	-9913
اثر	-9914
▁حالتوں	-9915
▁ثالثی	-9916
▁ایون	-9917
▁کنٹینرز	-9918
▁سپرے	-9919
▁عمودی	-9920
▁سراہتے	-9921
▁پلم	-9922
▁پرامید	-9923
▁زیت	-9924
▁ہچک	-9925
▁خوابوں	-9926
پھر	-9927
گاس	-9928
▁گلین	-9929
▁ایشون	-9930
▁سرحدی	-9931
▁سالمیت	-9932
▁پوچھیں	-9933
▁کنز	-9934
▁فلیش	-9935
▁مسوڑوں	-9936
کھیل	-9937
▁ہیںم	-9938
وٹن	-9939
▁جوڑنے	-9940
▁مجسمے	-9941
▁اسنیپ	-9942
فقہ	-9943
▁اسائنمنٹ	-9944
▁کارکنان	-9945
▁یادیں	-9946
▁رومی	-9947
▁ڈزنی	-9948
▁گراس	-9949
است	-9950
▁جڑیں	-9951
▁خیبرپختون	-9952
▁آلودہ	-9953
▁ہوسکتا	-9954
▁کہل	-9955
▁پڑیں	-9956
▁پھنسے	-9957
▁ڈویلپرز	-9958
▁خیرمقدم	-9959
▁ویٹرنری	-9960
ڈیس	-9961
کرنے	-9962
▁مشاب	-9963
▁الٹرا	-9964
▁ہیش	-9965
▁ووٹنگ	-9966
▁یوان	-9967
▁ٹائیگرز	-9968
▁بیڈمنٹن	-9969
▁پختہ	-9970
▁ٹیسٹوں	-9971
ھھ	-9972
لافی	-9973
▁برپا	-9974
▁منور	-9975
پشن	-9976
▁قرعہ	-9977
▁ویکی	-9978
▁وباء	-9979
▁رواج	-9980
▁جوڑوں	-9981
▁الیگز	-9982
حسن	-9983
اؤنڈ	-9984
▁منقطع	-9985
▁ونس	-9986
▁۹۱	-9987
▁مزدوری	-9988
بیونل	-9989
▁ہاتھا	-9990
al	-9991
▁ٹوئیٹ	-9992
▁اسنو	-9993
▁آٹومی	-9994
محکمہ	-9995
▁نوکیا	-9996
▁نقالی	-9997
وٹس	-9998
▁سبقت	-9999
▁گنڈا	-10000
▁گاندھی	-10001
ویلا	-10002
▁فوٹوفائل	-10003
▁طیب	-10004
▁لوں	-10005
▁کھجور	-10006
▁آئرن	-10007
▁اویس	-10008
▁خیالی	-10009
▁گنے	-10010
مانڈ	-10011
▁کنسل	-10012
۵۲	-10013
▁ہیںپاکستان	-10014
▁کمپنیز	-10015
▁بکنگ	-10016
اہرہ	-10017
دیگر	-10018
▁ورجین	-10019
ائڈز	-10020
▁اینڈریو	-10021
یکٹرم	-10022
وسک	-10023
▁گےاس	-10024
▁کاجول	-10025
کانے	-10026
▁امپورٹ	-10027
▁ازدواج	-10028
▁ملر	-10029
کاش	-10030
الیس	-10031
▁کہاہے	-10032
▁میپ	-10033
▁بکھیر	-10034
▁مصال	-10035
▁لہسن	-10036
▁رواداری	-10037
جسے	-10038
▁سوائے	-10039
▁منو	-10040
کشی	-10041
▁پروگرامز	-10042
ڈور	-10043
▁حرم	-10044
▁انڈی	-10045
▁سنوکر	-10046
▁فراڈ	-10047
▁ران	-10048
دوم	-10049
▁ستر	-10050
ھاھا	-10051
▁کلاسک	-10052
ہندوستان	-10053
▁لوہا	-10054
▁فنانشل	-10055
da	-10056
▁لعنت	-10057
▁خریدی	-10058
▁رومانٹک	-10059
بلڈن	-10060
▁پہر	-10061
ومینیم	-10062
▁ٹیب	-10063
▁استعداد	-10064
▁مخالفین	-10065
▁کیتھولک	-10066
▁کیپی	-10067
زیہ	-10068
▁بزدار	-10069
▁سرج	-10070
▁کیمرون	-10071
▁استوار	-10072
▁زوم	-10073
▁عہدیداران	-10074
▁بحرین	-10075
▁محیط	-10076
▁اعدادوشمار	-10077
▁اوس	-10078
▁اسٹڈیز	-10079
▁عملدرآمد	-10080
ابری	-10081
▁ایکسپورٹرز	-10082
▁مارکیٹس	-10083
▁پروموشن	-10084
▁انسپکٹر	-10085
▁زخمیوں	-10086
▁سنانے	-10087
▁صفدر	-10088
▁زلزلہ	-10089
▁سفری	-10090
▁خریدار	-10091
▁سونگ	-10092
▁چارٹر	-10093
▁ہیومن	-10094
▁جارحیت	-10095
▁متوازی	-10096
▁جیا	-10097
▁سکو	-10098
▁ڈش	-10099
▁ایشنز	-10100
▁لیگی	-10101
▁کروائیں	-10102
▁آٹزم	-10103
▁شل	-10104
▁اگئے	-10105
پاٹ	-10106
▁گوشو	-10107
▁کمیونیکیشن	-10108
▁مردان	-10109
▁ہےیہ	-10110
▁مہاجرین	-10111
کٹبندی	-10112
▁مقت	-10113
▁بڑھیں	-10114
▁ریان	-10115
▁تک۔	-10116
▁ہےذرائع	-10117
▁وراث	-10118
▁رت	-10119
▁ایمپ	-10120
▁آرہی	-10121
▁بُ	-10122
سٹول	-10123
▁متناسب	-10124
▁ہیںس	-10125
▁نظریں	-10126
▁میرپور	-10127
کٹبندیی	-10128
انچہ	-10129
▁پہیے	-10130
میا	-10131
▁شجا	-10132
اظ	-10133
▁کونس	-10134
▁شرمن	-10135
▁یونیورسٹیوں	-10136
چیم	-10137
▁سنگاکارا	-10138
▁صنعتکاروں	-10139
▁ٹرینڈ	-10140
▁افیشل	-10141
▁تانے	-10142
▁آکسیڈین	-10143
▁ہوپ	-10144
قبہ	-10145
▁پکڑے	-10146
ماہرین	-10147
ونو	-10148
▁لٹ	-10149
▁نیس	-10150
▁صفح	-10151
▁ایکٹر	-10152
▁مثلا	-10153
عش	-10154
▁فف	-10155
▁امیدیں	-10156
▁محافظ	-10157
▁ڈائمنڈ	-10158
▁حلقے	-10159
▁انگور	-10160
▁چائلڈ	-10161
سکے	-10162
▁دورانیے	-10163
سبت	-10164
خال	-10165
▁صداقت	-10166
▁منے	-10167
▁ڈنمارک	-10168
▁کرنسیوں	-10169
ارنی	-10170
▁ٹورنامنٹس	-10171
تھا	-10172
▁بادی	-10173
▁ڈالتا	-10174
شعیب	-10175
▁مادی	-10176
▁پوسٹس	-10177
▁طنز	-10178
▁ایرون	-10179
▁جھوٹی	-10180
۴۱	-10181
▁فلمز	-10182
▁مستند	-10183
▁ہمکنار	-10184
▁لیجنڈری	-10185
چنگ	-10186
▁طاقتوں	-10187
جانے	-10188
▁سہولتیں	-10189
الیا	-10190
▁ارطغرل	-10191
▁تری	-10192
▁فرنینڈ	-10193
▁بانے	-10194
▁مشاہدات	-10195
یٹ	-10196
▁کوالیفائر	-10197
▁کریپٹو	-10198
نئی	-10199
▁گرافی	-10200
▁انگوٹھی	-10201
▁بہر	-10202
▁رپورٹرنمائندہ	-10203
اسے	-10204
▁زیتون	-10205
▁ویزہ	-10206
▁کاشتکاری	-10207
▁بڑھاتے	-10208
ٹاؤ	-10209
Pakistan	-10210
ٹیس	-10211
▁آراء	-10212
اسن	-10213
سمنٹ	-10214
فون	-10215
▁تھرڈ	-10216
▁ریمانڈ	-10217
▁سروں	-10218
▁بیٹریاں	-10219
▁ڈا	-10220
▁کھدائی	-10221
یلا	-10222
▁چھکا	-10223
▁تحائف	-10224
▁خوبی	-10225
▁انسولین	-10226
▁اسپتالوں	-10227
▁پیکیجنگ	-10228
کیم	-10229
▁متفقہ	-10230
▁ایڈمنسٹریشن	-10231
▁تکرار	-10232
▁اشنکٹبندیی	-10233
کولی	-10234
▁فزیکل	-10235
▁سالم	-10236
دایت	-10237
ئیرز	-10238
▁فائن	-10239
▁لیوا	-10240
▁صحتمند	-10241
▁۱۱۰	-10242
پرائز	-10243
▁ٹھنڈ	-10244
▁اخبارئی	-10245
▁عتیق	-10246
فیا	-10247
▁والو	-10248
▁ورجینیا	-10249
▁چلاتے	-10250
▁انویسٹ	-10251
▁جنگجو	-10252
▁پیشگی	-10253
▁نیر	-10254
▁فلیگ	-10255
▁ستھرا	-10256
شام	-10257
▁سکوں	-10258
▁درمدی	-10259
▁آرتھ	-10260
▁گرہن	-10261
▁اندھیرے	-10262
▁ولن	-10263
▁اکائ	-10264
دیر	-10265
▁مولا	-10266
▁بدسلو	-10267
الوں	-10268
▁سپاہی	-10269
▁آوازوں	-10270
▁پونے	-10271
▁کٹی	-10272
▁دلیپ	-10273
▁رکی	-10274
▁بصورت	-10275
حش	-10276
▁کہوں	-10277
▁دبانے	-10278
▁مناسبت	-10279
▁شکاگو	-10280
▁گمش	-10281
▁ماسٹرز	-10282
▁تفتیشی	-10283
▁اجنبی	-10284
▁چھٹکارا	-10285
▁حوصلے	-10286
▁اسٹارک	-10287
▁پسماندہ	-10288
فیئر	-10289
ینڈنٹ	-10290
▁قلعہ	-10291
▁دمہ	-10292
▁لوپ	-10293
▁مشینیں	-10294
▁بدسلوکی	-10295
▁خوبرو	-10296
▁ویلنگٹن	-10297
▁بنچ	-10298
▁ساہیوال	-10299
زما	-10300
▁شرحوں	-10301
▁حیدراباد	-10302
▁شارک	-10303
نٹو	-10304
ائیکل	-10305
▁لوکل	-10306
فیٹ	-10307
نیل	-10308
▁مزاجی	-10309
▁چیمبرز	-10310
پیڈیا	-10311
▁ریفنڈ	-10312
▁کارپٹ	-10313
▁ڈائن	-10314
کستان	-10315
رائے	-10316
▁مورخ	-10317
برس	-10318
وریٹی	-10319
نواز	-10320
▁آصف	-10321
▁لینڈنگ	-10322
انص	-10323
▁اڑان	-10324
▁رنگت	-10325
▁مجاہد	-10326
▁دیہات	-10327
▁رٹس	-10328
▁پگ	-10329
▁کالز	-10330
▁گلوکوز	-10331
▁رپورٹنگ	-10332
▁فرمائے	-10333
▁ٹرینٹ	-10334
▁کیج	-10335
▁گوشوارے	-10336
▁ایلیٹ	-10337
▁اللّٰہ	-10338
▁ہلاکتوں	-10339
علم	-10340
▁حکمرانوں	-10341
شاہی	-10342
▁آئٹم	-10343
▁کوآ	-10344
▁غوطہ	-10345
خود	-10346
▁ایڈورڈ	-10347
▁ناپسندی	-10348
▁کرسی	-10349
۳۵	-10350
▁دیرپا	-10351
▁حریم	-10352
ائلر	-10353
▁وراثت	-10354
▁اردن	-10355
▁پنشن	-10356
▁ہےپی	-10357
جٹ	-10358
▁جاز	-10359
▁ہنی	-10360
▁خامیوں	-10361
▁مصنوع	-10362
ظوظ	-10363
▁وائٹس	-10364
▁ایلومینیم	-10365
▁زید	-10366
▁تضاد	-10367
▁اسیکیو	-10368
▁نرگس	-10369
وکیٹ	-10370
▁آبجیکٹ	-10371
▁نبھانے	-10372
▁کرافٹ	-10373
▁ورون	-10374
▁ڈھاکا	-10375
لیمر	-10376
▁جوی	-10377
▁مفتی	-10378
▁ڈپریشن	-10379
▁اجرا	-10380
▁تمغے	-10381
▁سہی	-10382
▁فیوچر	-10383
▁گٹھ	-10384
▁ٹیکسز	-10385
▁پوٹاش	-10386
▁گوری	-10387
▁لود	-10388
▁ارض	-10389
▁گنوا	-10390
▁التوا	-10391
▁پھلیاں	-10392
یتا	-10393
▁ہوجائیں	-10394
▁اسٹارٹ	-10395
ائزہ	-10396
پانچ	-10397
▁بھجوا	-10398
▁کلپ	-10399
▁وارننگ	-10400
▁جرسی	-10401
▁متعدی	-10402
▁مراقبہ	-10403
کاسٹ	-10404
▁کھینچنے	-10405
▁مماثل	-10406
▁ورد	-10407
▁شرمناک	-10408
▁میٹرو	-10409
▁صابن	-10410
▁استفس	-10411
▁ٹرانسفر	-10412
▁بیکٹیریل	-10413
قیمت	-10414
▁اخبارات	-10415
▁گچھ	-10416
▁ہوتا۔	-10417
▁فانڈیشن	-10418
▁دیوتا	-10419
▁کھولے	-10420
▁ہوچکی	-10421
▁لفٹ	-10422
▁اینکر	-10423
▁سائرہ	-10424
▁کورین	-10425
▁بیسن	-10426
▁ثقلین	-10427
▁خریداروں	-10428
▁عقل	-10429
▁سٹائل	-10430
▁لفظی	-10431
▁براؤن	-10432
ئیس	-10433
▁گھڑ	-10434
▁سربیا	-10435
▁کھولا	-10436
▁ہور	-10437
▁وقتا	-10438
▁کمرہ	-10439
▁الفطر	-10440
▁نصرت	-10441
▁منرو	-10442
▁ایتھلیٹس	-10443
▁پولٹری	-10444
▁وافر	-10445
▁عمان	-10446
▁ریموٹ	-10447
▁پکچرز	-10448
اجلاس	-10449
▁رونق	-10450
▁اتریں	-10451
▁میرین	-10452
▁عمری	-10453
▁پارٹ	-10454
▁چھپانے	-10455
▁پروٹیکشن	-10456
الز	-10457
▁سکری	-10458
▁اسٹیبل	-10459
عدالت	-10460
ومیں	-10461
▁کہن	-10462
▁بدلتے	-10463
▁فاف	-10464
▁گندے	-10465
▁سوئمنگ	-10466
▁کیاگیا	-10467
ڑھا	-10468
▁کلیکشن	-10469
▁سراج	-10470
▁اوبر	-10471
▁اثناء	-10472
▁مشتبہ	-10473
▁مقالہ	-10474
▁کمایا	-10475
دیو	-10476
▁طلائی	-10477
▁تمہارا	-10478
▁آئرلینڈ	-10479
بادی	-10480
▁بیور	-10481
▁محظوظ	-10482
تھم	-10483
یسا	-10484
▁فحش	-10485
حیات	-10486
گوئی	-10487
▁ٹاون	-10488
▁فیکٹریوں	-10489
▁ملح	-10490
▁الٹر	-10491
▁دیرینہ	-10492
▁نون	-10493
▁درس	-10494
▁جانچنے	-10495
▁پرے	-10496
▁بقول	-10497
▁نادیہ	-10498
شمنٹ	-10499
▁کیپشن	-10500
▁آگ	-10501
▁ماتحت	-10502
▁ویکسینیشن	-10503
▁ہولڈنگ	-10504
▁آئے۔	-10505
▁خورشید	-10506
ڈنٹ	-10507
▁تائیوان	-10508
▁تاریخوں	-10509
نڈہ	-10510
تج	-10511
روٹ	-10512
▁ہےخیال	-10513
ٹیڈ	-10514
▁(""	-10515
▁گیاہے	-10516
▁مصروفیت	-10517
۵۱	-10518
▁کھات	-10519
▁سیپ	-10520
▁کروشیا	-10521
▁اسکالر	-10522
▁مانیٹر	-10523
ندا	-10524
▁اسٹروک	-10525
▁انٹرمی	-10526
▁منطقی	-10527
▁پیٹنٹ	-10528
▁ہما	-10529
یچ	-10530
▁قربان	-10531
▁لبر	-10532
۰۱	-10533
معروف	-10534
▁اٹارنی	-10535
▁گپٹل	-10536
▁جاسکتی	-10537
▁سیاحتی	-10538
▁بیلنس	-10539
▁کف	-10540
▁ومبلڈن	-10541
▁زنج	-10542
▁ہیںواضح	-10543
▁استفسار	-10544
ائنری	-10545
▁چھاپے	-10546
▁ریسٹور	-10547
▁ہینڈل	-10548
▁روئے	-10549
▁مینجر	-10550
▁گرمیوں	-10551
▁تولی	-10552
▁ازگر	-10553
▁ارشاد	-10554
▁حکومتیں	-10555
▁پروسیسر	-10556
▁گیئر	-10557
▁قوتوں	-10558
▁عموما	-10559
▁ٹیلیف	-10560
▁بولے	-10561
▁خیم	-10562
▁جہتی	-10563
▁ذاکر	-10564
رزمان	-10565
ائڈس	-10566
▁اظہرعلی	-10567
ساتھ	-10568
▁ڈرگ	-10569
▁تلافی	-10570
▁فخ	-10571
▁ریچھ	-10572
میمہ	-10573
▁غریبوں	-10574
▁۱۳۰	-10575
▁سوویت	-10576
▁بتاتا	-10577
▁ظہور	-10578
▁افسردہ	-10579
▁آرگنائزیشن	-10580
▁رقبے	-10581
▁پریزنٹی	-10582
عاد	-10583
میزون	-10584
▁باجی	-10585
▁فوقتا	-10586
▁ناقدین	-10587
▁بیوٹی	-10588
▁نمکین	-10589
▁مشی	-10590
▁زہریلے	-10591
▁چش	-10592
▁دخل	-10593
▁چائنہ	-10594
▁فارورڈ	-10595
▁فلاور	-10596
▁ریما	-10597
ڈوس	-10598
چو	-10599
!""	-10600
▁پروپیگ	-10601
یلو	-10602
▁عقیدے	-10603
▁کروانا	-10604
▁ودیا	-10605
▁خلی	-10606
▁نبھایا	-10607
▁ناخوش	-10608
▁جبر	-10609
جرم	-10610
▁ایرو	-10611
▁محترمہ	-10612
▁جہان	-10613
▁بہنوں	-10614
▁اٹک	-10615
▁ورتھ	-10616
▁سٹری	-10617
▁انجینئرز	-10618
▁تلوار	-10619
▁موٹے	-10620
جموعی	-10621
▁تخت	-10622
▁مردم	-10623
▁چیمپئین	-10624
▁وزراء	-10625
▁عیسیٰ	-10626
▁ہےدوسری	-10627
▁تجسس	-10628
▁کوڑے	-10629
▁۱۸۰	-10630
▁پروڈیوسرز	-10631
گور	-10632
▁الزبتھ	-10633
▁کلاسوں	-10634
▁لیکس	-10635
▁یکجا	-10636
▁رنر	-10637
▁ابھرتی	-10638
▁ایور	-10639
▁دیول	-10640
▁بشریٰ	-10641
▁ھی	-10642
▁سمندروں	-10643
▁ٹرپل	-10644
▁باورچی	-10645
لینا	-10646
▁الرٹ	-10647
▁ہےا	-10648
▁فنون	-10649
ہال	-10650
▁رگبی	-10651
▁ٹریب	-10652
▁ارہے	-10653
▁ہلچل	-10654
▁نمودار	-10655
ویلی	-10656
▁شیخو	-10657
▁حرف	-10658
ریاض	-10659
▁انویسٹمنٹ	-10660
▁نالیوں	-10661
▁بنوں	-10662
▁ایٹمی	-10663
▁کراچیک	-10664
▁بقایا	-10665
▁آہنگ	-10666
▁تامل	-10667
▁شعر	-10668
▁حریفوں	-10669
عبدال	-10670
▁سمگلنگ	-10671
▁ورن	-10672
▁جھنڈے	-10673
▁فیٹی	-10674
▁مچانے	-10675
▁کھلنے	-10676
▁تذکر	-10677
▁آوازیں	-10678
▁ٹرانزٹ	-10679
▁ارگن	-10680
ژری	-10681
▁بااثر	-10682
برطانوی	-10683
▁جعفر	-10684
▁پروین	-10685
’’	-10686
گین	-10687
پرنگ	-10688
▁اسپنرز	-10689
▁انوی	-10690
▁خالق	-10691
▁سادگی	-10692
▁گزرتا	-10693
▁رائونڈر	-10694
▁ہسپتالوں	-10695
▁مسابقت	-10696
▁باغبانی	-10697
▁دوربین	-10698
▁ظالم	-10699
▁اسٹیٹس	-10700
▁مخدوم	-10701
▁دری	-10702
▁عاج	-10703
واسطہ	-10704
▁جھگڑے	-10705
▁انز	-10706
حکم	-10707
▁برآمد	-10708
▁ایمی	-10709
▁تہہ	-10710
▁ناب	-10711
▁وَ	-10712
۶۰	-10713
▁انسٹر	-10714
▁دکھانا	-10715
▁نینو	-10716
▁اداکارائیں	-10717
▁صدف	-10718
▁وارنٹ	-10719
احقین	-10720
▁ڈارک	-10721
▁سکینڈل	-10722
▁ہپ	-10723
لیز	-10724
▁ہنڈ	-10725
جمان	-10726
▁حائل	-10727
▁ٹرن	-10728
▁ایڈووکیٹ	-10729
▁خادم	-10730
▁تعبیر	-10731
▁معت	-10732
▁مماثلت	-10733
▁چنگ	-10734
ائنز	-10735
▁چت	-10736
▁گرتی	-10737
▁چھوڑنا	-10738
▁عملدرمد	-10739
▁فرانسسکو	-10740
▁ورثے	-10741
▁الائنس	-10742
▁پوچھنے	-10743
فیصل	-10744
▁لسانی	-10745
▁وارمنگ	-10746
▁سیلولر	-10747
▁محرکات	-10748
▁۱۲۵	-10749
▁چیری	-10750
▁جگا	-10751
▁یاہو	-10752
▁رائیڈرز	-10753
▁ہانیہ	-10754
▁شرمندہ	-10755
ولوجسٹ	-10756
▁رناوت	-10757
▁بیداری	-10758
▁لگا۔	-10759
▁بہادری	-10760
▁کاوشوں	-10761
▁کورنگی	-10762
▁جھوٹے	-10763
▁کوآرڈ	-10764
▁آمد	-10765
▁اصرار	-10766
▁سویا	-10767
▁گھنٹی	-10768
▁فلسطینیوں	-10769
▁شہرہ	-10770
▁کنارہ	-10771
وہائیڈ	-10772
▁زمینوں	-10773
▁تاجران	-10774
▁قطعی	-10775
▁ناشتے	-10776
▁پیڈیا	-10777
نسالی	-10778
▁ارم	-10779
!!	-10780
▁قطرے	-10781
▁کراچیا	-10782
رحال	-10783
▁پٹو	-10784
▁منظرن	-10785
▁."	-10786
▁آکر	-10787
▁سنبھالا	-10788
▁امیگریشن	-10789
▁تدف	-10790
▁پتیوں	-10791
▁ریورس	-10792
سیز	-10793
تعال	-10794
بنا	-10795
صغیر	-10796
جمع	-10797
▁اعزازی	-10798
▁شاذ	-10799
▁بانس	-10800
▁ساؤتھ	-10801
▁شکاری	-10802
▁تمنا	-10803
پینڈنٹ	-10804
▁ایٹم	-10805
▁رکنیت	-10806
▁سائوتھ	-10807
▁لواحقین	-10808
▁کرک	-10809
حوں	-10810
▁حذ	-10811
▁وقتی	-10812
▁رگڑ	-10813
▁قلب	-10814
▁مانیٹری	-10815
▁پرچی	-10816
▁کھلایا	-10817
اہا	-10818
ڈرل	-10819
▁فرح	-10820
▁تدفین	-10821
▁ہچکچ	-10822
▁ڈیمین	-10823
رہے	-10824
▁ہےیاد	-10825
وبدل	-10826
▁قیدی	-10827
▁تحفے	-10828
▁فیکل	-10829
▁ستھر	-10830
▁برباد	-10831
ساط	-10832
▁عبدالقادر	-10833
▁گویا	-10834
▁امپائرنگ	-10835
▁مزے	-10836
▁ٹکٹس	-10837
▁سوئپ	-10838
▁ریکوری	-10839
گزار	-10840
▁نکولس	-10841
▁آسم	-10842
▁کیپٹل	-10843
وبائل	-10844
▁تعزیت	-10845
▁عالمگیر	-10846
▁ملائش	-10847
▁کارٹون	-10848
▁فردوس	-10849
▁خوردہ	-10850
مقامی	-10851
▁قصبے	-10852
▁رویوں	-10853
ووا	-10854
▁علامتی	-10855
▁مادھوری	-10856
▁مہلت	-10857
▁ناکامیوں	-10858
گرافک	-10859
▁سد	-10860
▁ڈینیئل	-10861
نسن	-10862
رویشن	-10863
▁مسک	-10864
▁قلندر	-10865
▁زارا	-10866
▁ڈیٹس	-10867
▁فلسفہ	-10868
▁سرجن	-10869
▁ذہنوں	-10870
▁ردوبدل	-10871
فیص	-10872
▁بھنسالی	-10873
▁سپلیمنٹس	-10874
سٹرز	-10875
▁مانگنے	-10876
▁سوپ	-10877
▁فرنچائزز	-10878
▁بردار	-10879
▁ہلا	-10880
ویئر	-10881
▁نازیبا	-10882
▁افط	-10883
▁کرسٹیانو	-10884
▁بایو	-10885
▁ابن	-10886
▁چوڑائی	-10887
▁چاہت	-10888
▁زار	-10889
▁چانسلر	-10890
▁سیز	-10891
یکم	-10892
▁دینگے	-10893
▁نظروں	-10894
▁شیکھر	-10895
▁پائ	-10896
▁کاریں	-10897
▁کراتے	-10898
▁آگئی	-10899
▁بانو	-10900
▁بنایا۔	-10901
▁ایمیزون	-10902
▁ہوگئیں	-10903
▁ہاٹ	-10904
▁ووکس	-10905
▁آفریدی	-10906
▁شیٹھی	-10907
▁پشتو	-10908
▁بدلا	-10909
▁ڈرائیوروں	-10910
ولوشن	-10911
لیاں	-10912
طاط	-10913
▁انٹروی	-10914
▁ہائپ	-10915
▁خانی	-10916
▁لفٹنگ	-10917
▁۱۴۰	-10918
▁جھٹکے	-10919
▁ویتنام	-10920
▁ؤ	-10921
مالی	-10922
▁جٹ	-10923
▁عبی	-10924
▁اتھلیٹ	-10925
▁خوشیاں	-10926
▁وزیرخزانہ	-10927
▁اسامہ	-10928
▁برطرف	-10929
▁پورٹل	-10930
گیشن	-10931
▁شکنی	-10932
▁ہرادیا	-10933
▁چنانچہ	-10934
▁ملا۔	-10935
▁خیبرپختونخوا	-10936
ٰہی	-10937
▁بجھ	-10938
▁قرون	-10939
▁کیریب	-10940
▁دھرنا	-10941
▁باتھ	-10942
کسن	-10943
▁راجا	-10944
▁بکر	-10945
▁نشا	-10946
▁وینیو	-10947
▁باغی	-10948
▁بینوں	-10949
▁گزرے	-10950
▁فرینک	-10951
برج	-10952
▁تاروں	-10953
▁۱۶۰	-10954
▁چھٹیوں	-10955
اپس	-10956
▁لٹر	-10957
▁شردھا	-10958
▁سیاستدانوں	-10959
▁اورس	-10960
▁جیر	-10961
▁فائد	-10962
▁ادراک	-10963
کورونا	-10964
▁نوآبادیاتی	-10965
▁افسانہ	-10966
▁صہ	-10967
▁کمنٹس	-10968
▁کاربوہائیڈ	-10969
کوم	-10970
▁سٹارز	-10971
▁روئ	-10972
جیریا	-10973
▁گین	-10974
▁پکا	-10975
▁بائیوٹکس	-10976
▁گزارے	-10977
▁مانا	-10978
▁خطہ	-10979
▁ناتھ	-10980
▁چنائی	-10981
▁ایڈز	-10982
ازمین	-10983
▁چارجز	-10984
▁آری	-10985
▁ہجے	-10986
▁سائی	-10987
▁پوجا	-10988
▁انٹرمیڈیٹ	-10989
▁غفلت	-10990
▁بانٹنے	-10991
▁دشمنوں	-10992
▁نشہ	-10993
▁بلغ	-10994
▁کیلنڈر	-10995
▁تجھے	-10996
▁آفیسر	-10997
▁ایسو	-10998
▁گھوں	-10999
▁کارن	-11000
▁یش	-11001
▁بدبو	-11002
اسر	-11003
▁اگاہی	-11004
▁کیاس	-11005
▁ٹانگوں	-11006
▁المی	-11007
▁سیلف	-11008
بد	-11009
▁کریگ	-11010
اخر	-11011
▁بنو	-11012
▁تخیل	-11013
▁سوچیں	-11014
▁پنچ	-11015
▁شاٹس	-11016
▁پیرامیٹرز	-11017
ستھان	-11018
▁ورزیوں	-11019
نامے	-11020
ئیا	-11021
▁موخر	-11022
▁پتوں	-11023
قیانوس	-11024
▁سینئرز	-11025
▁الحرام	-11026
▁انحطاط	-11027
▁غار	-11028
▁سڑنا	-11029
▁نکاسی	-11030
▁صائمہ	-11031
▁ڈوپلیسی	-11032
▁لیڈز	-11033
ڑھائی	-11034
▁کہکشاں	-11035
▁سوتی	-11036
▁ئین	-11037
▁مہذب	-11038
ٹمنٹ	-11039
▁سکھایا	-11040
▁قیامت	-11041
▁آٹوم	-11042
▁مرتکب	-11043
▁صالح	-11044
روت	-11045
▁کٹس	-11046
▁پرومو	-11047
▁مؤکل	-11048
▁اینڈرو	-11049
▁چھاپہ	-11050
▁چھل	-11051
▁ننھے	-11052
▁کنڈیشن	-11053
۹۲	-11054
▁جدا	-11055
▁کشائی	-11056
▁خانوں	-11057
▁ضمیر	-11058
▁پلگ	-11059
▁باؤ	-11060
▁الات	-11061
▁جمیکا	-11062
▁فرمان	-11063
▁روہ	-11064
▁شرا	-11065
▁سینچری	-11066
▁عض	-11067
▁خریدے	-11068
باری	-11069
▁کردیں	-11070
▁رنج	-11071
روسکو	-11072
▁چادر	-11073
الو	-11074
▁جانیوالے	-11075
▁اٹھویں	-11076
▁کھائیں	-11077
▁تصویریں	-11078
▁ساس	-11079
▁چتر	-11080
▁وارڈ	-11081
▁پنڈی	-11082
▁ملازمتیں	-11083
▁۱۲۸	-11084
▁شیخوپورہ	-11085
▁ٹرب	-11086
▁سکتے۔	-11087
▁گھوںسلا	-11088
ڈون	-11089
▁اقساط	-11090
▁وزیرستان	-11091
▁تھیوری	-11092
▁اٹھنے	-11093
▁کھلونے	-11094
▁سکھانے	-11095
▁رونے	-11096
▁انچارج	-11097
▁مشابہت	-11098
۴۵	-11099
▁نعمت	-11100
کٹری	-11101
▁گیو	-11102
▁سپل	-11103
▁پنیر	-11104
▁اسلئے	-11105
▁کھائی	-11106
▁جاؤں	-11107
▁کلم	-11108
▁استثنیٰ	-11109
!)	-11110
▁ابرار	-11111
نئے	-11112
▁چوہان	-11113
▁مجرمانہ	-11114
▁کیپیٹل	-11115
ہران	-11116
ومیٹر	-11117
▁اولی	-11118
▁بدتمی	-11119
پہلی	-11120
▁پینا	-11121
وکس	-11122
ڈبلیو	-11123
نان	-11124
▁سمیٹی	-11125
▁لوکی	-11126
▁سوچتا	-11127
فیر	-11128
ِی	-11129
وقی	-11130
▁ٹائ	-11131
▁جویریہ	-11132
▁نکھوں	-11133
▁کرسکتا	-11134
▁ششم	-11135
▁پوٹاشیم	-11136
▁گھنے	-11137
▁کھیلتا	-11138
▁فعالیت	-11139
▁تیزابیت	-11140
▁فیسٹول	-11141
▁یہودیوں	-11142
▁قاف	-11143
▁پوڈ	-11144
▁آجائے	-11145
▁دھرنے	-11146
▁لوم	-11147
▁پنالٹی	-11148
▁یونٹوں	-11149
▁پھیری	-11150
▁کرسکی	-11151
▁پہچاننے	-11152
اسٹ	-11153
▁گمراہ	-11154
▁ہٹانا	-11155
▁سشانت	-11156
▁پیما	-11157
▁پست	-11158
▁دُ	-11159
▁مصدقہ	-11160
▁انگریز	-11161
▁کُ	-11162
▁ازالہ	-11163
▁آئندہ	-11164
▁سارک	-11165
▁گیٹس	-11166
▁گاہی	-11167
جات	-11168
▁ماجد	-11169
▁ہیئر	-11170
▁سمجھی	-11171
▁تحویل	-11172
▁کبیر	-11173
▁غا	-11174
▁کے۔	-11175
▁ممن	-11176
▁مہارا	-11177
آج	-11178
چارج	-11179
اسٹر	-11180
بوری	-11181
▁جامعہ	-11182
▁حرارتی	-11183
ww	-11184
▁عقیل	-11185
▁کیام	-11186
▁رفتاری	-11187
متی	-11188
▁دیکھتی	-11189
▁بولتے	-11190
▁صدور	-11191
▁کروڈ	-11192
▁برابری	-11193
▁ابادی	-11194
▁لیگز	-11195
▁نیاز	-11196
▁انڈس	-11197
▁سزائے	-11198
▁میٹھی	-11199
▁مارکس	-11200
▁کوسٹ	-11201
گوگل	-11202
ریکشن	-11203
▁فینز	-11204
▁پیکٹ	-11205
▁o	-11206
▁باند	-11207
▁بلیڈ	-11208
▁پرائیویسی	-11209
نڈوں	-11210
▁یواے	-11211
▁پیشن	-11212
نتی	-11213
▁احد	-11214
▁پلانے	-11215
فیف	-11216
▁حرام	-11217
▁دنیش	-11218
▁مونٹی	-11219
▁فنکارانہ	-11220
▁اوقیانوس	-11221
▁سوالیہ	-11222
▁بیدار	-11223
▁اہلخانہ	-11224
▁اسٹیفن	-11225
▁چٹانوں	-11226
▁چوروں	-11227
▁جماعتیں	-11228
▁پریک	-11229
▁اسنوکر	-11230
سلان	-11231
▁شش	-11232
▁سوڈیم	-11233
▁مکانی	-11234
▁الٹا	-11235
▁کنسلٹ	-11236
▁ڈیمانڈ	-11237
▁ملکر	-11238
▁شاخوں	-11239
▁ورسٹائل	-11240
▁گجر	-11241
▁آرا	-11242
▁فوٹیج	-11243
▁پیچھا	-11244
▁کزن	-11245
▁فولی	-11246
▁فرنس	-11247
▁جیکولین	-11248
ثوم	-11249
▁لاء	-11250
▁ویلفیئر	-11251
▁لون	-11252
پلانٹ	-11253
▁جھکا	-11254
▁تذکرہ	-11255
▁لگاتا	-11256
▁جواد	-11257
▁اسلامک	-11258
اباز	-11259
پٹر	-11260
شیل	-11261
▁مسودہ	-11262
▁کارآمد	-11263
وبست	-11264
▁شپنگ	-11265
▁پہنچنا	-11266
اشی	-11267
▁لاتا	-11268
امور	-11269
▁بدقسم	-11270
▁اِس	-11271
▁الرحیم	-11272
▁گریٹ	-11273
▁لائحہ	-11274
▁نرسنگ	-11275
▁ہاک	-11276
▁ائند	-11277
▁جیتی	-11278
▁ئٹم	-11279
▁بلکل	-11280
وسط	-11281
▁کمائے	-11282
▁پیدائشی	-11283
جنز	-11284
ارہا	-11285
مثال	-11286
▁یوریا	-11287
▁گےانہوں	-11288
▁کلور	-11289
اہلی	-11290
▁طو	-11291
▁ممنو	-11292
▁سوانح	-11293
▁دانشور	-11294
▁جانوں	-11295
▁ناانص	-11296
امکس	-11297
▁جور	-11298
▁کےلیے	-11299
▁تفریق	-11300
▁درامدی	-11301
▁ہیلز	-11302
▁تھک	-11303
▁نعرہ	-11304
▁نسخے	-11305
▁ہیوی	-11306
ic	-11307
▁نگل	-11308
▁چڑھاؤ	-11309
جیے	-11310
رینا	-11311
▁مرئی	-11312
▁میونسپل	-11313
ینیم	-11314
▁نوبل	-11315
▁ٹھاکر	-11316
▁دکھاتا	-11317
لص	-11318
▁ناصرف	-11319
▁ہرارے	-11320
▁مسز	-11321
▁۱۰۱	-11322
وترا	-11323
ٹیوٹ	-11324
▁سطحی	-11325
صورت	-11326
▁واجب	-11327
گذ	-11328
▁اٹھے	-11329
▁الیگزینڈر	-11330
▁متنبہ	-11331
▁۱۰۵	-11332
▁سائے	-11333
▁ٹوم	-11334
ایونٹ	-11335
▁سونی	-11336
▁نائیجیریا	-11337
▁برائی	-11338
▁یونیور	-11339
۳۳	-11340
▁جسکے	-11341
▁جارجیا	-11342
▁کاربوہائیڈریٹ	-11343
وذ	-11344
▁ممنوعہ	-11345
▁بڑھی	-11346
▁ملے۔	-11347
▁صہیب	-11348
▁حرکیات	-11349
▁رولز	-11350
▁باریک	-11351
▁ریزولوشن	-11352
▁بلوم	-11353
▁دام	-11354
▁بندوبست	-11355
▁منطق	-11356
▁ارادے	-11357
▁مساجد	-11358
▁ربی	-11359
▁تت	-11360
▁ریٹیل	-11361
▁کپتانوں	-11362
▁مراکش	-11363
▁فالوورز	-11364
مط	-11365
▁گلہ	-11366
▁جلتے	-11367
▁ایکو	-11368
▁عمیر	-11369
▁بدنامی	-11370
▁ڈالنا	-11371
▁آپٹیکل	-11372
▁ٹرینر	-11373
▁عمارتیں	-11374
▁پرانے	-11375
▁رئیلٹی	-11376
▁عاقب	-11377
▁بران	-11378
▁زونز	-11379
▁گلزار	-11380
▁آٹو	-11381
▁انکھ	-11382
▁اشتعال	-11383
▁رچرڈسن	-11384
▁اشتہاری	-11385
کلی	-11386
▁میٹابول	-11387
▁معر	-11388
وسٹی	-11389
▁جہلم	-11390
▁ملٹری	-11391
▁وکر	-11392
▁پون	-11393
▁گہا	-11394
▁گلیوں	-11395
▁سُ	-11396
▁مفاہمت	-11397
▁ٹریلین	-11398
ئیاں	-11399
▁میوے	-11400
لندن	-11401
▁لالچ	-11402
▁سٹور	-11403
▁آفت	-11404
▁نوے	-11405
▁سجاوٹ	-11406
▁بالن	-11407
برو	-11408
▁پیاری	-11409
▁تقرر	-11410
نجی	-11411
▁کرام	-11412
▁جنریشن	-11413
▁الٰہی	-11414
▁ماورا	-11415
▁مثل	-11416
▁ایلکس	-11417
▁ڈائریکٹوریٹ	-11418
▁مائل	-11419
▁وائ	-11420
▁سڑکیں	-11421
▁ڈراما	-11422
▁ڈکیتی	-11423
▁بلدیہ	-11424
▁کیانی	-11425
▁جبڑے	-11426
▁ماریا	-11427
▁آرائی	-11428
▁ائیرپورٹ	-11429
▁چھڑک	-11430
▁لپ	-11431
▁کوڈنگ	-11432
▁لائٹنگ	-11433
▁مہندرا	-11434
▁ناانصافی	-11435
▁اسٹاپ	-11436
▁ہیو	-11437
▁بمباری	-11438
▁خوردنی	-11439
▁الزائمر	-11440
اتاہم	-11441
▁ہں	-11442
▁ہوسکتی	-11443
ڈیالہ	-11444
▁اعتمادی	-11445
مید	-11446
▁لنچ	-11447
▁بناسکی	-11448
▁زینب	-11449
▁ٹوپی	-11450
▁وچ	-11451
▁مزی	-11452
▁ضیاع	-11453
▁ءمیں	-11454
▁۱۹۰	-11455
▁ظہبی	-11456
▁فارمیٹس	-11457
▁سلم	-11458
▁کارروائیاں	-11459
▁علموں	-11460
▁متعین	-11461
رہی	-11462
تکوں	-11463
مختار	-11464
▁اشد	-11465
▁ہضم	-11466
▁اخبا	-11467
▁دواؤں	-11468
▁عذ	-11469
▁پہچانا	-11470
▁پوش	-11471
سٹوں	-11472
▁سیڑھی	-11473
▁بھاپ	-11474
▁واجد	-11475
▁بیٹیوں	-11476
▁بام	-11477
▁فرحت	-11478
▁جانیوالی	-11479
▁ملحقہ	-11480
گیس	-11481
اکوں	-11482
▁مچھلیوں	-11483
▁لیلی	-11484
▁یوٹیلیٹی	-11485
▁نسخہ	-11486
▁پھسل	-11487
▁جوڑتا	-11488
ریبا	-11489
▁انٹرپرائز	-11490
ولری	-11491
▁اورقیمت	-11492
▁رومز	-11493
▁راجستھان	-11494
▁کمیونٹیز	-11495
▁قاری	-11496
▁پونٹ	-11497
▁ؤتکوں	-11498
▁نگاری	-11499
▁دلبر	-11500
▁سوالوں	-11501
شبہ	-11502
▁ششماہی	-11503
▁سنو	-11504
ویڈیو	-11505
▁بینی	-11506
▁گاں	-11507
▁لیفٹ	-11508
▁معالجین	-11509
▁فائدے	-11510
▁نگراں	-11511
▁سرحدوں	-11512
▁گیان	-11513
یندر	-11514
▁ففٹی	-11515
▁لنگ	-11516
▁بکس	-11517
▁نوکر	-11518
▁پڑھیں۔	-11519
▁سنایا	-11520
▁راگ	-11521
▁تعطل	-11522
▁آپریشنل	-11523
▁انجوائے	-11524
▁بالواسطہ	-11525
▁ہنگری	-11526
▁رومانس	-11527
کیلئے	-11528
▁بیوقوف	-11529
▁نااہل	-11530
▁وسی	-11531
▁جلوے	-11532
▁مظالم	-11533
▁بہرحال	-11534
انتظ	-11535
▁خمیر	-11536
وطنی	-11537
▁معنوں	-11538
روپ	-11539
▁بڑھاوا	-11540
▁جادوئی	-11541
▁جک	-11542
▁خیرباد	-11543
▁بلٹ	-11544
میچوں	-11545
▁الکاہل	-11546
▁افق	-11547
▁معزز	-11548
ئیڈ	-11549
افغان	-11550
▁فلٹرز	-11551
▁گھرانے	-11552
▁سرٹیفیکیشن	-11553
▁لوٹنے	-11554
زاور	-11555
▁بلز	-11556
ائرس	-11557
▁مجلس	-11558
▁بدتر	-11559
▁بگا	-11560
▁جھڑپ	-11561
▁دہشتگرد	-11562
▁پیلا	-11563
اؤ	-11564
▁مشعل	-11565
▁پینٹنگز	-11566
▁رسائ	-11567
▁شاہکار	-11568
▁موص	-11569
▁ملالہ	-11570
▁یاسین	-11571
▁لیوس	-11572
▁لیونل	-11573
▁ہےپ	-11574
ہماری	-11575
▁پییچ	-11576
▁ڈائون	-11577
▁داموں	-11578
▁فنانسنگ	-11579
نٹر	-11580
▁کمنٹری	-11581
▁ڈیمینشیا	-11582
▁چنئی	-11583
▁جلن	-11584
▁لور	-11585
▁سسر	-11586
▁فاروقی	-11587
▁پیشگوئی	-11588
▁نظارے	-11589
▁پیٹھ	-11590
▁تھانے	-11591
▁برصغیر	-11592
▁راوی	-11593
▁وفود	-11594
▁میٹا	-11595
▁جیولرز	-11596
▁صوف	-11597
ونے	-11598
▁غض	-11599
اراتی	-11600
▁آخری	-11601
▁ڈیموکری	-11602
▁یوز	-11603
▁کمروں	-11604
▁فنک	-11605
▁ناکارہ	-11606
▁ریسورس	-11607
▁پانیوں	-11608
سایہ	-11609
▁زبانیں	-11610
ئرنگ	-11611
▁پھٹنے	-11612
▁طالبہ	-11613
▁مشکور	-11614
▁اسٹیبلشمنٹ	-11615
▁کینڈی	-11616
▁عصر	-11617
▁آکسیڈینٹ	-11618
سٹیٹ	-11619
▁ٹریبونل	-11620
▁قسمیں	-11621
▁پڑتے	-11622
▁ٹیو	-11623
▁معدے	-11624
انٹرنیشنل	-11625
▁حلال	-11626
بولی	-11627
▁ہیپاٹ	-11628
▁کلسٹر	-11629
ئوں	-11630
▁برادر	-11631
▁چھیڑ	-11632
▁پونڈ	-11633
▁ڈیا	-11634
▁موومنٹ	-11635
▁ماخوذ	-11636
▁آزمائش	-11637
عقوب	-11638
▁موٹرز	-11639
ھیرا	-11640
▁سوزوکی	-11641
لوان	-11642
▁حتی	-11643
▁رگن	-11644
الرز	-11645
▁غلبہ	-11646
▁طرازی	-11647
▁لاج	-11648
▁ساوتھ	-11649
▁کاز	-11650
مز	-11651
گذشتہ	-11652
▁خرگو	-11653
▁بیچنے	-11654
▁واری	-11655
▁بچنا	-11656
▁میٹرکس	-11657
غا	-11658
▁کدو	-11659
▁سینٹرز	-11660
▁منسٹر	-11661
▁تارڑ	-11662
ستانی	-11663
▁تولیدی	-11664
▁آل	-11665
▁اباداردو	-11666
▁شال	-11667
▁ریویو	-11668
▁خیل	-11669
▁کنو	-11670
▁شیطان	-11671
▁رشوت	-11672
▁ٹیمپ	-11673
▁مشاور	-11674
▁نکھار	-11675
▁دادی	-11676
▁ایمرجنگ	-11677
▁پاشا	-11678
▁نوں	-11679
▁ھیں	-11680
▁رینگ	-11681
▁دیپیکا	-11682
▁محکمے	-11683
▁ابھیشیک	-11684
بہترین	-11685
ارو	-11686
▁چڑھنے	-11687
▁ہےہ	-11688
▁تدار	-11689
▁موصلیت	-11690
▁s	-11691
▁چمن	-11692
▁جزیروں	-11693
▁گیندیں	-11694
▁مڑ	-11695
▁فریکو	-11696
▁فروٹ	-11697
▁آزاد	-11698
▁مجرموں	-11699
▁کچھی	-11700
▁سیدھی	-11701
▁لارڈ	-11702
▁راؤنڈ	-11703
▁موشن	-11704
بج	-11705
▁ایڈمنسٹری	-11706
▁گھما	-11707
▁کرپٹ	-11708
▁لاشیں	-11709
▁نیتھ	-11710
▁۳۵۰	-11711
▁امانت	-11712
حتی	-11713
▁کینو	-11714
شتوں	-11715
ورڈن	-11716
▁بیکار	-11717
▁مستفید	-11718
▁ابھ	-11719
▁وصولیوں	-11720
▁خلیجی	-11721
▁چھوڑیں	-11722
▁لغت	-11723
▁سلائی	-11724
▁کیئے	-11725
▁پھیلی	-11726
▁ہےپاکستان	-11727
رکنی	-11728
▁ٹوٹل	-11729
▁ارسلان	-11730
▁ہوچکا	-11731
▁بسوں	-11732
▁فیکلٹی	-11733
ar	-11734
کلوگرام	-11735
▁کریگا	-11736
▁چھپی	-11737
▁آیت	-11738
▁نسو	-11739
▁تدریس	-11740
▁ساک	-11741
▁اپارٹمنٹ	-11742
▁گلا	-11743
▁ارجنٹینا	-11744
▁ڈوپنگ	-11745
درا	-11746
▁دبائو	-11747
▁کچے	-11748
▁فولڈ	-11749
▁ناپسندیدہ	-11750
ٹکس	-11751
یوان	-11752
▁کھوپ	-11753
▁ابراہم	-11754
میمی	-11755
▁اتارنے	-11756
▁فاکس	-11757
▁ہنٹ	-11758
▁ڈائر	-11759
▁اسٹرائیک	-11760
▁عبید	-11761
ادن	-11762
▁گورننس	-11763
▁اجداد	-11764
گرافر	-11765
▁اڈیالہ	-11766
۳۸	-11767
▁ٹربیونل	-11768
▁اصطلاحات	-11769
▁گانٹ	-11770
▁انٹرن	-11771
کنے	-11772
▁ستھرائی	-11773
▁اڑنے	-11774
▁لاہورنمائندہ	-11775
▁طبقات	-11776
▁سیلی	-11777
▁ملوں	-11778
▁اڑانے	-11779
▁صابر	-11780
▁کاکہ	-11781
▁دیوان	-11782
ڈیاز	-11783
▁ایموجی	-11784
▁فارمولے	-11785
▁محرم	-11786
▁ہیرے	-11787
▁جنریٹر	-11788
▁آئی۔	-11789
حدود	-11790
▁ضمیمہ	-11791
▁اوباما	-11792
▁باشندے	-11793
▁ہون	-11794
▁ملیر	-11795
زلز	-11796
▁ہراساں	-11797
▁لیاری	-11798
▁چنے	-11799
▁راول	-11800
بلو	-11801
سٹاف	-11802
▁عازمین	-11803
▁عا	-11804
)،	-11805
مارکیٹ	-11806
▁راح	-11807
▁نوک	-11808
▁ملہوترا	-11809
▁مطالبے	-11810
▁بناسکے	-11811
▁کاغذی	-11812
نور	-11813
▁اسٹینڈر	-11814
▁ٹریس	-11815
▁تاحیات	-11816
لاسٹ	-11817
▁گد	-11818
▁اذیت	-11819
▁برتا	-11820
▁گرافک	-11821
▁فالورز	-11822
▁جسموں	-11823
▁ٹھہرا	-11824
فیشل	-11825
▁مہربان	-11826
راچی	-11827
▁مسرت	-11828
▁ولسن	-11829
▁دھندلا	-11830
▁نااہلی	-11831
نسیاں	-11832
▁پہننا	-11833
▁ایمبول	-11834
▁بالز	-11835
▁ڈھول	-11836
▁نغمہ	-11837
▁سیکنڈری	-11838
▁یعقوب	-11839
▁کھاتا	-11840
۳۶	-11841
▁سرخی	-11842
▁برکت	-11843
▁ٹھکانے	-11844
▁اٹو	-11845
▁انکر	-11846
▁چوٹوں	-11847
▁پھلی	-11848
چھٹ	-11849
▁گیشن	-11850
▁کلائنٹ	-11851
▁گئیا	-11852
▁ایسٹر	-11853
▁دفعات	-11854
▁مخلوط	-11855
▁قرا	-11856
▁سکرپٹ	-11857
▁انوار	-11858
▁خوشحال	-11859
▁کوارٹرفائنل	-11860
وسامان	-11861
▁سعدیہ	-11862
ندیل	-11863
▁جوا	-11864
▁منورہ	-11865
▁امیدوں	-11866
▁فروختروپے	-11867
▁رومانیہ	-11868
وسوم	-11869
▁وکٹوریہ	-11870
▁نارائن	-11871
۷۰	-11872
▁تعلیمات	-11873
ائلز	-11874
▁کاٹا	-11875
اندلی	-11876
▁گایہ	-11877
سید	-11878
▁اُسے	-11879
▁دکانداروں	-11880
▁بتاتی	-11881
المپور	-11882
is	-11883
ءکے	-11884
▁زنک	-11885
وپیا	-11886
علاوہ	-11887
▁فخرزمان	-11888
▁سننا	-11889
▁پراڈ	-11890
▁آسکتی	-11891
▁فقرے	-11892
ٹریا	-11893
▁پکار	-11894
▁چلانا	-11895
▁ہمسایہ	-11896
▁ئس	-11897
▁سپیڈ	-11898
▁پاں	-11899
▁خریدنا	-11900
▁بادشاہی	-11901
▁حید	-11902
▁ٹھنڈی	-11903
▁لاجو	-11904
▁اشاروں	-11905
▁میراث	-11906
▁سازوسامان	-11907
▁کیچڑ	-11908
▁گھرانوں	-11909
▁چمڑے	-11910
▁پولارڈ	-11911
ٹور	-11912
▁سدھارتھ	-11913
▁روئٹرز	-11914
▁سبسکرائب	-11915
▁پرجی	-11916
▁کمنز	-11917
▁گارنٹی	-11918
▁افریقن	-11919
▁قدرت	-11920
ائزرز	-11921
▁دھاتوں	-11922
▁برخلاف	-11923
▁گریجویٹ	-11924
کرتے	-11925
سمین	-11926
▁دمی	-11927
▁گیلری	-11928
▁پوچھتے	-11929
▁جملوں	-11930
▁کوس	-11931
روح	-11932
▁جاوا	-11933
▁جگہیں	-11934
▁دیوانے	-11935
▁آنت	-11936
▁میٹریل	-11937
وسٹر	-11938
▁سکریٹری	-11939
▁وجے	-11940
▁پہنچتے	-11941
▁گھٹن	-11942
▁نیلی	-11943
▁انفرا	-11944
▁وزرا	-11945
▁کریئر	-11946
▁ڈائریکشن	-11947
▁تمھ	-11948
▁پھیر	-11949
▁ہیکٹر	-11950
▁اداس	-11951
▁خودمختار	-11952
▁آئرش	-11953
▁ٹریول	-11954
لیمان	-11955
▁تھرل	-11956
▁مکعب	-11957
▁ڈھانپ	-11958
فورس	-11959
▁برک	-11960
▁دکانیں	-11961
▁ٹریکٹر	-11962
▁غیرت	-11963
دوش	-11964
▁بیٹوں	-11965
▁اپر	-11966
▁۱۰۴	-11967
▁مجبوری	-11968
▁ہتھ	-11969
▁فوت	-11970
▁لازوال	-11971
فاسٹ	-11972
دھر	-11973
▁دلاتا	-11974
▁انڈپینڈنٹ	-11975
▁ہمدرد	-11976
▁آبپاشی	-11977
▁ٹرانزیکشن	-11978
▁ٹوپ	-11979
▁ملی۔	-11980
▁عملدرامد	-11981
▁امدن	-11982
▁ہیزل	-11983
جوش	-11984
▁شاگر	-11985
▁تائیک	-11986
▁چوٹیں	-11987
▁اذان	-11988
▁معدوم	-11989
ظی	-11990
۳۴	-11991
▁کمنٹ	-11992
رہا	-11993
▁کھنہ	-11994
▁شاہینوں	-11995
▁سوتے	-11996
▁ٹون	-11997
▁اڈوں	-11998
▁توبہ	-11999
▁پریڈ	-12000
▁جرات	-12001
اڑ	-12002
امریکہ	-12003
▁وارث	-12004
▁ورکشاپس	-12005
تقریبا	-12006
▁آرکٹک	-12007
▁آدھا	-12008
▁سنیں	-12009
▁انووں	-12010
▁دستے	-12011
▁ہیلپ	-12012
▁فارسی	-12013
▁مطلوب	-12014
کیوں	-12015
▁لگے۔	-12016
▁اسٹیشنوں	-12017
▁گھیر	-12018
▁یونیس	-12019
▁روانی	-12020
▁صنعتیں	-12021
چاہ	-12022
۳۹	-12023
▁اغا	-12024
▁گزرنا	-12025
وای	-12026
پورٹر	-12027
▁قائدین	-12028
▁بشر	-12029
▁عدد	-12030
▁گاس	-12031
▁فونٹ	-12032
▁مہیش	-12033
▁کرہ	-12034
▁سبحان	-12035
▁خاصا	-12036
تھری	-12037
▁تصویروں	-12038
▁فنکشنل	-12039
وسکو	-12040
▁تجاوزات	-12041
ئے۔	-12042
▁مشاورتی	-12043
▁کوت	-12044
▁اپنانا	-12045
اسانی	-12046
▁چیس	-12047
▁مندانہ	-12048
▁اسکورر	-12049
▁شکن	-12050
قریب	-12051
درے	-12052
▁سکت	-12053
▁مومنہ	-12054
۸۰	-12055
▁نیلسن	-12056
تعل	-12057
پیئر	-12058
ینیا	-12059
▁محلے	-12060
▁ہچکچاہٹ	-12061
▁بہو	-12062
▁ہیملٹن	-12063
▁سہولتوں	-12064
▁اسکائی	-12065
▁یادیو	-12066
▁امنے	-12067
▁اعادہ	-12068
▁فروش	-12069
▁ریپبل	-12070
▁میٹھا	-12071
▁میکسویل	-12072
▁ڈوئل	-12073
مایہ	-12074
افل	-12075
▁ہوت	-12076
صحت	-12077
▁تلچھٹ	-12078
صدر	-12079
▁دے۔	-12080
▁جاب	-12081
▁کچن	-12082
▁بسمہ	-12083
▁پریکٹیشن	-12084
▁پھین	-12085
▁معرکے	-12086
ُو	-12087
اہب	-12088
▁چھیا	-12089
▁گوبھی	-12090
▁چالان	-12091
▁ریحان	-12092
▁میکر	-12093
▁منز	-12094
▁ماؤں	-12095
▁داؤ	-12096
▁دہشتگردوں	-12097
▁سائیکلوں	-12098
▁حضور	-12099
ئیل	-12100
افات	-12101
▁معمر	-12102
▁لیوی	-12103
▁مبشر	-12104
▁تہران	-12105
▁منیجنگ	-12106
▁گریم	-12107
▁عینی	-12108
▁وزرائے	-12109
▁موٹائی	-12110
▁بنائے۔	-12111
جیسا	-12112
▁انمول	-12113
▁قلعے	-12114
▁برامدی	-12115
▁ٹوٹنے	-12116
▁نیویار	-12117
▁آپریشنز	-12118
▁آپس	-12119
▁گرج	-12120
▁چترال	-12121
▁گیلن	-12122
ادوس	-12123
▁جیف	-12124
▁مینڈس	-12125
▁سونپی	-12126
▁جلال	-12127
▁دیپ	-12128
▁دروازوں	-12129
▁کوپ	-12130
▁چرچے	-12131
اڑی	-12132
▁کھال	-12133
▁لکیری	-12134
لوڈ	-12135
▁ملاوٹ	-12136
اوپن	-12137
▁معلوماتی	-12138
▁ماننے	-12139
▁بائولرز	-12140
▁ستند	-12141
▁بنال	-12142
▁جینوں	-12143
▁چھٹیاں	-12144
صی	-12145
یران	-12146
▁ٹرم	-12147
▁رحجان	-12148
▁انجلینا	-12149
نیشن	-12150
▁ایجنٹوں	-12151
وراگ	-12152
▁کوکیز	-12153
▁ضابطے	-12154
▁ادرک	-12155
▁سربراہان	-12156
▁ایمانداری	-12157
▁انجکشن	-12158
▁گرافکس	-12159
▁استعفیٰ	-12160
▁آکسائڈ	-12161
▁بارودی	-12162
و۔	-12163
دبئی	-12164
▁جسکی	-12165
▁ہاپ	-12166
کوار	-12167
▁الیکس	-12168
یندرا	-12169
▁مارننگ	-12170
▁پانڈے	-12171
▁اسٹرکچر	-12172
▁ارٹس	-12173
▁قبائل	-12174
▁پارکس	-12175
▁ملائشیا	-12176
▁باہم	-12177
▁زری	-12178
▁سہرا	-12179
▁پرجیوی	-12180
▁کتب	-12181
ائریکٹر	-12182
▁آٹومیشن	-12183
▁آلودگیوں	-12184
۳۲	-12185
▁نوری	-12186
ربن	-12187
▁رکھا۔	-12188
روج	-12189
▁حسب	-12190
▁عائزہ	-12191
فریدی	-12192
▁مارخ	-12193
▁سنجو	-12194
اکاروں	-12195
▁پرب	-12196
گروپ	-12197
▁تدارک	-12198
▁معاشرہ	-12199
▁برہمی	-12200
▁عینک	-12201
▁ادائی	-12202
▁ہیںاور	-12203
▁پنس	-12204
▁۹۰۰	-12205
▁چپس	-12206
▁گائیکی	-12207
▁تسخیر	-12208
▁ڈوڈ	-12209
▁ہوچکے	-12210
۲۰۰	-12211
▁سمٹ	-12212
تاح	-12213
▁ڈوبنے	-12214
▁گاجر	-12215
▁کنسلٹنٹ	-12216
قر	-12217
▁جاسوسی	-12218
گھنٹے	-12219
▁بلاشبہ	-12220
یادت	-12221
▁کٹاؤ	-12222
▁بکھ	-12223
▁خلاباز	-12224
▁شیف	-12225
▁اوکا	-12226
▁خارش	-12227
▁مبادلہ	-12228
۳رنز	-12229
▁رحمن	-12230
▁حجاب	-12231
▁قاعدہ	-12232
▁اومیگا	-12233
▁لیگل	-12234
▁دہرا	-12235
▁کھلانا	-12236
▁پریزنٹیشن	-12237
▁ہارورڈ	-12238
پار	-12239
ازو	-12240
اریو	-12241
▁تھیاس	-12242
▁وئیر	-12243
▁پگھلنے	-12244
▁فساد	-12245
بیلے	-12246
▁صحافت	-12247
▁گواہی	-12248
▁نواحی	-12249
▁مشتعل	-12250
▁بوسٹن	-12251
▁فیکٹر	-12252
▁برمدی	-12253
ائزری	-12254
▁پاون	-12255
▁کبری	-12256
کاز	-12257
یمن	-12258
▁میلز	-12259
یراج	-12260
▁دستبرداری	-12261
▁یہیں	-12262
▁کرگیا	-12263
▁گست	-12264
▁جوشی	-12265
▁اسٹال	-12266
▁پھینکنے	-12267
▁بڑھنا	-12268
▁معیشتوں	-12269
▁سنکن	-12270
▁عکاس	-12271
▁شیلف	-12272
▁رکنے	-12273
▁سرشار	-12274
▁ہیںایک	-12275
ہہ	-12276
▁جعفری	-12277
▁فرانسس	-12278
وجو	-12279
▁تجزیاتی	-12280
▁اسمگل	-12281
▁حاضرین	-12282
▁ملایا	-12283
▁بہانے	-12284
▁چراغ	-12285
▁نارمل	-12286
▁انسٹیٹیوٹ	-12287
▁کرچکی	-12288
▁میگنیشیم	-12289
▁حلیم	-12290
ٹوں	-12291
دیں	-12292
▁چھٹا	-12293
▁براؤزر	-12294
▁دانے	-12295
▁چیرمین	-12296
▁جوتوں	-12297
▁کارنر	-12298
▁لٹل	-12299
▁پرستوں	-12300
▁سالماتی	-12301
▁ناں	-12302
▁گھومتے	-12303
تھے	-12304
خیزی	-12305
▁شرمندگی	-12306
پہلا	-12307
یالوجی	-12308
▁پڑھے	-12309
▁بچھڑے	-12310
▁ناگ	-12311
ترجمان	-12312
▁قوالی	-12313
▁شائستہ	-12314
▁آٹا	-12315
▁فزکس	-12316
عرف	-12317
▁صلح	-12318
جیٹ	-12319
جانب	-12320
▁ریشوں	-12321
▁قابض	-12322
▁کیرولائنا	-12323
▁کموڈ	-12324
▁پلیس	-12325
▁کمنٹی	-12326
▁چلائیں	-12327
کہا	-12328
▁بیانیہ	-12329
ad	-12330
▁سنکنرن	-12331
▁ہونٹوں	-12332
جیو	-12333
▁سچی	-12334
▁کلبوں	-12335
▁چھڑی	-12336
▁وینٹیلی	-12337
ہیری	-12338
▁نیتھن	-12339
سپانس	-12340
▁وارانہ	-12341
▁دھمکیوں	-12342
▁خریدروپے	-12343
ونکس	-12344
▁الحمد	-12345
▁چیلنجنگ	-12346
▁کیریبین	-12347
▁لاشوں	-12348
▁مانے	-12349
▁پانا	-12350
▁سیوریج	-12351
▁پارٹنرشپ	-12352
▁تھپڑ	-12353
▁ایپی	-12354
▁مؤخر	-12355
▁منحنی	-12356
▁اجتماع	-12357
▁الحمرا	-12358
ٹیلٹی	-12359
▁دستکاری	-12360
▁نمائشی	-12361
صارف	-12362
▁گٹار	-12363
خصوصی	-12364
▁بدتمیزی	-12365
سیر	-12366
بلا	-12367
▁نمٹا	-12368
خن	-12369
ڈرن	-12370
وجودہ	-12371
▁پینٹس	-12372
ملا	-12373
▁منیجمنٹ	-12374
ثنا	-12375
▁جھٹکا	-12376
سٹریلوی	-12377
▁ازب	-12378
▁کیمبرج	-12379
▁جراحی	-12380
▁پولیمر	-12381
▁ٹوکری	-12382
▁ہیپاٹائٹس	-12383
شکریہ	-12384
▁ایدھی	-12385
▁کبوت	-12386
▁سجایا	-12387
▁مخلص	-12388
▁کااضافہ	-12389
الڈ	-12390
▁کھوپڑی	-12391
کلز	-12392
▁۱۴۴	-12393
▁مہاراش	-12394
یکیوریٹی	-12395
▁ریستوراں	-12396
یمار	-12397
▁سوڈان	-12398
▁مزیدار	-12399
ٹیکا	-12400
▁جھلکیاں	-12401
زنگ	-12402
▁دامن	-12403
یون	-12404
امیچ	-12405
▁نانی	-12406
▁مانگا	-12407
ِن	-12408
▁رسد	-12409
▁گزارنا	-12410
▁بولتا	-12411
▁رونا	-12412
▁جلتا	-12413
▁اسکوائر	-12414
▁کوالالمپور	-12415
▁شکوک	-12416
▁کیپنگ	-12417
▁ٹیلیفون	-12418
▁چڑھاو	-12419
▁ٹینڈ	-12420
▁شاگرد	-12421
▁بروس	-12422
▁راہیں	-12423
▁بھتی	-12424
▁۱۰۲	-12425
▁مورس	-12426
یراط	-12427
▁یامین	-12428
▁برادرز	-12429
▁پاناما	-12430
وقت	-12431
باؤ	-12432
▁کرلیں	-12433
یبت	-12434
نبول	-12435
▁انکشافات	-12436
▁دھاندلی	-12437
▁لق	-12438
▁ہارمونز	-12439
▁بونس	-12440
▁سلامت	-12441
▁میکرو	-12442
▁رز	-12443
▁اٹلان	-12444
کزئی	-12445
▁جرگ	-12446
▁ہولو	-12447
▁سونیا	-12448
▁سوری	-12449
▁انزائم	-12450
انڈا	-12451
▁آفات	-12452
▁چیونٹی	-12453
ائیہ	-12454
▁جیکی	-12455
▁گرائمر	-12456
▁بیماریاں	-12457
▁نچوڑ	-12458
▁ادریس	-12459
▁چچا	-12460
▁رسیدہ	-12461
ایسا	-12462
ڑکانہ	-12463
▁چلڈ	-12464
▁الیس	-12465
وڈا	-12466
▁عدیل	-12467
▁شکوہ	-12468
رنگ	-12469
▁وضاحتی	-12470
▁جغرافیہ	-12471
▁پلو	-12472
▁ہواؤں	-12473
▁کارلوس	-12474
▁آمیز	-12475
▁پرانی	-12476
▁مکالمے	-12477
▁جھک	-12478
وبا	-12479
▁بچانا	-12480
▁امیجز	-12481
▁حذف	-12482
نڈنٹ	-12483
▁رہنماں	-12484
▁سعادت	-12485
▁غسل	-12486
▁علماء	-12487
▁سٹیو	-12488
▁ہےگزشتہ	-12489
کوئٹہ	-12490
▁شیم	-12491
▁کنفیڈ	-12492
ائص	-12493
▁غدود	-12494
▁مٹھ	-12495
▁ارہا	-12496
سبز	-12497
▁بالائی	-12498
ادا	-12499
▁نکلیں	-12500
▁ڈیانا	-12501
▁بیروز	-12502
▁ٹرانسفارم	-12503
نٹا	-12504
▁لاہ	-12505
▁اعتراضات	-12506
▁اوراس	-12507
▁مبہ	-12508
▁شیٹس	-12509
روع	-12510
▁ایگ	-12511
الفطر	-12512
▁بروک	-12513
ٰذا	-12514
بلٹی	-12515
▁ترمیمی	-12516
▁ذخیرے	-12517
ہام	-12518
▁چھان	-12519
▁جیکب	-12520
ائنی	-12521
▁وقوف	-12522
فین	-12523
▁ویڈ	-12524
▁سناتے	-12525
سز	-12526
▁مباحثے	-12527
▁اونچا	-12528
▁طوفانی	-12529
▁ریٹس	-12530
▁قمری	-12531
۰۵	-12532
▁بندے	-12533
▁آمدید	-12534
▁ذرہ	-12535
▁صابری	-12536
▁اڈٹ	-12537
▁اکائونٹ	-12538
▁قبیلے	-12539
▁ایما	-12540
▁عری	-12541
▁قبولیت	-12542
▁پیشے	-12543
▁فروشوں	-12544
ماجی	-12545
▁سیٹوں	-12546
▁قندیل	-12547
▁باسط	-12548
▁رضی	-12549
▁انڈو	-12550
▁پگھل	-12551
▁مناتے	-12552
سلمان	-12553
▁ٹخ	-12554
▁ڈینس	-12555
▁تخفیف	-12556
▁چوتھائی	-12557
▁لارا	-12558
▁کیٹگریز	-12559
▁گراں	-12560
▁میتھین	-12561
ورل	-12562
▁باڈیز	-12563
ونوش	-12564
▁سائم	-12565
▁مرجان	-12566
▁کالجز	-12567
▁افطار	-12568
▁چلائے	-12569
▁ڈاگ	-12570
▁فلیکس	-12571
ٹرنز	-12572
▁کیوئ	-12573
▁مارٹم	-12574
▁ٹربائن	-12575
▁دستان	-12576
▁ٹینڈر	-12577
ڑن	-12578
▁جھلی	-12579
▁چٹا	-12580
وڈنٹ	-12581
▁دھرم	-12582
▁الوداع	-12583
▁اکاؤنٹنگ	-12584
▁مسخ	-12585
▁فرٹیل	-12586
▁گران	-12587
▁گھبراہٹ	-12588
▁نکلی	-12589
▁سیکنڈز	-12590
▁جہنم	-12591
▁حکیم	-12592
▁چھبیس	-12593
خوش	-12594
▁ناطے	-12595
▁ہیلو	-12596
▁پیئر	-12597
▁کرایوں	-12598
▁جھی	-12599
▁اپشن	-12600
▁روکتے	-12601
▁ایجنڈا	-12602
▁ستا	-12603
▁بریگیڈ	-12604
لیکشن	-12605
غی	-12606
▁میلبرن	-12607
▁کیرن	-12608
‘،	-12609
▁میش	-12610
▁▁	-12611
▁اولم	-12612
َی	-12613
افے	-12614
▁کانس	-12615
▁تماشائی	-12616
وبیا	-12617
▁قہ	-12618
روا	-12619
▁پہنچتا	-12620
َا	-12621
▁اکرام	-12622
۵۶	-12623
▁ایمن	-12624
▁وومن	-12625
کلینڈ	-12626
▁عطاء	-12627
▁ریٹویٹ	-12628
قوں	-12629
▁رضاکاروں	-12630
▁ٹریڈرز	-12631
▁ارباز	-12632
▁لارنس	-12633
▁اسکیموں	-12634
زلزل	-12635
▁۱۰۶	-12636
▁خرگوش	-12637
وسنی	-12638
▁ناچ	-12639
▁سٹوکس	-12640
۴۸	-12641
▁باولرز	-12642
▁پیشی	-12643
▁تلاشی	-12644
حص	-12645
▁نیول	-12646
▁اتھلیٹکس	-12647
▁وسیلہ	-12648
▁موٹروے	-12649
فک	-12650
ودے	-12651
وفر	-12652
▁ہےبھارتی	-12653
▁ادائیگیاں	-12654
قابل	-12655
▁ہیراتھ	-12656
▁سندھی	-12657
▁نکلتے	-12658
▁اسکالرز	-12659
▁ماؤس	-12660
▁گارڈز	-12661
▁ہیںمزید	-12662
تیہ	-12663
حکام	-12664
▁پراجیکٹس	-12665
▁مطلق	-12666
▁خریدتے	-12667
▁خانیوال	-12668
۵۹	-12669
ایچ	-12670
▁قیمتروپے	-12671
▁اندھا	-12672
▁سویپ	-12673
▁پارلیمان	-12674
▁انٹرا	-12675
لیشن	-12676
▁یل	-12677
▁غدار	-12678
▁انوراگ	-12679
الحق	-12680
▁پکی	-12681
▁سرپر	-12682
▁سماج	-12683
▁انفلو	-12684
▁لاہورپاکستان	-12685
▁لندناردو	-12686
▁the	-12687
▁مونٹ	-12688
▁اتحادیوں	-12689
پائی	-12690
▁آدھی	-12691
▁۹۲نیوز	-12692
یام	-12693
▁نیلام	-12694
▁ویڈنگ	-12695
▁پیتے	-12696
میڈ	-12697
▁کنول	-12698
ذیری	-12699
▁نیمار	-12700
یکٹی	-12701
▁علامتیں	-12702
▁کاکڑ	-12703
▁الٹراس	-12704
ہوم	-12705
▁سبھا	-12706
▁شیلڈ	-12707
▁لازم	-12708
میٹری	-12709
▁پلاٹین	-12710
▁بڑھائی	-12711
▁تبادلوں	-12712
برک	-12713
مختلف	-12714
▁بااسانی	-12715
▁پشاوراردو	-12716
▁انعم	-12717
▁ای۱۰۰	-12718
▁پانڈیا	-12719
ستھ	-12720
▁مجسٹریٹ	-12721
فف	-12722
۴۲	-12723
▁کیبلز	-12724
ربائی	-12725
▁یرغ	-12726
▁ہارے	-12727
بادا	-12728
شوبز	-12729
▁سنگر	-12730
▁اینٹوں	-12731
▁صحن	-12732
▁اٹھائیس	-12733
ظیمی	-12734
▁بائیوٹک	-12735
▁الہٰی	-12736
▁عبرت	-12737
گوئے	-12738
▁لکس	-12739
▁مظاہروں	-12740
▁مہارتیں	-12741
▁پدماوتی	-12742
▁پہل	-12743
▁پودا	-12744
مست	-12745
▁انفو	-12746
▁پورہ	-12747
▁دھماکوں	-12748
▁پذیری	-12749
▁اصو	-12750
▁پختونخواہ	-12751
▁M	-12752
▁خلاء	-12753
▁اینڈروئیڈ	-12754
▁مشاہدے	-12755
▁الادا	-12756
▁ہیںتاہم	-12757
▁مٹھی	-12758
▁جھوٹا	-12759
▁ایماندار	-12760
▁ٹوکن	-12761
▁ویسٹرن	-12762
سیفک	-12763
▁شروف	-12764
▁میٹڈ	-12765
▁کولنگ	-12766
▁والٹ	-12767
▁کانز	-12768
▁روزی	-12769
▁بچیوں	-12770
▁شہداء	-12771
▁نبوی	-12772
ونری	-12773
▁برداری	-12774
رای	-12775
▁ایگل	-12776
▁نوٹسز	-12777
▁چیپل	-12778
پانی	-12779
▁جیری	-12780
▁بگٹی	-12781
▁نقائص	-12782
▁خودکش	-12783
▁کھونے	-12784
ہاں	-12785
▁لیسکو	-12786
▁روبوٹک	-12787
ادھر	-12788
▁پکو	-12789
▁پروں	-12790
▁بدی	-12791
▁ایکٹی	-12792
▁جامہ	-12793
▁عصری	-12794
▁زرخیزی	-12795
سیکیوریٹی	-12796
▁بکھر	-12797
▁پیاروں	-12798
▁نل	-12799
▁تختی	-12800
▁خوشیوں	-12801
▁ریسٹورنٹ	-12802
▁شکرگزار	-12803
ذول	-12804
▁کارخ	-12805
▁وای	-12806
▁of	-12807
▁زند	-12808
▁پونٹنگ	-12809
▁فرخ	-12810
▁ڈبے	-12811
اپریلء	-12812
▁ریلویز	-12813
▁شاگردوں	-12814
▁سونو	-12815
▁نبھائیں	-12816
ریٹس	-12817
▁اپل	-12818
▁نوواک	-12819
▁توسی	-12820
▁لائنیں	-12821
ناد	-12822
▁جھر	-12823
▁استنبول	-12824
پیس	-12825
▁لنڈ	-12826
▁لڑتے	-12827
▁اورنج	-12828
ینٹری	-12829
▁کوئز	-12830
▁آؤ	-12831
▁ناشتہ	-12832
▁توشہ	-12833
▁شمیم	-12834
▁چلڈرن	-12835
▁مکھن	-12836
▁گروتھ	-12837
▁ایکویٹی	-12838
▁ذائق	-12839
کنندگان	-12840
▁انجنوں	-12841
▁بلانے	-12842
▁لطیفہ	-12843
▁مینڈیٹ	-12844
▁اماراتی	-12845
زت	-12846
▁فریز	-12847
▁لہٰذا	-12848
▁لودھی	-12849
▁حامیوں	-12850
۴۷	-12851
نار	-12852
▁ویلڈنگ	-12853
وراڈو	-12854
▁سرجیکل	-12855
▁عبدالرحمان	-12856
▁گستاخ	-12857
گھن	-12858
▁پھٹی	-12859
▁فوراً	-12860
▁کشیدہ	-12861
▁آگے	-12862
عر	-12863
وزی	-12864
▁راشن	-12865
▁ٹھنڈک	-12866
▁ایڈوائزری	-12867
▁منٹو	-12868
▁متزلزل	-12869
▁پائن	-12870
▁لاڑکانہ	-12871
▁ٹھیکی	-12872
▁ویکٹر	-12873
بڑ	-12874
▁قطب	-12875
▁جبری	-12876
▁سسٹمز	-12877
▁ٹورنٹو	-12878
▁تنصیبات	-12879
▁جمعیت	-12880
سندھ	-12881
▁کرلے	-12882
جہانی	-12883
▁یوگ	-12884
▁گیانا	-12885
ے۔	-12886
دیث	-12887
▁ججوں	-12888
▁الخ	-12889
تحصیل	-12890
▁کردیئے	-12891
▁مبذول	-12892
▁گمشدہ	-12893
▁معاشروں	-12894
▁سائبرسیکیوریٹی	-12895
▁مسکرا	-12896
▁پٹھان	-12897
▁آپکو	-12898
▁مرلی	-12899
شیخ	-12900
▁روبی	-12901
▁ادکارہ	-12902
▁کھوئے	-12903
▁متھیرا	-12904
▁گودام	-12905
▁نمائندگان	-12906
▁قوال	-12907
)"	-12908
▁ہورہے	-12909
شہری	-12910
▁ریح	-12911
▁تقدیر	-12912
▁بہنے	-12913
▁پرجوش	-12914
▁فنگس	-12915
▁کیفین	-12916
▁منظرعام	-12917
▁اجارہ	-12918
▁منتشر	-12919
▁وفاداری	-12920
▁مصیبت	-12921
پوں	-12922
گلش	-12923
▁ممب	-12924
▁پتلا	-12925
▁معمار	-12926
▁ویران	-12927
جنرل	-12928
▁بھائو	-12929
جاوید	-12930
ویلین	-12931
▁دوہری	-12932
▁شکاریوں	-12933
▁گٹھیا	-12934
▁عیدالفطر	-12935
لون	-12936
▁بدم	-12937
▁اکھا	-12938
▁مٹر	-12939
▁ہیرس	-12940
▁سینگ	-12941
▁سیدھ	-12942
▁دالوں	-12943
▁یکے	-12944
پسٹ	-12945
بیسٹ	-12946
▁فاتحانہ	-12947
▁گرتے	-12948
▁ستار	-12949
▁ہیلمٹ	-12950
قیر	-12951
▁ڈبلن	-12952
▁افقی	-12953
وسنییتا	-12954
▁بیہ	-12955
▁وری	-12956
▁ہیٹر	-12957
▁مہندی	-12958
▁ٹیمپرنگ	-12959
▁میٹابولک	-12960
▁نیٹو	-12961
▁اسہال	-12962
بجلی	-12963
▁پارٹیوں	-12964
ڈپ	-12965
▁دول	-12966
ویسے	-12967
▁برہم	-12968
▁پیریڈ	-12969
▁عبدالحفیظ	-12970
▁گھٹیا	-12971
▁اکتیس	-12972
▁آفتاب	-12973
قیانوسی	-12974
▁جست	-12975
▁بھیجنا	-12976
▁۰۰	-12977
▁متغیرات	-12978
▁ایجنسیاں	-12979
▁وشوسنییتا	-12980
صور	-12981
▁سچے	-12982
▁الذکر	-12983
▁ہستی	-12984
▁گزرا	-12985
▁کلینڈ	-12986
ed	-12987
ربائیجان	-12988
▁لیام	-12989
▁نشتر	-12990
▁مارٹ	-12991
کنز	-12992
▁خریدیں	-12993
▁آسٹریلیا	-12994
▁کڑ	-12995
▁ہلال	-12996
▁جینیفر	-12997
▁کٹھ	-12998
جمعرات	-12999
▁ٹرینوں	-13000
▁۱۰۸	-13001
▁وعدوں	-13002
۵۵	-13003
▁تقاضا	-13004
▁چسپ	-13005
▁سمگل	-13006
▁سونپ	-13007
تحقی	-13008
وئ	-13009
ائرن	-13010
▁تھےاس	-13011
▁مبہم	-13012
▁یوٹیلٹی	-13013
ab	-13014
▁کوپر	-13015
▁بھیجیں	-13016
ٹورنامنٹ	-13017
▁سکا۔	-13018
▁خداوند	-13019
▁تنظیمی	-13020
ِک	-13021
▁ٹرانسپلانٹ	-13022
▁راکی	-13023
▁فارما	-13024
حمت	-13025
▁ہائر	-13026
▁اصولی	-13027
شریف	-13028
▁جونس	-13029
▁تھیلے	-13030
بیٹ	-13031
انڈیا	-13032
▁اسٹریم	-13033
▁سویٹ	-13034
ابا	-13035
▁ریڈنگ	-13036
▁زیارت	-13037
▁ستائش	-13038
▁انٹرویوز	-13039
زادے	-13040
▁انکلو	-13041
▁نانا	-13042
▁ستائیس	-13043
▁لامحدود	-13044
ہالی	-13045
سٹاک	-13046
▁پختگی	-13047
▁میانمار	-13048
▁گریگ	-13049
▁ایپلیکیشن	-13050
▁چیلسی	-13051
▁ضابطگی	-13052
اسکر	-13053
▁داڑھی	-13054
▁ریاستیں	-13055
▁جڑا	-13056
▁عشر	-13057
▁لینڈرز	-13058
۹۰	-13059
▁زچ	-13060
۷رنز	-13061
▁رٹسٹ	-13062
▁ڈالیں۔	-13063
انڈیکسپوائنٹس	-13064
▁مستثنی	-13065
▁کھائے	-13066
▁آکسفورڈ	-13067
▁میت	-13068
▁عزائم	-13069
▁اوہائی	-13070
▁رائس	-13071
▁لٹک	-13072
▁دقیانوسی	-13073
▁رکشہ	-13074
جنس	-13075
وسہ	-13076
▁نیتن	-13077
▁ارتک	-13078
▁مشروم	-13079
ائین	-13080
فنز	-13081
▁وانگ	-13082
▁کع	-13083
▁ہوجاتی	-13084
▁آڈٹ	-13085
▁ٹرائی	-13086
ٹاپ	-13087
▁ریلے	-13088
▁کلائی	-13089
▁کلومیٹر	-13090
عروف	-13091
۷۵	-13092
▁پہیلی	-13093
▁گیتوں	-13094
▁ڈویژنل	-13095
ئٹر	-13096
▁ڈویلپر	-13097
▁اوورسیز	-13098
ماڈل	-13099
▁تنخواہیں	-13100
فرا	-13101
گورن	-13102
▁تنے	-13103
انڈین	-13104
▁میل۔	-13105
▁میٹل	-13106
▁پالک	-13107
▁قیوم	-13108
▁اوکاڑہ	-13109
▁عبدالرحمن	-13110
▁یورپین	-13111
▁اطہر	-13112
▁مانتے	-13113
▁وقو	-13114
ہل	-13115
خیبر	-13116
▁کرلئے	-13117
ھن	-13118
▁اقرا	-13119
▁پیمرا	-13120
▁کاظمی	-13121
▁اسف	-13122
▁اپناتے	-13123
▁چاہوں	-13124
▁الیکٹرو	-13125
▁الاضحی	-13126
یمل	-13127
مارا	-13128
▁کائی	-13129
▁کولہ	-13130
ادوسری	-13131
▁جلتی	-13132
پلس	-13133
▁نشستیں	-13134
▁زمبابوین	-13135
▁مکھرجی	-13136
▁ملیریا	-13137
امرس	-13138
▁الارم	-13139
اعی	-13140
▁ایمبی	-13141
▁اقتباس	-13142
▁ایمبولینس	-13143
تب	-13144
ریفی	-13145
▁اٹھائی	-13146
▁مائکروسکو	-13147
▁ریوڑ	-13148
▁مزمل	-13149
▁پوچھنا	-13150
▁کیفے	-13151
▁بیٹریوں	-13152
▁وسطیٰ	-13153
▁فلاپ	-13154
▁سوریا	-13155
قاط	-13156
▁پیٹرک	-13157
۲رنز	-13158
▁عروہ	-13159
▁سائیکلسٹ	-13160
غور	-13161
▁حجاج	-13162
▁دیوانہ	-13163
▁کرسکتی	-13164
▁کوریو	-13165
▁ہاہاہ	-13166
▁کنیریا	-13167
▁نمائشوں	-13168
▁رفیع	-13169
▁قیراط	-13170
نتخب	-13171
ظیر	-13172
▁ڈالتی	-13173
مبئی	-13174
▁ہوجاتا	-13175
▁سیکرٹریٹ	-13176
▁ذکاء	-13177
▁سپرو	-13178
▁سراسر	-13179
▁تعی	-13180
▁پرنٹر	-13181
▁کسے	-13182
▁۱۱۵	-13183
▁ائٹم	-13184
▁شادیوں	-13185
طرح	-13186
یوس	-13187
▁دید	-13188
▁انتقام	-13189
▁تشہیری	-13190
▁گلشن	-13191
▁گالا	-13192
▁ہیکل	-13193
▁شرمین	-13194
▁عارضے	-13195
▁رچ	-13196
▁فورٹ	-13197
▁چب	-13198
▁بمشکل	-13199
▁مونو	-13200
▁عذاب	-13201
▁نکالنا	-13202
▁روٹر	-13203
▁سواروں	-13204
پرسن	-13205
▁ادھ	-13206
▁حرمین	-13207
▁جھیلوں	-13208
▁کفالت	-13209
▁زکربرگ	-13210
▁نکالے	-13211
▁ہسٹ	-13212
▁آرکیٹیک	-13213
▁یروش	-13214
▁میسجز	-13215
▁ایکوی	-13216
▁اوہائیو	-13217
▁کوب	-13218
▁ٹائل	-13219
▁قربت	-13220
▁سیشنز	-13221
▁پورٹس	-13222
▁بیلی	-13223
خوں	-13224
▁بھون	-13225
▁ٹیر	-13226
▁پردی	-13227
▁جیولری	-13228
مور	-13229
وسو	-13230
▁کرسکا	-13231
▁ملاقاتوں	-13232
▁ہارس	-13233
▁منائیں	-13234
پٹن	-13235
▁فرقہ	-13236
▁بگڑ	-13237
▁سنک	-13238
▁ڈنک	-13239
اکارہ	-13240
▁بھوت	-13241
▁ہتک	-13242
▁پسینے	-13243
▁وفادار	-13244
▁پراک	-13245
▁اسباب	-13246
▁ہمس	-13247
▁پیمانہ	-13248
آمد	-13249
▁اسپینش	-13250
▁کمیٹیوں	-13251
▁ایری	-13252
▁نادہ	-13253
▁فرما	-13254
▁اقلیتوں	-13255
▁رولنگ	-13256
▁خاصیت	-13257
▁معرکہ	-13258
▁پلیز	-13259
▁حرکات	-13260
▁یروشلم	-13261
▁چکنا	-13262
▁تند	-13263
▁الجہتی	-13264
پریت	-13265
▁زنجیر	-13266
▁اسٹریمنگ	-13267
▁اٹھی	-13268
شروع	-13269
▁بڈ	-13270
بچوں	-13271
kh	-13272
▁سٹوڈیو	-13273
میلی	-13274
▁پانچوں	-13275
▁تلاوت	-13276
▁نقشوں	-13277
اریل	-13278
▁ریور	-13279
▁وزٹ	-13280
▁چاقو	-13281
یاہ	-13282
▁ہائیڈر	-13283
▁تجھ	-13284
▁کوٹنگ	-13285
▁چمپیئن	-13286
▁نبیل	-13287
رفتوں	-13288
▁چھتوں	-13289
▁شہروز	-13290
▁گزارتے	-13291
▁مثلث	-13292
▁سپرنٹ	-13293
اظہر	-13294
▁ترازو	-13295
لید	-13296
▁ایکسپلور	-13297
▁نصی	-13298
▁خانم	-13299
▁ڈریم	-13300
▁ڈنر	-13301
▁پائل	-13302
▁ایمپائر	-13303
وثی	-13304
۴رنز	-13305
▁تھایہ	-13306
▁ڈھیلے	-13307
سرفراز	-13308
لیفہ	-13309
▁بوبی	-13310
▁جوار	-13311
َن	-13312
▁میونسپلٹی	-13313
بلین	-13314
▁فیوژن	-13315
۹رنز	-13316
کیونکہ	-13317
▁ترکیہ	-13318
سلز	-13319
انیت	-13320
▁ہنڈریڈ	-13321
▁ایئرپورٹ	-13322
تار	-13323
▁نظری	-13324
▁کھیر	-13325
۱رنز	-13326
▁ایلون	-13327
▁مذاہب	-13328
والوں	-13329
▁بسیں	-13330
▁دلاتے	-13331
▁الن	-13332
▁مہک	-13333
زندگی	-13334
▁یوکر	-13335
▁نکتہ	-13336
▁لہریں	-13337
▁ڈیفالٹ	-13338
▁گمن	-13339
▁اسلامیہ	-13340
▁لاٹریوں	-13341
▁ہٹایا	-13342
▁ابوظبی	-13343
▁نادرا	-13344
▁نکالی	-13345
اسور	-13346
ڈیئر	-13347
▁بدلتی	-13348
▁اسقاط	-13349
تاریخ	-13350
▁پڑھائی	-13351
▁بھٹہ	-13352
راتفری	-13353
▁گردشی	-13354
▁گھماؤ	-13355
▁دیوالیہ	-13356
ھاس	-13357
▁گھیرا	-13358
▁کہو	-13359
▁تسی	-13360
▁ایوین	-13361
▁مائکروبیل	-13362
▁طلحہ	-13363
▁حمیرا	-13364
برطانیہ	-13365
۴۶	-13366
قاعدہ	-13367
▁عظمیٰ	-13368
▁ضروریہ	-13369
▁کولوراڈو	-13370
▁برازیلین	-13371
▁میسجنگ	-13372
کاروباری	-13373
▁سٹرائیک	-13374
▁بوٹیاں	-13375
عوام	-13376
▁فاسفورس	-13377
ورتھ	-13378
▁دہلیز	-13379
▁ٹال	-13380
▁وائن	-13381
▁ریمیک	-13382
▁آرائش	-13383
▁میونخ	-13384
واح	-13385
▁ڈھونڈنے	-13386
سکتا	-13387
▁نکی	-13388
▁ماپا	-13389
زبانیں	-13390
▁کیٹیگریز	-13391
▁جوناتھن	-13392
دور	-13393
لیا	-13394
▁خوروں	-13395
▁کاپیاں	-13396
▁تلفظ	-13397
کردہ	-13398
▁سدھو	-13399
▁پیسیفک	-13400
بیری	-13401
▁رسپانس	-13402
▁پُرجوش	-13403
▁روزے	-13404
▁فقیر	-13405
▁پہنچائے	-13406
▁اسپانسر	-13407
ڈڈ	-13408
▁پائونڈ	-13409
▁دستانے	-13410
▁ڈراف	-13411
▁ہیںیاد	-13412
▁پیشرفتوں	-13413
▁۱۷۰	-13414
▁سمیر	-13415
▁گنی	-13416
▁کرو۔	-13417
▁ٹرکوں	-13418
▁فائٹر	-13419
▁احمر	-13420
شامل	-13421
▁یکسر	-13422
▁بھان	-13423
▁حمد	-13424
غذیہ	-13425
حید	-13426
یتر	-13427
بورڈ	-13428
▁نیوک	-13429
▁لینگ	-13430
▁خصل	-13431
▁نوٹی	-13432
▁ادیب	-13433
▁باڑ	-13434
▁تہجی	-13435
▁ووٹوں	-13436
عار	-13437
▁جول	-13438
▁تقلید	-13439
ءپاکستان	-13440
▁شبہات	-13441
▁انویسٹی	-13442
▁مانس	-13443
▁پاونڈ	-13444
▁اکاونٹس	-13445
▁اڑے	-13446
▁انوینٹری	-13447
▁زو	-13448
▁رپورٹرپاکستان	-13449
باط	-13450
▁مظلوم	-13451
▁طلال	-13452
▁بوائی	-13453
▁حادثاتی	-13454
ستار	-13455
▁بہانہ	-13456
▁مراس	-13457
▁چندر	-13458
▁کوئلہ	-13459
▁چرس	-13460
▁ہےای	-13461
▁اشراف	-13462
▁چھوڑتے	-13463
▁سٹے	-13464
اسٹیٹ	-13465
پوز	-13466
▁شگ	-13467
▁ٹوٹے	-13468
▁گراوٹ	-13469
انداز	-13470
▁اینا	-13471
▁مساج	-13472
▁سٹینڈ	-13473
▁کمپریشن	-13474
▁دیگرے	-13475
ملتان	-13476
▁ٹوتھ	-13477
تقریب	-13478
▁اداکر	-13479
▁جھاڑیوں	-13480
▁اینیمیٹڈ	-13481
▁معدنی	-13482
▁میٹابولزم	-13483
▁سزائیں	-13484
خیز	-13485
▁تغذیہ	-13486
▁ترینئی	-13487
▁اکانومی	-13488
امریکا	-13489
▁سائمن	-13490
▁فاش	-13491
▁کیلا	-13492
▁کاسٹنگ	-13493
▁بخیر	-13494
چوک	-13495
▁سٹارک	-13496
▁فلڈ	-13497
ؤف	-13498
▁راہی	-13499
▁کوہاٹ	-13500
پمنٹ	-13501
▁کھولیں	-13502
▁یرغمال	-13503
▁ٹپس	-13504
▁کراچیکامرس	-13505
▁فرضی	-13506
▁ہوئیں۔	-13507
▁ٹریکنگ	-13508
▁تلی	-13509
مبابوے	-13510
▁بنالیے	-13511
▁برآمدات	-13512
▁ابا	-13513
۹۲نیوز	-13514
▁ہے۔اس	-13515
ڈک	-13516
▁مقدر	-13517
▁بلک	-13518
▁مصالحہ	-13519
▁ہیڈکوچ	-13520
▁انہو	-13521
بالیہ	-13522
مگر	-13523
▁وینٹیلیشن	-13524
▁عددی	-13525
▁تبصر	-13526
▁انار	-13527
▁کوارٹرز	-13528
بودار	-13529
▁صوفیہ	-13530
ڈری	-13531
ویژن	-13532
▁پلیئنگ	-13533
▁کارڈف	-13534
▁باسمتی	-13535
▁نیچر	-13536
▁یتیم	-13537
▁چھپے	-13538
▁ہملٹن	-13539
▁ال۔	-13540
▁جلنے	-13541
▁سیاہی	-13542
▁گاف	-13543
▁حاوی	-13544
▁آئینے	-13545
▁ڈاکوؤں	-13546
بنم	-13547
▁پرل	-13548
▁کارل	-13549
▁ہےانھوں	-13550
▁قدامت	-13551
▁کالجوں	-13552
▁اسناد	-13553
▁ننگا	-13554
▁قالین	-13555
▁صاحبزادے	-13556
▁غالبا	-13557
گانگ	-13558
▁فرز	-13559
▁ہوٹلوں	-13560
▁ریفر	-13561
▁اکیلا	-13562
▁پیانو	-13563
▁معتبر	-13564
▁سوپر	-13565
انیوں	-13566
▁پھوڑ	-13567
▁افراتفری	-13568
کئی	-13569
▁الفا	-13570
▁کیاہے	-13571
اا	-13572
▁موڑنے	-13573
▁راکھ	-13574
▁ننھی	-13575
▁ڈمپ	-13576
▁اوپیک	-13577
▁جنگوں	-13578
▁چیکنگ	-13579
▁ایڈمنسٹریٹر	-13580
▁دیئے۔	-13581
شہر	-13582
▁جمالیاتی	-13583
اریب	-13584
▁ایشی	-13585
▁قاز	-13586
▁گھٹنوں	-13587
واقع	-13588
▁مہران	-13589
▁ہندسہ	-13590
۸رنز	-13591
▁دستگیر	-13592
▁ٹوائلٹ	-13593
▁توڑا	-13594
اسکرین	-13595
▁ہیڈکوار	-13596
▁آئیڈیاز	-13597
▁ہےج	-13598
▁جینا	-13599
▁توسیعی	-13600
▁پاتھ	-13601
▁شاکر	-13602
▁فکسڈ	-13603
▁ایکسٹر	-13604
▁تماشا	-13605
▁فالکن	-13606
▁یوروپی	-13607
▁داعش	-13608
▁فرٹیلائزر	-13609
▁ایئ	-13610
▁بادلوں	-13611
▁گولیوں	-13612
▁گرجا	-13613
▁اوپی	-13614
▁ویگاس	-13615
▁نعت	-13616
ائدا	-13617
▁ہےاسی	-13618
▁بریتھ	-13619
▁گنگولی	-13620
▁مولوی	-13621
▁گیلی	-13622
▁نادرن	-13623
▁اندی	-13624
▁منسوخی	-13625
راولپنڈی	-13626
▁فرانز	-13627
▁لاروا	-13628
▁چھائے	-13629
▁کمزوریوں	-13630
▁ازبکستان	-13631
▁منوہر	-13632
ادرات	-13633
▁سمجھو	-13634
▁کچی	-13635
▁ریسلرز	-13636
▁کہنی	-13637
▁دلشان	-13638
▁قدموں	-13639
▁پیاس	-13640
▁مفروضے	-13641
غن	-13642
▁مسلط	-13643
سائنس	-13644
▁تبصروں	-13645
▁جادوگر	-13646
▁نیویگیشن	-13647
ُم	-13648
▁ڈرل	-13649
▁گورنرز	-13650
▁سنیچر	-13651
▁گےیہ	-13652
▁آباؤ	-13653
▁ڈاین	-13654
▁اتپری	-13655
▁نغمے	-13656
▁مواصلاتی	-13657
▁دواس	-13658
▁مرشد	-13659
▁ٹراف	-13660
▁یونیورسل	-13661
ڈیسک	-13662
▁فیضان	-13663
۴۹	-13664
▁کنڈیشنگ	-13665
▁دھڑک	-13666
▁موقعے	-13667
▁آلود	-13668
▁بیحد	-13669
▁توفیق	-13670
▁ہوسکا	-13671
▁ناراضگی	-13672
▁گانٹھوں	-13673
لوگوں	-13674
▁مارخورز	-13675
▁ہوتی۔	-13676
ٹرافی	-13677
▁دھاگے	-13678
▁میراتھن	-13679
▁کا۔	-13680
▁چوکی	-13681
▁اشرافیہ	-13682
▁درانی	-13683
▁علیکم	-13684
▁تور	-13685
▁سےپوائنٹس	-13686
▁پرینیتی	-13687
▁ستنداریوں	-13688
▁مطا	-13689
▁عسکریت	-13690
▁یادگاری	-13691
وہیب	-13692
یاسر	-13693
▁چاب	-13694
▁چنائے	-13695
▁کناروں	-13696
مبو	-13697
▁تجزیات	-13698
ذکورہ	-13699
▁انجینی	-13700
▁زچگی	-13701
▁سمان	-13702
▁سنتری	-13703
طنی	-13704
▁پلازما	-13705
صرین	-13706
▁چائ	-13707
▁اسپرے	-13708
اہت	-13709
ربیہ	-13710
▁نقاد	-13711
▁پیزا	-13712
عید	-13713
▁عیب	-13714
▁گھاٹ	-13715
▁التحصیل	-13716
▁گریجویشن	-13717
▁جیوری	-13718
▁رچرڈز	-13719
▁دھوکا	-13720
▁ہزارہ	-13721
▁الاسلام	-13722
▁مروت	-13723
▁ٹویٹس	-13724
▁ماش	-13725
▁کرواتے	-13726
▁تنوں	-13727
▁ہیڈن	-13728
الاضحی	-13729
▁بونی	-13730
▁تاک	-13731
عثمان	-13732
▁الرجک	-13733
▁ریفریجری	-13734
▁مگ	-13735
▁جمنا	-13736
▁برفانی	-13737
▁بھاگنے	-13738
▁گزارش	-13739
▁پریمیم	-13740
▁جیپ	-13741
▁کنزی	-13742
مطابق	-13743
▁فریقوں	-13744
▁وآ	-13745
▁اترتے	-13746
▁رسید	-13747
▁کعبہ	-13748
▁بیٹیاں	-13749
ابتدائی	-13750
▁برائلر	-13751
▁بسر	-13752
▁بھو	-13753
▁لہجہ	-13754
سات	-13755
▁تعجب	-13756
▁امینو	-13757
▁بھارتیوں	-13758
▁پارٹس	-13759
▁جمخانہ	-13760
▁لوازم	-13761
ورک	-13762
ائیڈر	-13763
▁علالت	-13764
؟"	-13765
▁اصلیت	-13766
نٹائل	-13767
▁ائین	-13768
▁گڑھے	-13769
۶رنز	-13770
▁فتاب	-13771
▁نومنتخب	-13772
▁پنی	-13773
▁برینٹ	-13774
▁گنت	-13775
▁بینظیر	-13776
کنسن	-13777
▁مسکراتے	-13778
▁ڈپاز	-13779
▁شاز	-13780
▁پنکھ	-13781
▁افسروں	-13782
غت	-13783
▁ریفریز	-13784
▁نیدرلینڈز	-13785
شیئرز	-13786
▁گوٹ	-13787
▁جستجو	-13788
▁ہنستے	-13789
▁پاکستا	-13790
▁کپء	-13791
▁واہگہ	-13792
▁آٹے	-13793
▁نکلو	-13794
▁چنی	-13795
▁پالنے	-13796
▁لمحوں	-13797
حصص	-13798
▁عطیات	-13799
▁ٹریفورڈ	-13800
▁کنٹرولر	-13801
تاب	-13802
▁توقیر	-13803
▁سلیکٹ	-13804
▁سیئ	-13805
سکا	-13806
▁بپا	-13807
▁میساچ	-13808
▁خامیاں	-13809
▁ووٹرز	-13810
▁جھانوی	-13811
ائک	-13812
▁۲۳۱	-13813
▁فاضل	-13814
قائی	-13815
▁کیاج	-13816
▁نند	-13817
▁گولہ	-13818
۴۴	-13819
▁ماربل	-13820
▁امرت	-13821
▁ماشاء	-13822
▁ہان	-13823
▁آراستہ	-13824
▁حواس	-13825
▁متوسط	-13826
▁پریمئر	-13827
▁برون	-13828
▁اونچے	-13829
▁شکستوں	-13830
▁سائٹیں	-13831
▁نوادرات	-13832
▁کانت	-13833
▁استقبالیہ	-13834
▁روسو	-13835
▁کاہ	-13836
▁کیمپوں	-13837
▁ایرک	-13838
▁فیلڈز	-13839
▁ربط	-13840
▁ساؤنڈ	-13841
بڑے	-13842
یمیا	-13843
▁فولیو	-13844
▁درآمد	-13845
ونیٹ	-13846
کلچرل	-13847
ولڈ	-13848
قستان	-13849
ٹریشن	-13850
▁مچادی	-13851
▁اٹھاتا	-13852
▁ٹونی	-13853
▁ڈیزائنوں	-13854
▁سائیک	-13855
▁افاق	-13856
▁سکتی۔	-13857
▁بزرگوں	-13858
▁چندی	-13859
▁انشا	-13860
▁قربانیوں	-13861
▁انحراف	-13862
نید	-13863
▁منظرناموں	-13864
واجی	-13865
ینکس	-13866
▁گےان	-13867
▁مورال	-13868
وپولی	-13869
▁راحیل	-13870
▁شہاب	-13871
▁باربا	-13872
▁روبوٹکس	-13873
▁سنبھالیں	-13874
▁گییہ	-13875
▁پہاڑیوں	-13876
ونت	-13877
▁مقتول	-13878
▁ہرجانے	-13879
▁مؤقف	-13880
▁کنور	-13881
▁آفریدی	-13882
▁میو	-13883
▁چول	-13884
▁بلیوز	-13885
سیٹس	-13886
▁چیمپینز	-13887
▁پیو	-13888
ؤں	-13889
▁قصہ	-13890
▁دربار	-13891
▁نیوٹ	-13892
ڈرک	-13893
▁منیب	-13894
▁فرنٹی	-13895
▁ٹانگیں	-13896
▁کمپیکٹ	-13897
▁an	-13898
▁نوازی	-13899
▁اینگرو	-13900
جمعہ	-13901
▁فزیو	-13902
▁وینز	-13903
▁صاحبزادہ	-13904
▁اسٹورٹ	-13905
▁ٹیٹ	-13906
▁گنڈاپور	-13907
▁شجاعت	-13908
▁گھیرے	-13909
میس	-13910
یونی	-13911
▁۱۰۳	-13912
▁دنگ	-13913
▁آئینی	-13914
▁بھجوایا	-13915
وسکی	-13916
▁شوکاز	-13917
▁پشتون	-13918
▁ہوتیں	-13919
▁کبوتر	-13920
▁نیوٹرل	-13921
▁ٹیوشن	-13922
ائداعظم	-13923
▁ٹوک	-13924
▁یحی	-13925
▁اڑھائی	-13926
▁پنگ	-13927
▁نیہا	-13928
▁لوازمات	-13929
ابہ	-13930
▁سپیکٹرم	-13931
▁لگی۔	-13932
▁کمپوسٹ	-13933
▁مقبر	-13934
ارتنے	-13935
▁مجروح	-13936
▁انیشی	-13937
▁قادری	-13938
▁اینجلو	-13939
▁دوہزار	-13940
ریزونا	-13941
تیش	-13942
▁دہانے	-13943
▁چارجر	-13944
▁عجائب	-13945
وٹے	-13946
میلا	-13947
▁۱۰۷	-13948
وریم	-13949
▁ائس	-13950
▁رؤف	-13951
▁البر	-13952
▁جھنگ	-13953
▁ابال	-13954
▁بدعات	-13955
▁یمنی	-13956
▁سٹیون	-13957
▁سدا	-13958
▁ثمینہ	-13959
▁ٹاکرا	-13960
▁چاہا	-13961
▁ریکارڈوں	-13962
چیئرمین	-13963
▁استعفے	-13964
صارفین	-13965
▁شمس	-13966
▁آپکی	-13967
▁مینوں	-13968
▁نکلتا	-13969
▁خوانی	-13970
▁بیوشن	-13971
▁روتے	-13972
▁ہینڈلنگ	-13973
▁وٹام	-13974
▁نیچرل	-13975
▁ڈکلیئر	-13976
▁پیلی	-13977
▁ہیوز	-13978
بیئن	-13979
▁کیپسول	-13980
منڈ	-13981
▁جیلوں	-13982
▁رنگنے	-13983
▁کیتھی	-13984
رج	-13985
بارٹ	-13986
▁ڈایناسور	-13987
▁انگوٹھے	-13988
▁سدرہ	-13989
le	-13990
▁الجز	-13991
▁دانشورانہ	-13992
▁b	-13993
ولن	-13994
ینڈی	-13995
▁شبنم	-13996
▁معائ	-13997
▁خوری	-13998
▁ربادا	-13999
▁خاصے	-14000
▁تعریفیں	-14001
▁تبلی	-14002
▁لوئر	-14003
▁مبصرین	-14004
۴۳	-14005
▁کرسٹوفر	-14006
▁دکاندار	-14007
▁ترجمے	-14008
ونواح	-14009
▁سیکس	-14010
▁ہےرپورٹ	-14011
▁سوہ	-14012
▁ککس	-14013
▁لینی	-14014
اعشاریہ	-14015
▁طالبعلم	-14016
▁منڈ	-14017
▁۳۶۰	-14018
▁بنگالی	-14019
غہ	-14020
▁کھرچ	-14021
re	-14022
چیمپ	-14023
▁نوڈ	-14024
ڈائریکٹر	-14025
▁شیط	-14026
▁رتن	-14027
▁ترانے	-14028
▁ارتقائی	-14029
▁تصوراتی	-14030
شنا	-14031
▁مدی	-14032
▁کردیے	-14033
▁فلمایا	-14034
▁بھجوائے	-14035
جربہ	-14036
▁ریگولیشن	-14037
▁کنڈکٹ	-14038
▁پم	-14039
▁حرکتوں	-14040
▁ڈھل	-14041
▁تھرم	-14042
▁مثانے	-14043
▁پینتیس	-14044
لہذا	-14045
▁بھجوانے	-14046
طرنج	-14047
▁کافر	-14048
فنی	-14049
▁اہر	-14050
▁بیوہ	-14051
▁مالدیپ	-14052
▁ورکر	-14053
▁ترانہ	-14054
▁پیپرز	-14055
▁پنکھوں	-14056
▁مشتری	-14057
وسا	-14058
▁لینڈز	-14059
▁حویلی	-14060
▁ہڈیاں	-14061
یتھی	-14062
ائٹیڈ	-14063
▁لتیم	-14064
▁دوحہ	-14065
▁راؤ	-14066
ئڈ	-14067
▁جواہر	-14068
▁انتشار	-14069
▁بیلز	-14070
▁الیکٹروڈ	-14071
▁چوڑا	-14072
▁یاسمین	-14073
▁ایشوریہ	-14074
▁وزارتوں	-14075
▁اسٹوڈیوز	-14076
▁عقیدہ	-14077
▁باڑی	-14078
▁جیکٹ	-14079
▁دستہ	-14080
▁بیبر	-14081
▁دیکھیے	-14082
▁تائ	-14083
▁دستک	-14084
▁لیتھم	-14085
وسٹس	-14086
▁آؤٹ	-14087
▁لینکس	-14088
▁ڈانسر	-14089
جارا	-14090
▁پاتا	-14091
▁چشمہ	-14092
▁کیوری	-14093
▁سودا	-14094
▁اچھال	-14095
▁مشغولیت	-14096
۰۲	-14097
ناب	-14098
▁مکالمہ	-14099
▁کرگئی	-14100
َم	-14101
▁آو	-14102
▁موروثی	-14103
▁خم	-14104
▁دیواریں	-14105
ٹروں	-14106
▁گالیاں	-14107
▁فوجداری	-14108
▁واقفیت	-14109
▁انسٹرکٹر	-14110
▁گائوں	-14111
▁لاپرو	-14112
▁رال	-14113
▁بیڑے	-14114
▁نجیب	-14115
▁پرندہ	-14116
▁سیرامک	-14117
▁کراچیاسٹاف	-14118
ماضی	-14119
▁بسی	-14120
▁لائق	-14121
▁مولی	-14122
▁گزینوں	-14123
افغانستان	-14124
▁عیدالاضحی	-14125
▁روف	-14126
▁سرمد	-14127
▁چے	-14128
▁جنین	-14129
▁کشود	-14130
▁دواسازی	-14131
رومی	-14132
▁کیوبا	-14133
▁نگاروں	-14134
▁بھینس	-14135
ہوں	-14136
▁پورٹریٹ	-14137
ولڈنگ	-14138
▁تھامے	-14139
▁پڑوس	-14140
▁چھتیس	-14141
قانونی	-14142
▁اوران	-14143
▁ند	-14144
▁چھتری	-14145
▁چھوڑے	-14146
ستھی	-14147
▁سیکٹرز	-14148
▁ارون	-14149
▁وشال	-14150
▁وٹامنز	-14151
صادم	-14152
▁ممنوع	-14153
▁نوٹیفیکیشن	-14154
▁سپانسر	-14155
▁دیس	-14156
▁مکڑی	-14157
▁خودکشی	-14158
▁باکسرز	-14159
▁بڑھائے	-14160
▁قائدانہ	-14161
▁ہنڈر	-14162
▁کندھوں	-14163
▁جمنے	-14164
▁تقاضے	-14165
▁سرایت	-14166
▁آئلینڈ	-14167
▁لوکیشن	-14168
۰۳	-14169
▁یوراج	-14170
▁شاور	-14171
▁ایتھلیٹکس	-14172
▁کراچیپاکستان	-14173
سرکاری	-14174
▁کمنٹیٹر	-14175
▁لاٹھی	-14176
▁ماؤنٹین	-14177
▁فلمسٹار	-14178
▁اٹلس	-14179
▁نرسری	-14180
▁امپلان	-14181
▁لالہ	-14182
▁کوشل	-14183
▁صدمہ	-14184
▁مقف	-14185
ئہ	-14186
▁چھے	-14187
▁متلی	-14188
▁سٹورز	-14189
چسپ	-14190
▁اورا	-14191
▁کنزرویشن	-14192
پیو	-14193
یرن	-14194
فیلڈ	-14195
▁کو۔	-14196
▁آپریٹرز	-14197
▁متحمل	-14198
▁ہوبارٹ	-14199
▁نائیک	-14200
▁بسے	-14201
▁رکھوں	-14202
▁ناریل	-14203
▁f	-14204
وڈین	-14205
خدا	-14206
▁بدقسمتی	-14207
▁پچز	-14208
▁دلادی	-14209
▁انتیس	-14210
▁پالش	-14211
▁خرچہ	-14212
▁خیریت	-14213
▁نعش	-14214
ئنزا	-14215
▁کرشمہ	-14216
▁سجے	-14217
▁پیاف	-14218
ٹیکر	-14219
▁مسیحی	-14220
وسین	-14221
▁زئی	-14222
▁انفرادیت	-14223
وقار	-14224
▁روکے	-14225
▁آسٹریا	-14226
▁آئین	-14227
فاوت	-14228
▁روبوٹس	-14229
▁ہیںب	-14230
▁ہےلیکن	-14231
▁ڈیلٹا	-14232
▁انکھوں	-14233
▁الوطنی	-14234
▁پھاڑ	-14235
▁صنعتکار	-14236
▁مرکنٹائل	-14237
۰۷	-14238
راب	-14239
▁دتہ	-14240
▁بٹس	-14241
▁مشینی	-14242
▁فارموں	-14243
▁گاہک	-14244
▁عارضہ	-14245
▁روحیل	-14246
▁دبئیاردو	-14247
داشتہ	-14248
بھجن	-14249
▁نوآبادیات	-14250
▁تابع	-14251
▁موتی	-14252
▁نمبرز	-14253
ٹھہ	-14254
▁استغ	-14255
▁برانز	-14256
▁گیگا	-14257
▁ہےفوٹو	-14258
▁ٹرانسپورٹرز	-14259
▁الاسکا	-14260
لوگ	-14261
▁کسر	-14262
▁الخلا	-14263
▁ایکسی	-14264
کشمیر	-14265
▁شاہراہوں	-14266
▁سوئفٹ	-14267
▁گارم	-14268
▁یارڈ	-14269
▁ٹیوٹا	-14270
▁قمی	-14271
▁ایٹر	-14272
▁جلوس	-14273
▁نصابی	-14274
▁بیٹھیں	-14275
تری	-14276
▁آئیں۔	-14277
▁کومل	-14278
▁بولنا	-14279
ڈینو	-14280
▁دعووں	-14281
▁ڈوگر	-14282
▁افسانوی	-14283
ٹون	-14284
▁کریو	-14285
▁مانگتے	-14286
عاش	-14287
عاتی	-14288
▁آرٹسٹ	-14289
رمیں	-14290
▁طوط	-14291
▁للی	-14292
▁۴۵۰	-14293
▁کوٹہ	-14294
▁مثلاً	-14295
▁امک	-14296
عرفان	-14297
▁نازیہ	-14298
▁ایکٹو	-14299
▁گپتا	-14300
▁ارتکاب	-14301
▁نوڈس	-14302
▁کنڈر	-14303
▁جدیجا	-14304
▁پہنچانا	-14305
▁ڈلی	-14306
▁سالمن	-14307
▁کھادوں	-14308
▁کراچیاس	-14309
▁میانوالی	-14310
۵۷	-14311
میٹکس	-14312
ویارک	-14313
▁بینگ	-14314
▁جدول	-14315
▁یانگ	-14316
▁گردونواح	-14317
حط	-14318
ولم	-14319
▁ہوئ	-14320
▁۱۱۲	-14321
▁۱۳۵	-14322
▁اسمبل	-14323
ذیڈنٹ	-14324
▁کر۔	-14325
▁پرکاش	-14326
▁بوتلیں	-14327
▁بندرگاہوں	-14328
بیح	-14329
▁آئیں	-14330
▁گاک	-14331
▁ناخن	-14332
▁دھاتی	-14333
▁کروموسوم	-14334
▁فصلیں	-14335
▁پوز	-14336
▁عراقی	-14337
▁پہنچا۔	-14338
مود	-14339
▁پروب	-14340
▁ہرٹز	-14341
▁کھڑکیوں	-14342
▁شلپا	-14343
▁آٹھ	-14344
▁شرافت	-14345
▁اسن	-14346
▁آزادی	-14347
▁حدیث	-14348
▁کیلکولی	-14349
▁سنے	-14350
▁بونے	-14351
▁عصمت	-14352
▁فلسفی	-14353
▁ہےں	-14354
▁ناخوشگوار	-14355
تیسرے	-14356
▁بوپ	-14357
▁گھل	-14358
خوب	-14359
▁اِن	-14360
▁بائن	-14361
▁سنچورین	-14362
▁وآلہ	-14363
کلن	-14364
▁جمالی	-14365
▁جیومیٹری	-14366
▁بگاڑ	-14367
▁مسمار	-14368
▁پٹری	-14369
▁سوگ	-14370
▁سنیپ	-14371
▁بڑھائیں	-14372
▁نکالیں	-14373
▁ٹریٹمنٹ	-14374
▁w	-14375
▁جوں	-14376
▁ازدواجی	-14377
▁استقامت	-14378
▁۱۱۸	-14379
چوکوں	-14380
▁فاون	-14381
سرمایہ	-14382
▁سجی	-14383
حاصل	-14384
▁وِ	-14385
ادگی	-14386
گرز	-14387
وڈو	-14388
▁تپ	-14389
▁شطرنج	-14390
▁نکھیں	-14391
▁آٹھویں	-14392
یکیٹ	-14393
▁صلہ	-14394
▁کشوں	-14395
ملز	-14396
لوع	-14397
▁قائداعظم	-14398
انہوںنے	-14399
▁متصادم	-14400
سٹنگ	-14401
▁جاتا۔	-14402
ثقاف	-14403
▁امنہ	-14404
گلوکار	-14405
بولا	-14406
▁فکیشن	-14407
▁ڈیوائن	-14408
وبن	-14409
زمبابوے	-14410
▁انجیل	-14411
منگل	-14412
▁کوئن	-14413
مائوں	-14414
▁بارباڈوس	-14415
▁دہندہ	-14416
▁کلف	-14417
▁قربانیاں	-14418
▁لائبریریوں	-14419
▁اورکت	-14420
▁درجات	-14421
▁لائک	-14422
▁کمبی	-14423
▁پیچید	-14424
▁کاؤنٹر	-14425
سار	-14426
ماعت	-14427
▁کارگر	-14428
▁وقوعہ	-14429
▁پورٹیبل	-14430
▁شہزادے	-14431
سکین	-14432
ولہے	-14433
▁غفور	-14434
▁العربیہ	-14435
▁کیکڑے	-14436
▁دھان	-14437
▁بیکنگ	-14438
▁گھومتا	-14439
▁حسد	-14440
▁انکارپوری	-14441
▁ارٹسٹ	-14442
▁بادام	-14443
▁ہوسکتے	-14444
▁کیجئے	-14445
پووا	-14446
امیں	-14447
▁سرکٹس	-14448
▁معائنے	-14449
▁ڈیاگو	-14450
دایتکار	-14451
صت	-14452
▁ئن	-14453
▁روگ	-14454
▁ٹوئیٹر	-14455
▁ولادی	-14456
فائر	-14457
▁میامی	-14458
▁اسپیکٹرم	-14459
▁کیلس	-14460
▁ملانے	-14461
▁ریفائنری	-14462
▁ویرا	-14463
▁انفلوئنزا	-14464
غل	-14465
▁ہتھک	-14466
▁پہنچاتے	-14467
▁کاروباروں	-14468
▁پراچہ	-14469
▁ٹرپ	-14470
تاج	-14471
▁اسٹینڈرڈ	-14472
سکر	-14473
▁کیسل	-14474
▁پدماوت	-14475
▁چہل	-14476
▁ڈرونز	-14477
▁لاتعداد	-14478
▁دلدل	-14479
▁پرسوں	-14480
▁ڈیویل	-14481
▁پاسداری	-14482
▁آجر	-14483
▁ٹیسلا	-14484
روک	-14485
▁گریوا	-14486
▁زنگ	-14487
▁مچھروں	-14488
▁پہچاننا	-14489
▁کمان	-14490
▁ہاری	-14491
▁آرتھوڈ	-14492
▁مخر	-14493
▁ہیںا	-14494
▁۱۲۴	-14495
وائرس	-14496
▁ہاؤسنگ	-14497
▁بتی	-14498
▁سکیموں	-14499
▁آئینہ	-14500
▁پیکنگ	-14501
▁حیدری	-14502
پیک	-14503
▁سگنلز	-14504
کاروبار	-14505
▁فاصل	-14506
▁یوکے	-14507
▁دشوار	-14508
▁رجسٹرار	-14509
▁کےمطابق	-14510
حیدر	-14511
▁بریانی	-14512
▁سوڈ	-14513
▁گزاریں	-14514
▁کونسی	-14515
▁دیے۔	-14516
▁کپڑا	-14517
ھھھھ	-14518
▁کالونیوں	-14519
▁سیکیورٹیز	-14520
▁ٹائٹلز	-14521
▁پرین	-14522
ایسوسی	-14523
▁لکش	-14524
▁زادہ	-14525
▁وزنی	-14526
ارن	-14527
▁گیک	-14528
▁سکتیں	-14529
ارڈو	-14530
▁۱۱۱	-14531
▁اقامہ	-14532
▁گیارہویں	-14533
▁میساچوسٹس	-14534
یکلز	-14535
▁اقراء	-14536
▁تام	-14537
▁کارا	-14538
▁پرتگالی	-14539
▁موز	-14540
جاپ	-14541
▁انکلوژ	-14542
▁لیکچرز	-14543
▁گہرائیوں	-14544
▁رکھو	-14545
▁کمپاؤنڈ	-14546
گیم	-14547
▁ریڈار	-14548
▁پیچیدگیاں	-14549
▁ڈرافٹنگ	-14550
▁ہیںدوسری	-14551
▁ایتھوپیا	-14552
▁الجھا	-14553
com	-14554
▁دہن	-14555
▁سکولز	-14556
us	-14557
▁اقلیتی	-14558
▁جونئیر	-14559
دھم	-14560
▁وظ	-14561
▁صاحبزادی	-14562
زین	-14563
مچھ	-14564
▁بکھرے	-14565
یفہ	-14566
▁اعزازات	-14567
▁انتباہی	-14568
▁شیکس	-14569
▁کرنیوالی	-14570
کیے	-14571
▁کمپریس	-14572
سنچ	-14573
▁پراس	-14574
▁کویتی	-14575
چوہ	-14576
▁وردی	-14577
▁کانسٹیبل	-14578
▁جیون	-14579
▁ارباب	-14580
▁مندوں	-14581
▁کارڈیک	-14582
۵۸	-14583
▁رینی	-14584
▁کارو	-14585
▁گرانے	-14586
▁لیڈیز	-14587
▁مینیجرز	-14588
▁غرق	-14589
▁ہستہ	-14590
▁نات	-14591
▁شیا	-14592
▁ریہر	-14593
▁نیکی	-14594
ٹلز	-14595
▁غیرم	-14596
▁بھلائی	-14597
▁منگیتر	-14598
▁سوراخوں	-14599
▁کفا	-14600
▁گیپ	-14601
▁تئیس	-14602
▁غنڈہ	-14603
▁شٹر	-14604
▁اومان	-14605
▁اوک	-14606
▁ہینگ	-14607
▁حرکتیں	-14608
▁کلنٹن	-14609
▁لٹکا	-14610
▁ویدر	-14611
▁کمیونسٹ	-14612
اروس	-14613
▁املہ	-14614
شائ	-14615
▁رائلز	-14616
▁گرافر	-14617
▁ہوائیں	-14618
▁چھائی	-14619
▁اروڑا	-14620
▁بحرانوں	-14621
▁البل	-14622
▁طلوع	-14623
▁لیمپ	-14624
▁کراچیم	-14625
▁سمجھدار	-14626
▁نکلنا	-14627
باء	-14628
▁صوابی	-14629
▁بشپ	-14630
▁پوم	-14631
▁کاریوں	-14632
▁بالخر	-14633
صلہ	-14634
▁فکری	-14635
▁عثمانی	-14636
▁سائفر	-14637
▁فلینڈر	-14638
▁انڈیکسپوائنٹس	-14639
▁ہےن	-14640
▁لگژری	-14641
▁تدبیر	-14642
جلد	-14643
ڑکا	-14644
▁جھوم	-14645
پلا	-14646
▁گڈز	-14647
▁عموماً	-14648
▁سلاد	-14649
▁اڑایا	-14650
▁اسٹنٹ	-14651
مرت	-14652
▁یوسفزئی	-14653
▁ایکسپلورر	-14654
▁ششانک	-14655
▁اولمپئن	-14656
▁جھنڈا	-14657
▁تعمیری	-14658
▁پروڈیوسروں	-14659
لیپ	-14660
▁ملبہ	-14661
▁شبانہ	-14662
▁لگاسکتے	-14663
▁دشواریوں	-14664
تحقیق	-14665
▁پھیلے	-14666
▁مستحسن	-14667
▁آسکتے	-14668
▁معینہ	-14669
▁مشمول	-14670
▁راو	-14671
فروخت	-14672
▁یونیسکو	-14673
۰۸	-14674
▁غداری	-14675
▁اپریٹنگ	-14676
شائر	-14677
▁کارخانہ	-14678
▁ہنڈرڈ	-14679
▁دینا۔	-14680
عف	-14681
▁فضول	-14682
▁بایوم	-14683
▁فانی	-14684
▁خلیفہ	-14685
▁ہیںوہ	-14686
▁ہیںخیال	-14687
▁تھم	-14688
بیان	-14689
▁چارے	-14690
▁میدانی	-14691
▁اشاریہ	-14692
تس	-14693
▁آپریٹو	-14694
▁گاڑھا	-14695
شیئر	-14696
▁لنگر	-14697
▁پکچر	-14698
▁پلاٹینم	-14699
▁مشقت	-14700
▁نوشہرہ	-14701
▁چٹاگانگ	-14702
▁گےپاکستان	-14703
اوں	-14704
چند	-14705
▁عمی	-14706
▁چھوڑی	-14707
▁لیدر	-14708
▁کارنی	-14709
▁کمپوزٹ	-14710
▁اسیسر	-14711
▁صوفیا	-14712
سینٹ	-14713
▁فلکس	-14714
▁لوہار	-14715
▁سس	-14716
▁m	-14717
▁بوئنگ	-14718
سارا	-14719
▁اوشی	-14720
▁خانق	-14721
▁لبرل	-14722
ائیے	-14723
▁دانیال	-14724
واٹس	-14725
▁زمرہ	-14726
▁کیچز	-14727
جیک	-14728
ادونوں	-14729
۰۶	-14730
فرز	-14731
▁لاب	-14732
▁سوڈا	-14733
▁اوزون	-14734
▁بارہویں	-14735
▁ایریزونا	-14736
▁ساحر	-14737
▁غروب	-14738
سلام	-14739
▁جسپریت	-14740
▁سکورر	-14741
حالب	-14742
▁۱۲۳	-14743
▁کولڈ	-14744
▁پولر	-14745
▁کھری	-14746
▁کلامی	-14747
▁الے	-14748
▁بخت	-14749
▁کنویں	-14750
▁الوقت	-14751
درخواست	-14752
▁اینستھی	-14753
َر	-14754
▁محلوں	-14755
▁کرنوں	-14756
▁لوڈنگ	-14757
▁ریفنڈز	-14758
علاج	-14759
▁اشت	-14760
▁گنو	-14761
▁کیتھرین	-14762
لوج	-14763
▁ایٹو	-14764
▁ڈربی	-14765
▁چاٹ	-14766
▁گزاروں	-14767
▁بازوؤں	-14768
سیو	-14769
▁۱۱۶	-14770
تحدہ	-14771
ازون	-14772
▁پیتھوج	-14773
▁ودہ	-14774
▁بدنیتی	-14775
▁منوایا	-14776
▁ڈیکلیئر	-14777
یادی	-14778
▁بنالئے	-14779
▁راکھی	-14780
▁مارنا	-14781
▁ٹیبلٹ	-14782
▁گلوب	-14783
▁تھریڈ	-14784
▁ٹینکر	-14785
▁کستان	-14786
▁کیجیے	-14787
طال	-14788
▁اکھٹے	-14789
▁تھوڑے	-14790
▁رینگنے	-14791
فیض	-14792
▁بازاری	-14793
ڑھیاں	-14794
▁آبادیوں	-14795
کوف	-14796
▁لیہ	-14797
▁بچاتا	-14798
▁بریکنگ	-14799
▁ڈھالنے	-14800
فرٹ	-14801
▁وایلیٹ	-14802
▁انیسویں	-14803
▁زرد	-14804
▁لیونی	-14805
▁۱۱۷	-14806
▁کریش	-14807
▁کھاتہ	-14808
▁تقاریب	-14809
▁موسیقاروں	-14810
▁شجر	-14811
کھنے	-14812
▁مفتاح	-14813
پرس	-14814
▁آسمانی	-14815
▁اسکار	-14816
نڈو	-14817
شوٹ	-14818
ڈیوڈ	-14819
کبھی	-14820
▁بجھانے	-14821
مئیء	-14822
▁ویٹرنریرین	-14823
▁باربی	-14824
▁ہوے	-14825
▁الحمراء	-14826
▁مفاہمتی	-14827
▁گاتے	-14828
▁داران	-14829
▁ورڈز	-14830
رگرہ	-14831
▁رائنا	-14832
▁اچکزئی	-14833
آئی	-14834
▁جینیات	-14835
▁کےا	-14836
▁مؤکلوں	-14837
▁طاری	-14838
▁مداخل	-14839
▁ٹکٹیں	-14840
نیوں	-14841
▁ھاد	-14842
▁باقر	-14843
▁لیسٹر	-14844
▁لاجسٹک	-14845
▁جینس	-14846
لیٹر	-14847
▁دانی	-14848
▁لاتی	-14849
▁دیوتاؤں	-14850
▁رناوٹ	-14851
▁غی	-14852
▁ٹیکسیشن	-14853
یاسی	-14854
▁شجاع	-14855
▁ہراکر	-14856
▁ابدہ	-14857
▁شہناز	-14858
▁ہاروی	-14859
▁لذ	-14860
▁کرفیو	-14861
▁ہلاکتیں	-14862
یاق	-14863
۳۰۰	-14864
لاط	-14865
▁ہمہ	-14866
▁بیسویں	-14867
یکشنسٹ	-14868
▁اسپرٹ	-14869
▁افتاب	-14870
▁مائنڈ	-14871
ٓن	-14872
▁رسن	-14873
▁ڈیموکریٹک	-14874
▁جھاڑی	-14875
ٰن	-14876
▁میعاد	-14877
▁.....	-14878
▁مباحثوں	-14879
گئیں	-14880
▁کینال	-14881
▁برسٹل	-14882
▁کٹے	-14883
▁کنزیومر	-14884
▁روکتی	-14885
▁طحالب	-14886
رر	-14887
▁ایجنٹس	-14888
▁نہں	-14889
▁ویکیوم	-14890
▁مشمولات	-14891
▁مواقعوں	-14892
▁قطبی	-14893
▁قازقستان	-14894
▁سویلین	-14895
▁کموڈٹی	-14896
▁موہن	-14897
▁شریفین	-14898
▁نبات	-14899
▁آرتھر	-14900
▁بورنگ	-14901
۰۹	-14902
کتے	-14903
▁موسیٰ	-14904
▁بالاد	-14905
انڈسٹری	-14906
▁براستہ	-14907
▁ادھی	-14908
▁کھولی	-14909
نسی	-14910
▁اسٹک	-14911
▁فریقی	-14912
▁ہربھجن	-14913
▁سیٹی	-14914
▁پلک	-14915
▁احمق	-14916
▁سنیئر	-14917
▁ٹھہرایا	-14918
نکانہ	-14919
▁گوڈ	-14920
گاہوں	-14921
▁نفری	-14922
▁ہاسنگ	-14923
▁دئے	-14924
▁کرشنا	-14925
ہٹ	-14926
گاروں	-14927
▁بھاو	-14928
▁]	-14929
▁۱۱۹	-14930
▁خلف	-14931
▁۱۰۹	-14932
▁رینز	-14933
▁جنیرو	-14934
▁سرنگوں	-14935
▁سیشنوں	-14936
▁انڈینز	-14937
▁گناہوں	-14938
▁شیراز	-14939
▁فرمائش	-14940
روزہ	-14941
▁عیسائیت	-14942
▁اگنے	-14943
▁پہنیں	-14944
▁پیڈیاٹرک	-14945
▁ویکیپیڈیا	-14946
شادی	-14947
پریس	-14948
▁برتاؤ	-14949
▁اولمپیئن	-14950
زروی	-14951
▁پرمٹ	-14952
▁لٹری	-14953
▁یحیی	-14954
▁پٹواری	-14955
▁اسیکیوشن	-14956
عزت	-14957
ائبر	-14958
▁پریکٹیشنرز	-14959
▁کولا	-14960
▁الیکٹری	-14961
▁کھیپ	-14962
▁راد	-14963
▁توسط	-14964
▁کلاسز	-14965
▁حوثی	-14966
▁سگ	-14967
▁سمال	-14968
▁مجیب	-14969
حو	-14970
▁کمک	-14971
اننگز	-14972
▁فوکل	-14973
▁بوڑھا	-14974
▁مورکل	-14975
▁ھم	-14976
▁سوک	-14977
▁زمائش	-14978
▁چارلی	-14979
روال	-14980
صنعت	-14981
▁بیبی	-14982
ائیوز	-14983
شیڈنگ	-14984
ممالک	-14985
مصن	-14986
۵رنز	-14987
ہوا	-14988
▁رُ	-14989
▁ڈای	-14990
ڈھ	-14991
▁زرخیز	-14992
▁مرغیوں	-14993
شیٹ	-14994
▁ٹپ	-14995
سوری	-14996
▁بارود	-14997
▁مارلن	-14998
▁پیوند	-14999
سپر	-15000
ویڈش	-15001
صبح	-15002
▁رنزبن	-15003
▁صواب	-15004
▁نئیں	-15005
▁ایسبیسٹ	-15006
▁اسیس	-15007
▁میکرز	-15008
▁لڑاکا	-15009
▁بیوٹرز	-15010
▁چیئرپرسن	-15011
یونس	-15012
▁جہت	-15013
▁سیکھے	-15014
▁نیوٹر	-15015
▁باسو	-15016
ایکس	-15017
▁ادمی	-15018
▁سیلابی	-15019
▁گریب	-15020
▁یادو	-15021
▁آٹوموٹو	-15022
اعلی	-15023
▁کچل	-15024
▁قطری	-15025
▁ڈسپلنری	-15026
ٹیر	-15027
ندیپ	-15028
▁سکڑ	-15029
▁نسلیں	-15030
▁اصلاحی	-15031
▁۲۴۰	-15032
▁ہےکہ	-15033
▁وٹس	-15034
▁ابھیشک	-15035
دست	-15036
▁قاہرہ	-15037
▁یم	-15038
▁چابیاں	-15039
▁ذوق	-15040
▁بینکس	-15041
مرد	-15042
▁صفات	-15043
▁بھیڑوں	-15044
▁عبدالستار	-15045
▁فریب	-15046
▁کارہ	-15047
▁بیانیے	-15048
▁بوٹس	-15049
▁خوشدل	-15050
▁ضد	-15051
▁ایلیم	-15052
پچھ	-15053
▁ڈرائیورز	-15054
▁جلی	-15055
▁ارتباط	-15056
▁سونامی	-15057
▁قطاریں	-15058
موم	-15059
شکست	-15060
▁نقوش	-15061
▁تیونس	-15062
▁مارول	-15063
▁ماروی	-15064
▁نواسن	-15065
▁یہ۔	-15066
▁اذلان	-15067
▁مانند	-15068
▁بجانے	-15069
▁تھاان	-15070
ٹنگھم	-15071
▁کھوسہ	-15072
▁پروپیگنڈا	-15073
▁سریش	-15074
▁فیلڈر	-15075
▁مزاری	-15076
▁کوتاہی	-15077
▁کہناتھا	-15078
▁الیکٹریکل	-15079
▁گاہکوں	-15080
▁انجنی	-15081
▁زریعے	-15082
ندان	-15083
ینسی	-15084
▁پارکر	-15085
▁مشہ	-15086
▁ربیع	-15087
▁in	-15088
▁وہاڑی	-15089
کیس	-15090
▁فاق	-15091
▁سیمو	-15092
▁یونائٹیڈ	-15093
اٹھ	-15094
یدہ	-15095
▁کشن	-15096
▁بکیز	-15097
▁سکی۔	-15098
▁سیونگ	-15099
▁گروور	-15100
▁لاشاری	-15101
▁میڈم	-15102
▁محاور	-15103
▁پروسٹیٹ	-15104
داخ	-15105
▁ذر	-15106
بشمول	-15107
ومیٹک	-15108
▁ادھوری	-15109
▁انکوڈ	-15110
▁آئٹمز	-15111
▁شیریں	-15112
▁رجنی	-15113
▁گمنام	-15114
▁سٹیک	-15115
▁ریٹنا	-15116
▁امکانی	-15117
▁پروڈکٹس	-15118
بدھ	-15119
گاد	-15120
▁افسانوں	-15121
پاس	-15122
▁لبل	-15123
▁آرٹی	-15124
کچر	-15125
زاق	-15126
▁کھاتوں	-15127
▁کارنامے	-15128
▁کنڈرگار	-15129
▁کرینگی	-15130
▁کرشن	-15131
▁کاونٹی	-15132
کنس	-15133
▁ڈکش	-15134
▁ڈایا	-15135
▁روکیں	-15136
۰۴	-15137
واب	-15138
کرنسی	-15139
▁ٹیٹو	-15140
ٹوئٹر	-15141
▁چکروں	-15142
▁انگریزوں	-15143
ویک	-15144
سیپی	-15145
ینوائے	-15146
▁زاویوں	-15147
▁چاہئیے	-15148
موسم	-15149
▁شعاع	-15150
▁سرورز	-15151
▁خروج	-15152
▁شاخیں	-15153
▁احباب	-15154
▁فائلیں	-15155
▁سبک	-15156
▁سپنرز	-15157
▁۱۲۲	-15158
▁جاکر	-15159
▁احاط	-15160
▁اندھے	-15161
▁پریمیر	-15162
▁مدیحہ	-15163
▁پروری	-15164
▁مشرفی	-15165
▁لانڈ	-15166
▁ہےقومی	-15167
▁لیبیا	-15168
▁شبلی	-15169
غلط	-15170
▁ہےجو	-15171
▁مشروب	-15172
▁فرانزک	-15173
▁لانچنگ	-15174
▁بیکر	-15175
▁ممبرز	-15176
▁کےخلاف	-15177
▁کائ	-15178
▁مصور	-15179
▁غب	-15180
▁ڈالرکی	-15181
▁اسیکیوٹر	-15182
▁ونر	-15183
▁دھوئیں	-15184
▁الوداعی	-15185
▁فائلرز	-15186
▁ہیرانی	-15187
▁لاؤ	-15188
▁پنسل	-15189
▁ریپبلکن	-15190
ابلی	-15191
پرٹ	-15192
▁ابل	-15193
▁آرڈیننس	-15194
▁ملائیشین	-15195
▁سبزواری	-15196
▁بھیجتا	-15197
▁ایام	-15198
؟‘	-15199
▁پیل	-15200
▁کوڈز	-15201
گلوکارہ	-15202
ئیفا	-15203
میاں	-15204
ٹیاں	-15205
▁ملزموں	-15206
چونکہ	-15207
▁مصدق	-15208
▁ٹخنوں	-15209
▁نمبرون	-15210
▁گاواضح	-15211
دیت	-15212
▁لاہو	-15213
بلوچ	-15214
▁گزرتی	-15215
▁غز	-15216
▁ڈسٹ	-15217
▁فاونڈیشن	-15218
▁شمع	-15219
▁ڈربن	-15220
▁بناوٹ	-15221
▁پڑوسیوں	-15222
▁کفیل	-15223
▁پیلس	-15224
▁بخشی	-15225
▁نصیحت	-15226
▁گالی	-15227
▁ہیج	-15228
▁گولف	-15229
▁بٹھ	-15230
یلیا	-15231
▁ڈکشٹ	-15232
▁موافق	-15233
ویم	-15234
▁پوتے	-15235
▁قافلے	-15236
▁منشور	-15237
▁اسٹائن	-15238
رکزی	-15239
▁لیزا	-15240
▁کچرا	-15241
▁ننکانہ	-15242
▁مختصرا	-15243
▁فات	-15244
▁سنڈی	-15245
▁وقفوں	-15246
▁کورٹس	-15247
ٹیشنل	-15248
▁نشی	-15249
▁تھاب	-15250
▁مہمند	-15251
▁میگھن	-15252
▁موسموں	-15253
گاں	-15254
فال	-15255
ٹمور	-15256
▁خیراتی	-15257
▁خرابیوں	-15258
قرن	-15259
یان	-15260
▁ڈگ	-15261
▁بتیس	-15262
▁آگیا	-15263
▁جنیوا	-15264
▁نط	-15265
▁رند	-15266
▁اورل	-15267
ائیرائڈ	-15268
حسین	-15269
▁ارن	-15270
▁شنیرا	-15271
▁بالادستی	-15272
▁اعظمی	-15273
▁بیٹھتے	-15274
▁گھڑت	-15275
▁بنادی	-15276
▁فلسفے	-15277
▁وائیڈ	-15278
news	-15279
▁شٹل	-15280
▁مینگل	-15281
▁الاو	-15282
▁ٹوٹی	-15283
▁سپلائرز	-15284
▁۱۱۳	-15285
▁کیان	-15286
▁جسامت	-15287
▁ریسنگ	-15288
شق	-15289
ونیم	-15290
▁دکن	-15291
▁ترنم	-15292
▁کمبل	-15293
▁اوڈ	-15294
▁مشفیق	-15295
▁کشودرگرہ	-15296
▁مہار	-15297
▁واکر	-15298
▁پیٹا	-15299
▁عضو	-15300
▁بچائیں	-15301
▁دیان	-15302
▁ساتواں	-15303
▁لتا	-15304
اریونس	-15305
▁ہےاداکارہ	-15306
▁وڑ	-15307
▁ڈسپوز	-15308
▁ہےایک	-15309
▁تھاانہوں	-15310
▁گارمنٹس	-15311
بیک	-15312
فرانس	-15313
عباس	-15314
وریس	-15315
جولائیء	-15316
جونء	-15317
فاظت	-15318
▁افغ	-15319
▁گزین	-15320
رنگی	-15321
▁کونسا	-15322
▁منازل	-15323
▁فرینڈز	-15324
▁ایسبیسٹوس	-15325
▁باغبان	-15326
▁برازر	-15327
▁میٹروپولی	-15328
وہاب	-15329
واردو	-15330
▁ہریتھک	-15331
▁۱۱۴	-15332
▁قصبہ	-15333
▁گھوڑا	-15334
کووا	-15335
▁مدارس	-15336
▁کالنگ	-15337
کیت	-15338
▁ایشو	-15339
▁منزلہ	-15340
ایش	-15341
▁منف	-15342
▁غلاموں	-15343
▁یقیناً	-15344
داور	-15345
▁یونیورس	-15346
شدد	-15347
▁چوس	-15348
▁اسطرح	-15349
کرس	-15350
▁کِ	-15351
▁رزل	-15352
▁ضعف	-15353
▁چکوال	-15354
▁فیملیز	-15355
ne	-15356
▁تھار	-15357
ائیکلو	-15358
▁احاطے	-15359
عو	-15360
▁تحریروں	-15361
▁ہیپی	-15362
▁آسٹیو	-15363
▁فوٹوگرافر	-15364
ستم	-15365
▁قہقہ	-15366
▁صفت	-15367
▁صائم	-15368
▁والہ	-15369
▁انتھک	-15370
▁کبریٰ	-15371
▁سوالنامہ	-15372
▁ریکھا	-15373
▁پینلز	-15374
▁کنکال	-15375
بلز	-15376
▁حرب	-15377
▁پکے	-15378
▁گڑیا	-15379
▁نیوکل	-15380
▁البرٹ	-15381
▁کنگسٹن	-15382
▁وننگ	-15383
▁پریا	-15384
وراج	-15385
▁ورم	-15386
مرتبہ	-15387
▁اتلی	-15388
▁باغیوں	-15389
▁نیوران	-15390
▁کھلونا	-15391
▁ودہولڈنگ	-15392
تماد	-15393
▁جکار	-15394
سرور	-15395
پائن	-15396
▁کریس	-15397
موجودہ	-15398
▁چلاتا	-15399
▁شیکسپیئر	-15400
▁گشت	-15401
ستحکم	-15402
▁مندوب	-15403
▁انڈر۱۹	-15404
▁دو۔	-15405
▁روغن	-15406
▁سپرنٹنڈنٹ	-15407
▁مسدود	-15408
▁انوپ	-15409
▁ڈیوک	-15410
▁حسیب	-15411
▁چوائس	-15412
▁ٹرافیاں	-15413
▁ہےکمپنی	-15414
▁سنتر	-15415
▁سکوائش	-15416
▁انٹیلیجنس	-15417
ونیوز	-15418
▁سیکھیں۔	-15419
۵۳	-15420
▁مقداری	-15421
▁کیلکولیٹر	-15422
رود	-15423
▁سکھا	-15424
▁دراڑ	-15425
▁جولین	-15426
▁تعریفوں	-15427
▁تسکین	-15428
▁خارجی	-15429
▁اونٹاریو	-15430
▁عبرانی	-15431
▁رابعہ	-15432
▁ٹف	-15433
▁طبع	-15434
▁۱۳۲	-15435
▁رشتوں	-15436
▁اناٹ	-15437
▁مندرجات	-15438
▁پریذیڈنٹ	-15439
▁بٹھا	-15440
▁آرکائیو	-15441
▁بیلا	-15442
▁کٹیگری	-15443
▁لڑی	-15444
▁فورنیا	-15445
▁انتھونی	-15446
▁شرارت	-15447
▁پھرنے	-15448
▁گریڈیشن	-15449
▁الکا	-15450
▁تفاوت	-15451
بنیادی	-15452
▁ایلو	-15453
▁کائل	-15454
▁کمشنرز	-15455
▁دلبرداشتہ	-15456
▁سلیکن	-15457
▁بیٹھتا	-15458
▁کینیڈی	-15459
چپا	-15460
دلچسپ	-15461
▁برسات	-15462
▁پینتالیس	-15463
▁بسنے	-15464
▁الٹراساؤنڈ	-15465
▁ونٹر	-15466
▁نرسوں	-15467
▁پادری	-15468
▁اعلانیہ	-15469
▁خوار	-15470
مصباح	-15471
▁گیفلم	-15472
▁آواز	-15473
▁اسپیل	-15474
▁بھیجتے	-15475
▁آگاہ	-15476
▁مسودے	-15477
▁کرتیں	-15478
▁فلورائڈ	-15479
▁خطیر	-15480
▁صبری	-15481
▁مرید	-15482
▁مستانی	-15483
▁ایکسٹین	-15484
▁ماہواری	-15485
▁جھون	-15486
▁پکڑی	-15487
اضح	-15488
▁جمپ	-15489
▁اغواء	-15490
ثیوں	-15491
▁فرینکلن	-15492
▁یوٹ	-15493
▁آپریٹر	-15494
▁لوڈشیڈنگ	-15495
▁ٹیوٹوریل	-15496
▁یے	-15497
▁سنز	-15498
▁مینیس	-15499
▁نانو	-15500
کیہ	-15501
کولر	-15502
قانون	-15503
▁۱۴۵	-15504
▁فرصت	-15505
▁موڈیز	-15506
▁سوگوار	-15507
▁پہنانے	-15508
io	-15509
▁دھونس	-15510
انسرز	-15511
▁زونگ	-15512
سازی	-15513
▁جیلی	-15514
▁لیورپول	-15515
▁ملنگا	-15516
▁پائپوں	-15517
▁لاسٹ	-15518
▁شریانوں	-15519
▁نیویگیٹ	-15520
▁فرس	-15521
▁ہندسوں	-15522
اتون	-15523
▁اَ	-15524
▁دعاں	-15525
▁ریہرسل	-15526
▁کٹنگ	-15527
▁سویڈش	-15528
.)	-15529
قار	-15530
چوت	-15531
▁پرنٹس	-15532
▁جائزوں	-15533
▁بہنیں	-15534
▁بیوروکری	-15535
▁زکو	-15536
▁ہیںذرائع	-15537
▁آرکیٹیکچرل	-15538
▁۱۲۶	-15539
▁ہرانے	-15540
ستری	-15541
▁چارٹرڈ	-15542
▁اندام	-15543
ضوی	-15544
▁بریگیڈیئر	-15545
▁طفیل	-15546
▁مرج	-15547
▁السر	-15548
▁اورج	-15549
▁عنایت	-15550
▁گھانا	-15551
▁پب	-15552
▁جامنی	-15553
▁انگلیاں	-15554
سور	-15555
▁پٹا	-15556
▁قوموں	-15557
▁انٹیگری	-15558
▁اچی	-15559
▁مسور	-15560
▁پتنگ	-15561
▁شمارے	-15562
▁ہائیٹ	-15563
▁ہےتفصیلات	-15564
▁زا	-15565
فواد	-15566
▁پنجہ	-15567
▁گھوٹ	-15568
▁ٹینکوں	-15569
▁ابواب	-15570
▁دولہا	-15571
▁ایجادات	-15572
▁فسادات	-15573
▁پھیلتا	-15574
▁وصولیاں	-15575
▁غوری	-15576
▁جزاک	-15577
▁وامان	-15578
▁کلکٹر	-15579
▁ٹویوٹا	-15580
▁البلد	-15581
▁پیارا	-15582
▁کوئنز	-15583
▁بستیوں	-15584
روض	-15585
قرار	-15586
▁عالی	-15587
▁ٹینی	-15588
▁الشان	-15589
▁بنکوں	-15590
▁ویلنٹ	-15591
▁دیپکا	-15592
▁پہنچے۔	-15593
شاں	-15594
▁یان	-15595
▁۱۷۵	-15596
▁کارفر	-15597
▁رکے	-15598
▁پاتی	-15599
قتصادی	-15600
▁پوچھتا	-15601
▁۲۲۰	-15602
▁۱۲۱	-15603
▁کمپیوٹیشنل	-15604
ابیل	-15605
▁فلیم	-15606
▁کھلتے	-15607
▁کاٹی	-15608
▁تمغوں	-15609
▁ہیکنگ	-15610
▁ہونڈا	-15611
▁اورب	-15612
▁گااس	-15613
▁لائیک	-15614
کتا	-15615
▁ملنی	-15616
▁صحتیاب	-15617
▁موٹاپے	-15618
▁پکارا	-15619
▁معجز	-15620
▁ہیںپی	-15621
▁کھیتی	-15622
▁سرکردہ	-15623
▁فلٹریشن	-15624
اگستء	-15625
فیڈرل	-15626
▁پارا	-15627
انسانی	-15628
▁چکنائی	-15629
▁صاحبہ	-15630
▁الینوائے	-15631
جنل	-15632
▁کلاسیکل	-15633
▁سریز	-15634
▁دبلی	-15635
میزبان	-15636
▁ملزمہ	-15637
▁بریٹ	-15638
▁داغدار	-15639
اتو	-15640
▁اماں	-15641
▁دواں	-15642
▁ڈلیوری	-15643
▁فلسفیا	-15644
▁سموگ	-15645
▁ادبکا	-15646
▁بچائے	-15647
▁ڈھلوان	-15648
▁اپلیکشن	-15649
▁پریمئیر	-15650
▁میگن	-15651
▁گےواضح	-15652
▁سنبھل	-15653
▁خلفشار	-15654
▁Sab	-15655
▁روبن	-15656
▁ننگے	-15657
آب	-15658
▁باون	-15659
فرڈ	-15660
▁روور	-15661
▁مقفل	-15662
▁ڈیلر	-15663
▁ماتمی	-15664
▁میزان	-15665
▁کمپری	-15666
▁اتارا	-15667
▁امیون	-15668
▁پرفیکٹ	-15669
▁کورڈ	-15670
▁انڈیانا	-15671
▁اندوزی	-15672
شتیاں	-15673
▁نقلی	-15674
▁سنتا	-15675
▁تربوز	-15676
▁دہرایا	-15677
▁پارکوں	-15678
▁مہیلا	-15679
▁رعایتی	-15680
▁جناز	-15681
▁تھاکہ	-15682
پروف	-15683
▁پلیٹوں	-15684
▁کڈ	-15685
▁بالاخر	-15686
▁پریشنز	-15687
▁اسٹرو	-15688
دوسرا	-15689
▁کنسور	-15690
ماحول	-15691
▁اوپو	-15692
▁بھابھی	-15693
▁حلوں	-15694
▁چوہے	-15695
▁کرتے۔	-15696
▁لرز	-15697
▁چپکنے	-15698
▁اکلینڈ	-15699
▁غضب	-15700
▁اسام	-15701
ٹھا	-15702
▁خلو	-15703
▁تھور	-15704
▁لکیریں	-15705
ریکارڈ	-15706
▁اورین	-15707
ئنسی	-15708
▁تگ	-15709
مولی	-15710
▁قحط	-15711
▁رگوں	-15712
▁کساد	-15713
ئرا	-15714
▁".	-15715
▁اینڈرائڈ	-15716
▁شیروں	-15717
▁ذیادہ	-15718
▁ویانا	-15719
▁پسندیدگی	-15720
▁ہینری	-15721
▁سسپ	-15722
▁ویلکم	-15723
▁کھوکھ	-15724
▁رنزبنا	-15725
▁پارہ	-15726
کامرس	-15727
▁برفی	-15728
▁زوہیب	-15729
امنی	-15730
▁عملوں	-15731
▁کوئنٹن	-15732
▁گوار	-15733
▁بھجوائی	-15734
ناصر	-15735
▁ویسا	-15736
تیل	-15737
▁نہانی	-15738
نق	-15739
الک	-15740
▁ٹرے	-15741
▁ستون	-15742
▁کنڈرگارٹن	-15743
سیسی	-15744
▁پستول	-15745
حفیظ	-15746
دوار	-15747
www	-15748
▁ڑے	-15749
▁بپاشی	-15750
شیوں	-15751
▁سندھو	-15752
▁ہائیڈرولک	-15753
▁تلفی	-15754
اسکتا	-15755
نکس	-15756
▁سخ	-15757
▁لگام	-15758
▁بِ	-15759
▁لوٹا	-15760
اسٹی	-15761
ترقی	-15762
ثانی	-15763
پرنٹ	-15764
▁ضرر	-15765
▁بورڈپی	-15766
▁خیمہ	-15767
▁بروکرز	-15768
گلس	-15769
▁پیتھوجینز	-15770
▁گھرا	-15771
▁انکولی	-15772
▁وینزویلا	-15773
▁شبر	-15774
▁ٹوٹا	-15775
▁ارمان	-15776
نما	-15777
▁مائکروجنز	-15778
▁نپ	-15779
▁سویرے	-15780
▁وردھنے	-15781
میکس	-15782
▁and	-15783
▁انسائیکلو	-15784
لرز	-15785
▁چندرن	-15786
▁چپچپا	-15787
لوک	-15788
▁دون	-15789
▁سفی	-15790
▁دھماکا	-15791
▁اینٹینا	-15792
▁درسی	-15793
▁اوریگون	-15794
▁تخص	-15795
▁مکا	-15796
▁جائلز	-15797
▁عبدالغ	-15798
▁گواہوں	-15799
▁عورتیں	-15800
▁وقوع	-15801
▁المناک	-15802
ائکہ	-15803
▁حوثیوں	-15804
▁محرومی	-15805
▁نظریے	-15806
▁پیداوری	-15807
▁پڑے۔	-15808
▁اجتناب	-15809
▁۱۲۷	-15810
▁تصنیف	-15811
▁گذر	-15812
▁بجرنگی	-15813
▁لونگ	-15814
▁موری	-15815
▁نوازالدین	-15816
زخ	-15817
▁ہک	-15818
▁کانگو	-15819
ئو	-15820
▁حیا	-15821
▁ڈینٹل	-15822
▁اداسی	-15823
▁قرآن	-15824
▁سرگو	-15825
پیز	-15826
▁ٹکا	-15827
▁جہاد	-15828
el	-15829
قیادت	-15830
▁قمیض	-15831
▁ناپسند	-15832
▁چندیمل	-15833
▁گروسری	-15834
کلین	-15835
▁جگم	-15836
▁طن	-15837
▁اسائنمنٹس	-15838
▁ایڈوائزر	-15839
▁سائیٹ	-15840
بریت	-15841
▁ورز	-15842
▁زیرِ	-15843
▁بازیاب	-15844
گیسو	-15845
▁ایو	-15846
▁بلاگنگ	-15847
▁حیرانی	-15848
ارس	-15849
▁بھتہ	-15850
▁مشنوں	-15851
انستان	-15852
▁لشکر	-15853
▁ایمریٹس	-15854
۵۴	-15855
ارفی	-15856
▁چمگاد	-15857
▁خرافات	-15858
▁پسینہ	-15859
▁ڈپلو	-15860
▁تصفیہ	-15861
▁مالیکی	-15862
▁الاوقات	-15863
▁ہائیڈریشن	-15864
▁تھنڈر	-15865
▁محنتی	-15866
▁دکھاتی	-15867
لوینیا	-15868
▁مصطفیٰ	-15869
▁برفباری	-15870
منہ	-15871
منت	-15872
گریڈ	-15873
▁۱۵۵	-15874
▁دانشم	-15875
▁بلڈر	-15876
▁نگاہوں	-15877
▁ساتھمپٹن	-15878
▁رکو	-15879
▁کینوس	-15880
▁ہیمسٹر	-15881
▁سیڑھیاں	-15882
▁شائد	-15883
▁دکھی	-15884
ونیشور	-15885
▁فرشتہ	-15886
قط	-15887
▁شازیہ	-15888
▁تقابلی	-15889
شس	-15890
▁ڈرتے	-15891
▁نظامی	-15892
▁گندا	-15893
▁کفایت	-15894
▁فلپس	-15895
▁اہرام	-15896
▁گئیاس	-15897
اوند	-15898
مسلم	-15899
▁پوچھا۔	-15900
▁پائیداری	-15901
▁برگر	-15902
▁لڑنا	-15903
▁پنلٹی	-15904
▁خلع	-15905
ابیری	-15906
▁اجتماعات	-15907
▁دہلیاردو	-15908
▁جنتا	-15909
▁اتری	-15910
▁تائیکو	-15911
▁ڈاکٹریٹ	-15912
▁الیسٹر	-15913
▁تحریکوں	-15914
▁فٹبالرز	-15915
▁کھٹ	-15916
▁ڈاکی	-15917
▁سےروپے	-15918
بلیک	-15919
▁مکت	-15920
▁سوچے	-15921
▁مائٹ	-15922
▁عروسی	-15923
▁کھوسٹ	-15924
▁بولا۔	-15925
▁مورخین	-15926
طوب	-15927
ومس	-15928
[...]
