<unk>	0
<s>	0
</s>	0
<0x00>	0
<0x01>	0
<0x02>	0
<0x03>	0
<0x04>	0
<0x05>	0
<0x06>	0
<0x07>	0
<0x08>	0
<0x09>	0
<0x0A>	0
<0x0B>	0
<0x0C>	0
<0x0D>	0
<0x0E>	0
<0x0F>	0
<0x10>	0
<0x11>	0
<0x12>	0
<0x13>	0
<0x14>	0
<0x15>	0
<0x16>	0
<0x17>	0
<0x18>	0
<0x19>	0
<0x1A>	0
<0x1B>	0
<0x1C>	0
<0x1D>	0
<0x1E>	0
<0x1F>	0
<0x20>	0
<0x21>	0
<0x22>	0
<0x23>	0
<0x24>	0
<0x25>	0
<0x26>	0
<0x27>	0
<0x28>	0
<0x29>	0
<0x2A>	0
<0x2B>	0
<0x2C>	0
<0x2D>	0
<0x2E>	0
<0x2F>	0
<0x30>	0
<0x31>	0
<0x32>	0
<0x33>	0
<0x34>	0
<0x35>	0
<0x36>	0
<0x37>	0
<0x38>	0
<0x39>	0
<0x3A>	0
<0x3B>	0
<0x3C>	0
<0x3D>	0
<0x3E>	0
<0x3F>	0
<0x40>	0
<0x41>	0
<0x42>	0
<0x43>	0
<0x44>	0
<0x45>	0
<0x46>	0
<0x47>	0
<0x48>	0
<0x49>	0
<0x4A>	0
<0x4B>	0
<0x4C>	0
<0x4D>	0
<0x4E>	0
<0x4F>	0
<0x50>	0
<0x51>	0
<0x52>	0
<0x53>	0
<0x54>	0
<0x55>	0
<0x56>	0
<0x57>	0
<0x58>	0
<0x59>	0
<0x5A>	0
<0x5B>	0
<0x5C>	0
<0x5D>	0
<0x5E>	0
<0x5F>	0
<0x60>	0
<0x61>	0
<0x62>	0
<0x63>	0
<0x64>	0
<0x65>	0
<0x66>	0
<0x67>	0
<0x68>	0
<0x69>	0
<0x6A>	0
<0x6B>	0
<0x6C>	0
<0x6D>	0
<0x6E>	0
<0x6F>	0
<0x70>	0
<0x71>	0
<0x72>	0
<0x73>	0
<0x74>	0
<0x75>	0
<0x76>	0
<0x77>	0
<0x78>	0
<0x79>	0
<0x7A>	0
<0x7B>	0
<0x7C>	0
<0x7D>	0
<0x7E>	0
<0x7F>	0
<0x80>	0
<0x81>	0
<0x82>	0
<0x83>	0
<0x84>	0
<0x85>	0
<0x86>	0
<0x87>	0
<0x88>	0
<0x89>	0
<0x8A>	0
<0x8B>	0
<0x8C>	0
<0x8D>	0
<0x8E>	0
<0x8F>	0
<0x90>	0
<0x91>	0
<0x92>	0
<0x93>	0
<0x94>	0
<0x95>	0
<0x96>	0
<0x97>	0
<0x98>	0
<0x99>	0
<0x9A>	0
<0x9B>	0
<0x9C>	0
<0x9D>	0
<0x9E>	0
<0x9F>	0
<0xA0>	0
<0xA1>	0
<0xA2>	0
<0xA3>	0
<0xA4>	0
<0xA5>	0
<0xA6>	0
<0xA7>	0
<0xA8>	0
<0xA9>	0
<0xAA>	0
<0xAB>	0
<0xAC>	0
<0xAD>	0
<0xAE>	0
<0xAF>	0
<0xB0>	0
<0xB1>	0
<0xB2>	0
<0xB3>	0
<0xB4>	0
<0xB5>	0
<0xB6>	0
<0xB7>	0
<0xB8>	0
<0xB9>	0
<0xBA>	0
<0xBB>	0
<0xBC>	0
<0xBD>	0
<0xBE>	0
<0xBF>	0
<0xC0>	0
<0xC1>	0
<0xC2>	0
<0xC3>	0
<0xC4>	0
<0xC5>	0
<0xC6>	0
<0xC7>	0
<0xC8>	0
<0xC9>	0
<0xCA>	0
<0xCB>	0
<0xCC>	0
<0xCD>	0
<0xCE>	0
<0xCF>	0
<0xD0>	0
<0xD1>	0
<0xD2>	0
<0xD3>	0
<0xD4>	0
<0xD5>	0
<0xD6>	0
<0xD7>	0
<0xD8>	0
<0xD9>	0
<0xDA>	0
<0xDB>	0
<0xDC>	0
<0xDD>	0
<0xDE>	0
<0xDF>	0
<0xE0>	0
<0xE1>	0
<0xE2>	0
<0xE3>	0
<0xE4>	0
<0xE5>	0
<0xE6>	0
<0xE7>	0
<0xE8>	0
<0xE9>	0
<0xEA>	0
<0xEB>	0
<0xEC>	0
<0xED>	0
<0xEE>	0
<0xEF>	0
<0xF0>	0
<0xF1>	0
<0xF2>	0
<0xF3>	0
<0xF4>	0
<0xF5>	0
<0xF6>	0
<0xF7>	0
<0xF8>	0
<0xF9>	0
<0xFA>	0
<0xFB>	0
<0xFC>	0
<0xFD>	0
<0xFE>	0
<0xFF>	0
▁ک	-0
▁ا	-1
▁▁	-2
▁م	-3
یں	-4
▁ہ	-5
▁ت	-6
▁س	-7
یا	-8
▁▁▁▁	-9
▁ب	-10
▁ن	-11
▁میں	-12
▁د	-13
▁پ	-14
▁ج	-15
▁کے	-16
ور	-17
ام	-18
▁کر	-19
ار	-20
▁اس	-21
ان	-22
▁آ	-23
▁و	-24
یک	-25
▁کی	-26
ائ	-27
▁ہے	-28
ات	-29
ال	-30
▁ص	-31
▁ل	-32
▁سے	-33
▁ہیں	-34
▁▁▁▁▁▁▁▁	-35
▁ش	-36
ین	-37
▁ر	-38
▁ہو	-39
▁اور	-40
▁ان	-41
▁کو	-42
یر	-43
▁کا	-44
یہ	-45
▁آپ	-46
▁ف	-47
▁گ	-48
▁پر	-49
▁صف	-50
▁صفح	-51
▁ز	-52
▁ہے۔	-53
▁ع	-54
▁ح	-55
ری	-56
لا	-57
یم	-58
▁خ	-59
یڈ	-60
یکی	-61
ون	-62
وں	-63
ھی	-64
ست	-65
▁ہیں۔	-66
▁یہ	-67
نے	-68
سی	-69
را	-70
یل	-71
▁ویکی	-72
ئی	-73
تے	-74
یڈیا	-75
▁تر	-76
▁صفحہ	-77
اب	-78
اد	-79
پیڈیا	-80
▁ایک	-81
▁کریں	-82
ود	-83
مر	-84
▁پی	-85
▁ویکیپیڈیا	-86
یے	-87
گر	-88
▁نہ	-89
▁ق	-90
▁مو	-91
▁یا	-92
▁بن	-93
▁ط	-94
▁▁▁▁▁▁▁▁▁▁▁▁▁▁▁▁	-95
تع	-96
از	-97
▁تو	-98
▁ال	-99
▁نام	-100
▁مع	-101
وب	-102
▁سک	-103
مال	-104
▁چ	-105
▁اپ	-106
▁لیے	-107
تی	-108
ائی	-109
وم	-110
▁بھی	-111
ند	-112
ید	-113
۰۲	-114
▁در	-115
اہ	-116
ارف	-117
▁رہ	-118
میم	-119
▁اگر	-120
▁نہیں	-121
▁ترمیم	-122
جود	-123
▁مش	-124
ول	-125
کھ	-126
▁مض	-127
▁نے	-128
▁موجود	-129
نا	-130
تا	-131
یس	-132
▁ذ	-133
▁استع	-134
▁استعمال	-135
رب	-136
نی	-137
▁کہ	-138
مل	-139
▁تھ	-140
▁زمر	-141
▁کریں۔	-142
▁جات	-143
▁مح	-144
▁کسی	-145
▁اج	-146
▁جن	-147
▁جو	-148
ائیں	-149
▁تک	-150
اری	-151
حر	-152
▁کیا	-153
ے۔	-154
▁اجاز	-155
▁اجازت	-156
دہ	-157
▁لو	-158
اں	-159
ہر	-160
▁صارف	-161
صو	-162
ا۔	-163
امل	-164
یو	-165
۹۱	-166
▁۴	-167
▁۰	-168
▁ذیل	-169
▁من	-170
غیر	-171
لی	-172
مون	-173
ائل	-174
انہ	-175
▁صفحات	-176
ائے	-177
▁مضمون	-178
▁پیغ	-179
▁لوڈ	-180
▁پیغام	-181
ئے	-182
▁درج	-183
▁تب	-184
خت	-185
▁کرنے	-186
▁کل	-187
▁شامل	-188
وس	-189
عد	-190
▁سکتے	-191
وع	-192
وی	-193
▁زمرہ	-194
▁۱	-195
چھ	-196
زی	-197
بان	-198
▁جس	-199
کت	-200
▁زبان	-201
▁برا	-202
یت	-203
بر	-204
یش	-205
صویر	-206
رح	-207
اک	-208
▁نامہ	-209
قت	-210
ہرست	-211
▁طور	-212
▁انت	-213
لق	-214
▁مز	-215
▁تحر	-216
▁فہرست	-217
▁اب	-218
▁کھ	-219
▁انگ	-220
▁نظ	-221
▁ڈ	-222
▁مزید	-223
▁مت	-224
▁۲	-225
یاں	-226
▁تحریر	-227
۰۲ء	-228
دی	-229
▁جان	-230
▁مک	-231
▁گیا	-232
یٹ	-233
▁فائل	-234
▁۳	-235
▁معا	-236
رم	-237
▁انگری	-238
لاح	-239
▁رہا	-240
▁ہی	-241
ارہ	-242
▁عرب	-243
▁انگریزی	-244
▁حال	-245
▁وہ	-246
▁تع	-247
▁دی	-248
▁پہ	-249
لوم	-250
▁تصویر	-251
▁کام	-252
▁آئی	-253
یکن	-254
▁براہ	-255
فو	-256
وری	-257
حت	-258
▁جاتا	-259
الی	-260
انچ	-261
▁خانہ	-262
▁کرتے	-263
▁جا	-264
▁محفو	-265
وٹ	-266
دیل	-267
▁کچھ	-268
▁تبدیل	-269
طہ	-270
▁کرم	-271
▁محفوظ	-272
▁ایس	-273
▁اف	-274
▁ہم	-275
▁معاون	-276
انی	-277
▁متع	-278
۹۱ء	-279
▁دے	-280
اریخ	-281
▁صارفین	-282
▁اپنی	-283
▁اپنے	-284
▁پیش	-285
امی	-286
▁معلوم	-287
▁ٹ	-288
ضا	-289
سم	-290
▁کوئی	-291
▁امر	-292
▁معاونت	-293
▁معلومات	-294
▁مس	-295
صل	-296
▁دکھ	-297
▁کھات	-298
▁وقت	-299
▁۵	-300
▁بعد	-301
ائر	-302
ینی	-303
▁۶	-304
قہ	-305
تر	-306
▁مط	-307
وش	-308
امین	-309
اخ	-310
▁اپنا	-311
▁مضامین	-312
▁نظر	-313
کہ	-314
▁۸	-315
قو	-316
لہ	-317
می	-318
▁طرح	-319
▁شر	-320
▁ہونے	-321
▁سکتا	-322
زاد	-323
کوم	-324
▁وا	-325
▁دہ	-326
باد	-327
▁ار	-328
یات	-329
▁ی	-330
▁۷	-331
دو	-332
راکت	-333
▁انھ	-334
▁متعلق	-335
ظہ	-336
▁آزاد	-337
کومت	-338
▁یہی	-339
▁دوب	-340
من	-341
گی	-342
▁دوبارہ	-343
▁زمرے	-344
رف	-345
وال	-346
▁دکھائی	-347
قی	-348
تہ	-349
▁الم	-350
▁اسپ	-351
▁سات	-352
▁تج	-353
یکنڈ	-354
▁سیکنڈ	-355
▁دیگر	-356
▁ض	-357
▁رہے	-358
▁نی	-359
▁جائے	-360
▁شدہ	-361
فر	-362
▁حالیہ	-363
▁دیا	-364
▁اِ	-365
اع	-366
نز	-367
▁فر	-368
ستان	-369
▁ملاح	-370
▁ملاحظہ	-371
▁داخ	-372
▁مکمل	-373
▁مل	-374
ارت	-375
انے	-376
▁چھ	-377
بل	-378
▁۴۲	-379
▁داخل	-380
کا	-381
▁شراکت	-382
▁بنا	-383
▁تھا۔	-384
یار	-385
▁رو	-386
یال	-387
کار	-388
▁بہ	-389
▁اد	-390
▁گا۔	-391
▁دہائی	-392
یب	-393
▁بر	-394
▁یہاں	-395
مار	-396
▁دوس	-397
▁تبدیلیاں	-398
▁مد	-399
▁خیال	-400
▁دست	-401
▁بھ	-402
▁لہ	-403
یان	-404
▁کس	-405
▁اط	-406
▁لکھ	-407
▁امریک	-408
▁جانب	-409
اہر	-410
۸۱	-411
لم	-412
عہ	-413
۵۱	-414
▁غیر	-415
▁کری	-416
▁زیر	-417
▁غ	-418
ٹیو	-419
▁علا	-420
▁تاریخ	-421
▁کامنز	-422
▁اش	-423
ئیٹیو	-424
▁کریئیٹیو	-425
▁تف	-426
رو	-427
▁پڑ	-428
صیل	-429
▁دائر	-430
فت	-431
▁اِس	-432
▁وال	-433
▁تھی	-434
▁ہوتے	-435
ذا	-436
وت	-437
▁کرنا	-438
جہ	-439
لط	-440
▁سانچ	-441
مد	-442
▁بڑ	-443
▁لہذا	-444
▁تھے۔	-445
▁رکھ	-446
▁دیک	-447
▁مق	-448
عارف	-449
▁▁▁▁▁▁	-450
ہم	-451
▁دائرۃ	-452
▁مطاب	-453
▁تفصیل	-454
▁منص	-455
ائع	-456
▁اسے	-457
۰۰۲ء	-458
ریقہ	-459
▁عربی	-460
خر	-461
جی	-462
قوق	-463
▁المعارف	-464
▁دن	-465
▁حقوق	-466
▁مث	-467
لے	-468
ریس	-469
▁ام	-470
▁نس	-471
▁منصوب	-472
ابطہ	-473
▁۹	-474
▁تن	-475
▁این	-476
▁اردو	-477
▁نق	-478
▁اع	-479
▁سا	-480
والہ	-481
کل	-482
▁چاہ	-483
▁کلک	-484
▁مست	-485
دا	-486
امیم	-487
▁ترامیم	-488
ورت	-489
راد	-490
یں۔	-491
▁کت	-492
▁گا	-493
ملہ	-494
ویں	-495
▁ایڈ	-496
ٹر	-497
▁تحت	-498
▁انھیں	-499
انسی	-500
حا	-501
وٹا	-502
ولین	-503
ٹی	-504
▁مطابق	-505
ونی	-506
ارتی	-507
▁شمار	-508
▁الح	-509
▁ایسے	-510
صغیر	-511
▁پاک	-512
▁▁▁▁▁▁▁▁▁▁▁▁▁▁	-513
▁سال	-514
لاش	-515
▁دار	-516
▁ہر	-517
▁زیا	-518
▁دین	-519
یاست	-520
▁ضر	-521
لف	-522
▁جب	-523
▁نوش	-524
ھر	-525
ضاحت	-526
نگ	-527
صوص	-528
▁دیکھ	-529
۰۵۱	-530
انسیسی	-531
ندر	-532
▁زیادہ	-533
▁جرم	-534
▁ساتھ	-535
▁ہوئے	-536
▁او	-537
▁تلاش	-538
▁۴۲۰۲	-539
▁گئے	-540
▁کار	-541
تصغیر	-542
▁تم	-543
▁سب	-544
▁جملہ	-545
▁تخ	-546
۰۵۱و	-547
ائیں۰۵۱و	-548
▁تصویرتصغیر	-549
ائیں۰۵۱وضاحت	-550
▁نوشتہ	-551
▁بنیا	-552
▁شع	-553
▁امریکہ	-554
▁ڈی	-555
▁نیا	-556
ارے	-557
▁بنایا	-558
▁شائع	-559
چے	-560
▁کتاب	-561
آر	-562
ما	-563
▁ہند	-564
▁ہوئی	-565
▁مدد	-566
انا	-567
▁تص	-568
▁مص	-569
سل	-570
▁قسم	-571
▁نش	-572
▁نسخ	-573
▁بل	-574
▁کھاتا	-575
منام	-576
▁گمنام	-577
▁مخت	-578
▁رابطہ	-579
رر	-580
خص	-581
▁قط	-582
عداد	-583
▁اہم	-584
▁نیز	-585
▁نا	-586
۰۰	-587
خط	-588
▁اص	-589
▁مشور	-590
▁جہ	-591
▁با	-592
وہ	-593
یشن	-594
ؤن	-595
▁عام	-596
لیق	-597
▁سانچہ	-598
▁صرف	-599
یکس	-600
قع	-601
▁والی	-602
وان	-603
بی	-604
▁نسخہ	-605
▁جی	-606
▁ہوتا	-607
▁شخص	-608
▁تخلیق	-609
اس	-610
▁کم	-611
جا	-612
۲۱	-613
▁افراد	-614
▁حکومت	-615
▁جرمنی	-616
▁تفصیل۔	-617
در	-618
▁رج	-619
المی	-620
▁،	-621
▁حا	-622
بہ	-623
▁گیا۔	-624
▁اطال	-625
▁سکتی	-626
مالک	-627
▁ظ	-628
▁پاکستان	-629
▁درکار	-630
ہور	-631
▁تھا	-632
▁کن	-633
▁شہر	-634
▁ث	-635
▁ممالک	-636
▁سر	-637
▁خود	-638
اعت	-639
▁قبل	-640
▁مشت	-641
▁منصوبے	-642
تم	-643
▁مشتمل	-644
ظیم	-645
▁اطالوی	-646
پر	-647
▁نامے	-648
ائط	-649
▁الحکومت	-650
▁مر	-651
▁شرائط	-652
▁ہوا	-653
▁ہوتی	-654
▁سام	-655
▁تجارتی	-656
▁جہاں	-657
▁ترین	-658
▁رجوع	-659
صہ	-660
▁مکرر	-661
▁عب	-662
ساب	-663
▁چاہتے	-664
فرانسیسی	-665
سوس	-666
▁گئی	-667
▁لا	-668
▁پاب	-669
▁محسوس	-670
▁اسپر	-671
▁مرب	-672
▁انتو	-673
کٹ	-674
▁ریاست	-675
ہولین	-676
ہولیندی	-677
▁اسپینی	-678
▁مسائل	-679
اتی	-680
یث	-681
▁بیان	-682
غرب	-683
چہ	-684
▁آباد	-685
▁را	-686
▁ملک	-687
▁پہن	-688
▁ذیلی	-689
یشیا	-690
▁جاتی	-691
▁فرم	-692
▁خط	-693
ائن	-694
▁پابند	-695
ئے۔	-696
▁مثلا	-697
▁دستخط	-698
▁کھاتہ	-699
▁تھے	-700
وک	-701
تاریخ	-702
▁وز	-703
۰۱	-704
▁سو	-705
ھوں	-706
▁مثلاً	-707
ویز	-708
ونکہ	-709
▁تباد	-710
▁موض	-711
▁موضوع	-712
▁یو	-713
▁دیں	-714
روف	-715
▁اک	-716
▁مشکل	-717
▁مختلف	-718
▁حاصل	-719
▁دوسر	-720
▁دو	-721
▁ہوں	-722
لۂ	-723
ورپ	-724
▁افریقہ	-725
یثیت	-726
یٹر	-727
▁گے۔	-728
▁موجودہ	-729
▁ناموں	-730
▁دنیا	-731
رہ	-732
▁تعلق	-733
▁مندر	-734
▁دور	-735
▁سامنے	-736
▁حیثیت	-737
گار	-738
▁نقل	-739
یوں	-740
یکساں	-741
▁پہلے	-742
▁بجا	-743
▁مشتر	-744
▁فی	-745
قا	-746
نت	-747
گو	-748
▁مرا	-749
کن	-750
▁۰۴	-751
جم	-752
▁دینے	-753
▁ظاہر	-754
▁باب	-755
ثر	-756
▁جنھوں	-757
وط	-758
▁واقع	-759
▁آغ	-760
▁مخ	-761
▁حس	-762
▁ہوئی۔	-763
▁پھر	-764
▁مشہور	-765
▁بحر	-766
▁فرمائیں	-767
▁ہوگی	-768
▁انتساب	-769
▁عن	-770
▁خلا	-771
▁بات	-772
لس	-773
▁بنائیں	-774
▁لی	-775
▁انھوں	-776
▁تھی۔	-777
▁کہا	-778
▁جنوری	-779
▁ایشیا	-780
▁مرح	-781
▁آغاز	-782
ائٹ	-783
▁متعلقہ	-784
▁منت	-785
▁شروع	-786
▁والے	-787
ویکی	-788
▁آخر	-789
▁رہی	-790
▁صورت	-791
▁اعداد	-792
▁بہت	-793
۱۰۲ء	-794
▁مرحلہ	-795
ائد	-796
وا	-797
▁عنوان	-798
ازہ	-799
▁اسل	-800
▁کیے	-801
▁مار	-802
▁تبادلۂ	-803
▁نگار	-804
▁زند	-805
▁کون	-806
▁ساحر	-807
▁اخت	-808
▁صفحے	-809
▁غلط	-810
سمبر	-811
▁صدی	-812
اکہ	-813
طینی	-814
ئر	-815
▁نیچے	-816
▁گری	-817
▁حوالہ	-818
▁بنانا	-819
▁خوب	-820
▁مربوط	-821
فہ	-822
▁اسی	-823
▁ضروری	-824
▁قان	-825
▁اشاعت	-826
مین	-827
▁سلط	-828
جات	-829
قس	-830
▁لگ	-831
۸۱ء	-832
▁بول	-833
▁جیس	-834
ائش	-835
▁خان	-836
▁ستم	-837
حاظ	-838
▁معامل	-839
▁میڈیا	-840
▁ستمبر	-841
یاب	-842
▁کرکٹ	-843
▁بع	-844
▁دیے	-845
ھیل	-846
▁تاکہ	-847
۳۲	-848
▁▁▁▁▁▁▁▁▁▁	-849
لب	-850
▁علاق	-851
▁کیا۔	-852
▁تنظیم	-853
یز	-854
▁تازہ	-855
▁مشر	-856
گان	-857
▁۰۲	-858
▁چھوٹا	-859
▁دسمبر	-860
▁کئی	-861
سے	-862
▁بعض	-863
▁مخصوص	-864
ابل	-865
▁نم	-866
▁پیر	-867
▁مواد	-868
▁از	-869
▁بنیادی	-870
▁جنوب	-871
▁جیسے	-872
▁زائد	-873
▁تصور	-874
▁جائیں	-875
▁اند	-876
▁لیکن	-877
ندگان	-878
▁انس	-879
▁ای	-880
فق	-881
▁ویب	-882
سال	-883
▁قطعہ	-884
غیرہ	-885
▁تعارف	-886
▁انع	-887
▁فضا	-888
تال	-889
لیم	-890
▁وغیرہ	-891
بادل	-892
▁متبادل	-893
▁کرتا	-894
▁معیار	-895
خانہ	-896
▁ساتھی	-897
▁سکے۔	-898
تام	-899
▁سی	-900
ٹور	-901
▁شمال	-902
خب	-903
ابط	-904
▁فخر	-905
▁جسے	-906
▁مستع	-907
خری	-908
▁مشورہ	-909
ؤنٹ	-910
▁مصن	-911
▁مسود	-912
کتوب	-913
حال	-914
لاگ	-915
▁تمام	-916
▁میڈیاویکی	-917
▁دستیاب	-918
لو	-919
حوالہ	-920
▁بنانے	-921
خذ	-922
▁جم	-923
▁مغرب	-924
▁قوم	-925
▁مستق	-926
اہم	-927
▁گفت	-928
▁اکا	-929
▁مسوداتی	-930
▁انعام	-931
مرہ	-932
▁الک	-933
▁تاریخچہ	-934
▁اکاؤنٹ	-935
ی۔	-936
▁شنا	-937
▁گفتگو	-938
▁متفق	-939
▁سخ	-940
▁پانچ	-941
ریب	-942
▁سن	-943
▁انتسابیکساں	-944
▁ذری	-945
▁طریقہ	-946
▁نو	-947
ھا	-948
زمرہ	-949
دان	-950
▁متصل	-951
▁ہوگی۔	-952
طی	-953
تصویر	-954
سٹ	-955
اتہ	-956
▁نامہائے	-957
▁بارے	-958
حالیہ	-959
▁۰۱	-960
اخت	-961
ائیے	-962
▁ایڈریس	-963
▁آپکا	-964
طہیر	-965
▁تطہیر	-966
▁۳۲	-967
▁بنالی	-968
▁نگارخانہ	-969
کھاتہ	-970
چھوٹا	-971
اختتام	-972
▁نقلغیر	-973
▁بنالیتے	-974
▁میںکھاتہ	-975
▁نوشتہلاگ	-976
چھوٹااختتام	-977
▁تصویرتصغیرب	-978
▁تصویرتصغیرد	-979
▁علی	-980
▁منس	-981
▁وج	-982
▁شناخت	-983
کر	-984
فی	-985
▁شراکتیں	-986
▁سم	-987
▁انتظ	-988
▁لاگ	-989
▁سند	-990
▁شاہ	-991
▁مستعمل	-992
کتوبر	-993
اہل	-994
کیر	-995
▁ہمیں	-996
▁گریز	-997
▁قابل	-998
کاری	-999
▁اکتوبر	-1000
▁ہوا۔	-1001
▁مستقبل	-1002
▁پہنچ	-1003
▁خانے	-1004
یرہ	-1005
▁پڑتال	-1006
▁منسوب	-1007
▁آرا	-1008
▁مشترک	-1009
▁الکاہل	-1010
▁لوگ	-1011
▁پابندیاں	-1012
لاطینی	-1013
یورپ	-1014
▁اوپر	-1015
▁وس	-1016
▁۹۱	-1017
▁وی	-1018
اص	-1019
▁روٹ	-1020
▁شخصیت	-1021
▁لحاظ	-1022
▁پتا	-1023
فات	-1024
عالمی	-1025
ٹریس	-1026
وکیٹ	-1027
▁ایڈیشن	-1028
۶۱	-1029
▁وجوہ	-1030
▁تاہم	-1031
یبین	-1032
جیول	-1033
▁آرایس	-1034
کیریبین	-1035
▁بنائیے	-1036
▁امریکہکیریبین	-1037
▁وجوہات	-1038
جیولوکیٹ	-1039
▁مصنف	-1040
▁پیدا	-1041
▁زندہ	-1042
وبل	-1043
▁کی۔	-1044
▁تیار	-1045
ٹن	-1046
طلاح	-1047
▁اصل	-1048
دار	-1049
▁فار	-1050
▁وزارت	-1051
▁طرف	-1052
▁متح	-1053
▁فوت	-1054
▁تجویز	-1055
▁بہتر	-1056
▁صدر	-1057
ومبر	-1058
▁جاتے	-1059
▁سلطنت	-1060
▁الا	-1061
▁ہندو	-1062
یوان	-1063
▁مم	-1064
▁درست	-1065
▁خصوص	-1066
کش	-1067
صر	-1068
▁محض	-1069
▁نشر	-1070
اً	-1071
▁وجہ	-1072
▁تمغ	-1073
▁نوبل	-1074
▁آتی	-1075
▁جنگ	-1076
▁فروری	-1077
زر	-1078
کان	-1079
▁آبادی	-1080
لات	-1081
▁بلکہ	-1082
▁نئے	-1083
▁شعب	-1084
▁بنیاد	-1085
▁رب	-1086
▁راست	-1087
مو	-1088
فا	-1089
۷۱	-1090
▁گی۔	-1091
▁کرتی	-1092
کی	-1093
▁مالی	-1094
▁آخری	-1095
▁۴۱	-1096
▁امید	-1097
▁بیر	-1098
دد	-1099
▁متحدہ	-1100
ینڈ	-1101
▁ہو۔	-1102
▁روابط	-1103
▁اصطلاح	-1104
▁بین	-1105
▁شہ	-1106
▁۶۱	-1107
زا	-1108
ریف	-1109
▁واپ	-1110
▁عل	-1111
▁امریکا	-1112
صد	-1113
▁ات	-1114
▁فو	-1115
▁چونکہ	-1116
▁مثال	-1117
▁ربط	-1118
▁خاص	-1119
▁دائیں	-1120
▁حسب	-1121
▁ماہر	-1122
▁محمد	-1123
فظ	-1124
دوین	-1125
▁عم	-1126
شن	-1127
▁دوسرا	-1128
ضح	-1129
▁علاقہ	-1130
▁اقت	-1131
▁مشورے	-1132
▁دیکھنے	-1133
▁واضح	-1134
▁عالمی	-1135
▁چن	-1136
▁کرے	-1137
▁فع	-1138
▁قر	-1139
▁حروف	-1140
▁عبارت	-1141
حل	-1142
▁جانے	-1143
▁یون	-1144
▁مطلب	-1145
ریل	-1146
۲۱۲	-1147
▁اللہ	-1148
▁آمد	-1149
▁دوسرے	-1150
▁جول	-1151
▁اُ	-1152
▁مارچ	-1153
▁۵۱	-1154
▁نومبر	-1155
▁امریکی	-1156
▁دان	-1157
▁ایسا	-1158
▁شعبہ	-1159
▁مرک	-1160
▁بتاریخ	-1161
تیب	-1162
▁خوش	-1163
▁ملا	-1164
▁مج	-1165
▁ادب	-1166
▁ضرورت	-1167
۴۱	-1168
▁۱۲	-1169
وار	-1170
▁پہلی	-1171
قسام	-1172
▁نہیں۔	-1173
▁بڑے	-1174
▁آئ	-1175
▁اقسام	-1176
طان	-1177
▁کنندگان	-1178
دم	-1179
▁بھارت	-1180
▁منتخب	-1181
▁تدوین	-1182
▁کھیل	-1183
▁خودکار	-1184
ظم	-1185
ستانی	-1186
▁می	-1187
یائی	-1188
▁بائیں	-1189
▁انتظامی	-1190
▁جز	-1191
۳۱	-1192
▁سائٹ	-1193
یدر	-1194
▁سوال	-1195
▁جولائی	-1196
▁فلم	-1197
قیہ	-1198
▁گیارہ	-1199
ائیک	-1200
▁ہدا	-1201
▁ترتیب	-1202
▁موسی	-1203
▁ہوئے۔	-1204
▁خصوصی	-1205
▁دیں۔	-1206
▁طبی	-1207
یسٹ	-1208
▁درپ	-1209
▁بڑا	-1210
اج	-1211
▁گے	-1212
▁پس	-1213
▁مشرق	-1214
▁فن	-1215
مول	-1216
▁درپیش	-1217
▁۱۱	-1218
▁ثقا	-1219
عت	-1220
▁دیکھا	-1221
۸۲۱۲	-1222
▁آپس	-1223
▁عمل	-1224
▁سانچے	-1225
▁زبانوں	-1226
▁میل	-1227
▁بیٹ	-1228
▁مسلم	-1229
▁شمالی	-1230
▁تبدیلی	-1231
امیٹر	-1232
▁مشار	-1233
▁حک	-1234
▁ابھی	-1235
▁خیالات	-1236
▁پار	-1237
رت	-1238
▁انڈ	-1239
▁بیش	-1240
▁دف	-1241
▁برطان	-1242
▁اخذ	-1243
▁دیوان	-1244
▁اگ	-1245
۴۵	-1246
▁فارسی	-1247
▁پیرامیٹر	-1248
▁مندرجہ	-1249
▁۰۳	-1250
▁لیں	-1251
▁مشارکت	-1252
عے	-1253
انچہ	-1254
▁حیدر	-1255
▁۲۲	-1256
او	-1257
ٹھ	-1258
▁مغربی	-1259
▁تبدیلیوں	-1260
▁بیشتر	-1261
▁لکھا	-1262
▁بیرونی	-1263
▁۔	-1264
▁فعال	-1265
▁دوسروں	-1266
▁کیونکہ	-1267
▁رس	-1268
▁فرمائیں۔	-1269
▁آمدید	-1270
▁شاع	-1271
▁اندرا	-1272
▁بقیہ	-1273
▁مراحل	-1274
یدہ	-1275
▁لفظ	-1276
▁شماریات	-1277
▁تعریف	-1278
▁مقام	-1279
▁بح	-1280
▁مباد	-1281
▁چار	-1282
▁خلاف	-1283
▁سط	-1284
قل	-1285
▁پیغامات	-1286
قات	-1287
▁علاوہ	-1288
▁بٹن	-1289
▁پیم	-1290
▁آلات	-1291
ذہ	-1292
▁گئے۔	-1293
▁کاری	-1294
▁کمپ	-1295
▁قانون	-1296
▁آمو	-1297
مینان	-1298
▁اطمینان	-1299
▁وسطی	-1300
▁۱سال	-1301
▁سیا	-1302
▁ور	-1303
▁اسلامی	-1304
▁۸۱	-1305
▁احا	-1306
▁بار	-1307
ختار	-1308
▁درم	-1309
▁۰۰۲	-1310
▁مئی	-1311
▁کوش	-1312
▁چنانچہ	-1313
▁ٹک	-1314
▁تق	-1315
▁۲۱	-1316
شی	-1317
▁رود	-1318
▁احاطہ	-1319
▁آموختار	-1320
▁تعلیم	-1321
▁معاملے	-1322
▁۰۵	-1323
▁غلطی	-1324
▁بیک	-1325
اہدہ	-1326
اکی	-1327
▁ساب	-1328
شاہ	-1329
▁جنوبی	-1330
▁اجزا	-1331
سپ	-1332
▁آن	-1333
▁مبادی	-1334
▁آموختار۔	-1335
یاء	-1336
▁خاندان	-1337
۸۸	-1338
یے۔	-1339
▁موسیقی	-1340
▁سفر	-1341
وامی	-1342
قید	-1343
▁پید	-1344
▁نظامی	-1345
▁آئے	-1346
▁جاننے	-1347
▁جبکہ	-1348
▁انج	-1349
ورس	-1350
▁ذریعے	-1351
▁دوسری	-1352
▁مجم	-1353
▁عمر	-1354
ائم	-1355
یری	-1356
▁بولی	-1357
▁تح	-1358
▁مہ	-1359
دید	-1360
▁دینا	-1361
▁کوشش	-1362
فٹ	-1363
▁براؤ	-1364
▁اصطلاحات	-1365
▁آف	-1366
▁اختیار	-1367
▁لائن	-1368
▁روداد	-1369
▁پیدائش	-1370
▁براؤزر	-1371
قوامی	-1372
فتہ	-1373
▁قومی	-1374
▁سکتی۔	-1375
▁حصہ	-1376
▁شخصیات	-1377
▁معروف	-1378
▁الاقوامی	-1379
▁رودادیں	-1380
▁رائے	-1381
▁مندرجات	-1382
▁ہاکی	-1383
▁رہن	-1384
▁لیگ	-1385
▁مجموع	-1386
۹۹۱ء	-1387
▁جون	-1388
حی	-1389
▁کیج	-1390
▁درمیان	-1391
ڑی	-1392
راہ	-1393
▁چند	-1394
▁متعدد	-1395
▁کھاتے	-1396
ارڈ	-1397
زار	-1398
▁افری	-1399
ہائی	-1400
▁رکھا	-1401
▁علم	-1402
▁مشاہدہ	-1403
▁اح	-1404
۷۴۵	-1405
▁فائلیں	-1406
▁قب	-1407
۷۴۵۸۱	-1408
▁واپسی	-1409
▁پہنچے	-1410
۴۹۱ء	-1411
▁بیس	-1412
▁۲۰۰۲ء	-1413
▁مکررات	-1414
رض	-1415
▁کیجیے۔	-1416
۰۰۲	-1417
▁رہنما	-1418
▁دکھائیں	-1419
▁خبر	-1420
▁ہدایات	-1421
▁آگ	-1422
▁اصلاح	-1423
▁اسلام	-1424
خلا	-1425
▁ما	-1426
▁عبد	-1427
▁تعداد	-1428
۶۵	-1429
▁قانونی	-1430
▁ممکن	-1431
۴۳	-1432
کھی	-1433
▁صوب	-1434
▁بی	-1435
▁بنگ	-1436
▁نظام	-1437
▁الج	-1438
دین	-1439
▁۸۲	-1440
دیم	-1441
▁اضا	-1442
▁۷۲	-1443
▁تقریب	-1444
۷۹۱ء	-1445
▁مراکش	-1446
▁میچ	-1447
▁ٹیسٹ	-1448
▁اگست	-1449
▁یافتہ	-1450
ربی	-1451
▁بال	-1452
▁سول	-1453
▁ساز	-1454
▁وفات	-1455
عنی	-1456
اویر	-1457
دود	-1458
▁ہے۔۱	-1459
▁تنقید	-1460
▁بڑھ	-1461
باس	-1462
▁تعلقات	-1463
▁بلا	-1464
ادی	-1465
▁تصاویر	-1466
▁الع	-1467
▁نک	-1468
▁علاقے	-1469
▁مصر	-1470
▁ابن	-1471
▁۰۰۰	-1472
▁ٹیم	-1473
▁معاملات	-1474
▁آر	-1475
کے	-1476
ٹرنی	-1477
▁خلاصہ	-1478
▁نمائ	-1479
▁ادارے	-1480
▁اول	-1481
میر	-1482
▁تمغے	-1483
ائے۔	-1484
▁پرو	-1485
▁اسک	-1486
▁انتہائی	-1487
▁تش	-1488
▁چینی	-1489
▁نمائند	-1490
▁لیا	-1491
▁موضوعات	-1492
▁کیسے	-1493
▁اپریل	-1494
▁بخ	-1495
ایا	-1496
▁فلس	-1497
▁دیا۔	-1498
▁بط	-1499
سن	-1500
▁پن	-1501
اویز	-1502
▁سین	-1503
ائیکلو	-1504
▁انسائیکلو	-1505
▁شکل	-1506
▁زم	-1507
▁اندراجات	-1508
انس	-1509
▁وزیر	-1510
▁چوت	-1511
▁سافٹ	-1512
▁رکھتا	-1513
واں	-1514
▁میٹر	-1515
▁سیاسی	-1516
نٹ	-1517
▁اکثر	-1518
▁ابت	-1519
▁ویئر	-1520
سلک	-1521
۸۹۱ء	-1522
▁منسلک	-1523
▁محدود	-1524
▁گر	-1525
▁یورپ	-1526
▁۷۱	-1527
خاب	-1528
▁فل	-1529
شراکت	-1530
▁انتخاب	-1531
فاظ	-1532
▁یونی	-1533
میں	-1534
▁رکن	-1535
▁۳۱	-1536
▁عظیم	-1537
▁اضافہ	-1538
ٹا	-1539
▁روم	-1540
▁فیصد	-1541
▁مال	-1542
▁اشیاء	-1543
▁قدیم	-1544
▁۰۰	-1545
▁برائے	-1546
ضابطہ	-1547
▁ایر	-1548
▁باضابطہ	-1549
یام	-1550
▁اولین	-1551
▁تین	-1552
▁قائم	-1553
مہ	-1554
▁کھلا	-1555
▁بغ	-1556
ودی	-1557
▁اقتباس	-1558
اؤن	-1559
▁رنگ	-1560
▁کپ	-1561
▁ذر	-1562
▁کیوں	-1563
▁نمائندگی	-1564
▁انسائیکلوپیڈیا	-1565
ورسٹی	-1566
▁اختلا	-1567
▁دیکھی	-1568
▁باہ	-1569
▁تکن	-1570
▁قطع	-1571
▁انٹرنی	-1572
▁شعبے	-1573
لع	-1574
▁رکھتی	-1575
▁بطور	-1576
▁باہمی	-1577
▁بڑی	-1578
▁ذرائع	-1579
▁لوگوں	-1580
▁یونیورسٹی	-1581
▁سرکاری	-1582
▁نما	-1583
▁۴۳۲	-1584
▁۵۲	-1585
▁تکنیکی	-1586
▁ہندوستان	-1587
▁آج	-1588
▁۳۱۰۲ء	-1589
ضی	-1590
▁غرض	-1591
▁جل	-1592
کین	-1593
▁نشانہ	-1594
▁المغرب	-1595
▁سولہ	-1596
▁فری	-1597
▁سرخ	-1598
▁شا	-1599
▁خطر	-1600
▁سائن	-1601
▁پہلا	-1602
▁فہرستیں	-1603
▁کمپنی	-1604
▁اشتہ	-1605
▁الفاظ	-1606
▁رکھتے	-1607
▁آس	-1608
▁خدم	-1609
▁ہے۔۲	-1610
▁گھ	-1611
▁بھر	-1612
▁سمج	-1613
▁دوران	-1614
▁اہمیت	-1615
▁لے	-1616
▁مشترکہ	-1617
▁۶۲	-1618
▁اشتہار	-1619
▁باد	-1620
کیل	-1621
قال	-1622
▁پیمائی	-1623
▁تصویریں	-1624
ونوں	-1625
▁کردہ	-1626
▁گئی۔	-1627
ادہ	-1628
▁ملاپ	-1629
▁اختلاف	-1630
▁طب	-1631
▁مشکلات	-1632
▁ہمکاری	-1633
▁مفت	-1634
▁جاری	-1635
نڈ	-1636
▁ترقی	-1637
▁روا	-1638
۶۹۱ء	-1639
▁گرو	-1640
▁ضلع	-1641
▁ثقافت	-1642
۴۲	-1643
▁کیم	-1644
▁رق	-1645
▁اعظم	-1646
▁فرانسیسی	-1647
▁۴۲۰۲ء	-1648
قسیم	-1649
▁دونوں	-1650
▁بخش	-1651
▁والا	-1652
▁مذہ	-1653
▁پک	-1654
▁لائیں	-1655
▁خوبیاں	-1656
▁ذخ	-1657
▁تقسیم	-1658
▁عط	-1659
▁جزیرہ	-1660
سر	-1661
▁عموم	-1662
▁حض	-1663
▁۰۰۱	-1664
▁اداک	-1665
▁کاروب	-1666
انیہ	-1667
▁یعنی	-1668
▁ڈال	-1669
▁کہتے	-1670
تیس	-1671
▁دریا	-1672
▁۸۹	-1673
▁پسند	-1674
▁ابو	-1675
▁ہزار	-1676
▁آگے	-1677
▁بد	-1678
▁دفعہ	-1679
ئین	-1680
▁شی	-1681
یاتی	-1682
▁انتقال	-1683
▁باقی	-1684
▁خو	-1685
▁قید	-1686
▁است	-1687
▁بادشاہ	-1688
▁احمد	-1689
▁ئے	-1690
▁کان	-1691
▁آیا	-1692
▁مشرقی	-1693
ذک	-1694
▁حجم	-1695
▁مسلمان	-1696
▁سویڈ	-1697
▁جائے۔	-1698
▁کین	-1699
▁تہ	-1700
ارا	-1701
▁زبانیں	-1702
▁روز	-1703
▁مرکز	-1704
▁انگل	-1705
▁مراد	-1706
▁سلس	-1707
گہ	-1708
▁برطانوی	-1709
لز	-1710
لاس	-1711
▁فرق	-1712
▁حق	-1713
▁سیاست	-1714
▁ذریعہ	-1715
▁کب	-1716
▁فوجی	-1717
▁بنائی	-1718
▁مسی	-1719
▁روسی	-1720
▁خطا	-1721
▁۴۰۰۲ء	-1722
نام	-1723
▁سابقہ	-1724
▁یوں	-1725
▁الدین	-1726
▁زیرِ	-1727
▁بحیرہ	-1728
▁ماخ	-1729
الم	-1730
▁مگر	-1731
▁آئیں	-1732
▁لگا	-1733
▁گھر	-1734
▁باز	-1735
▁ادارہ	-1736
▁بھارتی	-1737
▁اُس	-1738
▁ممکنہ	-1739
▁جلی	-1740
لان	-1741
▁پور	-1742
▁ہے۔۵	-1743
اپ	-1744
▁تقریباً	-1745
▁تجاویز	-1746
▁ریاستوں	-1747
▁عرا	-1748
▁توجہ	-1749
▁چوتھا	-1750
▁ضم	-1751
▁حص	-1752
▁کھل	-1753
مت	-1754
▁قار	-1755
یسر	-1756
۸۹	-1757
▁سائنس	-1758
ذکرہ	-1759
▁جگہ	-1760
▁تذکرہ	-1761
زاز	-1762
▁بنتے	-1763
▁ذخائر	-1764
جد	-1765
▁شعبوں	-1766
▁قارئین	-1767
▁انجام	-1768
ہائے	-1769
▁والد	-1770
دن	-1771
▁ہسپ	-1772
▁رکھی	-1773
خلاصہ	-1774
▁سع	-1775
▁سرب	-1776
▁عنا	-1777
تھ	-1778
چی	-1779
لاع	-1780
▁مربع	-1781
▁اعزاز	-1782
لاغ	-1783
۵۹۱ء	-1784
▁منا	-1785
▁نامی	-1786
▁دل	-1787
ادر	-1788
▁کھی	-1789
▁ابلاغ	-1790
▁مطابقت	-1791
▁الجز	-1792
▁راج	-1793
▁ارسال	-1794
▁انٹرنیٹ	-1795
▁حضرت	-1796
▁عہ	-1797
۵۲	-1798
▁کاروباری	-1799
۳۹۱ء	-1800
▁ہج	-1801
ثرت	-1802
▁مب	-1803
▁سما	-1804
▁قرار	-1805
▁ممن	-1806
▁مجموعی	-1807
▁کیسی	-1808
شت	-1809
▁ماخذ	-1810
▁علاقوں	-1811
جر	-1812
▁وقتتاریخ	-1813
▁شاعر	-1814
▁پکسل	-1815
▁۹۲	-1816
▁مجاز	-1817
ونس	-1818
▁ایو	-1819
▁سطر	-1820
وے	-1821
▁ڈیٹ	-1822
▁نشان	-1823
▁ایل	-1824
▁سیک	-1825
▁چاہتا	-1826
▁عناصر	-1827
▁ہندوستانی	-1828
▁شرط	-1829
▁عراق	-1830
▁نیو	-1831
▁کثرت	-1832
▁طق	-1833
۱۱	-1834
دگی	-1835
▁منصوبوں	-1836
ؤں	-1837
نقل	-1838
فعت	-1839
اوت	-1840
ندی	-1841
وڑ	-1842
▁بھول	-1843
▁تحقی	-1844
قویم	-1845
▁تشکیل	-1846
▁اسٹ	-1847
▁سائٹس	-1848
▁خدمات	-1849
▁متفر	-1850
▁یاد	-1851
▁لگائی	-1852
▁عطیہ	-1853
▁جدید	-1854
▁ارکان	-1855
▁فوج	-1856
▁مآ	-1857
کو	-1858
▁گو	-1859
▁رساں	-1860
مب	-1861
فتی	-1862
اح	-1863
وسی	-1864
▁منظ	-1865
▁تھیں۔	-1866
▁اعت	-1867
▁مآخذ	-1868
▁ترمیمی	-1869
▁بڑھنے	-1870
تاریخچہ	-1871
▁منفعت	-1872
اش	-1873
۶۲	-1874
▁ایوارڈ	-1875
▁متفرقات	-1876
▁نکات	-1877
▁جمہور	-1878
▁ہوا۔۱	-1879
▁اعادہ	-1880
ہل	-1881
▁بھولیں۔	-1882
▁ہے۔۵۴۳	-1883
▁ترک	-1884
▁شاید	-1885
▁ہیں۔۶۵	-1886
یکساںشراکت	-1887
▁معاونتخلاصہ	-1888
▁معاونتتاریخچہ	-1889
▁تکلف	-1890
▁الام	-1891
▁اتنا	-1892
▁عیس	-1893
▁دہندگان	-1894
عوامی	-1895
▁تنوع	-1896
▁ممنون	-1897
▁ایران	-1898
▁بغاوت	-1899
▁مسائل۔	-1900
▁استعمالنقل	-1901
▁الجزائر	-1902
▁حسین	-1903
▁اعلان	-1904
▁کتابوں	-1905
دائی	-1906
▁اقو	-1907
جاب	-1908
▁فرض	-1909
ربر	-1910
▁حتی	-1911
▁نقص	-1912
▁ویکیوں	-1913
وڈ	-1914
غل	-1915
▁حرف	-1916
▁سربراہ	-1917
اط	-1918
▁لینڈ	-1919
▁سل	-1920
▁فرا	-1921
▁گن	-1922
▁حالت	-1923
ورڈ	-1924
▁کش	-1925
▁زندگی	-1926
▁سماجی	-1927
ولت	-1928
وعہ	-1929
▁کھلاڑی	-1930
▁تقویم	-1931
▁کال	-1932
مولات	-1933
▁الامکان	-1934
وز	-1935
▁پاس	-1936
▁بانی	-1937
▁مشمولات	-1938
▁منصوبہ	-1939
▁اطلاع	-1940
▁ٹی	-1941
▁تعمیر	-1942
▁پوش	-1943
جے	-1944
▁یوم	-1945
▁ڈر	-1946
۴۹۱	-1947
▁چین	-1948
آمد	-1949
▁فرانس	-1950
▁فارہ	-1951
▁پنجاب	-1952
▁برم	-1953
▁۱۰۰۲ء	-1954
یشنل	-1955
▁ڈیٹا	-1956
ترمیم	-1957
ائیل	-1958
▁چکے	-1959
▁اقوام	-1960
▁پارٹی	-1961
▁پاکستانی	-1962
▁صوبہ	-1963
▁بربر	-1964
بار	-1965
▁پول	-1966
▁تا	-1967
▁حد	-1968
کس	-1969
▁اتح	-1970
▁خات	-1971
▁سندھی	-1972
▁قیام	-1973
▁پوشیدہ	-1974
▁ایم	-1975
▁کیمر	-1976
▁یک	-1977
▁علام	-1978
▁جار	-1979
▁اے	-1980
▁ریاستہائے	-1981
پور	-1982
مارات	-1983
▁طلب	-1984
▁رہے۔	-1985
▁اعلی	-1986
▁آزادی	-1987
سیع	-1988
▁تاریخی	-1989
▁یونین	-1990
▁ابتدائی	-1991
▁چھوٹ	-1992
▁عہد	-1993
▁جمہوریہ	-1994
بن	-1995
سب	-1996
ینہ	-1997
راف	-1998
▁سنہ	-1999
▁اق	-2000
▁بنگلہ	-2001
▁کبھی	-2002
▁بے	-2003
▁بھائی	-2004
انوی	-2005
▁عکا	-2006
▁نتی	-2007
▁آنے	-2008
▁افریقی	-2009
کھیل	-2010
▁فراہم	-2011
▁ھ	-2012
▁دس	-2013
▁انسانی	-2014
▁صفحہ۔	-2015
▁کےکھیل	-2016
▁نیشنل	-2017
▁سطح	-2018
یتی	-2019
▁پائیں	-2020
یٹل	-2021
▁جماعت	-2022
▁کیمرے	-2023
ہیں	-2024
▁حمل	-2025
۰۵	-2026
تیسری	-2027
ظہار	-2028
▁لکھنے	-2029
▁اظہار	-2030
▁لین	-2031
▁ثقافتی	-2032
▁عوامی	-2033
▁مرکزی	-2034
▁واق	-2035
ولا	-2036
▁عکاسی	-2037
اء	-2038
▁وکٹ	-2039
▁ترکی	-2040
▁برطانیہ	-2041
▁مین	-2042
▁ڈیج	-2043
▁تحقیق	-2044
▁حکمر	-2045
▁رقبہ	-2046
▁ڈیجیٹل	-2047
▁اتحاد	-2048
اہرہ	-2049
▁ماہ	-2050
▁اسر	-2051
▁بنائے	-2052
▁رام	-2053
▁علیہ	-2054
▁سعودی	-2055
بول	-2056
▁مقصد	-2057
▁درجہ	-2058
دوس	-2059
▁۱۳	-2060
▁جام	-2061
▁امارات	-2062
▁رکھنے	-2063
▁۰۲۸۲۱۲	-2064
▁لاکھ	-2065
▁عیسوی	-2066
▁صد	-2067
شر	-2068
۸۷	-2069
▁سید	-2070
اف	-2071
اتھ	-2072
تح	-2073
یٹی	-2074
▁اِضا	-2075
کینر	-2076
۸۹۱	-2077
ستہ	-2078
▁نوٹ	-2079
▁کور	-2080
▁اِضافی	-2081
▁اِسکینر	-2082
جو	-2083
قسم	-2084
▁ختم	-2085
▁اسرائیل	-2086
▁ملین	-2087
اون	-2088
ئیں۔	-2089
▁بیٹے	-2090
▁قریب	-2091
▁پھ	-2092
▁تمغا	-2093
▁اہل	-2094
وبائٹ	-2095
▁کلوبائٹ	-2096
▁نمبر	-2097
▁ڈرام	-2098
▁اکیڈ	-2099
۸۲	-2100
▁کرا	-2101
سو	-2102
▁ویک	-2103
▁۳۰۰۲ء	-2104
▁شاعری	-2105
ائز	-2106
▁امور	-2107
▁مسیح	-2108
یما	-2109
▁سلسلہ	-2110
عیات	-2111
▁علاقائی	-2112
ائج	-2113
▁نواز	-2114
▁مذہبی	-2115
▁امام	-2116
ریق	-2117
▁کردار	-2118
▁محنت	-2119
▁کالج	-2120
۰۳	-2121
▁کلو	-2122
▁جانا	-2123
▁ویں	-2124
▁تاج	-2125
یسویں	-2126
▁موز	-2127
یلی	-2128
وتھی	-2129
▁واپس	-2130
ورن	-2131
▁یونانی	-2132
۹۵	-2133
دت	-2134
▁اکیڈمی	-2135
▁الب	-2136
چوتھی	-2137
▁مطب	-2138
▁نمایاں	-2139
چر	-2140
۰۴	-2141
دوسری	-2142
یاری	-2143
ٹھویں	-2144
یرو	-2145
▁کلاس	-2146
▁رہا۔	-2147
▁قاہرہ	-2148
▁پسندیدہ	-2149
▁عر	-2150
▁حساب	-2151
۶۱ء	-2152
▁آسٹ	-2153
▁امن	-2154
▁جاپ	-2155
ویل	-2156
یمیڈیا	-2157
اند	-2158
▁میان	-2159
▁رش	-2160
ڈیشن	-2161
▁سلطان	-2162
▁طبیعیات	-2163
▁جنگی	-2164
▁اعلیٰ	-2165
▁دیکھیے۔	-2166
▁سرح	-2167
▁سہ	-2168
خوا	-2169
واز	-2170
ئن	-2171
▁پارلیم	-2172
▁واقعات	-2173
▁ناول	-2174
▁تیس	-2175
▁گاہ	-2176
▁آسٹریل	-2177
▁زر	-2178
▁بلحاظ	-2179
▁کونسل	-2180
▁موجودات	-2181
▁ڈالر	-2182
▁مقامی	-2183
▁مطبوعہ	-2184
ڈی	-2185
▁وسیع	-2186
▁ریا	-2187
▁بہترین	-2188
سلام	-2189
▁جرمن	-2190
▁سابق	-2191
▁انداز	-2192
▁۵۰۰۲ء	-2193
▁افریقا	-2194
▁میانمار	-2195
▁قبر	-2196
۷۲	-2197
▁مرت	-2198
▁مقبول	-2199
▁وہاں	-2200
بت	-2201
▁برآمد	-2202
ویت	-2203
▁طریق	-2204
▁انتظام	-2205
▁زمانے	-2206
وریہ	-2207
▁صحا	-2208
▁حکمران	-2209
اروں	-2210
▁تحریک	-2211
▁ویکیمیڈیا	-2212
▁شہری	-2213
الب	-2214
ڑیوں	-2215
ویکیپیڈیا	-2216
صف	-2217
ثری	-2218
▁میر	-2219
▁دیش	-2220
ثی	-2221
▁زمین	-2222
▁مظ	-2223
▁سوان	-2224
▁واقعہ	-2225
▁تبادلہ	-2226
ثم	-2227
▁رسم	-2228
نیت	-2229
▁نئی	-2230
▁العربی	-2231
چنا	-2232
▁ایسی	-2233
▁کراچی	-2234
▁کمی	-2235
تباد	-2236
▁لیب	-2237
نس	-2238
یڈیو	-2239
▁جارج	-2240
▁کمیٹی	-2241
یڈا	-2242
▁سویڈن	-2243
۹۲	-2244
▁شکلب	-2245
ہا	-2246
▁سمندر	-2247
▁ول	-2248
▁اکثری	-2249
▁سازی	-2250
▁نمائش	-2251
ڑوں	-2252
▁▁▁	-2253
اصل	-2254
▁اسکول	-2255
▁بہادر	-2256
▁فاؤن	-2257
▁موت	-2258
▁فاؤنڈیشن	-2259
اور	-2260
سانی	-2261
▁قدر	-2262
▁لبن	-2263
▁موزوں	-2264
عربی	-2265
▁عموماً	-2266
▁۶۳	-2267
۷۹۱	-2268
▁پو	-2269
غر	-2270
▁۹۰	-2271
▁امت	-2272
▁پرت	-2273
▁الگ	-2274
▁خلی	-2275
▁الق	-2276
زد	-2277
▁عد	-2278
▁نار	-2279
▁آرم	-2280
ائق	-2281
▁متن	-2282
▁تی	-2283
▁فرو	-2284
ڑھ	-2285
▁سنگ	-2286
لاب	-2287
▁بولنے	-2288
سات	-2289
▁آسان	-2290
▁موقع	-2291
▁عثم	-2292
▁شکلبند	-2293
▁فتح	-2294
▁ایف	-2295
▁انگلستان	-2296
تل	-2297
چھٹی	-2298
▁الف	-2299
▁مناسب	-2300
▁شیخ	-2301
▁شاہی	-2302
نسی	-2303
▁ریل	-2304
▁ٹاؤن	-2305
▁۹۱۰۲	-2306
ادری	-2307
▁عالم	-2308
▁ژ	-2309
▁نظم	-2310
اعدہ	-2311
▁قص	-2312
▁۳۲۰۲	-2313
۰۶	-2314
▁یورپی	-2315
پی	-2316
▁تباہ	-2317
▁ملکی	-2318
▁روس	-2319
دوں	-2320
خواست	-2321
▁نتیجے	-2322
▁برس	-2323
▁ممت	-2324
▁بش	-2325
۸۸۱ء	-2326
▁نقطہ	-2327
▁مقرر	-2328
ابت	-2329
▁کاؤن	-2330
▁ممتاز	-2331
▁کاؤنٹی	-2332
▁حل	-2333
▁ذکر	-2334
▁لبنان	-2335
▁ہماری	-2336
ریٹ	-2337
▁تعاون	-2338
▁انق	-2339
▁چکی	-2340
▁خطاطی	-2341
ساتویں	-2342
▁اعتبار	-2343
۸۶	-2344
▁ابتدا	-2345
▁پروف	-2346
▁ہونا	-2347
۵۸۱ء	-2348
▁صو	-2349
▁وار	-2350
▁ڈاک	-2351
۸۴	-2352
▁پولش	-2353
آن	-2354
▁چکا	-2355
یکٹر	-2356
▁منتقل	-2357
▁آواز	-2358
▁اسات	-2359
▁رنز	-2360
▁دش	-2361
▁والوں	-2362
▁بندی	-2363
▁اساتذہ	-2364
اؤ	-2365
▁زلز	-2366
▁پائی	-2367
ڈر	-2368
▁ترجم	-2369
۷۵	-2370
▁ٹو	-2371
▁فیصل	-2372
لیت	-2373
▁حیات	-2374
طین	-2375
۲۲	-2376
اتے	-2377
▁دیتا	-2378
الو	-2379
غان	-2380
▁چیز	-2381
▁امتیا	-2382
آخری	-2383
▁پوری	-2384
▁رکھی۔	-2385
تبادلۂ	-2386
▁عو	-2387
۹۸۱ء	-2388
▁دنوں	-2389
▁شم	-2390
اتین	-2391
▁متو	-2392
یمن	-2393
▁شاخ	-2394
▁اداکار	-2395
▁ویل	-2396
الت	-2397
▁بچ	-2398
پانچ	-2399
▁ابی	-2400
منت	-2401
▁عدد	-2402
▁کانگ	-2403
پانچویں	-2404
▁پڑھ	-2405
▁مطال	-2406
▁باع	-2407
▁گروہ	-2408
▁معاشی	-2409
▁شج	-2410
▁۹۱۰۲ء	-2411
▁درخواست	-2412
▁آسٹریلیا	-2413
▁کھیلا	-2414
بھ	-2415
عق	-2416
▁روزہ	-2417
عاد	-2418
▁سمجھا	-2419
۷۳	-2420
۳۲۰۲	-2421
یدان	-2422
▁کیمیا	-2423
لڈ	-2424
▁مسل	-2425
▁گروپ	-2426
▁علامت	-2427
▁چی	-2428
▁تسل	-2429
▁ذمہ	-2430
▁باعث	-2431
▁معنی	-2432
▁مان	-2433
▁جنہیں	-2434
▁انتخابات	-2435
▁بائی	-2436
دیش	-2437
▁اوقات	-2438
▁اثر	-2439
▁برمی	-2440
▁ڑ	-2441
▁پیرو	-2442
▁لاہ	-2443
حد	-2444
▁خواتین	-2445
داد	-2446
۶۹۱	-2447
▁قبیل	-2448
▁تھیں	-2449
مز	-2450
۸۵	-2451
▁انسان	-2452
▁۱۷۴۵۸۱	-2453
▁حر	-2454
منتخب	-2455
▁دہلی	-2456
▁ے	-2457
▁ادبی	-2458
▁سوویت	-2459
▁قتل	-2460
گرام	-2461
قین	-2462
▁لڑ	-2463
▁حصوں	-2464
▁ہجری	-2465
▁ایج	-2466
برانی	-2467
▁ابعاد	-2468
▁ہلا	-2469
▁شک	-2470
▁۷۰۰۲ء	-2471
▁ست	-2472
▁ارا	-2473
▁جمع	-2474
▁شہن	-2475
▁ملتی	-2476
▁لاہور	-2477
▁تونس	-2478
▁افغان	-2479
▁کویت	-2480
▁بولتے	-2481
احب	-2482
لفظ	-2483
مپ	-2484
▁بلو	-2485
▁تخت	-2486
▁تانا	-2487
▁مواصل	-2488
▁لیبیا	-2489
▁سف	-2490
▁عمان	-2491
▁سویڈش	-2492
▁۲۷۴۵۸۱	-2493
▁پہا	-2494
▁حذ	-2495
▁اندر	-2496
▁امکان	-2497
▁ہاتھ	-2498
▁تسلیم	-2499
ندن	-2500
واڈ	-2501
۰۱ء	-2502
۷۱ء	-2503
▁پھی	-2504
زاری	-2505
▁معلم	-2506
▁کیلوم	-2507
فہوم	-2508
▁آرمین	-2509
▁مفہوم	-2510
▁قبض	-2511
▁ہمارا	-2512
▁کیلومیٹر	-2513
خل	-2514
▁شریک	-2515
▁ریاستیں	-2516
۳۶	-2517
وشوں	-2518
▁حکمت	-2519
گری	-2520
▁مغل	-2521
▁اسمب	-2522
▁استاد	-2523
▁اسمبلی	-2524
ٹرول	-2525
▁دیو	-2526
▁صاحب	-2527
▁لندن	-2528
▁حذف	-2529
▁نویں	-2530
پا	-2531
▁مذہب	-2532
▁اصول	-2533
▁شادی	-2534
کومتی	-2535
وبہ	-2536
▁امیدوار	-2537
▁عبرانی	-2538
جن	-2539
▁ماس	-2540
۹۹	-2541
▁اصغر	-2542
▁تقا	-2543
▁ڈراما	-2544
▁شہنشاہ	-2545
▁حسن	-2546
▁دھ	-2547
▁اقتص	-2548
▁سمجھ	-2549
▁فلموں	-2550
ٹو	-2551
▁متا	-2552
▁حقائق	-2553
ورا	-2554
▁السلام	-2555
▁ہل	-2556
▁سپ	-2557
▁دفات	-2558
▁پروفیسر	-2559
▁دفاتر	-2560
▁حکومتی	-2561
▁اٹھ	-2562
▁رہائش	-2563
▁کمپیو	-2564
▁کوچ	-2565
یموری	-2566
▁ادریس	-2567
▁ہندی	-2568
▁۳۲۰۲ء	-2569
▁ہوئیں۔	-2570
▁لات	-2571
▁ملی	-2572
▁امتیاز	-2573
▁دی۔	-2574
ھویں	-2575
▁انڈون	-2576
زیز	-2577
▁چل	-2578
▁خری	-2579
▁سینک	-2580
▁مواصلات	-2581
▁لیپ	-2582
▁ویڈیو	-2583
▁کشمیر	-2584
▁طل	-2585
▁ممل	-2586
▁تنہا	-2587
▁سوانحی	-2588
ٹس	-2589
▁روپ	-2590
▁ویکیپیڈیامنتخب	-2591
▁سامی	-2592
موجود	-2593
▁واں	-2594
▁کرنسی	-2595
۶۳	-2596
حات	-2597
▁لیا۔	-2598
▁فلسفہ	-2599
▁لن	-2600
▁طویل	-2601
▁سینکڑوں	-2602
زب	-2603
▁آذ	-2604
زیر	-2605
▁رواج	-2606
حیح	-2607
▁دخل	-2608
▁الخط	-2609
بلا	-2610
▁ایوان	-2611
▁ڈاکٹر	-2612
رز	-2613
▁۵۴۹۱ء	-2614
▁وق	-2615
▁دولت	-2616
▁پا	-2617
▁کمپیوٹر	-2618
▁اردن	-2619
▁مختار	-2620
۰۰۱	-2621
▁ثابت	-2622
▁متاثر	-2623
▁کمیون	-2624
▁چھوٹی	-2625
ژن	-2626
▁بحرین	-2627
قب	-2628
▁مقاب	-2629
۹۹۱	-2630
▁ثل	-2631
▁موسم	-2632
▁انڈیا	-2633
طن	-2634
▁منعق	-2635
▁اُن	-2636
▁جزائر	-2637
سک	-2638
▁لائ	-2639
▁ہوں۔	-2640
▁واحد	-2641
▁شپ	-2642
▁اوس	-2643
▁حوا	-2644
▁وص	-2645
شراکتیں	-2646
یکل	-2647
▁فلسطین	-2648
▁ہسپانیہ	-2649
لنگ	-2650
▁کاوشوں	-2651
انکہ	-2652
▁ادا	-2653
▁شام	-2654
▁جیت	-2655
▁پائے	-2656
▁اُر	-2657
▁لینے	-2658
ینا	-2659
▁واب	-2660
▁کربلا	-2661
▁خار	-2662
ہی	-2663
▁۸۱۰۲ء	-2664
▁فلمی	-2665
▁خطے	-2666
▁گاؤں	-2667
▁حالانکہ	-2668
▁یمن	-2669
فل	-2670
علق	-2671
▁سیر	-2672
▁منتظ	-2673
▁کروڑ	-2674
▁لاتعلق	-2675
▁ہجرت	-2676
▁کانگریس	-2677
▁مسلمانوں	-2678
▁اُردو	-2679
▁لکھی	-2680
▁حواشی	-2681
▁نوازا	-2682
▁نوع	-2683
▁روایتی	-2684
▁پروگرام	-2685
جان	-2686
▁ایام	-2687
▁وہی	-2688
▁جانچنا	-2689
▁لاتعلقی	-2690
▁خطہ	-2691
▁شیعہ	-2692
▁جغ	-2693
لینڈ	-2694
▁ناک	-2695
▁شجاعت	-2696
▁تعب	-2697
▁پایا	-2698
▁منظری	-2699
▁گھٹا	-2700
▁ثلثی	-2701
▁پرتگ	-2702
▁ڈھ	-2703
▁گل	-2704
▁متوقع	-2705
▁معلمین	-2706
▁المعارف۔	-2707
▁۵۳	-2708
▁گول	-2709
چا	-2710
▁لی۔	-2711
▁۳۳	-2712
▁سندھ	-2713
▁شہرت	-2714
۰۹۱ء	-2715
▁بوٹ	-2716
▁صحیح	-2717
▁جغراف	-2718
▁منتظمین	-2719
وپ	-2720
ئیں	-2721
▁میدان	-2722
▁کھلاڑیوں	-2723
▁صن	-2724
▁لاطینی	-2725
۵۵	-2726
ونگ	-2727
▁گین	-2728
▁یہود	-2729
زم	-2730
▁قطر	-2731
▁منعقد	-2732
▁افغانستان	-2733
▁چلا	-2734
▁شو	-2735
▁میری	-2736
▁کنٹرول	-2737
▁حقی	-2738
▁خاتون	-2739
▁ولا	-2740
▁کتب	-2741
▁غز	-2742
▁باق	-2743
▁۷۴۹۱ء	-2744
▁نگ	-2745
یکو	-2746
▁ترجمہ	-2747
▁سالوں	-2748
▁اداکارہ	-2749
گن	-2750
نگز	-2751
▁سمیت	-2752
▁بولا	-2753
▁گی	-2754
▁۶۸	-2755
عی	-2756
▁قرآن	-2757
رل	-2758
۵۹۱	-2759
▁دوم	-2760
اسی	-2761
▁اقتدار	-2762
والے	-2763
▁اولمپ	-2764
▁مور	-2765
کم	-2766
مشت	-2767
▁آل	-2768
▁۲۲۰۲ء	-2769
صے	-2770
▁ری	-2771
▁عوام	-2772
▁رض	-2773
▁امیر	-2774
▁تیونس	-2775
▁اِن	-2776
▁تیز	-2777
ڑا	-2778
▁الش	-2779
▁خرا	-2780
▁تیسر	-2781
▁آہ	-2782
▁موس	-2783
▁۱۲۸۲۱۲	-2784
غل۔	-2785
▁مملکت	-2786
▁شمول	-2787
▁قبیلہ	-2788
▁مختصر	-2789
ونٹ	-2790
▁جیتا	-2791
▁ٹھ	-2792
▁پندر	-2793
مشتغل۔	-2794
▁تعبیری	-2795
▁دیکھیں	-2796
▁فوجیموری	-2797
یانی	-2798
▁والدہ	-2799
▁تیسرے	-2800
▁یہودی	-2801
▁شمولیت	-2802
▁ویسٹ	-2803
۰۷	-2804
▁حصے	-2805
▁سامنا	-2806
▁تلفظ	-2807
▁سان	-2808
▁چر	-2809
ھے	-2810
▁گورن	-2811
▁بس	-2812
▁ابجد	-2813
▁شدید	-2814
▁تیر	-2815
▁ذہ	-2816
پید	-2817
▁بلے	-2818
▁انڈین	-2819
یکا	-2820
▁رک	-2821
▁۴۴	-2822
▁تنظیموں	-2823
▁۰۷	-2824
خطاء	-2825
▁مہین	-2826
▁سانچہن	-2827
▁پت	-2828
▁دریافت	-2829
▁عرصے	-2830
▁وقت۔	-2831
▁دریائے	-2832
▁وفا	-2833
▁٭	-2834
ایک	-2835
▁طا	-2836
▁ہن	-2837
ازی	-2838
وبی	-2839
▁شہید	-2840
▁ٹر	-2841
▁وغیرہ۔	-2842
▁بند	-2843
▁کردگی	-2844
▁پردیش	-2845
▁آئر	-2846
▁شکست	-2847
▁ارت	-2848
آٹھویں	-2849
پورٹ	-2850
▁مسلسل	-2851
▁جین	-2852
▁انگلینڈ	-2853
▁اچ	-2854
▁بلندی	-2855
▁سلسلے	-2856
▁بیسویں	-2857
▁پڑا	-2858
▁تجرب	-2859
▁جاپان	-2860
▁مقال	-2861
▁خلافت	-2862
▁وابستہ	-2863
▁کہل	-2864
▁رابط	-2865
ضر	-2866
▁فرسٹ	-2867
▁جنرل	-2868
ندہ	-2869
▁نکل	-2870
▁ورلڈ	-2871
▁خل	-2872
▁مالے	-2873
وین	-2874
▁نوعیت	-2875
▁آد	-2876
▁غل	-2877
لاد	-2878
▁شش	-2879
▁گرد	-2880
▁ثانی	-2881
▁۷۷۴۵۸۱	-2882
مور	-2883
قیان	-2884
▁لغ	-2885
▁نامزد	-2886
دری	-2887
وفات	-2888
▁کہلات	-2889
۶۹	-2890
مان	-2891
▁ٹوئن	-2892
اعی	-2893
زیشن	-2894
▁گنو	-2895
مید	-2896
▁کیے۔	-2897
▁فٹ	-2898
▁ماں	-2899
▁طاقت	-2900
▁چود	-2901
▁اوقیان	-2902
یریا	-2903
▁سری	-2904
▁فروغ	-2905
▁پزیر	-2906
▁ہلاک	-2907
▁اندراج	-2908
دے	-2909
▁کتابیں	-2910
▁دع	-2911
▁۲۷	-2912
▁انقلاب	-2913
▁جغرافیائی	-2914
▁گیند	-2915
▁باقاعدہ	-2916
▁۲۳	-2917
منٹ	-2918
▁گائیک	-2919
▁لاز	-2920
▁نگر	-2921
▁۴۱۰۲ء	-2922
وف	-2923
▁ملتا	-2924
▁بالا	-2925
▁پیمانے	-2926
ادت	-2927
یابی	-2928
▁صحت	-2929
▁سرحد	-2930
▁شرکت	-2931
▁اٹ	-2932
▁ریک	-2933
▁عرو	-2934
▁قبضہ	-2935
▁زمانہ	-2936
▁کہیں	-2937
اندھی	-2938
▁منتظم	-2939
▁سیکشن	-2940
ڈا	-2941
▁انڈونیشیا	-2942
ڑے	-2943
▁اقتصادی	-2944
▁اوسط	-2945
▁قران	-2946
▁کینیڈا	-2947
▁۵۴	-2948
▁۴۵	-2949
▁آتا	-2950
▁پین	-2951
▁رہنے	-2952
▁آیا۔	-2953
▁گاندھی	-2954
▁سانچہنومبر	-2955
کمل	-2956
▁مجلس	-2957
▁چھوٹے	-2958
سپی	-2959
▁کوڈ	-2960
▁ٹوئنٹی	-2961
نہ	-2962
یتھ	-2963
▁دیتے	-2964
▁جامعہ	-2965
▁پھیلا	-2966
▁سون	-2967
▁عہدے	-2968
▁کرو	-2969
▁شیر	-2970
▁فور	-2971
▁حکیم	-2972
▁خرید	-2973
رما	-2974
▁مجموعہ	-2975
▁رہتی	-2976
▁پانی	-2977
▁اوقیانوس	-2978
▁فلک	-2979
▁مرتبہ	-2980
▁معیاری	-2981
▁نسل	-2982
▁نمون	-2983
▁صلی	-2984
▁مسئ	-2985
▁مطالعہ	-2986
▁ہسپانوی	-2987
زیل	-2988
۶۸۱ء	-2989
▁بنے	-2990
▁ریاضی	-2991
لیٹ	-2992
▁حما	-2993
یمور	-2994
▁ہیں۔۱	-2995
▁ریکارڈ	-2996
▁ایجاد	-2997
یمی	-2998
▁گذ	-2999
▁تیسری	-3000
▁معمول	-3001
▁لکھے	-3002
▁ڈائر	-3003
▁۳۴۲	-3004
▁رہتا	-3005
▁ناروے	-3006
▁چھوڑ	-3007
▁حوالے	-3008
▁بنگالی	-3009
دول	-3010
▁مسیحی	-3011
ثیر	-3012
▁ادی	-3013
▁حامل	-3014
ھیں	-3015
▁وف	-3016
▁پانچویں	-3017
▁حزب	-3018
▁گڑھ	-3019
▁نامور	-3020
▁میچوں	-3021
▁فض	-3022
▁عمومی	-3023
▁مہم	-3024
▁یومِ	-3025
▁کھیلوں	-3026
۵۱ء	-3027
▁رہائشی	-3028
▁ترجی	-3029
▁حاضر	-3030
▁قبرص	-3031
▁معاشر	-3032
▁دلچ	-3033
۷۹	-3034
▁کرایا	-3035
ازع	-3036
واری	-3037
▁۰۲۰۲ء	-3038
▁قل	-3039
▁باو	-3040
▁برق	-3041
▁عروج	-3042
ویج	-3043
پن	-3044
ستی	-3045
▁آئین	-3046
رافی	-3047
کشاپ	-3048
▁بیل	-3049
▁نسلی	-3050
▁مخال	-3051
▁خام	-3052
▁عزیز	-3053
▁کامیابی	-3054
ویم	-3055
▁۰۹	-3056
▁سوڈ	-3057
▁برازیل	-3058
▁اکثریتی	-3059
▁آٹھ	-3060
▁قطب	-3061
▁روح	-3062
▁تقاویم	-3063
▁نکال	-3064
▁۶۱۰۲ء	-3065
▁جائیں۔	-3066
▁بو	-3067
▁بھا	-3068
▁مثالیں	-3069
▁ورکشاپ	-3070
▁پابندی	-3071
▁کامیاب	-3072
▁گجر	-3073
▁کمال	-3074
▁اتر	-3075
▁رضی	-3076
▁حملہ	-3077
▁۰۰۰۲ء	-3078
▁۶۰۰۲ء	-3079
ینک	-3080
▁۴۳	-3081
▁ٹیو	-3082
▁عبدال	-3083
▁خال	-3084
▁فوری	-3085
▁۱۲۰۲ء	-3086
▁چندر	-3087
▁تحصیل	-3088
▁ریٹ	-3089
▁کینیا	-3090
▁فیصلہ	-3091
▁مقابل	-3092
▁لگایا	-3093
▁دلچسپی	-3094
▁وکٹوریہ	-3095
ورہ	-3096
▁۷۲۲	-3097
▁ریلوے	-3098
▁مبنی	-3099
گل	-3100
▁نویس	-3101
▁شہادت	-3102
▁یادگار	-3103
▁بت	-3104
▁آئے۔	-3105
▁آب	-3106
▁صح	-3107
▁اخب	-3108
▁خلیج	-3109
▁میں۔	-3110
▁آسانی	-3111
▁نیپ	-3112
▁سینٹ	-3113
▁کارل	-3114
▁شہروں	-3115
▁کینسر	-3116
▁صوبائی	-3117
▁رابطے	-3118
اق	-3119
▁عق	-3120
▁وصول	-3121
▁باوجود	-3122
▁درا	-3123
▁۲۲۰۲	-3124
▁مف	-3125
یوی	-3126
▁۱۵	-3127
▁ادیب	-3128
▁رہتے	-3129
▁بغداد	-3130
▁گریگ	-3131
▁وطن	-3132
▁الرح	-3133
▁ذاتی	-3134
▁رکنیت	-3135
▁صحافی	-3136
ھار	-3137
▁بورڈ	-3138
▁کہلاتا	-3139
ائب	-3140
۰۹	-3141
▁حو	-3142
▁میڈ	-3143
▁کثیر	-3144
شنل	-3145
▁کریم	-3146
▁متعارف	-3147
سہ	-3148
▁داد	-3149
سان	-3150
▁آند	-3151
▁حمایت	-3152
▁دستاویز	-3153
▁اگرچہ	-3154
▁▁▁▁▁▁▁▁▁▁▁▁	-3155
▁نیل	-3156
حہ	-3157
▁ہوائی	-3158
فع	-3159
▁حج	-3160
▁غالب	-3161
۱ء	-3162
▁۷۳	-3163
▁معمولی	-3164
▁الن	-3165
▁مسجد	-3166
▁منظر	-3167
▁سیکھ	-3168
▁ون	-3169
▁پسنی	-3170
▁وسطیٰ	-3171
▁محق	-3172
▁آٹھویں	-3173
اہی	-3174
▁اچھ	-3175
▁وجود	-3176
▁یوکر	-3177
▁کات	-3178
▁چھٹی	-3179
▁بنگال	-3180
▁برسوں	-3181
▁بیٹی	-3182
▁جامع	-3183
▁مانا	-3184
مع	-3185
▁جنھیں	-3186
▁کہانی	-3187
▁دہی	-3188
ڈو	-3189
▁فاس	-3190
▁لہجہ	-3191
▁بحث	-3192
▁قاز	-3193
▁پڑتے	-3194
▁انجمن	-3195
▁سور	-3196
▁ء	-3197
▁کیل	-3198
▁انٹرنیشنل	-3199
فس	-3200
▁نور	-3201
▁بہار	-3202
▁اچھی	-3203
▁خدمت	-3204
▁الحسن	-3205
▁اننگز	-3206
▁عباسی	-3207
ریسی	-3208
▁حلق	-3209
▁جر	-3210
▁بشمول	-3211
ریم	-3212
▁قبول	-3213
▁آرمینیائی	-3214
▁مشق	-3215
۸۳	-3216
ٹری	-3217
▁۶۷	-3218
▁۸۳	-3219
▁تہجی	-3220
▁سنگھ	-3221
▁مدینہ	-3222
یبیو	-3223
▁ساحل	-3224
▁الحال	-3225
نامہ	-3226
▁لقب	-3227
▁پہون	-3228
▁عمارت	-3229
▁قدرتی	-3230
▁پیداوار	-3231
گا	-3232
▁بنی	-3233
▁فعل	-3234
▁مستح	-3235
بک	-3236
فار	-3237
▁طرز	-3238
▁مقابلوں	-3239
▁۳۴	-3240
▁شرح	-3241
▁سہولت	-3242
نمار	-3243
▁بدل	-3244
▁زلزلے	-3245
▁انگریز	-3246
▁سولہویں	-3247
وشی	-3248
▁علوی	-3249
▁قیم	-3250
▁ویلز	-3251
▁انڈیز	-3252
▁سوڈان	-3253
▁ہدایت	-3254
▁مصری	-3255
نڈر	-3256
▁سلو	-3257
▁سٹ	-3258
▁بلوچ	-3259
▁البتہ	-3260
▁کہلاتی	-3261
ندیزی	-3262
▁اولاد	-3263
▁۰۱۰۲ء	-3264
رے	-3265
▁معاونتی	-3266
ینو	-3267
▁ڈگری	-3268
▁ہیرو	-3269
قص	-3270
بال	-3271
دیق	-3272
▁ازبک	-3273
▁لنکا	-3274
▁فلسطینی	-3275
▁خدا	-3276
▁پارلیمانی	-3277
▁شال	-3278
انیف	-3279
▁محم	-3280
▁نیوزی	-3281
میل	-3282
سف	-3283
▁لیما	-3284
صار	-3285
ھرا	-3286
▁دارال	-3287
▁ڈائریکٹر	-3288
▁تاجک	-3289
▁طریقے	-3290
▁اکثریت	-3291
▁نصف	-3292
▁اینڈ	-3293
▁حملے	-3294
▁پلیٹ	-3295
▁اخبار	-3296
▁مسئلہ	-3297
▁تصانیف	-3298
▁اکبر	-3299
▁عددی	-3300
▁۵۱۰۲ء	-3301
▁دشواری	-3302
تان	-3303
▁باش	-3304
▁حکم	-3305
▁سکوں	-3306
▁کیری	-3307
▁ہے۔۳	-3308
▁ایئر	-3309
▁جلد	-3310
▁رسول	-3311
▁۰۹۹۱ء	-3312
▁ولندیزی	-3313
▁گزر	-3314
▁باہر	-3315
▁داری	-3316
▁۶۴	-3317
ہویں	-3318
▁کول	-3319
▁جاپانی	-3320
▁پیڈیا	-3321
▁۹۰۰۲ء	-3322
ظر	-3323
▁اشت	-3324
▁صلاح	-3325
▁مرزا	-3326
▁ادریسی	-3327
▁لکھتے	-3328
▁علوم	-3329
▁سبب	-3330
▁ریاستی	-3331
تو	-3332
▁روش	-3333
▁اعتم	-3334
▁شماری	-3335
▁گرم	-3336
سین	-3337
▁۲۹	-3338
بو	-3339
ڈل	-3340
▁سرگر	-3341
▁ولادت	-3342
▁کیریئر	-3343
امہ	-3344
▁جہاز	-3345
▁ضرور	-3346
▁سوریہ	-3347
▁ہیڈ	-3348
▁طفل	-3349
▁ٹیکن	-3350
▁راہ	-3351
▁جاوی	-3352
▁مندرج	-3353
▁عملی	-3354
▁فنڈ	-3355
▁بلند	-3356
▁خبروں	-3357
▁۹۳	-3358
▁ارب	-3359
▁معاش	-3360
▁۱۹۹۱ء	-3361
▁ایسوسی	-3362
▁بیگ	-3363
▁اکیسویں	-3364
▁ریاض	-3365
▁بیروت	-3366
▁شعرا	-3367
▁ثانوی	-3368
▁ماسکو	-3369
▁اولمپک	-3370
ناس	-3371
▁دفتر	-3372
ائٹس	-3373
▁طیار	-3374
▁فلکیات	-3375
▁کرد	-3376
اکم	-3377
رار	-3378
▁رائج	-3379
سٹری	-3380
▁عاش	-3381
▁مول	-3382
الوجی	-3383
نمارک	-3384
▁بص	-3385
ڑک	-3386
▁رسائی	-3387
▁چوتھی	-3388
▁انہیں	-3389
▁ٹرافی	-3390
بے	-3391
لیف	-3392
▁۰۶	-3393
۳۱۲۱	-3394
▁اقدار	-3395
▁بج	-3396
▁دائرہ	-3397
▁حکومتوں	-3398
▁ڈیبیو	-3399
۸۰	-3400
سٹر	-3401
▁جزیر	-3402
▁عرصہ	-3403
۷۶	-3404
ستگی	-3405
▁آہستہ	-3406
▁نمونہ	-3407
▁اطلاعات	-3408
▁مقابلے	-3409
▁سنی	-3410
▁قدم	-3411
▁روبہ	-3412
انگ	-3413
▁سپر	-3414
▁گنی	-3415
▁اندازہ	-3416
ھواں	-3417
▁قیا	-3418
▁وسلم	-3419
▁روایت	-3420
▁وفیات	-3421
▁رن	-3422
▁ماب	-3423
▁؛	-3424
اریہ	-3425
▁سسٹ	-3426
▁سمجھی	-3427
▁برقی	-3428
▁اعتماد	-3429
▁ایڈورڈ	-3430
▁ملکہ	-3431
▁یقین	-3432
▁سیز	-3433
▁پچھ	-3434
▁ازاں	-3435
۴۶	-3436
▁تجارت	-3437
نو	-3438
۵۴	-3439
▁ٹور	-3440
▁ڈیز	-3441
▁۴۷۹۱ء	-3442
▁ہائی	-3443
▁خاتمہ	-3444
▁وفاقی	-3445
▁کلاسیکی	-3446
▁شکار	-3447
▁برابر	-3448
▁ایرانی	-3449
▁ٹیکنالوجی	-3450
▁تمل	-3451
▁بیٹا	-3452
▁نقاد	-3453
۰۰۳	-3454
▁انٹ	-3455
▁سرما	-3456
▁آتے	-3457
▁پورا	-3458
کتہ	-3459
▁مدت	-3460
▁زلزلہ	-3461
▁کوریا	-3462
▁گئیں۔	-3463
▁مؤ	-3464
▁۷۷	-3465
▁برما	-3466
▁کھیلے	-3467
گاہ	-3468
۸۸۷	-3469
▁جھ	-3470
▁ٹیلی	-3471
▁۹۱۸۲۱۲	-3472
▁پرتگالی	-3473
▁جع	-3474
▁غلام	-3475
▁پائی۔	-3476
▁میز	-3477
▁تقریبا	-3478
گز	-3479
▁ٹیموں	-3480
ئیر	-3481
▁کاب	-3482
▁قصبہ	-3483
خی	-3484
▁قاب	-3485
▁معد	-3486
▁باہم	-3487
▁ابراہ	-3488
▁گورنر	-3489
▁عثمانی	-3490
منہ	-3491
▁الط	-3492
▁فلپ	-3493
▁حمید	-3494
یا۔	-3495
▁سکھ	-3496
▁ہتھ	-3497
▁اراکین	-3498
اتا	-3499
▁ویت	-3500
▁مبصر	-3501
▁محمود	-3502
▁برادری	-3503
▁نت	-3504
▁آرٹ	-3505
لّ	-3506
▁آلہ	-3507
▁پالی	-3508
▁افس	-3509
▁افو	-3510
▁درہم	-3511
▁گزار	-3512
▁صحافت	-3513
▁حقیقی	-3514
ہوں	-3515
یکٹ	-3516
فرنس	-3517
ربانی	-3518
▁ڈیزائن	-3519
کز	-3520
عظم	-3521
▁۹۴	-3522
صطلاح	-3523
▁واٹر	-3524
▁رپورٹ	-3525
▁بہادری	-3526
▁رح	-3527
▁روک	-3528
▁نشریات	-3529
▁ہتھیار	-3530
مبر	-3531
▁مسا	-3532
▁بغیر	-3533
▁ہلال	-3534
اطر	-3535
▁راب	-3536
▁کیر	-3537
▁قیادت	-3538
▁انیسویں	-3539
▁اِصطلاح	-3540
یمپ	-3541
▁ورزی	-3542
▁گز	-3543
▁خطاب	-3544
▁اجلاس	-3545
▁کاررو	-3546
▁طے	-3547
▁۵۸	-3548
▁اختیارات	-3549
▁نص	-3550
▁بہن	-3551
▁سلیم	-3552
▁پیرس	-3553
▁تجدید	-3554
▁بم	-3555
ادسو	-3556
▁رامادسو	-3557
ونا	-3558
ہوری	-3559
▁ستر	-3560
▁سسٹم	-3561
▁قازق	-3562
▁کانسی	-3563
▁ایشیائی	-3564
▁میک	-3565
زول	-3566
یدی	-3567
▁۰۸	-3568
▁عرف	-3569
▁ڈیو	-3570
▁پھیل	-3571
▁تکمیل	-3572
▁تیاری	-3573
ایت	-3574
▁سڑک	-3575
▁سنیما	-3576
▁مردان	-3577
▁باشند	-3578
▁العربیۃ	-3579
▁امد	-3580
▁ایچ	-3581
▁سنت	-3582
▁برسی	-3583
▁افواج	-3584
یتانیہ	-3585
▁رقم	-3586
▁بارہ	-3587
▁مارگ	-3588
ٹے	-3589
▁سوس	-3590
▁اداروں	-3591
▁رہی۔	-3592
▁شریف	-3593
▁نتیجہ	-3594
ووا	-3595
▁منقسم	-3596
▁اندرونی	-3597
▁کانفرنس	-3598
وو	-3599
▁انص	-3600
▁سرف	-3601
ورش	-3602
▁ڈوم	-3603
▁کشی	-3604
▁میکس	-3605
▁ششم	-3606
▁منافع	-3607
▁تات	-3608
پہ	-3609
▁وضاحت	-3610
▁چہ	-3611
میوں	-3612
▁پال	-3613
▁نشست	-3614
المعارف	-3615
▁دائرۃالمعارف	-3616
▁ایٹ	-3617
▁مخالف	-3618
▁اَ	-3619
▁پشت	-3620
▁ہے۔۔	-3621
شا	-3622
پاک	-3623
▁پتھر	-3624
خانے	-3625
▁حاکم	-3626
ٹل	-3627
▁بچے	-3628
▁قیمت	-3629
▁خلیفہ	-3630
۴۰	-3631
دیث	-3632
▁ڈنمارک	-3633
▁معت	-3634
▁یوگ	-3635
▁دوست	-3636
▁ووٹ	-3637
▁طریقوں	-3638
▁پل	-3639
▁مظلوم	-3640
۳۱ء	-3641
▁یس	-3642
▁۲۴	-3643
▁علمی	-3644
▁طلائی	-3645
سلط	-3646
▁آداب	-3647
▁آندھرا	-3648
▁خصوصیات	-3649
▁فائز	-3650
▁معیش	-3651
▁فعلیات	-3652
▁وض	-3653
▁بیوی	-3654
▁صنعت	-3655
▁صوبے	-3656
▁دیکھیے	-3657
▁موسوعہ	-3658
▁وڈ	-3659
▁بازی	-3660
ٹک	-3661
یور	-3662
۷۱۶۱	-3663
▁ساخت	-3664
۸۱۰۲	-3665
▁عباس	-3666
▁نامکمل	-3667
▁کیلنڈر	-3668
▁ترجیحات	-3669
اکس	-3670
▁پاپ	-3671
▁چنا	-3672
▁ماضی	-3673
▁آرامی	-3674
▁تعین	-3675
▁چلے	-3676
▁علاح	-3677
▁۵۴۹۱	-3678
▁۵۱۸۱ء	-3679
▁۶۵۸۱ء	-3680
۰۱۱	-3681
▁ہار	-3682
▁مقید	-3683
▁ہات	-3684
▁تصنی	-3685
▁۸۳۹۱ء	-3686
▁بور	-3687
▁ریو	-3688
▁تنازع	-3689
▁تائی	-3690
▁کارگ	-3691
▁کیں۔	-3692
اصد	-3693
زستان	-3694
▁ٹیکس	-3695
▁گزاری	-3696
مے	-3697
ِی	-3698
▁۳۵	-3699
▁دیے۔	-3700
▁نہایت	-3701
▁ترق	-3702
▁شائ	-3703
▁مراکشی	-3704
▁ہسپتال	-3705
نویں	-3706
▁باغ	-3707
▁فاط	-3708
▁۰۸۶	-3709
نامنٹ	-3710
▁مالک	-3711
▁کھین	-3712
▁علاحدہ	-3713
▁ابراہیم	-3714
▁مہربانی	-3715
▁ٹورنامنٹ	-3716
یشہ	-3717
ریاست	-3718
▁لیں۔	-3719
▁وکیل	-3720
▁معیشت	-3721
لوڈ	-3722
کارا	-3723
▁مارک	-3724
▁برقرار	-3725
غہ	-3726
ابی	-3727
▁آذرب	-3728
با	-3729
ذیب	-3730
▁مات	-3731
▁لسانی	-3732
▁چلایا	-3733
حلی	-3734
▁مستحکم	-3735
قلی	-3736
سکری	-3737
نامے	-3738
▁جیسی	-3739
خیز	-3740
▁ہریا	-3741
▁زمینی	-3742
▁صومال	-3743
▁میمور	-3744
بئی	-3745
▁تیل	-3746
▁طنز	-3747
▁قلم	-3748
▁قوان	-3749
▁▁▁▁▁	-3750
▁بذ	-3751
▁ظفر	-3752
▁منگ	-3753
▁انیس	-3754
▁ملا۔	-3755
▁کارروائی	-3756
▁ایتھ	-3757
▁جیسا	-3758
▁چینل	-3759
▁عربوں	-3760
▁قوانین	-3761
▁میموریل	-3762
▁کارخانے	-3763
▁رفت	-3764
▁یکم	-3765
▁سیریز	-3766
▁فروخت	-3767
▁لائبر	-3768
▁نگاری	-3769
ٰی	-3770
۱۱۰۱	-3771
▁تہذیب	-3772
▁مہارا	-3773
۲۱ء	-3774
▁زرخیز	-3775
▁چودھویں	-3776
▁پچ	-3777
▁مہینے	-3778
▁دادا	-3779
▁معلق	-3780
▁انجین	-3781
▁مکہ	-3782
▁آرگن	-3783
▁بننے	-3784
▁کاپی	-3785
▁۷۶۹۱ء	-3786
▁تاتاری	-3787
▁افز	-3788
▁بمب	-3789
▁بنو	-3790
▁معدنی	-3791
▁ملکوں	-3792
▁وکٹیں	-3793
▁مسیحیت	-3794
▁پنجابی	-3795
▁معاصر	-3796
▁ثبت	-3797
▁تلنگ	-3798
▁ساحلی	-3799
▁دا	-3800
▁مقاصد	-3801
میٰ	-3802
وٹو	-3803
▁بید	-3804
▁مقد	-3805
▁نثر	-3806
پہلی	-3807
▁کلب	-3808
▁یسوع	-3809
▁۵۱۰۲	-3810
▁چاہیں	-3811
▁۱۱۰۲ء	-3812
▁رومی	-3813
▁سیزن	-3814
▁تمغوں	-3815
▁محققین	-3816
▁سرفہرست	-3817
▁فلور	-3818
پول	-3819
ہیر	-3820
▁الجن	-3821
▁پابنا	-3822
▁۷۷۹۱ء	-3823
▁معاشیات	-3824
ڈہ	-3825
وید	-3826
▁۸۴	-3827
آسانی	-3828
▁ایشن	-3829
▁رضوی	-3830
▁کیمپ	-3831
▁یوسف	-3832
َّ	-3833
▁آذربائی	-3834
فیت	-3835
۰۰۵	-3836
التو	-3837
پوشی	-3838
▁فرد	-3839
▁نیم	-3840
▁جارح	-3841
▁اسٹیٹ	-3842
▁تھے۔۱	-3843
▁کارکن	-3844
▁تاجپوشی	-3845
▁گائیکواڈ	-3846
▁ڈبل	-3847
▁اموی	-3848
▁رسوم	-3849
▁تیسرا	-3850
▁۸۰۰۲ء	-3851
▁پارلیمان	-3852
چل	-3853
▁دشمن	-3854
▁پندرھویں	-3855
▁ملح	-3856
▁علاج	-3857
▁گئیں	-3858
▁کتبہ	-3859
▁کارگزاری	-3860
▁سلطنتِ	-3861
رئی	-3862
▁ماح	-3863
▁۰۸۶ء	-3864
▁ہاتھوں	-3865
▁بلیک	-3866
▁ازمنہ	-3867
▁امداد	-3868
▁مظاہر	-3869
▁چاہیے	-3870
جب	-3871
۰۰۶	-3872
▁جنا	-3873
▁چیف	-3874
▁مردانگی	-3875
۹۷	-3876
وابط	-3877
▁مقامات	-3878
▁بان	-3879
▁دما	-3880
▁رضیع	-3881
▁سکتا۔	-3882
▁کبھار	-3883
▁خوزستان	-3884
یمز	-3885
۰۰۴	-3886
▁الہ	-3887
▁کیں	-3888
▁جمہوری	-3889
▁ہے۔۴	-3890
▁انہوں	-3891
▁نقرئی	-3892
۰۵۵	-3893
ائیڈ	-3894
▁سنبھ	-3895
▁دراصل	-3896
▁۴۸۹۱ء	-3897
▁قا	-3898
▁خیر	-3899
▁جناح	-3900
▁عقید	-3901
▁کھینچ	-3902
بائیں	-3903
دسمبر	-3904
یف	-3905
ولو	-3906
▁شان	-3907
▁عاب	-3908
▁ناب	-3909
▁وسعت	-3910
▁طیارہ	-3911
▁۷۱۰۲ء	-3912
▁شکر	-3913
▁نیٹ	-3914
▁جنتا	-3915
▁عسکری	-3916
▁عموما	-3917
▁ماحول	-3918
رس	-3919
۰۳۳	-3920
▁رد	-3921
ٹیوب	-3922
▁فالتو	-3923
▁سرحدوں	-3924
▁وث	-3925
▁یوٹیوب	-3926
▁اصلاحات	-3927
▁اہ	-3928
۰۰۰۱	-3929
▁دیہ	-3930
▁لغت	-3931
▁رشید	-3932
▁بتا	-3933
▁بچوں	-3934
▁حدیث	-3935
▁پورے	-3936
▁یکجا	-3937
▁مسافر	-3938
▁ہدایتی	-3939
۹۳	-3940
ٹھی	-3941
یرا	-3942
ینگ	-3943
▁نب	-3944
یثاق	-3945
▁سخت	-3946
▁آذری	-3947
▁دورہ	-3948
▁میثاق	-3949
▁عثمانیہ	-3950
بھی	-3951
▁الت	-3952
▁کوہ	-3953
▁ترویج	-3954
▁دفاعی	-3955
▁معلقات	-3956
۱۳	-3957
مری	-3958
▁زد	-3959
امات	-3960
▁۰۶۹۱ء	-3961
▁ارد	-3962
▁رومان	-3963
▁فلوریڈا	-3964
۶۶	-3965
شنا	-3966
▁جڑ	-3967
▁ڈے	-3968
۵۱۴۱	-3969
▁رمز	-3970
▁بھٹی	-3971
▁شعور	-3972
▁تھائی	-3973
ؤس	-3974
ؤٹ	-3975
▁بٹا	-3976
▁کھیلی	-3977
▁۸۴۹۱ء	-3978
یکسن	-3979
▁۵۱۱	-3980
▁سوار	-3981
پیدائش	-3982
▁لکھیں	-3983
▁ہیں۔۲	-3984
▁کھیلے۔	-3985
▁۰۱۰۲	-3986
▁قابلِ	-3987
نقص	-3988
▁۱۱۰۲	-3989
▁۴۱۰۲	-3990
▁مارگلہ	-3991
۰۰۰	-3992
▁شیک	-3993
▁صوت	-3994
▁مردم	-3995
▁گیت	-3996
▁نسبت	-3997
▁کپور	-3998
راء	-3999
کمہ	-4000
▁مام	-4001
▁کیپ	-4002
▁دیتی	-4003
▁گریج	-4004
▁پڑھنے	-4005
▁افزائی	-4006
▁فلپائن	-4007
▁مقالات	-4008
▁شائستگی	-4009
آخر	-4010
کشن	-4011
یارت	-4012
▁جاہ	-4013
▁چھٹا	-4014
▁فرماں	-4015
▁گجرات	-4016
▁رسومات	-4017
سا	-4018
بیت	-4019
▁عابد	-4020
▁عہدہ	-4021
▁ہمیشہ	-4022
مش	-4023
بیر	-4024
▁پھال	-4025
▁ایوارڈز	-4026
▁آذربائیجان	-4027
▁۶۷۱	-4028
▁کلیم	-4029
▁نگرانی	-4030
▁حیاتیات	-4031
برد	-4032
▁انی	-4033
▁فقہ	-4034
▁اگلے	-4035
▁حسابِ	-4036
▁زیریں	-4037
▁اعتراف	-4038
▁لطی	-4039
▁۱۰۲	-4040
▁سکور	-4041
▁متحد	-4042
▁قومیت	-4043
▁ممبئی	-4044
▁۰۸۹۱ء	-4045
▁بآسانی	-4046
▁سائنسز	-4047
بیا	-4048
۷۰۶	-4049
لابی	-4050
چریاں	-4051
▁پھالکے	-4052
ثت	-4053
▁أ	-4054
▁لمب	-4055
▁نزد	-4056
▁تصنیف	-4057
▁تعلیمی	-4058
▁ترقیاتی	-4059
▁الخ	-4060
▁زین	-4061
▁کروی	-4062
▁برصغیر	-4063
▁مجموعاً	-4064
ہرے	-4065
▁خواہ	-4066
▁خارجی	-4067
باب	-4068
انیت	-4069
▁الیک	-4070
▁نوشت	-4071
▁فائلوں	-4072
▁گریگوری	-4073
ریاستہائے	-4074
وروں	-4075
▁آرت	-4076
▁بیم	-4077
▁جائز	-4078
▁نظریہ	-4079
▁گہ	-4080
▁آؤٹ	-4081
▁عرض	-4082
▁خوار	-4083
▁ضلعی	-4084
▁طالب	-4085
▁دانوں	-4086
▁کھیلنے	-4087
تا۔	-4088
▁بلد	-4089
▁جوز	-4090
▁سٹی	-4091
▁۰۵۲	-4092
بھارت	-4093
▁۸۲۹۱	-4094
▁صدارت	-4095
▁پیغمبر	-4096
فاق	-4097
▁۰۰۶۱ء	-4098
فۃ	-4099
سیوں	-4100
▁الز	-4101
▁نتائج	-4102
▁لائبریری	-4103
ریعہ	-4104
۰۲۹۱	-4105
▁چلی	-4106
▁شدگی	-4107
▁۳۰۰۲	-4108
▁یکساں	-4109
▁ترکمان	-4110
▁جارجیائی	-4111
▁بگ	-4112
▁مذ	-4113
▁اچھا	-4114
▁تجربہ	-4115
▁نووار	-4116
▁کرویئ	-4117
▁بنت	-4118
▁مستقل	-4119
▁پکارا	-4120
▁گریجوی	-4121
▁چا	-4122
▁ارتقا	-4123
▁القیس	-4124
▁شیکھر	-4125
▁صلاحیت	-4126
ڑہ	-4127
▁اسم	-4128
▁باط	-4129
▁اللّ	-4130
▁انصاف	-4131
▁فرانسس	-4132
▁قبرستان	-4133
▁جیتنے	-4134
▁طنزیہ	-4135
▁کریمیا	-4136
▁کھو	-4137
▁بنے۔	-4138
▁خوبص	-4139
▁روپیہ	-4140
▁نظاموں	-4141
▁بنیادوں	-4142
▁سنچریاں	-4143
▁فلسطینیوں	-4144
▁الغ	-4145
▁دفن	-4146
سلطنت	-4147
▁گنتی	-4148
▁اپلوڈ	-4149
▁تھیٹر	-4150
▁انڈونیشیائی	-4151
آباد	-4152
▁پون	-4153
▁۳۵۲	-4154
▁۰۷۹۱ء	-4155
▁براعظم	-4156
▁مقابلہ	-4157
▁۱۶	-4158
▁حوصل	-4159
▁محرم	-4160
▁الدول	-4161
▁زیارت	-4162
▁مادری	-4163
دف	-4164
▁۹۵	-4165
ریشن	-4166
▁وسط	-4167
▁ہری	-4168
▁معاہ	-4169
▁مابین	-4170
▁۹۹۹۱ء	-4171
۔۔	-4172
شیا	-4173
▁ہٹ	-4174
▁باپ	-4175
▁گرا	-4176
▁اشارہ	-4177
▁سانچہخانہ	-4178
▁الاس	-4179
▁توسیع	-4180
۸۱۷۱	-4181
▁شبہ	-4182
▁فورم	-4183
▁اسپین	-4184
▁بتایا	-4185
ریڈ	-4186
▁سوچ	-4187
▁نسب	-4188
۵۱۰۲ء	-4189
▁بھیج	-4190
▁پارہ	-4191
▁کالم	-4192
▁تصدیق	-4193
▁جیکسن	-4194
▁العلوم	-4195
▁روحانیت	-4196
▁بائٹ	-4197
▁طاہر	-4198
▁ملتے	-4199
▁۰۰۰۲	-4200
▁اختتام	-4201
زدگی	-4202
▁نماز	-4203
▁عدالت	-4204
▁جزیرے	-4205
▁۷۶	-4206
▁سکے	-4207
▁امرء	-4208
▁علما	-4209
▁آرمینیا	-4210
لیا	-4211
▁۱۴	-4212
▁تخریب	-4213
▁حوصلہ	-4214
▁شہزاد	-4215
▁مصنفین	-4216
ہے	-4217
▁سرخی	-4218
تیسواں	-4219
▁نامزدگی	-4220
یدا	-4221
▁ہلز	-4222
▁صفیہ	-4223
▁چیمپ	-4224
▁نووارد	-4225
▁پہونچنا	-4226
▁منٹ	-4227
▁جبری	-4228
▁خاطر	-4229
▁حالات	-4230
▁اسکواڈ	-4231
▁مہاراش	-4232
▁یقیناً	-4233
▁اداکاری	-4234
فتری	-4235
▁سالہ	-4236
▁بذریعہ	-4237
▁جاہلیت	-4238
▁سلووین	-4239
▁صورتوں	-4240
▁کاروبار	-4241
ثقا	-4242
ویہ	-4243
ورین	-4244
▁زہیر	-4245
▁عملے	-4246
▁انقلابی	-4247
ذی	-4248
۷۰	-4249
وبا	-4250
▁وین	-4251
▁پیلا	-4252
▁پرتگال	-4253
نظر	-4254
▁فط	-4255
▁خاک	-4256
▁ریڈ	-4257
▁عاج	-4258
وتی	-4259
▁الر	-4260
▁دن۱	-4261
▁ذہن	-4262
▁مطل	-4263
▁تحفہ	-4264
▁سلام	-4265
▁شمیم	-4266
▁سنوسی	-4267
▁قابلیت	-4268
درہ	-4269
▁جسم	-4270
▁زرا	-4271
▁اوسی	-4272
▁مرتب	-4273
▁مناتے	-4274
▁۴۹۹۱ء	-4275
▁الرحمن	-4276
▁ناکامی	-4277
حاق	-4278
وڈا	-4279
۴۱ء	-4280
▁صوفی	-4281
▁سلمیٰ	-4282
▁سائنسی	-4283
▁منتقلی	-4284
▁مہینوں	-4285
▁فیل	-4286
▁پیچ	-4287
▁البر	-4288
▁بینک	-4289
▁حروفِ	-4290
▁حقدار	-4291
▁انجینئر	-4292
تاً	-4293
میری	-4294
▁حرکت	-4295
▁۶۸۸۱	-4296
▁تھا۔۱	-4297
ئٹ	-4298
شتہ	-4299
▁۲۵	-4300
▁۶۶	-4301
▁پہچ	-4302
▁عاجز	-4303
▁تربیت	-4304
▁ٹھہر	-4305
▁روکنے	-4306
▁۰۴۹۱ء	-4307
▁کابینہ	-4308
▁ولیم	-4309
▁ٹکرا	-4310
▁علامہ	-4311
▁عنوانات	-4312
▁صغیر	-4313
▁ملیح	-4314
▁نوجو	-4315
▁زراعت	-4316
▁لازمی	-4317
▁ناکام	-4318
فے	-4319
ومن	-4320
▁ذب	-4321
▁رخص	-4322
شیائی	-4323
ٹوریل	-4324
▁جیمی	-4325
▁آپریٹ	-4326
▁اورنگ	-4327
▁خاتمے	-4328
▁صدارتی	-4329
▁مراٹھی	-4330
خلافہ	-4331
▁جوزف	-4332
▁خالص	-4333
▁رخصت	-4334
▁کہنا	-4335
▁مانتے	-4336
ثار	-4337
راجہ	-4338
▁غور	-4339
ثقافۃ	-4340
▁نزول	-4341
▁۸۱۰۲	-4342
▁۸۴۹۱	-4343
▁اورار	-4344
▁عربیۃ	-4345
▁نزدیک	-4346
الان	-4347
▁فون	-4348
▁جاوید	-4349
▁مراکز	-4350
▁مکتوب	-4351
▁نیپال	-4352
▁احت	-4353
▁سائز	-4354
▁فائن	-4355
بیسویں	-4356
▁باطنیت	-4357
▁رومانیائی	-4358
▁الث	-4359
▁چھاپ	-4360
▁چیئر	-4361
▁بیدنی	-4362
▁جیتا۔	-4363
▁تفصیلی	-4364
▁یوکرینی	-4365
ولی	-4366
▁پٹ	-4367
▁۵۵	-4368
▁۷۴	-4369
▁ارتک	-4370
▁اقبال	-4371
▁نابغہ	-4372
▁کنارے	-4373
آپ	-4374
الا	-4375
رفت	-4376
پاٹ	-4377
▁۵۶	-4378
▁بکھ	-4379
▁خراج	-4380
▁چرچا	-4381
▁سرگرم	-4382
▁کاموں	-4383
▁ٹیوٹوریل	-4384
▁سانچہدسمبر	-4385
وکس	-4386
▁نج	-4387
ندری	-4388
۲۰۰۲ء	-4389
▁رائی	-4390
▁کروٹ	-4391
▁کمان	-4392
▁اندلس	-4393
▁گزرنے	-4394
▁ہوئیں	-4395
▁پارلیمنٹ	-4396
لاق	-4397
▁لئے	-4398
▁وہیں	-4399
▁۳۱۰۲	-4400
▁چاہتی	-4401
▁۲۵۹۱ء	-4402
موریتانیہ	-4403
▁کیلنڈروں	-4404
مات	-4405
نیوڈا	-4406
▁رہیں	-4407
▁موری	-4408
▁رشمور	-4409
▁ماونٹ	-4410
▁مہینہ	-4411
▁۵۱۱۴۹۱	-4412
▁۶۸۸۱نیوڈا	-4413
جع	-4414
فری	-4415
▁اٹھار	-4416
▁۷۳۹۱ء	-4417
▁بنایا۔	-4418
ّل	-4419
▁المر	-4420
▁مطلوبہ	-4421
▁معاشرے	-4422
۰۲۲	-4423
▁۶۵	-4424
فارم	-4425
ویسی	-4426
▁رواثت	-4427
▁پہاڑی	-4428
▁کپتان	-4429
▁ہمارے	-4430
▁اوراردن	-4431
▁کوریائی	-4432
▁اورسلطنت	-4433
▁زبانثقافۃ	-4434
▁اورموریتانیہ	-4435
ڈیا	-4436
سرخی	-4437
۸۹۸۸	-4438
▁بام	-4439
▁سارے	-4440
▁پروڈ	-4441
▁۲۱۰۲ء	-4442
▁الجنوب	-4443
▁٭۲۰۰۲ء	-4444
▁٭۵۱۰۲ء	-4445
جہتی	-4446
▁زیب	-4447
▁گھنٹ	-4448
▁اشترا	-4449
▁دسویں	-4450
▁تلنگانہ	-4451
امن	-4452
▁اعلانات	-4453
▁الخلافہ	-4454
▁پہاڑیوں	-4455
رات	-4456
واڑ	-4457
▁۸۵	-4458
▁بوس	-4459
خلافت	-4460
▁سیول	-4461
▁۶۱۰۲	-4462
▁۸۱۹۱ء	-4463
▁اعزازی	-4464
▁ذبیانی	-4465
▁سالانہ	-4466
نج	-4467
▁لع	-4468
▁بھگ	-4469
▁جیل	-4470
فرانس	-4471
▁روپے	-4472
▁ملاز	-4473
▁ہیدا	-4474
▁زنامے	-4475
پاٹائٹس	-4476
▁یکجہتی	-4477
دنس	-4478
▁چیک	-4479
▁۔ہی	-4480
▁بھیڑ	-4481
▁رائل	-4482
▁نواب	-4483
▁پدنس	-4484
▁الجیل	-4485
▁پھیلاؤ	-4486
▁آپریٹنگ	-4487
▁میکسیکو	-4488
▁۔ہیپاٹائٹس	-4489
▁کوٹ	-4490
▁رومن	-4491
▁وادی	-4492
▁ڈبلیو	-4493
▁بھائیوں	-4494
۷۴	-4495
▁جے	-4496
▁عج	-4497
▁بمبئی	-4498
غی	-4499
▁تاب	-4500
▁لگے	-4501
▁اٹھا	-4502
▁روشنی	-4503
▁اسٹیشن	-4504
انت	-4505
▁اخ	-4506
▁لہر	-4507
▁مزاح	-4508
▁حملوں	-4509
▁درآمد	-4510
▁بلغ	-4511
▁بیت	-4512
▁کاتب	-4513
شل	-4514
▁جوڑ	-4515
▁زاو	-4516
▁کلام	-4517
▁تباہی	-4518
▁دفتری	-4519
▁مدنظر	-4520
▁۵۸۸۱ء	-4521
تانی	-4522
یعنی	-4523
▁وکی	-4524
▁صفحۂ	-4525
▁حقیقت	-4526
▁۹۸۹۱ء	-4527
▁عملیاں	-4528
▁گھرانے	-4529
▁بادشاہوں	-4530
▁بک	-4531
▁بدع	-4532
▁۰۰۵	-4533
▁طبیب	-4534
▁سوسائ	-4535
▁آصف	-4536
▁مون	-4537
▁سمندری	-4538
▁عاشورا	-4539
▁قام	-4540
▁لیو	-4541
▁غریب	-4542
▁متون	-4543
▁ڈھاکہ	-4544
▁انتظامات	-4545
▁اض	-4546
▁۳۹	-4547
▁۷۵	-4548
▁دکن	-4549
وزیشن	-4550
▁عالی	-4551
▁معاہدے	-4552
▁سوسائٹی	-4553
گیر	-4554
یون	-4555
▁قوت	-4556
▁ونڈ	-4557
▁۰۰۳	-4558
▁اَور	-4559
▁ٹائم	-4560
▁بلوچستان	-4561
▁اراغ	-4562
▁نائب	-4563
▁مہاراشٹر	-4564
رین	-4565
▁جانش	-4566
▁دانش	-4567
▁پیٹر	-4568
▁بیٹوں	-4569
▁محکمہ	-4570
▁استوار	-4571
۸۹۷	-4572
ائیو	-4573
▁اشد	-4574
▁سبز	-4575
▁تکلیف	-4576
▁عقیدت	-4577
▁مولانا	-4578
▁ہائے	-4579
▁پچھلا	-4580
▁گاہیں	-4581
▁۹۷۹۱ء	-4582
▁مُ	-4583
▁اقد	-4584
▁زبرد	-4585
▁ضیاء	-4586
▁ویژن	-4587
▁چارے	-4588
▁گونگ	-4589
▁قاموس	-4590
▁گائیکواڑ	-4591
ڈے	-4592
حصار	-4593
۴۱۳۱	-4594
۹۱۸۱	-4595
▁سعد	-4596
▁عطا	-4597
۰۱۰۲ء	-4598
▁زرعی	-4599
▁دانشن	-4600
▁رکھنا	-4601
▁پہنچا	-4602
▁اپوزیشن	-4603
ّی	-4604
۱۲	-4605
▁جدول	-4606
▁جمعیت	-4607
▁نظریات	-4608
▁بغاوتوں	-4609
▁دانشنامہ	-4610
▁نسق	-4611
▁پڑھا	-4612
▁ریڈیو	-4613
▁کیریب	-4614
▁ہے۔ان	-4615
▁خصوصاً	-4616
ؤغ	-4617
▁تؤغ	-4618
▁داؤ	-4619
▁اوّل	-4620
الح	-4621
الہ	-4622
ژاد	-4623
▁کہہ	-4624
▁بھاگ	-4625
▁راجا	-4626
▁چناں	-4627
▁ماہرین	-4628
▁عبداللہ	-4629
واک	-4630
▁مقیم	-4631
▁تخمین	-4632
▁جڑواں	-4633
▁شاعرہ	-4634
▁منگول	-4635
▁کنندہ	-4636
▁اشاریہ	-4637
▁جینیرو	-4638
▁معاہدہ	-4639
▁بیدنیئی	-4640
راض	-4641
کنڈہ	-4642
▁محی	-4643
▁نجی	-4644
▁صدیوں	-4645
▁مقالہ	-4646
▁اٹھارویں	-4647
دل	-4648
ہن	-4649
▁منح	-4650
تدوین	-4651
▁تہا۔	-4652
▁نژاد	-4653
▁اسکندر	-4654
▁تحریری	-4655
▁گولکنڈہ	-4656
رک	-4657
وات	-4658
پوت	-4659
یکم	-4660
▁تہی	-4661
▁راؤ	-4662
▁محل	-4663
▁مہر	-4664
▁اجتم	-4665
▁بچپن	-4666
▁ساری	-4667
▁۰۰۰۱	-4668
▁سوانح	-4669
حیہ	-4670
۲۲۱	-4671
▁قری	-4672
▁سرور	-4673
▁ہیڈر	-4674
▁نویسی	-4675
▁کیمیاء	-4676
▁ازبکستان	-4677
▁بابحالیہ	-4678
داء	-4679
ستور	-4680
▁ہنگ	-4681
▁سعید	-4682
▁شہر۔	-4683
▁چنڈی	-4684
▁دنیائے	-4685
▁سمجھتے	-4686
ثہ	-4687
▁استر	-4688
ملک	-4689
۰۸۸	-4690
۸۸۱	-4691
▁بندر	-4692
▁جائزہ	-4693
▁عیسائی	-4694
▁۴۲۸۲۱۲	-4695
فیل	-4696
▁رخ	-4697
دانی	-4698
▁دمش	-4699
▁منط	-4700
▁یور	-4701
▁ابوال	-4702
▁قاعدہ	-4703
▁کتابت	-4704
یکر	-4705
▁روڈ	-4706
ولینڈ	-4707
▁ڈیوڈ	-4708
▁بالکل	-4709
▁۴۵۹۱ء	-4710
▁دیکھئے	-4711
▁کھیلا۔	-4712
▁فرانسسکو	-4713
۶۴	-4714
▁انف	-4715
▁عار	-4716
▁السن	-4717
پوک	-4718
وواش	-4719
▁تشدد	-4720
▁اضلاع	-4721
▁رفتار	-4722
▁منحصر	-4723
▁انفارم	-4724
▁کھینچتے	-4725
▁نبی	-4726
▁کنع	-4727
سیلیا	-4728
ہرائی	-4729
▁الحو	-4730
▁رابر	-4731
▁شہرِ	-4732
▁بکھرے	-4733
▁تہوار	-4734
▁منصور	-4735
▁ہے۔سرخی	-4736
بور	-4737
وئی	-4738
▁ہال	-4739
▁حجاز	-4740
▁سپرد	-4741
▁پیشہ	-4742
▁فنکار	-4743
▁معتبر	-4744
▁چوواش	-4745
▁معاشرتی	-4746
▁الحکومتوں	-4747
جعت	-4748
شید	-4749
آزاد	-4750
▁آکر	-4751
فہرست	-4752
▁شاگر	-4753
▁مارا	-4754
▁فائنل	-4755
▁سنبھال	-4756
نگٹن	-4757
▁مدر	-4758
▁ناف	-4759
▁بھاڑ	-4760
▁داؤد	-4761
▁عورت	-4762
▁مرکوز	-4763
▁یونگی	-4764
▁تحصیلی	-4765
▁غلطیوں	-4766
▁ماسکو۔	-4767
▁ٹھہرتا	-4768
▁گونگجو	-4769
▁حکمرانی	-4770
▁براسیلیا	-4771
▁دارالخلافت	-4772
▁گھٹ	-4773
▁تفری	-4774
▁گرفت	-4775
▁نسخوں	-4776
▁وقائع	-4777
▁ریٹائر	-4778
▁چاہیے۔	-4779
▁تور	-4780
▁چان	-4781
▁چوٹ	-4782
▁آثار	-4783
▁رسال	-4784
▁فارس	-4785
▁راجپوت	-4786
▁گہرائی	-4787
▁انفارمیشن	-4788
▁ماڈل	-4789
▁اوزار	-4790
▁کشمیری	-4791
قاد	-4792
نڈا	-4793
ٹنگ	-4794
نوانی	-4795
▁دمشق	-4796
▁فارم	-4797
▁دارجہ	-4798
▁ویڈیوز	-4799
▁بدعنوانی	-4800
▁مختص	-4801
▁۰۲۰۲	-4802
▁۱۲۰۲	-4803
▁انسٹی	-4804
▁منظور	-4805
نیا	-4806
▁زخ	-4807
▁۵۷	-4808
ینیا	-4809
▁پہلو	-4810
▁سیلاب	-4811
▁فلمیں	-4812
۸ء	-4813
سکر	-4814
▁حاد	-4815
▁۲۴۱	-4816
▁نیلے	-4817
▁پشتو	-4818
▁بدولت	-4819
▁زبردست	-4820
▁میزبان	-4821
▁باشندوں	-4822
برگ	-4823
آشنا	-4824
▁اٹلی	-4825
▁عائد	-4826
▁وولا	-4827
▁بازوں	-4828
▁ناآشنا	-4829
▁وولاپوک	-4830
۹۴	-4831
وسٹ	-4832
▁حب	-4833
دادی	-4834
۰۰۰۲	-4835
۲۱۱۱	-4836
▁گلو	-4837
▁ہدف	-4838
▁حامی	-4839
▁سلا	-4840
▁ناز	-4841
▁نواس	-4842
▁نقصان	-4843
▁کروانے	-4844
▁آئرلینڈ	-4845
۷۲۶۲	-4846
▁جدا	-4847
▁ڈوی	-4848
▁۴۷۹	-4849
▁سروس	-4850
▁فطری	-4851
▁۲۸۹۱	-4852
▁تاجکستان	-4853
▁مہمان	-4854
▁پولیس	-4855
▁استرجع	-4856
▁سرمایہ	-4857
▁اوسیشیائی	-4858
▁ظلم	-4859
▁فیڈ	-4860
▁دعوت	-4861
▁دیشی	-4862
▁زینت	-4863
▁سانس	-4864
▁عباسیوں	-4865
ساس	-4866
۵۲۴۲	-4867
▁ادو	-4868
▁میرا	-4869
▁ٹیوٹ	-4870
▁سفارت	-4871
▁خوبصورت	-4872
▁فاطمیوں	-4873
بد	-4874
فیہ	-4875
شائی	-4876
گوئے	-4877
گیزی	-4878
▁الص	-4879
▁فات	-4880
▁مرو	-4881
▁گور	-4882
▁ہیر	-4883
ریماد	-4884
▁اکست	-4885
▁سربی	-4886
▁فونی	-4887
▁جاتا۔	-4888
▁اکستریماد	-4889
▁دیم	-4890
▁مبت	-4891
▁پکڑ	-4892
▁بساط	-4893
▁زوال	-4894
▁وسائل	-4895
▁ڈویژن	-4896
▁مشکلیں	-4897
▁واردان	-4898
▁اسکندریہ	-4899
▁اکستریمادوری	-4900
حض	-4901
ونے	-4902
ناسق	-4903
۶۰۵۵	-4904
▁اوم	-4905
ورنیا	-4906
ٹرنیٹ	-4907
▁خاصی	-4908
▁رسمی	-4909
▁صدیق	-4910
▁لیتے	-4911
▁انکار	-4912
▁کیریبین	-4913
▁کرویئشائی	-4914
ہد	-4915
▁ڈا	-4916
▁۳۷	-4917
یدگی	-4918
▁پیپ	-4919
▁ہاں	-4920
▁جیمز	-4921
▁آمدنی	-4922
▁ڈومین	-4923
حسن	-4924
مزہ	-4925
نڈے	-4926
دانش	-4927
▁ساؤ	-4928
▁ورک	-4929
▁ہاش	-4930
▁ماہہ	-4931
▁دربار	-4932
▁عثمان	-4933
▁ویکیپ	-4934
▁الحوائج	-4935
گون	-4936
۰۹۱	-4937
یانگ	-4938
▁تینوں	-4939
▁۵۸۹۱ء	-4940
صوم	-4941
ریوں	-4942
مغرب	-4943
▁جنم	-4944
▁پبل	-4945
▁معصوم	-4946
▁امویوں	-4947
▁بربروں	-4948
▁سلیمان	-4949
ومی	-4950
انوں	-4951
۴۲۳۲	-4952
▁انش	-4953
▁بدھ	-4954
▁غزل	-4955
ادریس	-4956
▁۰۵۹۱ء	-4957
ابق	-4958
نگی	-4959
۸۸۷۔	-4960
▁اسد	-4961
▁انے	-4962
▁گوٹ	-4963
۲۱۲۰۲	-4964
▁ایسٹ	-4965
▁لہجے	-4966
▁محیط	-4967
▁۲۹۸۱ء	-4968
الادریس	-4969
▁ویتنام	-4970
▁السنوسی	-4971
▁سلطنت۸۸۷۔	-4972
▁احمدالادریس	-4973
فف	-4974
یشین	-4975
▁انڈر	-4976
▁بنا۔	-4977
▁تقاضا	-4978
▁کاتالان	-4979
۶۲۵۲	-4980
▁لوک	-4981
▁آستور	-4982
▁شاخوں	-4983
▁ودانش	-4984
▁اولمپکس	-4985
▁۱۷	-4986
قاعد	-4987
▁میرے	-4988
▁ملازمت	-4989
▁کولکتہ	-4990
▁گلوکار	-4991
▁ہے۔انٹرنیٹ	-4992
۳۲۲۲	-4993
▁برج	-4994
▁تنا	-4995
داروں	-4996
▁اشیا	-4997
▁حلقہ	-4998
▁خواہش	-4999
▁گوادر	-5000
▁لکھائی	-5001
▁ملاقات	-5002
▁اراغونی	-5003
▁آستوریائی	-5004
رخ	-5005
اہد	-5006
سپل	-5007
فرڈ	-5008
ولک	-5009
▁لش	-5010
▁سیل	-5011
حکومت	-5012
▁انگلش	-5013
▁شاہراہ	-5014
مبی	-5015
۰۴۴	-5016
ٹریا	-5017
۸۲۷۲	-5018
▁حمزہ	-5019
ائزیشن	-5020
▁بازار	-5021
زن	-5022
خال	-5023
▁ڈپ	-5024
▁۸۷	-5025
▁مبتلا	-5026
▁خارجہ	-5027
▁لہریں	-5028
بوط	-5029
▁اوور	-5030
▁۱۷۹۱ء	-5031
▁نشستیں	-5032
▁۸۶	-5033
۰۱۱۰	-5034
▁بدر	-5035
▁طلبہ	-5036
قاعدگی	-5037
▁جانشین	-5038
▁باقاعدگی	-5039
۹۰	-5040
حریر	-5041
۰۱۹۹	-5042
▁اوب	-5043
▁مکت	-5044
▁ڈین	-5045
۰۷۷۰۶	-5046
▁آئرش	-5047
▁لگے۔	-5048
▁مقدم	-5049
▁۱نقص	-5050
۰۳۳۰۲۲	-5051
۷۱۶۱۶۱	-5052
▁بھرتی	-5053
▁جلائی	-5054
▁مضبوط	-5055
▁۸۹۹۱ء	-5056
۰۱۹۹۰۸۸	-5057
۳۲۲۲۲۲۱	-5058
۶۰۵۵۰۴۴	-5059
▁۰۳خطاء	-5060
▁۱۳خطاء	-5061
▁۵۱۵۱۴۱	-5062
▁۸۲۸۲۷۲	-5063
▁۹۲خطاء	-5064
۰۲۹۱۹۱۸۱	-5065
۲۱۱۱۱۱۰۱	-5066
۴۱۳۱۳۱۲۱	-5067
۵۲۴۲۴۲۳۲	-5068
۷۲۶۲۶۲۵۲	-5069
۰۳۳۰۲۲۰۱۱۰	-5070
۸۱۷۱۷۱۶۱۶۱	-5071
۰۱۹۹۰۸۸۰۷۷۰۶	-5072
۳۲۲۲۲۲۱۲۱۲۰۲	-5073
▁۵۱۵۱۴۱۴۱۳۱۳۱۲۱	-5074
▁۸۲۸۲۷۲۷۲۶۲۶۲۵۲	-5075
ٰہ	-5076
۳۳	-5077
▁رات	-5078
▁قرآ	-5079
▁مامور	-5080
▁۹۵۸۱ء	-5081
▁امپ	-5082
▁فاتح	-5083
▁فونٹ	-5084
▁لوگو	-5085
▁نافذ	-5086
▁اوائل	-5087
▁ایمان	-5088
▁جلدوں	-5089
▁داخلہ	-5090
▁چرچ	-5091
▁قبضے	-5092
▁محبت	-5093
▁تیلگو	-5094
▁رابرٹ	-5095
▁۳۷۴۵۸۱	-5096
▁روزنامہ	-5097
صرہ	-5098
یوا	-5099
ائرم	-5100
▁سمر	-5101
▁خراب	-5102
▁مفتی	-5103
▁گلوک	-5104
▁فضائی	-5105
▁نوشتۂ	-5106
▁اعزازات	-5107
یمہ	-5108
▁محا	-5109
▁ویز	-5110
▁پتہ	-5111
ائیے۔	-5112
▁ساٹھ	-5113
▁فنون	-5114
▁لینا	-5115
▁امریکن	-5116
▁چائیے۔	-5117
یوس	-5118
▁لک	-5119
سمان	-5120
▁بصری	-5121
▁مصنفہ	-5122
▁یونان	-5123
▁الفریڈ	-5124
▁متر	-5125
الدین	-5126
▁انٹر	-5127
▁پرست	-5128
▁۴۰۰۲	-5129
▁صوبوں	-5130
پاکستان	-5131
▁خی	-5132
▁۲۶	-5133
حضرت	-5134
یکوڈ	-5135
▁مخفف	-5136
ائرمنٹ	-5137
▁اتفاق	-5138
▁بامعنی	-5139
ؤنڈ	-5140
کٹر	-5141
▁جال	-5142
پیدیا	-5143
▁ہنری	-5144
▁رکھا۔	-5145
▁اجتماعی	-5146
▁صومالیہ	-5147
▁پرتگیزی	-5148
▁ریٹائرمنٹ	-5149
▁فارسیعربی	-5150
▁ویکیپیدیا	-5151
وق	-5152
ابہ	-5153
اما	-5154
▁ظہ	-5155
▁بری	-5156
▁طبع	-5157
▁لال	-5158
▁۷۱۲	-5159
▁خیبر	-5160
▁رائٹ	-5161
▁ہوکر	-5162
▁آگاہی	-5163
▁اسکور	-5164
وراگوئے	-5165
زہ	-5166
عر	-5167
▁لود	-5168
▁بحری	-5169
▁پیپلز	-5170
▁ہمراہ	-5171
▁تواریخ	-5172
▁سونامی	-5173
▁کارلوس	-5174
▁یوراگوئے	-5175
ئس	-5176
ضہ	-5177
۹۶	-5178
▁خوا	-5179
▁سوش	-5180
مغربی	-5181
▁قاری	-5182
▁لشکر	-5183
▁منصف	-5184
▁۵۷۹۱ء	-5185
اقع	-5186
▁تگ	-5187
▁سرز	-5188
▁آئینی	-5189
▁متعین	-5190
▁چائیں	-5191
▁حن	-5192
لوار	-5193
▁رصد	-5194
▁صاف	-5195
▁ملے	-5196
▁سیکر	-5197
▁۷۹۹۱ء	-5198
▁زمیندار	-5199
▁میٹ	-5200
▁قلعہ	-5201
▁کمار	-5202
▁مترجم	-5203
▁ہیں۔۳	-5204
ضل	-5205
مس	-5206
زیہ	-5207
▁دفاع	-5208
▁کوپر	-5209
▁قرآنی	-5210
▁مجبور	-5211
▁ونڈوز	-5212
▁پہونچ	-5213
▁۸۷۹۱ء	-5214
▁اطالیہ	-5215
▁مارونی	-5216
▁یونیکوڈ	-5217
ائض	-5218
ارٹ	-5219
ضاد	-5220
کام	-5221
▁۷۸	-5222
اخیر	-5223
ڈیول	-5224
▁آمر	-5225
▁نقش	-5226
▁لسان	-5227
▁نظری	-5228
▁نقحر	-5229
▁آبائی	-5230
▁تاخیر	-5231
▁تھے۔۵	-5232
▁فوراً	-5233
▁چارلس	-5234
▁کمیشن	-5235
▁ماڈیول	-5236
میز	-5237
۹۷۱	-5238
▁۴۶	-5239
▁انا	-5240
▁جمل	-5241
▁شری	-5242
بنائے	-5243
▁خوان	-5244
▁نائی	-5245
▁ڈالی	-5246
▁مہارت	-5247
▁پاپوا	-5248
▁۶۹۹۱ء	-5249
ًا	-5250
ڈن	-5251
وسا	-5252
▁آئی۔	-5253
▁قرون	-5254
▁مشرف	-5255
▁وفاق	-5256
▁العلم	-5257
▁تہائی	-5258
▁پرویز	-5259
▁مختاری	-5260
▁کمیونسٹ	-5261
یسن	-5262
یسی	-5263
▁برت	-5264
▁تار	-5265
▁فرز	-5266
▁پر۔	-5267
▁امتح	-5268
▁اسحاق	-5269
اشا	-5270
انک	-5271
برل	-5272
ویئر	-5273
▁باؤ	-5274
▁حافظ	-5275
▁۶۰۰۲	-5276
▁تبصرہ	-5277
▁تجربات	-5278
▁وضوابط	-5279
▁ہوا۔۲۱	-5280
راج	-5281
۹۸۱	-5282
ومنٹ	-5283
▁گرجا	-5284
▁۹۰۰۲	-5285
▁مائیک	-5286
ائجیریا	-5287
▁ساتویں	-5288
▁سرحدیں	-5289
▁وکیپیڈیا	-5290
▁جت	-5291
خصوص	-5292
▁فکر	-5293
▁آیات	-5294
▁دعوی	-5295
▁تیمور	-5296
▁لکھنا	-5297
▁نقلوں	-5298
▁پڑوسی	-5299
▁مظاہروں	-5300
رادی	-5301
▁ڈاؤن	-5302
▁اقلیت	-5303
▁والدین	-5304
▁یز	-5305
▁ایا	-5306
▁مرض	-5307
▁مصط	-5308
▁منہ	-5309
کائیو	-5310
▁اخلا	-5311
▁بالی	-5312
▁بنی۔	-5313
▁علیح	-5314
▁اسکین	-5315
▁فرزند	-5316
▁ڈرامے	-5317
▁امتحان	-5318
▁علامات	-5319
▁ں	-5320
ارق	-5321
یوز	-5322
پارہ	-5323
ونیائی	-5324
▁ایتھوپ	-5325
▁بیٹیوں	-5326
▁سرزمین	-5327
▁فرمایا	-5328
▁المغربی	-5329
چھے	-5330
▁فز	-5331
▁فص	-5332
۶۵۰۲	-5333
▁برگ	-5334
▁کنڑ	-5335
▁غزوہ	-5336
▁بڑھتی	-5337
▁فرائض	-5338
▁جارحیت	-5339
▁ترا	-5340
▁ڈان	-5341
▁اسکر	-5342
▁بیگم	-5343
▁تھام	-5344
▁مالٹا	-5345
▁وزراء	-5346
▁۷۸۹۱ء	-5347
▁۶۲۶۵۰۲	-5348
▁پاسپورٹ	-5349
▁نائجیریا	-5350
یع	-5351
۴۴	-5352
▁آت	-5353
داری	-5354
یمنی	-5355
▁انو	-5356
▁صنع	-5357
▁حرفی	-5358
▁رکھے	-5359
▁نیوز	-5360
▁۲۱۰۲	-5361
▁کمیونٹی	-5362
▁براؤزروں	-5363
کری	-5364
اتوں	-5365
▁فائ	-5366
▁فیض	-5367
▁۹۴۱	-5368
▁ہنوز	-5369
▁کھیلی۔	-5370
▁اللّسانی	-5371
فیا	-5372
▁خز	-5373
الوگ	-5374
حرام	-5375
۴۲۰۲	-5376
۵۵۷۵	-5377
▁قوا	-5378
▁تختہ	-5379
▁حادث	-5380
▁کپڑے	-5381
▁الزام	-5382
▁کوپرن	-5383
▁گھنٹے	-5384
یدرلینڈ	-5385
▁گورنمنٹ	-5386
راع	-5387
چری	-5388
▁کاغ	-5389
▁عبور	-5390
▁۷۱۲۴۱	-5391
▁۸۲۹۱ء	-5392
سےبائیں	-5393
▁پالیسی	-5394
▁۱۰۲۹۷۱	-5395
▁افسانوی	-5396
▁دائیںسےبائیں	-5397
چن	-5398
اخر	-5399
فیٰ	-5400
▁اڑ	-5401
طابق	-5402
مائی	-5403
▁۰۰۹	-5404
▁جموں	-5405
▁رویل	-5406
▁مؤرخ	-5407
▁تشریف	-5408
▁قواعد	-5409
▁مواقع	-5410
▁آبنائے	-5411
▁فونیقی	-5412
▁گریگورین	-5413
▁پش	-5414
▁آنگ	-5415
▁سائ	-5416
▁عارضی	-5417
▁بندرگاہ	-5418
▁تنازعات	-5419
۰۰۸	-5420
▁نع	-5421
▁وے	-5422
▁سرو	-5423
▁سست	-5424
▁فضل	-5425
▁محفوط	-5426
▁بالخصوص	-5427
▁سائنسدان	-5428
▁آرگنائزیشن	-5429
شاں	-5430
▁شعر	-5431
▁مرد	-5432
▁سپین	-5433
▁لیے۔	-5434
▁کشور	-5435
▁۷۱۰۲	-5436
▁قبائل	-5437
▁۰۰۰۰۴	-5438
▁۳۵۹۱ء	-5439
▁جماعتوں	-5440
▁سترہویں	-5441
لن	-5442
لوی	-5443
▁برع	-5444
▁ریت	-5445
▁مزد	-5446
▁وول	-5447
پردیش	-5448
▁جلتی	-5449
▁حصول	-5450
▁شوہر	-5451
▁لغوی	-5452
▁پارک	-5453
▁ملائی	-5454
▁تگالوگ	-5455
▁روزانہ	-5456
▁پیچیدگی	-5457
▁برادریوں	-5458
قند	-5459
ودھ	-5460
کینا	-5461
▁حجر	-5462
▁دتا	-5463
▁گوپ	-5464
▁دورے	-5465
▁ڈویل	-5466
▁گھانا	-5467
▁نوآباد	-5468
▁ڈراموں	-5469
دھ	-5470
▁سس	-5471
▁۹۷	-5472
▁رضاک	-5473
▁زخمی	-5474
امت	-5475
نوں	-5476
▁زی	-5477
▁راش	-5478
▁لنک	-5479
▁مسلح	-5480
▁بمطابق	-5481
▁اترپردیش	-5482
▁ایتھوپیا	-5483
▁۱ویکیپیڈیا	-5484
وڑی	-5485
▁ثال	-5486
▁زور	-5487
▁ہاؤ	-5488
▁قائد	-5489
▁نہرو	-5490
نامکمل	-5491
▁جامعۃ	-5492
▁جبوتی	-5493
▁متنازع	-5494
گرہ	-5495
▁بٹ	-5496
▁عیسی	-5497
▁پرستی	-5498
▁برکینا	-5499
▁دیوانی	-5500
اہب	-5501
بوت	-5502
الیف	-5503
یوسر	-5504
▁رجب	-5505
▁دوہر	-5506
▁سورج	-5507
▁مصور	-5508
▁پہاڑ	-5509
▁سکتے۔	-5510
▁طریقۂ	-5511
▁ماتحت	-5512
▁ماسٹر	-5513
رد	-5514
▁جدو	-5515
▁سوگ	-5516
▁سکا	-5517
▁نفس	-5518
▁تشری	-5519
▁خارج	-5520
▁ویزا	-5521
▁انائی	-5522
▁تائیوان	-5523
▁ابوالحسن	-5524
۴۱ھ	-5525
▁۹۹	-5526
فورڈ	-5527
▁اشع	-5528
▁ربی	-5529
▁بلاش	-5530
▁جانچ	-5531
▁لگا۔	-5532
▁۳۳۹۱ء	-5533
▁یوکرین	-5534
▁۵۲۸۲۱۲	-5535
▁پیدائشیں	-5536
طے	-5537
وخ	-5538
ہے۔	-5539
علوم	-5540
▁پخت	-5541
▁فاصل	-5542
▁چاند	-5543
▁کولم	-5544
▁اثرات	-5545
▁افریق	-5546
▁قبرصی	-5547
مانی	-5548
▁اڈا	-5549
▁طرا	-5550
▁قفق	-5551
▁وثق	-5552
▁قمری	-5553
▁لینن	-5554
▁اومان	-5555
▁معارف	-5556
▁گرینا	-5557
▁چیمپئن	-5558
اکا	-5559
دنیا	-5560
▁شدت	-5561
▁عنہ	-5562
▁سنیے	-5563
▁میاں	-5564
▁لگانے	-5565
▁۵۹۹۱ء	-5566
▁تھے۔۳۲	-5567
عون	-5568
▁نف	-5569
▁خور	-5570
▁لیڈ	-5571
▁ووڈ	-5572
▁ہوش	-5573
ائرین	-5574
▁لایا	-5575
▁پڑھی	-5576
▁اسلوب	-5577
▁متضاد	-5578
▁بیماری	-5579
▁سیکرٹری	-5580
▁خون	-5581
▁سوم	-5582
▁برقہ	-5583
▁لبرل	-5584
▁ٹرین	-5585
▁کورٹ	-5586
▁گوکہ	-5587
▁تعالی	-5588
ائس	-5589
یسا	-5590
▁قس	-5591
صدیق	-5592
نامی	-5593
▁الس	-5594
▁بکر	-5595
▁اسکا	-5596
▁تھی۔۹	-5597
▁راستہ	-5598
▁ریلیز	-5599
▁نظموں	-5600
▁ارتکاب	-5601
▁بلاشبہ	-5602
▁کمانڈر	-5603
▁ویکیپیڈیات	-5604
َن	-5605
قام	-5606
یرۂ	-5607
یڈیم	-5608
۸۸۸۹	-5609
▁جانی	-5610
▁بیٹھے	-5611
▁۹۶۹۱ء	-5612
▁ولی	-5613
▁عمرو	-5614
▁ماؤس	-5615
▁النہر	-5616
▁فلسفی	-5617
▁اسٹیٹس	-5618
ئت	-5619
رام	-5620
یزو	-5621
۶۹ء	-5622
تیں۔	-5623
▁سکہ	-5624
▁بارش	-5625
▁اکائی	-5626
▁ہسٹری	-5627
▁بنائے۔	-5628
▁تھیں۔۴	-5629
▁گریجویشن	-5630
یریز	-5631
▁جلا	-5632
▁طلاق	-5633
▁کسان	-5634
▁کرمان	-5635
▁کی۔۲۱	-5636
▁۰۲۹۱ء	-5637
▁عملیوں	-5638
بوں	-5639
غیرات	-5640
▁شورش	-5641
▁مقدس	-5642
▁اختراع	-5643
▁جمہوریت	-5644
بود	-5645
بابوے	-5646
▁املا	-5647
▁اواخر	-5648
▁موتمر	-5649
▁بادشاہت	-5650
▁زمبابوے	-5651
مح	-5652
▁المع	-5653
▁ڈیڑھ	-5654
▁ورزیوں	-5655
▁سانچہفہرست	-5656
پل	-5657
جنٹ	-5658
▁آزم	-5659
▁گذر	-5660
▁یزید	-5661
▁۱۵۹۱ء	-5662
▁افریقن	-5663
▁تھے۔۸۷	-5664
▁جنگلات	-5665
▁حیاتیاتی	-5666
سکی	-5667
پیگ	-5668
چرڈ	-5669
▁قد	-5670
▁ہز	-5671
ائلی	-5672
▁سفید	-5673
▁گرین	-5674
▁ابواب	-5675
▁رہیما	-5676
▁۴۶۹۱ء	-5677
▁انشومن	-5678
▁انفرادی	-5679
▁دوہرپارہ	-5680
جہد	-5681
▁یق	-5682
▁پچاس	-5683
▁لودھی	-5684
▁جدوجہد	-5685
گاوا	-5686
▁بسم	-5687
▁درس	-5688
▁سٹر	-5689
▁فاسو	-5690
▁مباح	-5691
▁مفاد	-5692
▁منطق	-5693
▁منگل	-5694
▁نشین	-5695
صدیقیت	-5696
▁ریکٹر	-5697
▁سنوار	-5698
▁دیمیان	-5699
▁پروپیگ	-5700
▁جاتا۔۶۵	-5701
▁۴۷	-5702
▁۹۸	-5703
▁وان	-5704
ائیاں	-5705
جنوبی	-5706
▁راہن	-5707
▁ترجیح	-5708
▁فائدہ	-5709
▁ملکیت	-5710
▁کیلیف	-5711
▁۶۵۹۱ء	-5712
▁جارجیا	-5713
▁روایات	-5714
▁کیلیفورنیا	-5715
۵۳	-5716
گریزی	-5717
▁منظم	-5718
▁موجد	-5719
▁نگاہ	-5720
▁پناہ	-5721
▁اسماع	-5722
▁اموات	-5723
▁اینڈر	-5724
▁موسیق	-5725
▁کلکتہ	-5726
▁پروڈیوسر	-5727
۰۸۱	-5728
▁آش	-5729
▁جبل	-5730
▁اجرا	-5731
▁گانے	-5732
▁ہونی	-5733
▁۸۶۹۱ء	-5734
حرک	-5735
▁وح	-5736
▁افت	-5737
▁کٹھ	-5738
▁یحی	-5739
▁جناز	-5740
▁رچرڈ	-5741
▁قاسم	-5742
▁صنعتی	-5743
▁یقینی	-5744
▁۶۸۹۱ء	-5745
▁کنعانی	-5746
ٹش	-5747
فرد	-5748
مردہ	-5749
▁مرہ	-5750
▁کلا	-5751
▁ہاؤس	-5752
زرلینڈ	-5753
▁سرحدی	-5754
▁سلامی	-5755
▁۱۸۹۱ء	-5756
▁۹۲۹۱ء	-5757
▁الحرام	-5758
▁باشندے	-5759
▁تحقیقی	-5760
▁قلمدان	-5761
▁مخالفت	-5762
▁پیچیدگیوں	-5763
▁سانچہفہرستیں	-5764
ربت	-5765
ڑیا	-5766
۰۲۱	-5767
▁۷۰	-5768
سکرت	-5769
▁نین	-5770
▁حفاظ	-5771
▁لطیف	-5772
▁مجھے	-5773
▁مشہد	-5774
▁پورٹ	-5775
▁جنازے	-5776
▁۹۴۱۱ء	-5777
▁آبادیوں	-5778
▁منصفانہ	-5779
ْن	-5780
ومین	-5781
▁ہوم	-5782
▁قدرت	-5783
▁مارے	-5784
▁معدے	-5785
▁منڈی	-5786
▁پانے	-5787
▁پیشی	-5788
▁امارت	-5789
▁بیٹنگ	-5790
▁جواہر	-5791
▁سالار	-5792
▁۹۵۹۱ء	-5793
▁لکھیں۔	-5794
▁گرمائی	-5795
▁۶۲۸۲۱۲	-5796
اقب	-5797
ستع	-5798
نجر	-5799
▁حار	-5800
▁فہم	-5801
▁ناق	-5802
کشنری	-5803
▁بھٹو	-5804
▁تحفظ	-5805
▁مورخ	-5806
▁ذخیرہ	-5807
▁آٹھواں	-5808
▁سکتیں۔	-5809
▁مختصرا	-5810
▁نشانات	-5811
▁سربراہی	-5812
▁عز	-5813
رانی	-5814
▁اللس	-5815
▁سیاح	-5816
▁مظفر	-5817
▁ممبر	-5818
▁پوسٹ	-5819
▁۲۰۰۲	-5820
▁انعقاد	-5821
▁انعامات	-5822
▁حکمرانوں	-5823
وذ	-5824
▁تد	-5825
▁۸۸	-5826
۔یور	-5827
▁داس	-5828
▁زادہ	-5829
▁وارے	-5830
▁ورژن	-5831
▁پڑا۔	-5832
▁رہیں۔	-5833
▁مردوں	-5834
▁مقدرہ	-5835
▁۰۳۹۱ء	-5836
▁۸۸۹۱ء	-5837
▁اترتا۔	-5838
▁مناسبت	-5839
▁واقفیت	-5840
۔یوریشیا	-5841
▁کارنامہ	-5842
▁پروگرامنگ	-5843
▁افریقہ۔یوریشیا	-5844
وجی	-5845
▁۱۸	-5846
▁۳۶	-5847
چرلا	-5848
▁جوان	-5849
▁رفتہ	-5850
▁رنجی	-5851
▁کہتا	-5852
ینوائے	-5853
▁دسیوں	-5854
▁متحرک	-5855
▁مدانہ	-5856
▁۵۲۸۱ء	-5857
▁البرٹو	-5858
▁کنچرلا	-5859
▁گوپانہ	-5860
▁الینوائے	-5861
آج	-5862
مرو	-5863
ائری	-5864
▁جرا	-5865
▁رضا	-5866
▁انکا	-5867
▁بلاک	-5868
▁ذہنی	-5869
▁گہرا	-5870
▁۸۱۴۰	-5871
▁مذاہب	-5872
▁نظمیں	-5873
▁۹۶۸۱ء	-5874
▁اسٹیڈیم	-5875
▁علیحدگی	-5876
▁عمارتیں	-5877
▁گوٹیریز	-5878
▁پروپیگنڈے	-5879
ھا۔	-5880
▁صفر	-5881
▁فیس	-5882
▁نقط	-5883
▁خواب	-5884
▁سردار	-5885
▁۷۱۹۱ء	-5886
▁۸۵۹۱ء	-5887
▁کپتانی	-5888
▁مالیاتی	-5889
جھ	-5890
لسٹ	-5891
▁جذ	-5892
▁۷۹	-5893
▁جوس	-5894
▁پھل	-5895
▁بناتا	-5896
▁شاگرد	-5897
▁لڑائی	-5898
▁چیزوں	-5899
▁کرایا۔	-5900
▁جانبدار	-5901
وچ	-5902
حان	-5903
تمام	-5904
▁جنت	-5905
▁جیک	-5906
▁نیپس	-5907
▁پتلی	-5908
▁گانا	-5909
▁ہے۔۶	-5910
▁۱۰۰۲	-5911
▁آسمان	-5912
▁بہتری	-5913
▁اسرائیلی	-5914
ونت	-5915
▁لسٹ	-5916
▁نان	-5917
▁گیر	-5918
▁۰۵۱	-5919
▁خواجہ	-5920
▁پیچھے	-5921
▁۹۳۹۱ء	-5922
▁سنسکرت	-5923
▁شاندار	-5924
▁گرفتار	-5925
ارک	-5926
۸۱۷۳	-5927
▁دری	-5928
▁دھم	-5929
▁ثبوت	-5930
▁پڑتا	-5931
▁گارڈ	-5932
▁۲۵۹۱	-5933
▁بیلار	-5934
▁سینئر	-5935
▁ہے۔۲۱	-5936
▁۲۷۹۱ء	-5937
▁۶۴۹۱ء	-5938
▁بالآخر	-5939
▁زائرین	-5940
▁سیکھنا	-5941
▁آرگنائی	-5942
۷۷	-5943
▁وت	-5944
▁سیم	-5945
▁لیک	-5946
▁بولتی	-5947
▁تھا۔۲	-5948
▁مباحث	-5949
▁پختون	-5950
▁تخلیقات	-5951
▁دستاویزات	-5952
وئ	-5953
راس	-5954
وشن	-5955
وارٹے	-5956
وموٹو	-5957
▁المص	-5958
▁جوگی	-5959
▁عقیل	-5960
▁نیٹو	-5961
▁کیکو	-5962
▁۷۰۰۲	-5963
▁اطراف	-5964
▁تناسب	-5965
▁سنچری	-5966
▁انوموٹو	-5967
▁نیدرلینڈ	-5968
۸۷ء	-5969
▁خش	-5970
▁نغ	-5971
▁۳۸	-5972
الین	-5973
چیپا	-5974
▁رقبے	-5975
▁محقق	-5976
▁۰۰۰۸	-5977
▁بورجا	-5978
▁کیمپو	-5979
▁۱۴۹۱ء	-5980
▁الیکشن	-5981
▁بنائی۔	-5982
▁ہواچیپا	-5983
▁بولوارٹے	-5984
▁دارالحکومت	-5985
ثل	-5986
▁گیس	-5987
▁۰۰۴	-5988
▁آرتھ	-5989
▁اچھے	-5990
▁تیزی	-5991
▁شائر	-5992
▁مایا	-5993
▁تجزیہ	-5994
▁جنگیں	-5995
▁الخوار	-5996
▁قبائلی	-5997
پاکستانی	-5998
▁مختصراً	-5999
ُر	-6000
▁۳۰	-6001
▁۶۰	-6002
▁اون	-6003
▁شرم	-6004
▁مقص	-6005
▁پرن	-6006
▁گیل	-6007
▁مزار	-6008
▁کرام	-6009
▁قبیلے	-6010
▁پھیلی	-6011
▁اعتراض	-6012
▁مبادلہ	-6013
▁آرگنائیزر	-6014
▁کیمیاءدان	-6015
گھ	-6016
قیر	-6017
ھان	-6018
یالم	-6019
▁بہر	-6020
▁استح	-6021
▁انہی	-6022
▁تیرہ	-6023
▁جھیل	-6024
▁محاف	-6025
▁۰۰۰۳	-6026
▁آجانے	-6027
▁قریبی	-6028
▁انڈونیشین	-6029
۵۷	-6030
۶ء	-6031
نڈی	-6032
۴۳۲	-6033
▁فتو	-6034
▁افسر	-6035
▁جعفر	-6036
▁حاجی	-6037
▁لائی	-6038
▁لازم	-6039
▁لیفٹ	-6040
▁کیا۱	-6041
▁راستے	-6042
▁سیاحت	-6043
▁عقائد	-6044
▁ہوتا۔	-6045
▁۰۷۸۱ء	-6046
▁اقتصاد	-6047
▁سریانی	-6048
▁رومانیہ	-6049
▁ٹوئنٹی۰۲	-6050
طل	-6051
▁محد	-6052
▁چچا	-6053
▁ہیل	-6054
▁شوری	-6055
▁لگتا	-6056
▁مالا	-6057
▁تھے۔۲	-6058
▁شاخیں	-6059
۵۸	-6060
ائپ	-6061
اکر	-6062
راب	-6063
ہیں۔	-6064
▁آکس	-6065
▁درخ	-6066
▁آدمی	-6067
▁الاص	-6068
▁سالم	-6069
▁یحیی	-6070
▁پینین	-6071
▁۲۹۹۱ء	-6072
▁آرتھوڈ	-6073
▁آسٹریا	-6074
▁ستاروں	-6075
ائی۔	-6076
تعلق	-6077
▁مثل	-6078
▁الرض	-6079
▁خطاط	-6080
▁ناڈو	-6081
▁انواع	-6082
▁زبانِ	-6083
▁سکیں۔	-6084
▁۴۳۹۱ء	-6085
▁الحمید	-6086
▁گجراتی	-6087
صب	-6088
۷ء	-6089
سٹن	-6090
ورو	-6091
۹۵۴	-6092
اپور	-6093
▁ارض	-6094
▁بچہ	-6095
▁لڑی	-6096
▁۰۳۳	-6097
▁۵۳۱	-6098
▁آرڈر	-6099
▁آگاہ	-6100
▁دامن	-6101
▁سیار	-6102
▁مفید	-6103
▁۵۰۰۲	-6104
▁اوڑیا	-6105
▁قصبوں	-6106
▁الرضیع	-6107
▁العزیز	-6108
▁ہزاروں	-6109
▁یوگنڈا	-6110
▁۳۲۸۲۱۲	-6111
▁سنوارتے	-6112
▁لسانیات	-6113
َم	-6114
ئیس	-6115
▁آز	-6116
تلفظ	-6117
ینڈا	-6118
▁صقل	-6119
▁نائ	-6120
▁نیک	-6121
مالیہ	-6122
یسواں	-6123
▁اوپن	-6124
▁بدوی	-6125
▁جمال	-6126
▁دہشت	-6127
▁کامل	-6128
ویجینی	-6129
▁مدرسہ	-6130
▁چاروں	-6131
▁۱۰۹۱ء	-6132
▁۵۶۹۱ء	-6133
▁۶۶۹۱ء	-6134
▁سوالات	-6135
▁جارحانہ	-6136
▁نورویجینی	-6137
پلو	-6138
بورن	-6139
▁فنی	-6140
▁مدھ	-6141
▁ناہ	-6142
▁وضع	-6143
▁آپشن	-6144
▁لائف	-6145
▁گوگل	-6146
▁۲۸۹۱ء	-6147
▁۳۶۹۱ء	-6148
▁خریدنے	-6149
▁درمیانی	-6150
ونڈ	-6151
کھا	-6152
▁تاک	-6153
▁چال	-6154
▁بصرہ	-6155
▁مرئی	-6156
▁مکتب	-6157
ارہویں	-6158
▁پشاور	-6159
▁اختصار	-6160
▁غلطیاں	-6161
▁مارکیٹ	-6162
▁میزبانی	-6163
ّا	-6164
یارک	-6165
ریٹری	-6166
▁الفا	-6167
▁قصبے	-6168
▁لکھن	-6169
▁عراقی	-6170
▁ہندسہ	-6171
▁۳۹۹۱ء	-6172
▁۵۵۹۱ء	-6173
▁فوجیوں	-6174
▁محافظہ	-6175
▁گراؤنڈ	-6176
▁آرتھوڈوکس	-6177
۶۰	-6178
فیق	-6179
▁آیت	-6180
▁دیر	-6181
▁چھپ	-6182
▁جناب	-6183
▁سینا	-6184
▁عباد	-6185
▁کریک	-6186
▁حفاظت	-6187
▁ناہید	-6188
▁اللسانی	-6189
بح	-6190
طر	-6191
پٹ	-6192
بین	-6193
ظمی	-6194
علی	-6195
وکو	-6196
وکی	-6197
گیٹ	-6198
▁۶۹	-6199
انوے	-6200
▁ولد	-6201
▁کنگ	-6202
دیمیر	-6203
▁پیرا	-6204
▁چہرے	-6205
▁سڑکوں	-6206
▁ماخوذ	-6207
▁ناروی	-6208
▁۱۶۹۱ء	-6209
▁آزادی۱	-6210
▁پولینڈ	-6211
▁اخبارات	-6212
▁یہودیوں	-6213
▁پختونخوا	-6214
حط	-6215
روم	-6216
شیع	-6217
شائع	-6218
ٰڈیا	-6219
۸۸۷۵	-6220
▁زید	-6221
▁لوو	-6222
▁ناٹ	-6223
▁ویس	-6224
▁۷۷۱	-6225
▁آرٹس	-6226
▁خفیہ	-6227
▁ہندس	-6228
▁۳۱۹۱ء	-6229
▁رکھیں۔	-6230
▁گلوکارہ	-6231
▁انتظامیہ	-6232
▁ویکیپٰڈیا	-6233
چوں	-6234
کال	-6235
گیز	-6236
▁دب	-6237
▁رے	-6238
▁۴۸	-6239
جیکٹ	-6240
مبیق	-6241
ینڈر	-6242
▁شار	-6243
▁ایٹم	-6244
▁سورت	-6245
▁فرید	-6246
▁کپڑا	-6247
▁زاویہ	-6248
▁۱۲۹۱ء	-6249
▁پیمائش	-6250
▁گروہوں	-6251
▁برتحریر	-6252
▁موزمبیق	-6253
▁اقتصادیات	-6254
پس	-6255
گے	-6256
بلس	-6257
ذیر	-6258
لیپ	-6259
▁جج	-6260
▁یے	-6261
▁۲۸	-6262
▁بحق	-6263
▁عدم	-6264
تعلقہ	-6265
▁خطوط	-6266
▁مرکب	-6267
▁مشعر	-6268
▁آرتھر	-6269
▁اقدام	-6270
▁تراجم	-6271
▁مرئیت	-6272
▁نیازی	-6273
آرکائیو	-6274
▁الرشید	-6275
فن	-6276
شار	-6277
▁ڈیم	-6278
▁کرہ	-6279
▁بڑھا	-6280
▁سستا	-6281
▁۲۷۶۱	-6282
▁ساؤتھ	-6283
▁منایا	-6284
▁پچھلے	-6285
▁کاغذی	-6286
▁گذشتہ	-6287
▁۲۳۹۱ء	-6288
متغیرات	-6289
▁طرابلس	-6290
▁نارویجن	-6291
مرا	-6292
▁ہا	-6293
▁طال	-6294
▁ٹار	-6295
▁پرچ	-6296
▁تشیع	-6297
▁سبھا	-6298
▁شعیب	-6299
▁لارڈ	-6300
▁کروا	-6301
▁ہیئت	-6302
تبادلہ	-6303
▁جنگوں	-6304
▁امپائر	-6305
▁یوگینڈا	-6306
جئ	-6307
۷۲۱	-6308
▁تل	-6309
داشت	-6310
▁ذات	-6311
▁محب	-6312
▁گلی	-6313
سانچہ	-6314
▁اگلا	-6315
▁سراہ	-6316
▁سعود	-6317
▁۸۰۰۲	-6318
یالوجی	-6319
▁منفرد	-6320
▁کانگو	-6321
▁خریدتے	-6322
قے	-6323
سٹرڈ	-6324
پولس	-6325
▁اِر	-6326
▁شکا	-6327
▁قلی	-6328
▁اناط	-6329
▁شمسی	-6330
▁مصدر	-6331
▁ناقص	-6332
▁کوئٹ	-6333
▁ہاشم	-6334
متعلقہ	-6335
▁ارجنٹ	-6336
▁حیاتی	-6337
▁صقلیہ	-6338
▁۷۹۸۱ء	-6339
▁شورشوں	-6340
▁میڈیکل	-6341
▁موسیقار	-6342
▁نیویارک	-6343
▁نچ	-6344
نڈور	-6345
▁سلم	-6346
▁اتنی	-6347
▁بازو	-6348
▁جعلی	-6349
▁سورس	-6350
▁پھول	-6351
▁ہریش	-6352
▁اسکوا	-6353
▁مارٹن	-6354
▁ملحقہ	-6355
▁۶۳۹۱ء	-6356
▁تنقیدی	-6357
▁فتوحات	-6358
وث	-6359
یح	-6360
۴۳۱	-6361
سترہ	-6362
▁مقت	-6363
▁اسٹی	-6364
▁نادر	-6365
▁پاشا	-6366
▁چوٹی	-6367
▁کرے۔	-6368
▁الیکس	-6369
▁مصنوع	-6370
▁ملتان	-6371
▁۳۷۹۱ء	-6372
▁شاعروں	-6373
زل	-6374
ساد	-6375
گرس	-6376
۹۳۶	-6377
▁المن	-6378
▁جوبا	-6379
▁برادر	-6380
▁سلائی	-6381
▁کوئٹہ	-6382
▁خریدیں۔	-6383
۰۰۷	-6384
▁سڈ	-6385
▁تقر	-6386
▁اینٹ	-6387
▁جمعہ	-6388
▁روشن	-6389
▁مدیر	-6390
▁مہاج	-6391
▁وصیت	-6392
▁۸۸۷ء	-6393
▁سامان	-6394
▁سینٹر	-6395
▁مقصود	-6396
▁۴۲۹۱ء	-6397
▁۴۴۹۱ء	-6398
سترہویں	-6399
▁دیکھنا	-6400
▁پھیلتی	-6401
▁دیہاتوں	-6402
▁ریاضیدان	-6403
الک	-6404
▁وپ	-6405
زبتھ	-6406
▁راس	-6407
▁نصر	-6408
▁اونی	-6409
▁تبصر	-6410
▁سماج	-6411
▁عامہ	-6412
▁لکڑی	-6413
▁پونڈ	-6414
ارٹمنٹ	-6415
▁قیامت	-6416
▁وثائق	-6417
▁تعالیٰ	-6418
▁صومالی	-6419
▁اسماعیل	-6420
▁امیدواروں	-6421
فک	-6422
▁نون	-6423
▁وقف	-6424
▁۳۲۱	-6425
▁ایلن	-6426
▁ایکس	-6427
▁سنگی	-6428
▁صحرا	-6429
▁قاضی	-6430
▁خلخال	-6431
▁ضوابط	-6432
▁طباعت	-6433
▁قفقاز	-6434
▁اشتراک	-6435
▁دیکھتے	-6436
▁ملیالم	-6437
▁کریں۔۲	-6438
▁ہونڈور	-6439
▁ترکمانی	-6440
جۃ	-6441
ڑو	-6442
۲۳	-6443
۰۰۹	-6444
زیری	-6445
▁سیب	-6446
▁پٹن	-6447
▁گنا	-6448
▁دیوی	-6449
▁کائن	-6450
▁کنگز	-6451
▁الفرڈ	-6452
▁درستی	-6453
▁دستور	-6454
▁گرامی	-6455
▁یومیہ	-6456
▁۴۱۹۱ء	-6457
▁مبصرین	-6458
▁مستعفی	-6459
▁تحقیقات	-6460
▁میدانوں	-6461
▁پندرہویں	-6462
▁اِصطلاحات	-6463
جس	-6464
بری	-6465
عاش	-6466
عود	-6467
ماثل	-6468
▁جھل	-6469
▁سرا	-6470
▁ٹکٹ	-6471
ترتیب	-6472
▁غربت	-6473
▁غلبہ	-6474
▁فورس	-6475
▁پروٹ	-6476
▁گوئی	-6477
▁تشریح	-6478
▁عیسیٰ	-6479
▁قوموں	-6480
▁مصروف	-6481
▁نظارہ	-6482
▁کتابی	-6483
▁اصولوں	-6484
▁انتخابی	-6485
ولپ	-6486
۰۷۸	-6487
▁سج	-6488
▁شب	-6489
▁دقت	-6490
▁ماد	-6491
▁مذک	-6492
▁بھتی	-6493
▁لیبل	-6494
▁میوز	-6495
▁ہے۔۸	-6496
۷۱۶۱۵۱	-6497
▁بلدیہ	-6498
▁جنگجو	-6499
▁منورہ	-6500
▁موسوم	-6501
▁برقیات	-6502
▁مطالبہ	-6503
▁اشتراکی	-6504
▁خاندانی	-6505
برج	-6506
▁ٹیل	-6507
▁پان	-6508
▁احمر	-6509
▁محدث	-6510
▁نقطۂ	-6511
▁ہلکے	-6512
▁پرورش	-6513
▁ٹیکساس	-6514
▁میلبورن	-6515
▁نمائندہ	-6516
جّی	-6517
ینج	-6518
▁غر	-6519
▁گنگ	-6520
▁السم	-6521
▁بابر	-6522
▁خطوں	-6523
▁فصیح	-6524
▁ناشر	-6525
▁یونیس	-6526
▁۶۷۹۱ء	-6527
▁آرٹیکل	-6528
▁کارپور	-6529
وگ	-6530
الق	-6531
ارتھ	-6532
دائے	-6533
قیقت	-6534
▁الو	-6535
▁۸۷۳	-6536
نطینی	-6537
▁المذ	-6538
▁سوئٹ	-6539
▁سیاہ	-6540
▁قسطن	-6541
▁مصنع	-6542
▁ناتھ	-6543
▁کلیس	-6544
▁تھی۔۱	-6545
▁حرملہ	-6546
▁سکونت	-6547
▁جرمینک	-6548
▁کوششوں	-6549
▁تفریحات	-6550
▁خواندگی	-6551
▁ویتنامی	-6552
▁جہازرانی	-6553
ٰن	-6554
۹۸	-6555
ادل	-6556
الن	-6557
ودہ	-6558
▁۱۰	-6559
ادیث	-6560
وبند	-6561
▁بون	-6562
▁تلا	-6563
▁واش	-6564
▁۰۴۱	-6565
ستھان	-6566
▁آہنگ	-6567
▁الحق	-6568
▁سلوک	-6569
▁مروہ	-6570
▁مہات	-6571
▁ویلش	-6572
▁کینٹ	-6573
▁ہانگ	-6574
▁حرارت	-6575
▁الثانی	-6576
▁پوزیشن	-6577
▁آسٹریلوی	-6578
▁سرگرمیوں	-6579
▁خر	-6580
▁روہ	-6581
▁صحر	-6582
▁ربیع	-6583
▁میون	-6584
▁کیتھ	-6585
▁تلفظ۔	-6586
▁مقدار	-6587
▁چاندی	-6588
▁کھونے	-6589
▁ایڈیٹر	-6590
▁ہلاینگ	-6591
▁گریجویٹ	-6592
تھا	-6593
غلط	-6594
مٰن	-6595
▁زرِ	-6596
▁عوض	-6597
▁چوہ	-6598
▁ہے۶	-6599
▁۸۷۹	-6600
▁برٹش	-6601
▁جنسی	-6602
▁درجے	-6603
▁زاہد	-6604
▁فراہ	-6605
▁لیلی	-6606
▁منیا	-6607
▁کندہ	-6608
▁تہجّی	-6609
▁سربیا	-6610
▁مارشل	-6611
▁مغلیہ	-6612
▁۰۰۰۵۵	-6613
▁بلدیات	-6614
▁راہنما	-6615
▁چھاپنا	-6616
▁کہانیوں	-6617
،،	-6618
ودا	-6619
ہام	-6620
انیا	-6621
▁تنز	-6622
▁عدل	-6623
▁پاد	-6624
▁۹۲۱	-6625
▁رشتہ	-6626
▁عارف	-6627
▁وقار	-6628
اماتسو	-6629
▁ادوار	-6630
▁جانتے	-6631
▁رجوعِ	-6632
▁۹۸۸۱ء	-6633
▁لمبائی	-6634
▁مجموعے	-6635
▁پسندوں	-6636
▁اختلافات	-6637
▁سائنسدانوں	-6638
شم	-6639
۶۲۱	-6640
▁تشن	-6641
▁آنکھ	-6642
▁دراز	-6643
▁شامی	-6644
▁فقیہ	-6645
▁ملی۔	-6646
▁احساس	-6647
▁تصغیر	-6648
▁عملی۔	-6649
▁ٹیکسٹ	-6650
▁گھٹتی	-6651
▁اناطول	-6652
▁انحصار	-6653
▁سکھانا	-6654
▁مہاتما	-6655
▁کاگاوا	-6656
▁گئے۔۸۱	-6657
▁لوویانگ	-6658
▁گریناڈا	-6659
▁منیاپولس	-6660
وظ	-6661
ڈرک	-6662
▁۵۹	-6663
نبول	-6664
▁آور	-6665
▁مری	-6666
▁مند	-6667
▁۰۰۶	-6668
▁باکس	-6669
▁البان	-6670
▁لطیفہ	-6671
▁مابعد	-6672
▁۰۰۰۳۱	-6673
▁۲۴۹۱ء	-6674
▁الاسدی	-6675
▁اگست۳۲۰۲	-6676
▁تاکاماتسو	-6677
الڈ	-6678
ختر	-6679
زمی	-6680
ٹمز	-6681
یاس	-6682
▁وب	-6683
▁محت	-6684
▁نہر	-6685
▁کوئ	-6686
▁ہان	-6687
▁ایوب	-6688
▁زیاد	-6689
معیاری	-6690
▁آزمائش	-6691
▁سٹرلنگ	-6692
▁کرناٹک	-6693
▁استحکام	-6694
▁مقبولیت	-6695
▁گیارہویں	-6696
اجد	-6697
خود	-6698
ذیل	-6699
راے	-6700
شوو	-6701
ینس	-6702
یڈی	-6703
۸۳۶	-6704
▁یر	-6705
جانب	-6706
درہم	-6707
فسکی	-6708
▁جہلم	-6709
▁نجات	-6710
▁۶۳۴۳	-6711
▁تدریس	-6712
▁سلطات	-6713
▁لائے۔	-6714
▁پارما	-6715
▁ہنگری	-6716
▁۹۴۹۱ء	-6717
راےلوار	-6718
▁براشوو	-6719
▁کانگرس	-6720
▁۸۷۹۴۳۱	-6721
▁امتیازی	-6722
▁انگریزوں	-6723
▁سرگرمیاں	-6724
▁۸۱۷۱۶۱۵۱	-6725
▁آندراےلوار	-6726
دس	-6727
لر	-6728
ِن	-6729
ویض	-6730
▁بٹی	-6731
▁مرج	-6732
▁ٹاپ	-6733
▁ٹیگ	-6734
▁کمر	-6735
▁۰۰۷	-6736
سلامی	-6737
▁آزما	-6738
▁سویت	-6739
▁فیلڈ	-6740
▁پنسل	-6741
▁۰۸۹۱	-6742
▁نائیج	-6743
▁نگران	-6744
▁۰۰۹۱ء	-6745
▁العلم۵	-6746
▁سلوواک	-6747
▁یہودیہ	-6748
▁اِنحصار	-6749
▁واقفیت۲	-6750
▁ہونڈوراس	-6751
▁نامزدگیوں	-6752
سط	-6753
الج	-6754
زان	-6755
کتاب	-6756
▁خیز	-6757
▁لعل	-6758
▁یں۔	-6759
▁لیڈر	-6760
▁یہیں	-6761
بالآخر	-6762
▁سکندر	-6763
▁کیمون	-6764
▁طاقتور	-6765
▁مراجعت	-6766
▁اسلامیہ	-6767
▁پروجیکٹ	-6768
▁موریتانیہ	-6769
وج	-6770
باہ	-6771
▁آم	-6772
فاقی	-6773
▁نصب	-6774
▁ڈوب	-6775
▁کرغ	-6776
▁المش	-6777
▁پیسو	-6778
▁افتتا	-6779
▁تفویض	-6780
▁جاننا	-6781
▁عرفات	-6782
▁فائیل	-6783
▁مماثل	-6784
▁احادیث	-6785
▁اہتمام	-6786
▁روسیوں	-6787
▁نظارہ۔	-6788
▁کابینک	-6789
بائیںایک	-6790
تصغیرایک	-6791
▁واشنگٹن	-6792
▁ملائیشیا	-6793
▁کومعیاری	-6794
▁تقریباً۷۲۱	-6795
▁بائیںتصغیرایک	-6796
▁تصغیربائیںایک	-6797
عل	-6798
بنگ	-6799
سیر	-6800
▁عش	-6801
الیہ	-6802
مالی	-6803
ندھر	-6804
یکٹو	-6805
▁ٹوٹ	-6806
▁ہفت	-6807
▁خیمہ	-6808
▁رباب	-6809
▁ظہور	-6810
▁مساو	-6811
▁مشیل	-6812
▁کاہل	-6813
▁بحالی	-6814
▁تھامس	-6815
▁مسعود	-6816
انگریزی	-6817
▁تخمینہ	-6818
▁کیمبرج	-6819
▁رہنمائی	-6820
▁شاہراہوں	-6821
▁فزیالوجی	-6822
ادم	-6823
غیب	-6824
▁حت	-6825
▁۹۶	-6826
وانی	-6827
▁الی	-6828
▁بجھ	-6829
▁بشر	-6830
▁یار	-6831
ائیڈو	-6832
ضاحیہ	-6833
▁خانی	-6834
▁۰۰۱۱	-6835
▁سنہری	-6836
▁چوتھے	-6837
▁۲۶۹۱ء	-6838
▁جون۳۲۰۲	-6839
▁کیمیائی	-6840
َل	-6841
۲۴	-6842
اسکر	-6843
▁لگی	-6844
▁الشہ	-6845
▁بوقت	-6846
▁شعری	-6847
عاشورہ	-6848
مدسمبر	-6849
▁شہداء	-6850
▁صحابی	-6851
▁لہجات	-6852
▁پہچان	-6853
▁پیشرو	-6854
▁روحانی	-6855
▁ٹارگیٹ	-6856
▁مئی۳۲۰۲	-6857
▁کیمسٹری	-6858
▁راجستھان	-6859
▁اپریل۳۲۰۲	-6860
▁ایامدسمبر	-6861
▁ستمبر۳۲۰۲	-6862
▁اکتوبر۳۲۰۲	-6863
▁جولائی۳۲۰۲	-6864
ُو	-6865
ولر	-6866
گزین	-6867
▁آتش	-6868
▁سمت	-6869
▁جتنی	-6870
▁دختر	-6871
▁دیہی	-6872
▁گولی	-6873
غلطیاں	-6874
▁آئٹمز	-6875
▁اشعار	-6876
▁العام	-6877
▁ضاحیہ	-6878
▁مقدمہ	-6879
▁گیا۔۳	-6880
تاریخیہ	-6881
▁الدولہ	-6882
▁سےشائع	-6883
▁مطالعے	-6884
▁کھیلتے	-6885
▁امیدوارو	-6886
▁وپغلطیاں	-6887
▁نائیجیریا	-6888
غت	-6889
ُم	-6890
ثیق	-6891
ریع	-6892
▁اڈے	-6893
▁برہ	-6894
▁سزا	-6895
▁۱۰۱	-6896
▁البغ	-6897
▁بنتا	-6898
▁حضور	-6899
▁کاشت	-6900
▁توثیق	-6901
▁عمران	-6902
▁پندرہ	-6903
▁ہزارے	-6904
▁۲۲۹۱ء	-6905
▁۳۸۹۱ء	-6906
▁الطارق	-6907
▁فراہمی	-6908
▁نائیڈو	-6909
▁استنبول	-6910
▁تعلیمات	-6911
▁جانوروں	-6912
▁سوئٹزرلینڈ	-6913
ھم	-6914
ھری	-6915
▁۴۹	-6916
▁ایش	-6917
▁خالد	-6918
▁دینی	-6919
▁سڈنی	-6920
▁ویبس	-6921
▁۳۵۹۱	-6922
▁فرینک	-6923
▁نائجر	-6924
▁پڑتا۔	-6925
▁کیا۔۲	-6926
▁آنحضرت	-6927
▁ایجنسی	-6928
▁رجسٹرڈ	-6929
▁ہیں۔۲۱	-6930
▁نوآبادیاتی	-6931
مض	-6932
نر	-6933
۵۰	-6934
جدی	-6935
۰۷۱	-6936
یانا	-6937
▁اسط	-6938
▁جاب	-6939
▁جسد	-6940
ڈومین	-6941
▁پوچھ	-6942
▁تلاوت	-6943
▁عہدوں	-6944
▁فوائد	-6945
▁ممنوع	-6946
▁آوازوں	-6947
▁انتباہ	-6948
▁میگزین	-6949
▁بازنطینی	-6950
▁ویبسائٹس	-6951
▁نیدرلینڈز	-6952
فرت	-6953
۷۰۱	-6954
▁ائ	-6955
▁ایب	-6956
▁خاں	-6957
القیس	-6958
کاروں	-6959
▁الصو	-6960
▁اہلِ	-6961
▁حتمی	-6962
▁حسبِ	-6963
▁موہن	-6964
▁میچز	-6965
▁کوین	-6966
▁ستارے	-6967
▁لیلیٰ	-6968
▁معزول	-6969
▁ملحوظ	-6970
▁ناحیہ	-6971
▁پارٹیوں	-6972
دون	-6973
فون	-6974
ہری	-6975
▁ڈچ	-6976
▁برن	-6977
▁بالس	-6978
▁ناصر	-6979
▁کھود	-6980
▁اوبلا	-6981
▁تشنگی	-6982
▁سلاوی	-6983
▁شعبان	-6984
▁عجائب	-6985
▁الاصغر	-6986
▁الشاطر	-6987
▁الیکٹر	-6988
▁شہدائے	-6989
▁پہنچنے	-6990
▁الشہداء	-6991
▁اوزاروں	-6992
▁پانچواں	-6993
روا	-6994
▁دمہ	-6995
▁سرے	-6996
▁قرب	-6997
▁منج	-6998
▁۳۸۲	-6999
▁ابیہ	-7000
▁ایگز	-7001
▁رانا	-7002
▁بخارا	-7003
▁موسیٰ	-7004
▁کرکٹر	-7005
▁کیفیت	-7006
▁گزشتہ	-7007
▁اتحادی	-7008
▁مظاہرہ	-7009
▁نکالنا	-7010
▁ہوئے۔۲	-7011
▁اناطولیہ	-7012
▁ترکمانستان	-7013
تیں	-7014
صوف	-7015
وطنی	-7016
کوئی	-7017
۰۰۶۱	-7018
▁بیڈ	-7019
▁عشر	-7020
▁نمی	-7021
▁چاڈ	-7022
▁۳۰۱	-7023
▁آغوش	-7024
▁جونی	-7025
▁۴۷۹۱	-7026
▁ابجدی	-7027
▁اخلاق	-7028
▁بجھانے	-7029
▁جزیروں	-7030
▁اوبلاست	-7031
▁موسمیات	-7032
▁ارجنٹائن	-7033
جرم	-7034
یشل	-7035
▁اث	-7036
▁موب	-7037
▁پام	-7038
▁۱۹۷	-7039
▁اختر	-7040
▁ہے۔و	-7041
▁ہے۔۷	-7042
▁پاداش	-7043
▁السماء	-7044
▁الاسدی۔	-7045
▁البغدادی	-7046
ملۃ	-7047
جئیم	-7048
▁اری	-7049
▁سرد	-7050
یکاوا	-7051
▁جسٹس	-7052
▁جلتا	-7053
▁دماغ	-7054
▁عرفی	-7055
▁پبلک	-7056
▁۰۷۹۱	-7057
▁جعفری	-7058
▁حرملۃ	-7059
▁عاشور	-7060
▁علیہا	-7061
▁بھتیجے	-7062
▁سیکھنے	-7063
▁متناسق	-7064
▁سولھواں	-7065
▁الجزائری	-7066
شائر	-7067
ویلا	-7068
ینڈل	-7069
▁فجر	-7070
▁لام	-7071
▁خاصا	-7072
▁شوکت	-7073
▁نستع	-7074
السلام	-7075
▁المرجب	-7076
▁درخشاں	-7077
▁تحریروں	-7078
▁مظلومیت	-7079
▁نستعلیق	-7080
بوح	-7081
ویٹ	-7082
ہرہ	-7083
▁حُ	-7084
قاسم	-7085
۰۰۲۱	-7086
▁بہ۔	-7087
▁لعن	-7088
▁ابھر	-7089
▁الذی	-7090
▁بجلی	-7091
▁بویہ	-7092
▁ریسر	-7093
▁فجعت	-7094
▁مشین	-7095
▁ولدک	-7096
▁کار۔	-7097
▁کرسر	-7098
الحسین	-7099
▁ابہام	-7100
▁اسطرح	-7101
▁الطفل	-7102
▁تھوڑی	-7103
▁رامیہ	-7104
▁لکھنؤ	-7105
▁محروم	-7106
▁مزدور	-7107
▁گزارے	-7108
▁۸۵۸۱ء	-7109
▁الصریع	-7110
▁المرمی	-7111
▁المشحط	-7112
▁المصعد	-7113
▁بالسہم	-7114
▁دیکھی۔	-7115
▁ہزاریہ	-7116
▁ہندسوں	-7117
▁اشیکاوا	-7118
▁المذبوح	-7119
▁المعروف	-7120
▁جالندھر	-7121
▁امرالقیس	-7122
▁بنالحسین	-7123
▁روزعاشورہ	-7124
▁ہے۔السلام	-7125
اکو	-7126
فور	-7127
وتھ	-7128
یلہ	-7129
۵۰۱	-7130
▁۱۹	-7131
ائیف	-7132
▁سرم	-7133
▁صبر	-7134
▁منی	-7135
▁چھب	-7136
▁عجیب	-7137
▁کیپر	-7138
▁بائیس	-7139
▁۳۸۸۱ء	-7140
▁افسانے	-7141
انٹ	-7142
چند	-7143
▁فح	-7144
▁یت	-7145
▁چیل	-7146
▁گنج	-7147
▁۵۲۱	-7148
▁۹۷۱	-7149
وزارت	-7150
▁کنیت	-7151
▁کہنے	-7152
▁گوئے	-7153
▁۰۰۲۱	-7154
▁معنوں	-7155
▁۶۲۸۱ء	-7156
▁اِرقام	-7157
▁پھانسی	-7158
▁کوالیف	-7159
▁آکسفورڈ	-7160
▁اسکواٹنگ	-7161
مام	-7162
▁آڈ	-7163
▁آنی	-7164
▁اچی	-7165
▁شوق	-7166
▁صاد	-7167
▁وجے	-7168
▁انوں	-7169
▁اپیل	-7170
▁معین	-7171
▁پرچم	-7172
▁گاتے	-7173
ارستان	-7174
▁اتوار	-7175
▁ریسرچ	-7176
▁بولیاں	-7177
▁معاویہ	-7178
▁الرحمٰن	-7179
▁حسبِذیل	-7180
▁سنگاپور	-7181
▁پالیسیوں	-7182
ِل	-7183
الر	-7184
برٹ	-7185
دیا	-7186
ہران	-7187
▁جنس	-7188
▁شیل	-7189
▁فحش	-7190
▁گنت	-7191
▁تاجر	-7192
▁منزل	-7193
▁پیما	-7194
▁افسانہ	-7195
▁جمعرات	-7196
▁سمرقند	-7197
▁مستحسن	-7198
▁موبائل	-7199
▁کائنات	-7200
▁نامعلوم	-7201
▁کیتھولک	-7202
َر	-7203
راں	-7204
کمۂ	-7205
▁اغ	-7206
▁وآ	-7207
کشاں	-7208
۰۰۹۱	-7209
▁ثقہ	-7210
▁زون	-7211
▁سہل	-7212
▁مکر	-7213
وسافٹ	-7214
▁سکا۔	-7215
▁قبلہ	-7216
▁مقبو	-7217
▁ٹاور	-7218
▁اداری	-7219
▁ستارہ	-7220
▁ہے۔۴۳	-7221
▁دشمنوں	-7222
▁مساوات	-7223
▁کہکشاں	-7224
▁اینڈرسن	-7225
َہ	-7226
ِس	-7227
ائڈ	-7228
فال	-7229
ناک	-7230
۳۲۰۴	-7231
▁درح	-7232
▁نوا	-7233
▁۹۴۵	-7234
▁ادرا	-7235
▁شاکس	-7236
▁یارک	-7237
▁۰۲۹۱	-7238
۹۱۵۵۷۵	-7239
▁دماغی	-7240
▁فرعون	-7241
▁۵۳۹۱ء	-7242
▁عمارات	-7243
▁لکھاری	-7244
▁کھیلتا	-7245
▁کرداروں	-7246
زلز	-7247
طیل	-7248
ٹرا	-7249
پیر	-7250
▁سز	-7251
اہری	-7252
وبکر	-7253
۰۰۷۱	-7254
▁فوق	-7255
▁نجد	-7256
▁وتر	-7257
▁۷۴۶	-7258
▁تامل	-7259
▁زیور	-7260
▁موتی	-7261
▁۲۱۱۱	-7262
▁کیرول	-7263
▁کیمرا	-7264
▁ہوتی۔	-7265
▁ایوانو	-7266
▁بحیثیت	-7267
▁سمجھنے	-7268
▁سوشلسٹ	-7269
▁شہزادہ	-7270
▁اقدامات	-7271
▁پیدائشی	-7272
ائف	-7273
بیب	-7274
ریو	-7275
کبر	-7276
عقوب	-7277
▁الأ	-7278
▁داغ	-7279
▁دوک	-7280
انیاں	-7281
تقویم	-7282
ولوجی	-7283
▁۶۰۷۸	-7284
▁آشوری	-7285
▁داخلی	-7286
▁داروں	-7287
▁کسنجر	-7288
▁ابوبکر	-7289
▁کلیسیا	-7290
▁ہٹائیں	-7291
▁اچیومنٹ	-7292
▁فنکارانہ	-7293
▁الخوارزمی	-7294
▁▁▁▁▁▁▁▁▁▁▁▁▁	-7295
لار	-7296
▁نر	-7297
▁۵۰	-7298
▁ارم	-7299
▁انض	-7300
▁بزر	-7301
▁لیس	-7302
▁ہمت	-7303
بیریا	-7304
▁آفٹر	-7305
▁خوبی	-7306
▁درخت	-7307
▁ریڈی	-7308
▁سروے	-7309
▁۲یکم	-7310
▁آئیں۔	-7311
▁اضافے	-7312
▁برہمن	-7313
▁سینیٹ	-7314
▁پناہی	-7315
▁کیا۔۳	-7316
▁النہرین	-7317
▁دہائیوں	-7318
▁موجودگی	-7319
نش	-7320
۴۷	-7321
ٹین	-7322
ائیس	-7323
گوکو	-7324
یندر	-7325
▁جمی	-7326
▁کپل	-7327
▁بنتی	-7328
▁صوتی	-7329
▁عینی	-7330
▁فلاح	-7331
▁وآلہ	-7332
▁گریٹ	-7333
▁۳۷۹۱	-7334
ولپنڈی	-7335
▁برعکس	-7336
▁دسواں	-7337
▁مرتکز	-7338
▁وکٹوں	-7339
▁۳۲۹۱ء	-7340
▁۹۱۹۱ء	-7341
▁دانشور	-7342
▁سلطنتوں	-7343
▁کمپنیوں	-7344
مق	-7345
انز	-7346
چین	-7347
یٹڈ	-7348
۰۰۳۱	-7349
▁جیو	-7350
▁بحرہ	-7351
▁جلوس	-7352
▁کامن	-7353
▁کی۔۴	-7354
▁یانگ	-7355
▁اٹھنا	-7356
▁بتائے	-7357
▁سیریل	-7358
▁مساجد	-7359
▁۶۷۱۶۹	-7360
▁خراسان	-7361
▁ساحلوں	-7362
▁مصطفیٰ	-7363
▁نمیبیا	-7364
▁تفصیلات	-7365
▁انتیسواں	-7366
َی	-7367
اوی	-7368
تاب	-7369
شام	-7370
چیم	-7371
▁ثو	-7372
▁خم	-7373
کشمن	-7374
▁بیو	-7375
▁کیٹ	-7376
▁اعتد	-7377
▁بحال	-7378
▁دارت	-7379
▁سپاہ	-7380
▁علمِ	-7381
▁ملوث	-7382
▁میڈل	-7383
▁اوورز	-7384
▁تہران	-7385
▁میٹرو	-7386
▁الزبتھ	-7387
▁ناقابل	-7388
▁بتیسواں	-7389
▁کیمونٹی	-7390
▁گیا۔اور	-7391
جاں	-7392
صول	-7393
▁وک	-7394
خلاف	-7395
روسی	-7396
لالی	-7397
لیقی	-7398
محمد	-7399
وریز	-7400
▁بہا	-7401
▁میخ	-7402
▁پلا	-7403
▁کرس	-7404
▁ہٹا	-7405
▁ہے۱	-7406
افاتی	-7407
▁ائیر	-7408
▁حارث	-7409
▁خالی	-7410
▁کیلی	-7411
▁ہیں۱	-7412
▁۳۸۹۱	-7413
کتابیں	-7414
▁ترکیہ	-7415
▁تعطیل	-7416
▁۶۹۸۱ء	-7417
▁تخلیقی	-7418
▁مستانی	-7419
▁آنیوالے	-7420
▁دیکھیں۔	-7421
▁مضافاتی	-7422
ازن	-7423
ائیت	-7424
حکمۂ	-7425
ریدی	-7426
صفیہ	-7427
ماڑہ	-7428
▁جدہ	-7429
▁رئے	-7430
▁مچھ	-7431
▁میس	-7432
▁کمب	-7433
▁ھفت	-7434
▁۴۰۹	-7435
زلزلہ	-7436
نقصان	-7437
▁استف	-7438
▁بندہ	-7439
▁جلتے	-7440
▁سفری	-7441
▁ماڑہ	-7442
▁گذرا	-7443
یاتھا۔	-7444
▁ایکسپ	-7445
▁تفسیر	-7446
▁تھا۔۴	-7447
▁جھلتا	-7448
▁خلدون	-7449
▁سیبھی	-7450
▁شاہجہ	-7451
▁علیکم	-7452
چیمحکمۂ	-7453
▁اسٹولا	-7454
▁بغدادی	-7455
▁دیا۔آن	-7456
▁لہریوں	-7457
▁منجانب	-7458
▁منصوبۂ	-7459
▁ھفتلار	-7460
▁اورماڑہ	-7461
▁درحقیقت	-7462
▁گئی۔اور	-7463
▁۵۴۹۱میں	-7464
▁افرادجاں	-7465
▁دارتصفیہ	-7466
▁شدیدزلزلہ	-7467
▁شدیدنقصان	-7468
▁چائیے۔ایک	-7469
▁سانچہتقویم	-7470
▁کار۔کتابیں	-7471
▁کراچیمحکمۂ	-7472
▁پہنچایاتھا۔	-7473
۱۵	-7474
الس	-7475
انڈ	-7476
جسے	-7477
راق	-7478
سٹنٹ	-7479
مسلم	-7480
ودرا	-7481
ائیکی	-7482
▁امجد	-7483
▁امرت	-7484
▁مریم	-7485
▁مواز	-7486
▁نفیس	-7487
▁پریس	-7488
▁چاہے	-7489
▁چلات	-7490
▁اشتقا	-7491
▁دلانے	-7492
▁پریمی	-7493
▁غلاموں	-7494
▁مزاحیہ	-7495
▁پہاڑوں	-7496
▁تعمیرات	-7497
▁قازقستان	-7498
وئے	-7499
گوں	-7500
▁بق	-7501
▁شے	-7502
ائنا	-7503
انچا	-7504
▁تسو	-7505
▁پدم	-7506
▁ہیو	-7507
▁بروز	-7508
▁معطل	-7509
▁کورس	-7510
▁۵۷۹۱	-7511
▁۷۲۹۱	-7512
▁ارادہ	-7513
▁الاسد	-7514
▁حادثے	-7515
▁خاموش	-7516
▁مسئلے	-7517
▁نسواں	-7518
▁پرواز	-7519
▁۷۵۹۱ء	-7520
▁ترجمان	-7521
▁ناولوں	-7522
▁پریمیئر	-7523
نم	-7524
برا	-7525
جنگ	-7526
عبد	-7527
یٹک	-7528
▁نن	-7529
وسیع	-7530
۰۰۴۱	-7531
۰۰۸۱	-7532
▁آبی	-7533
▁برک	-7534
▁رون	-7535
▁مُت	-7536
▁مڈل	-7537
▁وزن	-7538
معاون	-7539
یکواڈ	-7540
▁اصلی	-7541
▁بردی	-7542
▁برون	-7543
▁خانۂ	-7544
▁سونے	-7545
▁مجید	-7546
▁محاذ	-7547
▁میجر	-7548
▁نگیں	-7549
▁چلتا	-7550
▁کوفی	-7551
▁بحران	-7552
▁۱۹۷۶۳	-7553
▁القاسم	-7554
▁ایوانِ	-7555
▁فلسفیا	-7556
▁عالمگیر	-7557
▁کتابچوں	-7558
▁کہانیاں	-7559
▁ایگزیکٹو	-7560
بات	-7561
باز	-7562
جلس	-7563
ملکت	-7564
منڈو	-7565
۰۰۵۱	-7566
▁دوڑ	-7567
▁لوٹ	-7568
▁واس	-7569
▁ڈیپ	-7570
وینیا	-7571
پولین	-7572
▁سکی۔	-7573
▁لیون	-7574
▁موثر	-7575
▁نکلا	-7576
▁ورثہ	-7577
▁کلمہ	-7578
▁کوچک	-7579
▁۰۰۸۴	-7580
▁اضافی	-7581
▁بردار	-7582
▁مُتناسق	-7583
▁اشتقاقات	-7584
شاد	-7585
نٰی	-7586
ڈین	-7587
▁سچ	-7588
▁فت	-7589
لیتی	-7590
▁نیش	-7591
▁پوٹ	-7592
▁اینگ	-7593
▁تصوف	-7594
▁سادہ	-7595
▁اشکال	-7596
▁سزائے	-7597
▁محافظ	-7598
▁پرائم	-7599
▁الاکبر	-7600
▁الصوفی	-7601
▁تنوعات	-7602
▁وڈودرا	-7603
▁الاسلام	-7604
▁بلغاریہ	-7605
▁ساتھیوں	-7606
▁خریداروں	-7607
▁ولادیمیر	-7608
نیس	-7609
▁چک	-7610
ائیہ	-7611
ماری	-7612
نایا	-7613
یکشن	-7614
▁جرن	-7615
▁شاد	-7616
▁۔۲۱	-7617
▁۱۷۶	-7618
▁اصفہ	-7619
▁راوی	-7620
▁ناطے	-7621
▁ہمزہ	-7622
▁یمنی	-7623
▁۱۶۹۱	-7624
▁جانتا	-7625
▁فاصلے	-7626
▁مرجعی	-7627
▁نقلیں	-7628
▁کوشاں	-7629
▁ارتکاز	-7630
▁سلطانی	-7631
▁میونسپل	-7632
▁ایکسپریس	-7633
سلز	-7634
صدر	-7635
قیع	-7636
▁حفظ	-7637
▁روب	-7638
▁لڑک	-7639
تایوا	-7640
مملکت	-7641
▁لمبا	-7642
▁محکم	-7643
▁نجوم	-7644
▁پوتے	-7645
▁چائے	-7646
▁۶۷۹۱	-7647
▁اسٹور	-7648
▁برسلز	-7649
▁جرائم	-7650
▁سومرو	-7651
▁صحابہ	-7652
▁عبادت	-7653
▁مدفون	-7654
▁یعقوب	-7655
▁تیموری	-7656
▁مارینا	-7657
▁نسبتاً	-7658
▁پالیول	-7659
▁وابستگی	-7660
▁تسوتایوا	-7661
▁ڈپارٹمنٹ	-7662
▁ایوانوونا	-7663
نسٹ	-7664
یئے	-7665
۵۳۱	-7666
▁صل	-7667
▁فا	-7668
▁مغ	-7669
▁۴۰	-7670
اللہ	-7671
رمزی	-7672
ورتی	-7673
یدیا	-7674
▁فام	-7675
▁موہ	-7676
▁ناد	-7677
▁ویر	-7678
▁الحا	-7679
▁امین	-7680
▁راشد	-7681
▁سنٹر	-7682
▁لڑنے	-7683
▁مانی	-7684
▁مجسم	-7685
▁ڈائن	-7686
▁گیری	-7687
▁رسالہ	-7688
▁یحییٰ	-7689
▁اللّٰہ	-7690
▁المعظم	-7691
▁بالائی	-7692
▁راولپنڈی	-7693
طب	-7694
رمہ	-7695
فتے	-7696
۳۲۶	-7697
۹۲۶	-7698
▁بز	-7699
▁حم	-7700
تریا	-7701
▁اعل	-7702
▁جاد	-7703
▁سوئ	-7704
▁سیٹ	-7705
▁موڑ	-7706
▁نیت	-7707
▁ہما	-7708
ائیں۔	-7709
▁تاثر	-7710
▁شہاب	-7711
▁عبید	-7712
▁گھرا	-7713
▁ماننے	-7714
▁مشابہ	-7715
▁کریول	-7716
▁کھانے	-7717
▁۵۰۹۱ء	-7718
▁سانچوں	-7719
▁نپولین	-7720
▁کولمبیا	-7721
▁خاندانوں	-7722
جاج	-7723
ھائی	-7724
▁حلب	-7725
▁ریز	-7726
▁شمس	-7727
▁فیر	-7728
▁مرث	-7729
▁آگرہ	-7730
▁انوش	-7731
▁نذیر	-7732
▁کرسٹ	-7733
▁کروش	-7734
▁گہری	-7735
▁بحیرۂ	-7736
▁بیرون	-7737
▁عقیدہ	-7738
▁قیمتی	-7739
▁مستند	-7740
▁مصوری	-7741
▁چلانے	-7742
▁کرتے۔	-7743
▁کلمات	-7744
▁اقلیتی	-7745
▁دریاؤں	-7746
▁شہزادی	-7747
▁عباسیہ	-7748
▁یانگون	-7749
▁۰۷۴۵۸۱	-7750
▁مہاجرین	-7751
▁صلاحیتوں	-7752
شہ	-7753
کنی	-7754
ندوں	-7755
کھنڈ	-7756
▁زنج	-7757
▁چوک	-7758
▁۲۲۲	-7759
▁بولے	-7760
▁سبھی	-7761
▁میسر	-7762
▁جگہوں	-7763
▁ذہنیت	-7764
▁ضابطہ	-7765
▁فلسفے	-7766
▁فیضان	-7767
▁نکلتی	-7768
▁ہے۔اس	-7769
▁ہمالیہ	-7770
▁فیڈریشن	-7771
▁صدرالدین	-7772
▁قبلہلالی	-7773
َد	-7774
سیٹ	-7775
ڈرا	-7776
یبی	-7777
نوبل	-7778
ینور	-7779
▁خطِ	-7780
▁مرگ	-7781
▁واد	-7782
ارٹری	-7783
▁القر	-7784
▁بیٹھ	-7785
▁جاوا	-7786
▁سفیر	-7787
▁ہفتے	-7788
▁۹۲۹۱	-7789
▁اجازہ	-7790
▁حضرات	-7791
▁ہیرلڈ	-7792
▁۴۴۸۱ء	-7793
▁بھیجنے	-7794
▁زیورات	-7795
▁القاعدہ	-7796
▁لیبارٹری	-7797
ِک	-7798
چک	-7799
▁ِ	-7800
▁چم	-7801
احلی	-7802
پوری	-7803
▁دلت	-7804
▁سار	-7805
▁کرن	-7806
ہیپلو	-7807
▁آرمی	-7808
▁اگلی	-7809
▁حریف	-7810
▁راجو	-7811
▁نچلے	-7812
▁یروش	-7813
▁ادنٰی	-7814
▁سپریم	-7815
▁مطالب	-7816
▁چانسل	-7817
▁ڈویلپ	-7818
▁آئیووا	-7819
▁رضاکار	-7820
▁سواحلی	-7821
▁یکرمزی	-7822
▁آئبیریا	-7823
▁منگولیا	-7824
عم	-7825
ؤنث	-7826
وٹی	-7827
۰۵۳	-7828
۶۱۴	-7829
▁لم	-7830
یسٹک	-7831
▁اپر	-7832
▁توڑ	-7833
▁عدن	-7834
▁قرط	-7835
▁مہی	-7836
▁چوپ	-7837
▁۶۶۲	-7838
ادستی	-7839
زویلا	-7840
▁فاون	-7841
▁قلمی	-7842
▁مؤنث	-7843
▁نبوی	-7844
▁۰۶۹۱	-7845
▁۳۹۳۶	-7846
▁اقوال	-7847
▁حجازی	-7848
▁رکھیں	-7849
▁شہریت	-7850
▁مکانی	-7851
▁رفتاری	-7852
▁عورتوں	-7853
▁شاہجہان	-7854
▁پرائمری	-7855
▁ڈومیسٹک	-7856
▁ایرانیکا	-7857
▁بالادستی	-7858
تن	-7859
تِ	-7860
اتل	-7861
گئی	-7862
یرے	-7863
یشی	-7864
یلے	-7865
۲۷۱	-7866
▁الل	-7867
▁رسی	-7868
▁لار	-7869
▁ٹول	-7870
▁ڈیل	-7871
▁اکاد	-7872
▁ایرک	-7873
▁تبتی	-7874
▁رانی	-7875
▁فیفا	-7876
▁مذمت	-7877
▁ملنے	-7878
▁میلے	-7879
▁پالو	-7880
▁پٹیل	-7881
▁۲۹۹۱	-7882
▁اسکاٹ	-7883
▁الہند	-7884
▁بولنگ	-7885
▁دعویٰ	-7886
▁میٹرک	-7887
▁اسکالر	-7888
▁مقتدرہ	-7889
▁وتوسیع	-7890
▁ڈائنام	-7891
▁کہلاتے	-7892
▁نامیاتی	-7893
▁رضاکاروں	-7894
سنس	-7895
۵۶۱	-7896
۸۶۲	-7897
۹۲۲	-7898
مراڈ	-7899
ونیا	-7900
۸۷۹۱	-7901
▁ضیا	-7902
▁کیش	-7903
▁الٰہ	-7904
▁حوقل	-7905
▁رواں	-7906
▁سہیل	-7907
▁مرنے	-7908
▁کنڑا	-7909
▁گرچہ	-7910
▁۴۵۶ء	-7911
ابائیف	-7912
▁الملک	-7913
▁صحارا	-7914
▁فرمان	-7915
▁نواسۂ	-7916
▁۴۹۸۱ء	-7917
▁اینگلو	-7918
▁انسانوں	-7919
▁کارمراڈ	-7920
▁برطانوئی	-7921
▁قربابائیف	-7922
▁َ	-7923
اگر	-7924
علم	-7925
۸۵۲	-7926
▁نح	-7927
▁گڈ	-7928
ابلہ	-7929
وڈیا	-7930
یران	-7931
۲۱۰۲	-7932
▁الد	-7933
▁ورڈ	-7934
▁۰۳۱	-7935
درآمد	-7936
یسوٹا	-7937
▁بینن	-7938
▁جزوی	-7939
▁نوبی	-7940
▁۱۳۶۱ء	-7941
▁استعفی	-7942
▁جسمانی	-7943
▁سلامتی	-7944
▁شاہکار	-7945
▁چانسلر	-7946
▁۳۸۲۸۹۱ء	-7947
▁بالترتیب	-7948
ضے	-7949
۷۳۲	-7950
▁ضد	-7951
وڈرا	-7952
ٹیکل	-7953
یانے	-7954
▁بصر	-7955
▁صبح	-7956
▁عصر	-7957
▁چرا	-7958
▁چکر	-7959
▁یکس	-7960
▁۵۵۵	-7961
معلوم	-7962
▁آیزو	-7963
▁النس	-7964
▁بہاؤ	-7965
▁جلال	-7966
▁جہاد	-7967
▁حبیب	-7968
▁دلکش	-7969
▁عمری	-7970
▁ٹی۰۲	-7971
▁چہار	-7972
▁کورم	-7973
▁۵۸۹۱	-7974
▁۷۰۰۳	-7975
فیلالت	-7976
▁اطفال	-7977
▁دتاجی	-7978
▁لازما	-7979
▁مدھیہ	-7980
▁نواسے	-7981
▁کلیدی	-7982
▁کھلنے	-7983
▁اسکرین	-7984
▁امرتسر	-7985
▁انوشمن	-7986
▁دکھایا	-7987
▁وڈوڈرا	-7988
▁تنزانیہ	-7989
▁بیلاروسی	-7990
▁تافیلالت	-7991
▁کیمیادان	-7992
▁کارپوریشن	-7993
دق	-7994
۳۵	-7995
۹ء	-7996
تار	-7997
وزہ	-7998
▁خد	-7999
کاوٹ	-8000
▁لتا	-8001
▁نوک	-8002
▁ڈرا	-8003
▁سیتا	-8004
▁باؤلر	-8005
▁بھاری	-8006
▁تھا۔۳	-8007
▁عطاری	-8008
▁مدراس	-8009
▁ولایت	-8010
▁ٹیمیں	-8011
▁چوپڑا	-8012
▁گھٹیا	-8013
▁احترام	-8014
▁بلجئیم	-8015
▁گرمیوں	-8016
▁گیکواڈ	-8017
▁کمبوڈیا	-8018
▁جانشینوں	-8019
پو	-8020
خاص	-8021
روق	-8022
نان	-8023
کوٹ	-8024
۶۷۱	-8025
۹۵۵	-8026
صفحہ	-8027
یٹور	-8028
▁برب	-8029
▁شیو	-8030
▁نتن	-8031
▁۵۷۲	-8032
▁الزر	-8033
▁برلن	-8034
▁فیئر	-8035
▁نفرت	-8036
▁۰۰۰۹	-8037
▁۸۷۹۱	-8038
▁تقریر	-8039
▁سنہرے	-8040
▁۶۸۸۱ء	-8041
▁استفادہ	-8042
▁انڈسٹری	-8043
▁ترکستان	-8044
تھر	-8045
نوی	-8046
ریلو	-8047
▁اکس	-8048
▁حرم	-8049
▁شرف	-8050
▁صرد	-8051
▁پاگ	-8052
▁پٹی	-8053
▁الاٹ	-8054
▁بتوں	-8055
▁متنی	-8056
▁مدرس	-8057
▁نبھا	-8058
▁نصیب	-8059
▁نوحہ	-8060
▁کھول	-8061
▁گذرے	-8062
زاداری	-8063
▁اسٹوڈ	-8064
▁امراض	-8065
▁ورانہ	-8066
▁کرغیز	-8067
▁۶۰۹۱ء	-8068
معلومات	-8069
▁آپریشن	-8070
▁اکادمی	-8071
▁معصومیت	-8072
تق	-8073
شپ	-8074
جوں	-8075
جین	-8076
عات	-8077
ووچ	-8078
۷۸۱	-8079
فیوں	-8080
وٹان	-8081
▁اید	-8082
▁تسم	-8083
▁غزہ	-8084
▁پُر	-8085
▁پیا	-8086
▁۷۹۲	-8087
زیریہ	-8088
زیریۃ	-8089
▁ثالث	-8090
▁جیتی	-8091
▁حوال	-8092
▁دباؤ	-8093
▁زروق	-8094
▁سورۃ	-8095
▁مہیا	-8096
▁پچیس	-8097
▁۶۸۶۱	-8098
لیپینو	-8099
▁افسان	-8100
▁برادی	-8101
▁حلقوں	-8102
▁رابطۂ	-8103
▁صلیبی	-8104
▁فاروق	-8105
▁۳۴۹۱ء	-8106
▁اصفہان	-8107
▁انصاری	-8108
▁انضمام	-8109
▁انڈریو	-8110
▁داستان	-8111
▁دزیریہ	-8112
▁دزیریۃ	-8113
▁ساتواں	-8114
▁صحرائے	-8115
▁فلسفہِ	-8116
▁نوازا۔	-8117
▁انڈیانا	-8118
▁عزاداری	-8119
▁مینیسوٹا	-8120
صری	-8121
عین	-8122
▁فق	-8123
▁قی	-8124
▁مھ	-8125
▁کع	-8126
ولوج	-8127
▁حمد	-8128
▁ساہ	-8129
▁نعت	-8130
▁چڑھ	-8131
▁ہٹل	-8132
▁یاک	-8133
وانیا	-8134
۶۰۰۲ء	-8135
▁الجم	-8136
▁انھی	-8137
▁خوشی	-8138
▁رسوخ	-8139
▁ستون	-8140
▁ٹائٹ	-8141
▁پائل	-8142
▁گنگا	-8143
اکیتیس	-8144
▁الزرق	-8145
▁تحقیر	-8146
▁رکاوٹ	-8147
▁سیکھا	-8148
▁مبارک	-8149
▁بیسواں	-8150
▁سفارتی	-8151
▁پرنسپل	-8152
▁▁▁▁▁▁▁	-8153
▁افسانوں	-8154
▁رہنماؤں	-8155
▁بندرگاہوں	-8156
▁ڈائنامائٹ	-8157
▁یہودمغربی	-8158
▁کورماکیتیس	-8159
ینٹ	-8160
▁چٹ	-8161
ٹورل	-8162
▁اصو	-8163
▁خشک	-8164
▁رائ	-8165
▁سوک	-8166
▁سیف	-8167
▁عین	-8168
▁پیج	-8169
▁۱۸۵	-8170
▁آسام	-8171
▁بابا	-8172
▁بنگل	-8173
▁جلیل	-8174
▁جنگل	-8175
▁سترہ	-8176
▁صفوی	-8177
▁مجمع	-8178
▁نواں	-8179
▁ٹھیک	-8180
▁کرشن	-8181
▁گزین	-8182
یشیائی	-8183
▁عالیہ	-8184
▁لگائے	-8185
▁مرحلے	-8186
▁مہیّا	-8187
▁البقیع	-8188
▁سرخیوں	-8189
▁آئرستانی	-8190
زے	-8191
ّہ	-8192
پہر	-8193
گرا	-8194
۳۸۱	-8195
▁۸۰	-8196
تانا	-8197
فسار	-8198
ڈونگ	-8199
▁سے۔	-8200
▁صنف	-8201
▁۰۸۴	-8202
▁۲۶۲	-8203
▁۸۸۲	-8204
تقریب	-8205
قابلہ	-8206
▁روبی	-8207
▁طبقے	-8208
▁طلال	-8209
▁غفور	-8210
▁لفظی	-8211
▁لمبے	-8212
▁ملحق	-8213
▁منقو	-8214
▁کوسٹ	-8215
▁۸۹۹۱	-8216
▁الحاق	-8217
▁ایوبی	-8218
▁تبصرے	-8219
▁دوپہر	-8220
▁شکلیں	-8221
▁مجالس	-8222
▁موسمی	-8223
▁پایا۔	-8224
▁پرائز	-8225
▁چالیس	-8226
▁چنگیز	-8227
▁ڈیموک	-8228
▁باؤلنگ	-8229
▁روزگار	-8230
▁ماسویہ	-8231
▁کالونی	-8232
▁۷۲۸۲۱۲	-8233
▁استفسار	-8234
▁افریقیہ	-8235
▁حکمران۔	-8236
▁الیکٹورل	-8237
▁استونیائی	-8238
لت	-8239
۱۴	-8240
انو	-8241
ذکر	-8242
وند	-8243
حبیب	-8244
رفیس	-8245
▁بیچ	-8246
▁تھر	-8247
▁فصل	-8248
▁۰۲۱	-8249
▁جیتے	-8250
▁نقشہ	-8251
▁واقف	-8252
▁ہفتہ	-8253
▁۰۳۹۱	-8254
روایتی	-8255
▁اسلحہ	-8256
▁بڑودہ	-8257
▁سسیکس	-8258
▁قادری	-8259
▁نارتھ	-8260
▁وفات۔	-8261
▁ہیں۔۴	-8262
▁۶۲۹۱ء	-8263
▁الویکی	-8264
▁سرخیاں	-8265
▁منتخب۔	-8266
▁ڈکشنری	-8267
▁یروشلم	-8268
▁برہمنوں	-8269
▁برادریاں	-8270
اث	-8271
▁؟	-8272
تھک	-8273
جاپ	-8274
راط	-8275
قبل	-8276
۶۲۳	-8277
▁حے	-8278
▁لب	-8279
▁کُ	-8280
▁انچ	-8281
▁تلی	-8282
▁ریپ	-8283
▁زیج	-8284
▁قوس	-8285
▁مشن	-8286
▁کاٹ	-8287
کنازی	-8288
۸۹۷۸۸	-8289
▁حقیر	-8290
▁رحمت	-8291
▁سوفٹ	-8292
▁لباس	-8293
▁منصب	-8294
▁وائس	-8295
▁کاست	-8296
▁کہاں	-8297
▁ترجمے	-8298
▁مرثیے	-8299
▁ٹائمز	-8300
▁پسندی	-8301
▁ہرچند	-8302
▁یاکوب	-8303
▁۷۲۹۱ء	-8304
▁۸۷۸۱ء	-8305
بارہویں	-8306
▁الرحیم	-8307
▁تارکین	-8308
▁ملتانی	-8309
▁موازنہ	-8310
▁چودھری	-8311
▁جغرافیہ	-8312
▁سکریٹری	-8313
▁فلیپینو	-8314
▁مصنوعات	-8315
▁یونیسکو	-8316
ّر	-8317
۳۰	-8318
تری	-8319
چلم	-8320
▁۔۱	-8321
۸۵۸۹	-8322
▁برف	-8323
▁ذوق	-8324
▁ناگ	-8325
کلینڈ	-8326
گزیدہ	-8327
▁اسود	-8328
▁بھال	-8329
▁حدود	-8330
▁خلجی	-8331
▁عماد	-8332
▁فارن	-8333
▁ٹائپ	-8334
▁پریش	-8335
▁کابل	-8336
▁کوفہ	-8337
بھارتی	-8338
▁ادرای	-8339
▁بناتے	-8340
▁سلمان	-8341
▁وترقی	-8342
▁برعظیم	-8343
▁۰۰۰۰۰۰۱	-8344
خو	-8345
سٹھ	-8346
مدی	-8347
َّہ	-8348
یٹن	-8349
ریٹک	-8350
وسٹر	-8351
▁جوش	-8352
▁لتھ	-8353
▁چوب	-8354
طانیہ	-8355
یکیوٹ	-8356
▁بچہ۔	-8357
▁تالک	-8358
▁تبلی	-8359
▁فائر	-8360
▁ماری	-8361
▁ہیلی	-8362
▁۳۶۹ء	-8363
▁۸۸۹۱	-8364
▁ادارت	-8365
▁بخاری	-8366
▁رسانی	-8367
▁سپاہی	-8368
▁میلان	-8369
▁ناپید	-8370
▁نظامِ	-8371
▁کیوری	-8372
▁۰۱۹۱ء	-8373
تقریباً	-8374
▁بحرینی	-8375
▁مائیکل	-8376
▁پہلوؤں	-8377
▁انٹرفیس	-8378
▁یونیورسٹیوں	-8379
ذر	-8380
۔ا	-8381
▁رع	-8382
امکن	-8383
۴۶۶۱	-8384
▁بلی	-8385
▁حاے	-8386
▁روی	-8387
▁سبک	-8388
▁سپہ	-8389
▁عزت	-8390
▁وید	-8391
▁پیک	-8392
▁چلم	-8393
▁کلی	-8394
▁۹۰۱	-8395
راچلم	-8396
فارسی	-8397
لکشمن	-8398
یتانا	-8399
▁آرام	-8400
▁الشی	-8401
▁بھری	-8402
▁حائے	-8403
▁سسسر	-8404
▁لیتا	-8405
▁کاوی	-8406
▁گاڑی	-8407
▁۶۶۲۹	-8408
▁۷۶۹۱	-8409
امکنڈا	-8410
کوفسکی	-8411
▁اکانہ	-8412
▁بھڈرا	-8413
▁تائید	-8414
▁تلنگا	-8415
▁تلیگو	-8416
▁دیوتا	-8417
▁متزاد	-8418
▁نوامی	-8419
▁چلائے	-8420
▁برخلاف	-8421
▁برداشت	-8422
▁بنگلور	-8423
▁تاثرات	-8424
▁جنرلوں	-8425
▁خصوصیت	-8426
▁رکھتے۔	-8427
▁معماری	-8428
▁منقوطہ	-8429
▁نفسیات	-8430
▁یکسانی	-8431
▁۲۷۶۱سے	-8432
▁اسکینڈل	-8433
▁افتتاحی	-8434
▁بدراچلم	-8435
▁بمقابلہ	-8436
▁سالماتی	-8437
▁شاہتانا	-8438
▁اعتدالین	-8439
▁بیٹیتانا	-8440
▁پالوانچا	-8441
▁پروفیشنل	-8442
▁ہانامکنڈا	-8443
▁ویکیپیڈیاوں	-8444
جل	-8445
ٹز	-8446
ئیل	-8447
ارن	-8448
بیہ	-8449
ریز	-8450
۸۶۶	-8451
شرقی	-8452
ورجب	-8453
ٹریٹ	-8454
▁تری	-8455
▁پود	-8456
شاہدق	-8457
▁آپسی	-8458
▁ازیں	-8459
▁بارک	-8460
▁بینی	-8461
▁خامی	-8462
▁سوشل	-8463
▁سونا	-8464
▁قاتل	-8465
▁قلیل	-8466
▁منشی	-8467
▁کمیٹ	-8468
▁باللہ	-8469
▁خوراک	-8470
▁سرورز	-8471
▁سوساں	-8472
▁شناسی	-8473
▁میڈیم	-8474
▁نظریۂ	-8475
▁پائلٹ	-8476
▁گنجان	-8477
▁۴۸۸۱ء	-8478
▁ابورجب	-8479
▁مائیکر	-8480
▁میڈیسن	-8481
▁پتھروں	-8482
▁پیچیدہ	-8483
▁انیسواں	-8484
▁کیاکوئی	-8485
شاہدقادری	-8486
▁فاونڈیشن	-8487
▁محمدشاہدقادری	-8488
۳۴	-8489
نون	-8490
۸۴۳	-8491
▁آک	-8492
مارچ	-8493
▁تنگ	-8494
▁جبر	-8495
▁لوہ	-8496
▁لیہ	-8497
▁۴۹۹	-8498
▁۸۰۱	-8499
گرانی	-8500
▁شجاع	-8501
▁۱۷۹۱	-8502
▁اسٹاک	-8503
▁لکھے۔	-8504
▁ملانے	-8505
▁گڈکری	-8506
▁۰۰۰۸۱	-8507
▁بلغاری	-8508
▁بیانات	-8509
▁غریبوں	-8510
▁اقلیتوں	-8511
▁کرویئشا	-8512
▁سنبھالا۔	-8513
یی	-8514
ئنز	-8515
شیر	-8516
یسہ	-8517
▁دُ	-8518
▁شن	-8519
▁مِ	-8520
ائنز	-8521
۳۲۶۱	-8522
▁بست	-8523
▁فلا	-8524
▁ماڈ	-8525
▁وسی	-8526
▁ڈیس	-8527
▁ہمہ	-8528
▁جوڑے	-8529
▁حلقے	-8530
▁ساجد	-8531
▁شعاع	-8532
▁نائٹ	-8533
▁چرچل	-8534
▁۷۴۹۱	-8535
▁بناتی	-8536
▁بھیجا	-8537
▁ترغیب	-8538
▁ترکوں	-8539
▁دلائل	-8540
▁رجحان	-8541
▁فاطمہ	-8542
ابتدائی	-8543
▁جونیئر	-8544
▁لائسنس	-8545
▁مذکورہ	-8546
▁چوہدری	-8547
▁ویکیپیڈ	-8548
▁ویکپیڈیا	-8549
۔۱	-8550
ویر	-8551
ہای	-8552
ینت	-8553
۸۹ء	-8554
▁سد	-8555
▁عس	-8556
یموو	-8557
۔۔۔۔	-8558
▁آغا	-8559
▁طوف	-8560
▁چتر	-8561
▁کیو	-8562
▁۲۵۱	-8563
▁۸۶۳	-8564
▁آمیز	-8565
▁برمن	-8566
▁بیچل	-8567
▁توقع	-8568
▁شجرہ	-8569
▁فریق	-8570
▁لانے	-8571
▁مایہ	-8572
▁۳۳۹۱	-8573
یٹوریم	-8574
▁ثوابت	-8575
▁ذخیرۂ	-8576
▁راجپر	-8577
▁معمار	-8578
▁۶۴۴۱ھ	-8579
▁حوالوں	-8580
▁لازماً	-8581
▁دورانیہ	-8582
▁آڈیٹوریم	-8583
▁سانچہابتدائی	-8584
ٰذا	-8585
یٹس	-8586
۶۸۹	-8587
۹۸۳	-8588
بانی	-8589
یالی	-8590
۰۵۸۱	-8591
▁بلق	-8592
▁خلف	-8593
▁شین	-8594
▁لاس	-8595
▁گار	-8596
▁گوا	-8597
▁۶۱۷	-8598
▁۷۶۱	-8599
سیاست	-8600
▁باری	-8601
▁حکام	-8602
▁شعار	-8603
▁مشیر	-8604
▁نشاط	-8605
▁نقاب	-8606
▁پولس	-8607
▁گنبد	-8608
▁یاسر	-8609
▁۶۶۰۲	-8610
▁قدیمہ	-8611
▁پرساد	-8612
▁۰۰۰۰۲	-8613
▁۵۱۹۱ء	-8614
▁۵۵۵۸۱	-8615
▁اسکرپٹ	-8616
▁تعینات	-8617
▁سولنگی	-8618
▁پہنچے۔	-8619
▁کیٹلاگ	-8620
▁گھریلو	-8621
▁برگزیدہ	-8622
▁درمیانے	-8623
▁کنگرانی	-8624
۲۶	-8625
ئرزم	-8626
وبدل	-8627
ونیہ	-8628
▁تدو	-8629
▁جشن	-8630
▁حلف	-8631
▁زیچ	-8632
▁سوز	-8633
▁لیج	-8634
▁۵۴۰	-8635
▁ائنڈ	-8636
▁اڈیا	-8637
▁فکری	-8638
▁نونِ	-8639
▁یتیم	-8640
▁۰۴۴۶	-8641
▁اویئر	-8642
▁جامڑو	-8643
▁جمشید	-8644
▁سہکار	-8645
▁متوجہ	-8646
▁معالج	-8647
▁موریت	-8648
▁مھتاب	-8649
▁وقتاً	-8650
▁چہارم	-8651
▁۳۰۹۱ء	-8652
▁۳۵۰۷۱	-8653
▁۴۹۹۶۱	-8654
یکیوٹیز	-8655
▁اسٹالن	-8656
▁صارف۰۳	-8657
▁فوقتاً	-8658
▁مزاحمت	-8659
▁مہمانّ	-8660
▁وکشنری	-8661
▁ٹوئرزم	-8662
▁یہوداہ	-8663
▁۱۸۵۸۶۲	-8664
▁ایجادات	-8665
▁جماعتیں	-8666
▁میناروں	-8667
▁گیا۔۴۳۲	-8668
▁اویئرنیس	-8669
▁ماحولیات	-8670
▁مارچ۶۰۰۲ء	-8671
▁ویکیپیڈئن	-8672
▁اینٹیکیوٹیز	-8673
امر	-8674
جیم	-8675
ورٹ	-8676
وسط	-8677
ائنٹ	-8678
مضان	-8679
وائی	-8680
والی	-8681
۸۰۹۲	-8682
▁دقی	-8683
▁پرا	-8684
▁۵۰۶	-8685
بیروت	-8686
۰۵۵۷۵	-8687
▁آفاق	-8688
▁ابرا	-8689
▁اکرم	-8690
▁سیکس	-8691
▁لاؤس	-8692
▁انٹرو	-8693
▁دھماک	-8694
▁رمضان	-8695
▁روانہ	-8696
▁فرمال	-8697
▁لاگلن	-8698
▁پاموک	-8699
▁ادیبوں	-8700
▁ردوبدل	-8701
▁علاقے۔	-8702
▁استعداد	-8703
▁استعفیٰ	-8704
▁ایسیموو	-8705
▁۴۲۰۲ایک	-8706
▁بربرستان	-8707
▁موریتانیا	-8708
۳ھ	-8709
جری	-8710
غیہ	-8711
۷۵۱	-8712
۹۸۷	-8713
اریب	-8714
جانی	-8715
▁آرک	-8716
▁فاش	-8717
▁چوڑ	-8718
▁ہنر	-8719
▁بابل	-8720
▁بریک	-8721
▁بیڈو	-8722
▁تمغہ	-8723
▁طارق	-8724
▁یافت	-8725
بنگالی	-8726
▁صدیقی	-8727
▁متراد	-8728
▁کارٹر	-8729
▁ہے۔۰۱	-8730
درخواست	-8731
▁تقاریب	-8732
▁شروعات	-8733
▁پہچانے	-8734
▁ہوڈونگ	-8735
▁۰۰۰۸۰۹۲	-8736
▁۰۰۰۸۱۴۱	-8737
▁۰۰۰۹۰۵۳	-8738
▁۰۴۴۶۶۲۱	-8739
▁آبادیاتی	-8740
▁کمیونیٹی	-8741
وشت	-8742
ِیَ	-8743
ٹون	-8744
السٹ	-8745
▁اکٹ	-8746
▁ساد	-8747
▁ٹوی	-8748
▁چیت	-8749
▁گون	-8750
▁گیم	-8751
ولائی	-8752
ولیات	-8753
۶۴۸۵۲	-8754
۹۰۰۲ء	-8755
▁جلدی	-8756
▁زریہ	-8757
▁شکیل	-8758
▁ظہیر	-8759
▁لمبی	-8760
▁مساب	-8761
▁کمشن	-8762
▁ہلکا	-8763
▁ہوا۶	-8764
▁یونٹ	-8765
▁۰۶۸۵	-8766
▁۵۷۳۱	-8767
▁۷۸۹۱	-8768
بودہای	-8769
▁بیمار	-8770
▁درواز	-8771
▁ماؤنٹ	-8772
▁کاروں	-8773
▁کرنا۔	-8774
▁کمرشل	-8775
▁ہاشمی	-8776
▁۰۰۰۸۴	-8777
▁۱۵۰۸۱	-8778
▁۱۶۸۱ء	-8779
▁۵۲۹۱ء	-8780
▁۶۱۷۶۳	-8781
▁بھوٹان	-8782
▁جہازوں	-8783
▁شہریوں	-8784
▁فضائیہ	-8785
▁کھیلتی	-8786
▁۳۰۱۸۶۶	-8787
▁یافتگان	-8788
▁۸۱۶۴۸۵۲	-8789
▁۹۴۵۸۷۹۱	-8790
ساں	-8791
گول	-8792
یاہ	-8793
وسلا	-8794
۰۰۵۲	-8795
۰۳۳۴	-8796
▁بسر	-8797
▁گھا	-8798
▁ہرم	-8799
▁۴۸۴	-8800
جینیا	-8801
۷۰۱۶۲	-8802
۹۲۲۳۱	-8803
▁آپنی	-8804
▁افرو	-8805
▁فرقہ	-8806
▁ناظم	-8807
▁کاٹھ	-8808
▁یونس	-8809
▁۷۶۶۱	-8810
یونانی	-8811
▁انگیز	-8812
▁ایجوک	-8813
▁تلوار	-8814
▁فیصلے	-8815
▁مناظر	-8816
▁ورکنگ	-8817
▁ہے۔۳۲	-8818
▁۲۲۲۰۶	-8819
▁۸۵۹۵۵	-8820
السٹائی	-8821
▁بانیوں	-8822
▁تدوینی	-8823
▁۰۵۰۳۳۴	-8824
▁۵۷۲۹۲۶	-8825
▁اشکنازی	-8826
▁مستعربی	-8827
▁۲۳۷۰۱۶۲	-8828
▁۶۳۹۲۲۳۱	-8829
▁اختراعات	-8830
▁الزرقالی	-8831
▁انکارپور	-8832
▁خوبصورتی	-8833
▁میٹروپول	-8834
▁چھبیسواں	-8835
▁کیرولائنا	-8836
ئل	-8837
قف	-8838
َب	-8839
شنز	-8840
ڑھا	-8841
یلا	-8842
۴۲۱	-8843
۸۸۵	-8844
غالو	-8845
۶۶۳۲	-8846
▁آئس	-8847
▁باا	-8848
▁ذرا	-8849
▁لڑا	-8850
شمالی	-8851
▁انچی	-8852
▁بزرگ	-8853
▁بولر	-8854
▁سجاد	-8855
▁سرنگ	-8856
▁سکیں	-8857
▁قلعے	-8858
▁لغات	-8859
▁لڑکی	-8860
▁ماہی	-8861
▁موصل	-8862
▁مہدی	-8863
▁مینی	-8864
▁نصیر	-8865
▁نغمہ	-8866
▁ورنہ	-8867
▁ڈاٹا	-8868
▁تھا۴۳	-8869
▁دہلوی	-8870
▁شریعت	-8871
▁قازاق	-8872
▁لکھی۔	-8873
▁مبینہ	-8874
▁مجوزہ	-8875
▁ملایو	-8876
▁ووٹوں	-8877
▁کنعان	-8878
▁کولاس	-8879
▁۲۷۹۵۴	-8880
▁۷۵۸۱ء	-8881
غالوغیہ	-8882
▁اسپیکر	-8883
▁اندازے	-8884
▁انعامی	-8885
▁بیلجیم	-8886
▁فارمیٹ	-8887
▁فریڈرک	-8888
▁نائیجر	-8889
▁۴۸۴۹۵۴	-8890
▁۸۶۳۵۳۱	-8891
▁تاغالوغیہ	-8892
وکا	-8893
۰۵۲	-8894
▁رُ	-8895
▁غذ	-8896
سیات	-8897
طنیہ	-8898
یاسی	-8899
یکیپ	-8900
۵۱۰۲	-8901
۹۱۹۵	-8902
▁بجے	-8903
▁خوف	-8904
▁فرہ	-8905
▁میگ	-8906
▁۳۰۹	-8907
۶۱۴۶۱	-8908
▁الان	-8909
▁انکش	-8910
▁بہاس	-8911
▁جوجھ	-8912
▁غازی	-8913
▁وببر	-8914
▁پردہ	-8915
▁چاڈی	-8916
▁۰۰۷۳	-8917
سینائی	-8918
▁براین	-8919
▁ترمیز	-8920
▁جملوں	-8921
▁۰۳واں	-8922
▁۶۸۱۷۳	-8923
▁۷۲۹۱۳	-8924
▁۷۹۲۷۴	-8925
▁۸۳۳۸۱	-8926
▁اخلاقی	-8927
▁اسپیشل	-8928
▁منصورہ	-8929
▁منڈیلا	-8930
▁نمونوں	-8931
▁پاپائے	-8932
▁کیرئیر	-8933
▁۰۰۰۱۶۹	-8934
▁۰۰۰۸۷۱	-8935
▁۰۱۶۶۳۲	-8936
▁۰۶۸۵۴۴	-8937
▁۰۹۰۵۸۱	-8938
▁۳۵۲۲۷۱	-8939
▁۵۰۶۷۳۲	-8940
▁۸۶۱۴۶۱	-8941
▁تیرھواں	-8942
▁سہولیات	-8943
▁سیاسیات	-8944
▁قازاقشا	-8945
▁ڈاکٹریٹ	-8946
▁۰۰۳۳۲۶۱	-8947
تیہ	-8948
ہین	-8949
یتو	-8950
یمو	-8951
۰۴۱	-8952
▁یل	-8953
▁جری	-8954
▁دوہ	-8955
▁شور	-8956
▁معر	-8957
▁ویٹ	-8958
▁ہیک	-8959
▁آفات	-8960
▁المط	-8961
▁بانو	-8962
▁مکان	-8963
▁۶۸۹۱	-8964
▁۸۸۸۷	-8965
▁بہبود	-8966
▁جذبات	-8967
▁مالکی	-8968
▁مچھلی	-8969
▁ویلتھ	-8970
▁پبلشر	-8971
▁چیلنج	-8972
▁کیوکس	-8973
▁گذرا۔	-8974
▁گزرتی	-8975
▁۱۱۹۱ء	-8976
▁۳۹۸۱ء	-8977
▁بھگوان	-8978
▁۵۷۳۱۵۷	-8979
▁عبدالرح	-8980
▁کمیٹیوں	-8981
▁اداکاروں	-8982
▁قسطنطنیہ	-8983
حید	-8984
ٹرز	-8985
کات	-8986
▁تس	-8987
▁جگ	-8988
▁گپ	-8989
مریت	-8990
وینی	-8991
یبعہ	-8992
▁آئن	-8993
▁آفر	-8994
▁آنا	-8995
▁امل	-8996
▁ہنس	-8997
▁۷۰۱	-8998
▁تقرر	-8999
▁جادو	-9000
▁حضرم	-9001
▁سیزر	-9002
▁عامر	-9003
▁لاگو	-9004
▁پاول	-9005
▁چناؤ	-9006
▁۶۹۹۱	-9007
▁اچانک	-9008
▁سونیا	-9009
▁سکھوں	-9010
▁شکاگو	-9011
▁نسائی	-9012
▁نگارش	-9013
▁نیلسن	-9014
▁ٹرانس	-9015
▁کیا۔۱	-9016
▁کیجیے	-9017
▁۵۹۸۱ء	-9018
▁۸۱۸۱ء	-9019
▁اصیبعہ	-9020
▁جامعات	-9021
▁حکمراں	-9022
▁طاقتوں	-9023
▁ہنگامی	-9024
▁۸۸۲۵۶۱	-9025
▁نظریاتی	-9026
▁سلووینیا	-9027
▁سوفٹویئر	-9028
▁فرمالیں۔	-9029
▁جانبدارانہ	-9030
۲۸	-9031
حیۃ	-9032
زور	-9033
موہ	-9034
ڈیز	-9035
ینز	-9036
میمی	-9037
وایا	-9038
یکچر	-9039
▁تلم	-9040
▁راک	-9041
▁قاف	-9042
▁قلب	-9043
▁چون	-9044
ربینی	-9045
ھارٹی	-9046
▁امرا	-9047
▁باسک	-9048
▁دکنی	-9049
▁سونگ	-9050
▁فارغ	-9051
▁فرار	-9052
▁لیبر	-9053
▁مخزن	-9054
▁مزاج	-9055
▁مضیف	-9056
▁وائٹ	-9057
▁پاتے	-9058
▁کرلے	-9059
▁۰۵۹۱	-9060
▁۲۶۹۱	-9061
▁آمریت	-9062
▁ملازم	-9063
▁منسوخ	-9064
▁ٹائٹل	-9065
▁پولین	-9066
▁پیروی	-9067
▁۰۸۴۰۲	-9068
▁۷۶۸۱ء	-9069
▁ادویات	-9070
▁سیاروں	-9071
▁پہچانا	-9072
▁گزارا۔	-9073
▁ہوئے۔۱	-9074
▁اتھارٹی	-9075
▁تحریریں	-9076
▁الشربینی	-9077
بط	-9078
۳۷	-9079
باچ	-9080
بدا	-9081
خان	-9082
ضاء	-9083
ہسپ	-9084
۶۱۳	-9085
۸۴۵	-9086
ایا۔	-9087
▁آفت	-9088
▁ابا	-9089
▁اوپ	-9090
▁دیس	-9091
▁شاذ	-9092
▁۳۹۱	-9093
سوانا	-9094
▁ایکٹ	-9095
▁قیصر	-9096
▁لڑکے	-9097
▁محاص	-9098
▁مصال	-9099
▁پیار	-9100
▁کبیر	-9101
▁کھڑی	-9102
▁۱۹۹۱	-9103
▁اہلیہ	-9104
▁بااثر	-9105
▁بعبدا	-9106
▁تجربے	-9107
▁تھے۔۳	-9108
▁جوڑتی	-9109
▁طبقات	-9110
▁گیا۔۴	-9111
▁سالگرہ	-9112
▁مالیات	-9113
▁مطالبے	-9114
▁۷۱۸۲۱۲	-9115
بس	-9116
ْو	-9117
اتم	-9118
برص	-9119
فی۔	-9120
ماس	-9121
ٰہی	-9122
۰۳۵	-9123
۹۵۱	-9124
▁بُ	-9125
▁دم	-9126
امان	-9127
وسٹس	-9128
یہاں	-9129
▁ایپ	-9130
▁بائ	-9131
▁رحم	-9132
▁سدھ	-9133
▁مشی	-9134
▁پیٹ	-9135
▁کیف	-9136
ائیگی	-9137
یکانز	-9138
▁حالی	-9139
▁سنان	-9140
▁شیزو	-9141
▁عاقب	-9142
▁ماور	-9143
▁مجلہ	-9144
▁مفکر	-9145
▁پرتھ	-9146
▁پرسک	-9147
▁پلان	-9148
▁کاتھ	-9149
▁کی۔۲	-9150
▁۴۸۹۱	-9151
۵۱۴۱۳۱	-9152
▁اطلاق	-9153
▁الاول	-9154
▁الیون	-9155
▁جہانگ	-9156
▁راجیو	-9157
▁عبوری	-9158
▁مانند	-9159
▁چلاتا	-9160
▁کیوبا	-9161
▁نویسوں	-9162
▁نیپالی	-9163
▁ادائیگی	-9164
غب	-9165
ئرب	-9166
اسپ	-9167
ثیم	-9168
موز	-9169
ویک	-9170
ڑنے	-9171
۴۲۶	-9172
۹۱۲	-9173
▁لط	-9174
▁ٹن	-9175
۴۳۲۱	-9176
▁عید	-9177
▁کیچ	-9178
باچوف	-9179
▁الاش	-9180
▁انور	-9181
▁دورِ	-9182
▁سہرا	-9183
▁شعبۂ	-9184
▁ٹائی	-9185
▁۴۶۹ء	-9186
سلامیۃ	-9187
▁النسل	-9188
▁جنہوں	-9189
▁دشوار	-9190
▁طوفان	-9191
▁نوابی	-9192
▁ہارون	-9193
▁۷۰۹۱ء	-9194
▁۹۱ویں	-9195
▁القدوس	-9196
▁دستورِ	-9197
▁دیوبند	-9198
▁طالبان	-9199
▁میخائل	-9200
▁ڈھانچہ	-9201
▁گزارنے	-9202
▁۰۰۰۰۲۱	-9203
▁بیلاروس	-9204
▁کروشیائی	-9205
▁گورباچوف	-9206
▁پنسلوانیا	-9207
ھن	-9208
ارس	-9209
طرف	-9210
لاً	-9211
▁جٹ	-9212
▁کچ	-9213
▁۲۔	-9214
سنیے	-9215
لیوں	-9216
ناطی	-9217
ٹائی	-9218
۴۳۰۱	-9219
▁بجٹ	-9220
▁شاف	-9221
▁ضمن	-9222
▁عصب	-9223
▁گند	-9224
▁یوح	-9225
▁۶۷۳	-9226
اویزی	-9227
جرمنی	-9228
▁بذات	-9229
▁دستے	-9230
▁دکان	-9231
▁شرما	-9232
▁میسا	-9233
▁ڈالا	-9234
▁۶۰۹۲	-9235
▁امہری	-9236
▁تالیف	-9237
▁شوریٰ	-9238
▁عقیدے	-9239
▁لہٰذا	-9240
▁محبوب	-9241
▁معتدل	-9242
▁موصول	-9243
▁ڈاگون	-9244
▁۱۳۹۱ء	-9245
▁۹۹۶۱ء	-9246
▁انکشاف	-9247
▁دانیال	-9248
▁زاوگئی	-9249
▁زمینوں	-9250
▁مولائی	-9251
▁موومنٹ	-9252
▁پائیتھ	-9253
▁۰۰۰۸۰۱	-9254
▁ایوانوں	-9255
▁صاحبزاد	-9256
▁مارگریٹ	-9257
▁مسیحیوں	-9258
▁مقدونیہ	-9259
▁منتظمیں	-9260
▁ٹیلینور	-9261
▁چیمپئنز	-9262
▁کاتھولک	-9263
▁دستاویزی	-9264
▁مقدونیائی	-9265
▁ویکیپیدیاؤں	-9266
لاک	-9267
۰۵۶	-9268
▁تغ	-9269
▁دعا	-9270
▁شرق	-9271
▁۸۲۱	-9272
بردار	-9273
▁برہم	-9274
▁حاتم	-9275
▁صقلی	-9276
▁۹۶۹۱	-9277
▁آفتاب	-9278
▁الیگز	-9279
▁جنازہ	-9280
▁سفیان	-9281
▁شافعی	-9282
▁فیروز	-9283
▁نظریے	-9284
▁ہزاری	-9285
▁۸۹۸۱ء	-9286
▁بانیان	-9287
▁جراثیم	-9288
▁دکھانے	-9289
▁معاملہ	-9290
▁ملکیتی	-9291
▁اکائیوں	-9292
▁اخلاقیات	-9293
▁چھتیسواں	-9294
▁میٹروپولیٹن	-9295
بع	-9296
قر	-9297
َا	-9298
۰۸	-9299
ئیڈ	-9300
اتر	-9301
روت	-9302
ظام	-9303
فرو	-9304
وتہ	-9305
ڈون	-9306
۳۱۱	-9307
۵۲۳	-9308
ائشہ	-9309
ربرٹ	-9310
فاری	-9311
ودان	-9312
۸۷۸۸	-9313
▁اعش	-9314
▁حاش	-9315
▁رقص	-9316
▁مشغ	-9317
▁پنڈ	-9318
▁چھا	-9319
▁۰۶۲	-9320
انھوں	-9321
▁اشرف	-9322
▁بستی	-9323
▁تختی	-9324
▁جبلی	-9325
▁خالق	-9326
▁خزاں	-9327
▁رحیم	-9328
▁رفیق	-9329
▁زیدی	-9330
▁سارا	-9331
▁سلجو	-9332
▁صادق	-9333
▁معیل	-9334
▁وفاد	-9335
▁پڑنے	-9336
▁پیشے	-9337
▁اعلٰی	-9338
▁اوسلو	-9339
▁خمینی	-9340
▁رنگوں	-9341
▁میوزک	-9342
▁ہربرٹ	-9343
▁ہمدان	-9344
▁۸۰۹۱ء	-9345
▁ارضیات	-9346
▁اسٹورز	-9347
▁اسپتال	-9348
▁النساء	-9349
▁اینڈرو	-9350
▁دروازے	-9351
▁منظوری	-9352
▁گوئےمون	-9353
▁ٹالسٹائی	-9354
عو	-9355
زئی	-9356
پین	-9357
ہیم	-9358
یرت	-9359
یہا	-9360
۳۹۵	-9361
▁غن	-9362
▁ہڈ	-9363
▁ی۔	-9364
سامی	-9365
سینٹ	-9366
۰۳۰۱	-9367
▁تمہ	-9368
▁قرہ	-9369
▁مسن	-9370
▁چور	-9371
▁چیر	-9372
▁۰۳۲	-9373
۰۸۹۱ء	-9374
▁المج	-9375
▁انجن	-9376
▁جی۷۷	-9377
▁درجۂ	-9378
▁شاہد	-9379
▁فاضل	-9380
▁مثبت	-9381
▁نوری	-9382
▁چودہ	-9383
▁گیار	-9384
▁۵۱۹۱	-9385
▁۷۷۹۱	-9386
▁ایٹمی	-9387
▁بحریہ	-9388
▁جوڑنے	-9389
▁سرطان	-9390
▁عدلیہ	-9391
▁وولٹا	-9392
▁چلائی	-9393
▁کمشنر	-9394
▁گائے۔	-9395
▁۰۰۷۱ء	-9396
▁۲۰۹۱ء	-9397
▁اسسٹنٹ	-9398
▁تخمینے	-9399
▁ڈویلپر	-9400
▁البانوی	-9401
▁چودھواں	-9402
▁پندرھواں	-9403
▁موریطانیہ	-9404
ئم	-9405
شد	-9406
لص	-9407
رجی	-9408
غور	-9409
ولف	-9410
ٹھا	-9411
۴۲۵	-9412
▁وش	-9413
▁َے	-9414
ائنہ	-9415
انعت	-9416
شتوں	-9417
ظمیٰ	-9418
۸۶۸۹	-9419
▁رنر	-9420
▁صلے	-9421
▁فان	-9422
▁نرم	-9423
▁نفا	-9424
▁اُسے	-9425
▁بھی۔	-9426
▁راغب	-9427
▁زمان	-9428
▁ضابط	-9429
▁ملٹی	-9430
▁پونے	-9431
▁چلنے	-9432
▁ہیمپ	-9433
▁بندوب	-9434
▁تنویر	-9435
▁سہارا	-9436
▁عائشہ	-9437
▁چھوڑا	-9438
▁۰۰۰۴۱	-9439
▁امیروں	-9440
▁بلغراد	-9441
▁تصورات	-9442
▁متعادل	-9443
▁مقبوضہ	-9444
▁ممانعت	-9445
▁پڑھائی	-9446
▁تہذیبوں	-9447
▁سینگوکو	-9448
▁ضروریات	-9449
▁پیروکار	-9450
▁استعمالات	-9451
▁اٹھارہویں	-9452
▁پروگراموں	-9453
▁کارروائیوں	-9454
نیٰ	-9455
▁بپ	-9456
انیۃ	-9457
لمین	-9458
معاش	-9459
والو	-9460
یشکر	-9461
▁اڈہ	-9462
▁بسا	-9463
▁تقی	-9464
▁۶۶۳	-9465
▁بوسن	-9466
▁بھوپ	-9467
▁سوری	-9468
▁شراب	-9469
▁فیشن	-9470
▁لیتی	-9471
▁ٹوگو	-9472
▁کولن	-9473
▁۳۹۹۱	-9474
وناگری	-9475
وٹولاگ	-9476
▁خبریں	-9477
▁شاویز	-9478
▁مکرّر	-9479
▁مینار	-9480
▁گزارا	-9481
▁۰۰۰۰۵	-9482
▁۰۰۰۱ء	-9483
▁۷۷۸۱ء	-9484
▁تھے۔۱۲	-9485
▁سلیکٹر	-9486
▁فونیٹک	-9487
▁مضیفین	-9488
▁پاگئے۔	-9489
▁بارہویں	-9490
▁بندوبست	-9491
▁تصویروں	-9492
▁جلاوطنی	-9493
▁جہانگیر	-9494
▁خرابیاں	-9495
▁سرائیکی	-9496
▁ورجینیا	-9497
▁اتحادیوں	-9498
▁کتابیاتی	-9499
▁گلوٹولاگ	-9500
▁کوالیفائر	-9501
امد	-9502
جیت	-9503
طار	-9504
مئی	-9505
یٹو	-9506
▁رپ	-9507
▁زح	-9508
احمد	-9509
رائے	-9510
فقار	-9511
۸۴۸۹	-9512
▁جلو	-9513
▁سرچ	-9514
▁عظم	-9515
▁عقل	-9516
▁پوپ	-9517
▁ڈائ	-9518
▁کہی	-9519
▁۲۶۱	-9520
▁۲۸۱	-9521
گرافی	-9522
▁المق	-9523
▁ایڈٹ	-9524
▁بیعت	-9525
▁لہجۃ	-9526
▁مانے	-9527
▁کھڑے	-9528
▁گردی	-9529
▁ہارڈ	-9530
▁۵۳۲۱	-9531
▁۹۷۹۱	-9532
۲۱۱۱۰۱	-9533
▁اجزاء	-9534
▁الٰہی	-9535
▁لکھا۔	-9536
▁مملوک	-9537
▁منجمد	-9538
▁مولوی	-9539
▁ویانا	-9540
▁پیشکش	-9541
▁۵۱ویں	-9542
▁۶۱۹۱ء	-9543
▁العباس	-9544
▁سانچہا	-9545
▁فرماتے	-9546
▁محکموں	-9547
▁وتدوین	-9548
▁پرسکون	-9549
▁کیرالہ	-9550
▁ہمدانی	-9551
▁تحریکوں	-9552
▁منگیشکر	-9553
▁اسمبلیوں	-9554
▁معاونتمعلومات	-9555
لین	-9556
۳۲۱	-9557
۵۵۱	-9558
▁وم	-9559
▁آفس	-9560
▁مجھ	-9561
▁منش	-9562
▁میت	-9563
▁ورث	-9564
▁ٹری	-9565
▁پات	-9566
▁پلے	-9567
▁یاب	-9568
▁الاح	-9569
▁بیکٹ	-9570
▁ستار	-9571
▁سردی	-9572
▁قابض	-9573
▁ٹرسٹ	-9574
▁پریف	-9575
▁ڈیوک	-9576
▁کلاڈ	-9577
▁اسٹار	-9578
▁اسٹیج	-9579
▁انٹیل	-9580
▁انچیف	-9581
▁برطرف	-9582
▁بیچلر	-9583
▁توہین	-9584
▁تھے۔۴	-9585
▁متنوع	-9586
▁پانڈے	-9587
▁چھاپہ	-9588
▁العلوی	-9589
▁انسداد	-9590
▁ایام۷۱	-9591
▁دیکھا۔	-9592
▁سورتوں	-9593
▁مشارکین	-9594
▁یوریشیا	-9595
▁بوسنیائی	-9596
▁سیکریٹری	-9597
▁▁▁▁▁▁▁▁▁▁▁▁▁▁▁	-9598
ئری	-9599
لسی	-9600
ناء	-9601
ٹیز	-9602
کلو	-9603
▁زن	-9604
▁یع	-9605
زادہ	-9606
ودار	-9607
یہود	-9608
۰۰۰۰	-9609
۹۴۰۴	-9610
▁آدم	-9611
▁تان	-9612
▁جڑے	-9613
▁داع	-9614
▁شرا	-9615
▁طاس	-9616
▁مرم	-9617
▁نرس	-9618
▁کیس	-9619
▁گوئ	-9620
▁۰۶۱	-9621
ولتھک	-9622
▁افضل	-9623
▁البم	-9624
▁اوکا	-9625
▁بودھ	-9626
▁جملے	-9627
▁رئیس	-9628
▁صالح	-9629
▁فوٹو	-9630
▁کومن	-9631
▁گرما	-9632
▁۰۴۱۱	-9633
▁۰۹۹۱	-9634
▁۲۷۹۱	-9635
▁آفریں	-9636
▁بائبل	-9637
▁جاگیر	-9638
▁طیارے	-9639
▁عظمیٰ	-9640
▁مساوی	-9641
▁ملٹری	-9642
▁وارسا	-9643
۷۸۱۹۱۹۵	-9644
▁املائی	-9645
▁لاکھوں	-9646
▁کوششیں	-9647
▁گاڑیوں	-9648
▁ہندوؤں	-9649
▁نفسیاتی	-9650
▁پڑتالگر	-9651
▁کروایا۔	-9652
▁دانشوروں	-9653
▁دیوناگری	-9654
▁۸۱۹۱ء۷۸۱۹۱۹۵	-9655
الۃ	-9656
ڈلے	-9657
▁عکس	-9658
▁لاش	-9659
▁ٹاس	-9660
▁کاپ	-9661
▁کچل	-9662
▁۲۰۱	-9663
۰۰۴۳۲	-9664
▁فیچر	-9665
▁لائے	-9666
▁ڈائی	-9667
▁کواک	-9668
▁کھوج	-9669
▁کہلا	-9670
▁	-9671
ا	-9672
ی	-9673
ر	-9674
ک	-9675
م	-9676
و	-9677
ہ	-9678
ن	-9679
ت	-9680
ے	-9681
س	-9682
ل	-9683
ں	-9684
د	-9685
ب	-9686
پ	-9687
ج	-9688
ف	-9689
ع	-9690
ح	-9691
۔	-9692
ئ	-9693
ش	-9694
ز	-9695
ص	-9696
ھ	-9697
گ	-9698
ق	-9699
آ	-9700
خ	-9701
ط	-9702
ڈ	-9703
،	-9704
ٹ	-9705
۱	-9706
چ	-9707
۲	-9708
۰	-9709
ض	-9710
غ	-9711
ظ	-9712
ذ	-9713
۴	-9714
۹	-9715
ء	-9716
۵	-9717
۸	-9718
۳	-9719
۶	-9720
ث	-9721
۷	-9722
ڑ	-9723
ِ	-9724
ؤ	-9725
ۃ	-9726
ً	-9727
ۂ	-9728
؟	-9729
ُ	-9730
٪	-9731
ٰ	-9732
؛	-9733
َ	-9734
ّ	-9735
ژ	-9736
ْ	-9737
٭	-9738
أ	-9739
٬	-9740
