<unk>	0
<s>	0
</s>	0
<0x00>	0
<0x01>	0
<0x02>	0
<0x03>	0
<0x04>	0
<0x05>	0
<0x06>	0
<0x07>	0
<0x08>	0
<0x09>	0
<0x0A>	0
<0x0B>	0
<0x0C>	0
<0x0D>	0
<0x0E>	0
<0x0F>	0
<0x10>	0
<0x11>	0
<0x12>	0
<0x13>	0
<0x14>	0
<0x15>	0
<0x16>	0
<0x17>	0
<0x18>	0
<0x19>	0
<0x1A>	0
<0x1B>	0
<0x1C>	0
<0x1D>	0
<0x1E>	0
<0x1F>	0
<0x20>	0
<0x21>	0
<0x22>	0
<0x23>	0
<0x24>	0
<0x25>	0
<0x26>	0
<0x27>	0
<0x28>	0
<0x29>	0
<0x2A>	0
<0x2B>	0
<0x2C>	0
<0x2D>	0
<0x2E>	0
<0x2F>	0
<0x30>	0
<0x31>	0
<0x32>	0
<0x33>	0
<0x34>	0
<0x35>	0
<0x36>	0
<0x37>	0
<0x38>	0
<0x39>	0
<0x3A>	0
<0x3B>	0
<0x3C>	0
<0x3D>	0
<0x3E>	0
<0x3F>	0
<0x40>	0
<0x41>	0
<0x42>	0
<0x43>	0
<0x44>	0
<0x45>	0
<0x46>	0
<0x47>	0
<0x48>	0
<0x49>	0
<0x4A>	0
<0x4B>	0
<0x4C>	0
<0x4D>	0
<0x4E>	0
<0x4F>	0
<0x50>	0
<0x51>	0
<0x52>	0
<0x53>	0
<0x54>	0
<0x55>	0
<0x56>	0
<0x57>	0
<0x58>	0
<0x59>	0
<0x5A>	0
<0x5B>	0
<0x5C>	0
<0x5D>	0
<0x5E>	0
<0x5F>	0
<0x60>	0
<0x61>	0
<0x62>	0
<0x63>	0
<0x64>	0
<0x65>	0
<0x66>	0
<0x67>	0
<0x68>	0
<0x69>	0
<0x6A>	0
<0x6B>	0
<0x6C>	0
<0x6D>	0
<0x6E>	0
<0x6F>	0
<0x70>	0
<0x71>	0
<0x72>	0
<0x73>	0
<0x74>	0
<0x75>	0
<0x76>	0
<0x77>	0
<0x78>	0
<0x79>	0
<0x7A>	0
<0x7B>	0
<0x7C>	0
<0x7D>	0
<0x7E>	0
<0x7F>	0
<0x80>	0
<0x81>	0
<0x82>	0
<0x83>	0
<0x84>	0
<0x85>	0
<0x86>	0
<0x87>	0
<0x88>	0
<0x89>	0
<0x8A>	0
<0x8B>	0
<0x8C>	0
<0x8D>	0
<0x8E>	0
<0x8F>	0
<0x90>	0
<0x91>	0
<0x92>	0
<0x93>	0
<0x94>	0
<0x95>	0
<0x96>	0
<0x97>	0
<0x98>	0
<0x99>	0
<0x9A>	0
<0x9B>	0
<0x9C>	0
<0x9D>	0
<0x9E>	0
<0x9F>	0
<0xA0>	0
<0xA1>	0
<0xA2>	0
<0xA3>	0
<0xA4>	0
<0xA5>	0
<0xA6>	0
<0xA7>	0
<0xA8>	0
<0xA9>	0
<0xAA>	0
<0xAB>	0
<0xAC>	0
<0xAD>	0
<0xAE>	0
<0xAF>	0
<0xB0>	0
<0xB1>	0
<0xB2>	0
<0xB3>	0
<0xB4>	0
<0xB5>	0
<0xB6>	0
<0xB7>	0
<0xB8>	0
<0xB9>	0
<0xBA>	0
<0xBB>	0
<0xBC>	0
<0xBD>	0
<0xBE>	0
<0xBF>	0
<0xC0>	0
<0xC1>	0
<0xC2>	0
<0xC3>	0
<0xC4>	0
<0xC5>	0
<0xC6>	0
<0xC7>	0
<0xC8>	0
<0xC9>	0
<0xCA>	0
<0xCB>	0
<0xCC>	0
<0xCD>	0
<0xCE>	0
<0xCF>	0
<0xD0>	0
<0xD1>	0
<0xD2>	0
<0xD3>	0
<0xD4>	0
<0xD5>	0
<0xD6>	0
<0xD7>	0
<0xD8>	0
<0xD9>	0
<0xDA>	0
<0xDB>	0
<0xDC>	0
<0xDD>	0
<0xDE>	0
<0xDF>	0
<0xE0>	0
<0xE1>	0
<0xE2>	0
<0xE3>	0
<0xE4>	0
<0xE5>	0
<0xE6>	0
<0xE7>	0
<0xE8>	0
<0xE9>	0
<0xEA>	0
<0xEB>	0
<0xEC>	0
<0xED>	0
<0xEE>	0
<0xEF>	0
<0xF0>	0
<0xF1>	0
<0xF2>	0
<0xF3>	0
<0xF4>	0
<0xF5>	0
<0xF6>	0
<0xF7>	0
<0xF8>	0
<0xF9>	0
<0xFA>	0
<0xFB>	0
<0xFC>	0
<0xFD>	0
<0xFE>	0
<0xFF>	0
▁ک	-0
▁ا	-1
▁م	-2
▁ہ	-3
▁س	-4
یں	-5
▁ب	-6
▁پ	-7
▁ن	-8
▁کی	-9
ور	-10
▁کے	-11
▁ت	-12
ان	-13
ار	-14
▁ج	-15
▁میں	-16
▁د	-17
▁ر	-18
▁کر	-19
▁گ	-20
لی	-21
▁و	-22
یا	-23
ائ	-24
وں	-25
▁ہے	-26
▁سے	-27
▁کا	-28
ری	-29
▁اور	-30
▁کو	-31
▁اس	-32
▁کہ	-33
▁ان	-34
▁ہو	-35
▁نے	-36
▁ای	-37
ال	-38
▁ف	-39
ھی	-40
ات	-41
▁ش	-42
▁پر	-43
ام	-44
نے	-45
▁ل	-46
▁خ	-47
ین	-48
▁چ	-49
▁ٹ	-50
▁ع	-51
اک	-52
▁ح	-53
ست	-54
اہ	-55
ئی	-56
ئے	-57
▁ی	-58
▁ہیں	-59
لا	-60
▁لی	-61
اب	-62
ون	-63
▁تھ	-64
یر	-65
▁ق	-66
▁بھی	-67
یم	-68
▁نہ	-69
نا	-70
▁آ	-71
▁ایک	-72
می	-73
▁رہ	-74
▁ڈ	-75
اد	-76
یک	-77
تا	-78
تی	-79
تے	-80
نگ	-81
▁کیا	-82
▁یہ	-83
▁اپ	-84
نی	-85
ند	-86
▁ز	-87
▁پی	-88
ستان	-89
▁ص	-90
ائی	-91
▁وہ	-92
▁نہیں	-93
▁می	-94
ول	-95
▁تھا	-96
▁ط	-97
▁رو	-98
ٹر	-99
▁دی	-100
▁پاک	-101
از	-102
سی	-103
لے	-104
▁تو	-105
▁پاکستان	-106
اری	-107
ٹی	-108
▁سی	-109
▁بی	-110
رو	-111
بر	-112
کی	-113
▁جو	-114
یس	-115
▁دو	-116
شن	-117
گر	-118
لم	-119
▁پہ	-120
▁گیا	-121
کھ	-122
ائے	-123
▁ہے۔	-124
▁کہا	-125
▁بھ	-126
عد	-127
اتھ	-128
الی	-129
ید	-130
▁جس	-131
▁ہی	-132
ود	-133
اں	-134
نٹ	-135
انے	-136
▁اب	-137
▁مو	-138
▁مل	-139
▁فی	-140
اف	-141
▁کرنے	-142
کہ	-143
لہ	-144
▁لیے	-145
▁بہ	-146
▁سک	-147
اس	-148
▁گا	-149
▁ٹیم	-150
کٹ	-151
▁اد	-152
▁کھ	-153
▁جب	-154
▁مع	-155
▁مح	-156
وم	-157
وی	-158
▁بر	-159
▁ال	-160
▁ہوئے	-161
▁وال	-162
▁ہم	-163
انی	-164
ڑی	-165
دہ	-166
نڈ	-167
▁کم	-168
▁در	-169
▁ساتھ	-170
▁دیا	-171
▁بن	-172
وب	-173
▁تھی	-174
چھ	-175
رف	-176
▁بعد	-177
گی	-178
کن	-179
▁انہ	-180
▁من	-181
▁اپنے	-182
یت	-183
رین	-184
▁بہت	-185
ابق	-186
▁غ	-187
را	-188
▁جان	-189
مد	-190
▁تک	-191
▁پو	-192
▁فلم	-193
▁مق	-194
▁ار	-195
▁مط	-196
▁رہے	-197
یل	-198
▁اف	-199
ھر	-200
شت	-201
▁سر	-202
▁خان	-203
▁سو	-204
▁گئی	-205
ما	-206
▁ام	-207
▁یا	-208
▁میچ	-209
▁ذ	-210
یو	-211
▁کام	-212
▁ایس	-213
▁جن	-214
▁کار	-215
▁تھے	-216
▁گے	-217
▁گی	-218
▁،	-219
خت	-220
وری	-221
▁۱	-222
اص	-223
▁کھی	-224
اق	-225
▁اع	-226
جہ	-227
جھ	-228
نز	-229
▁جا	-230
▁سال	-231
رے	-232
کا	-233
وٹ	-234
▁اپنی	-235
▁دور	-236
▁کرتے	-237
سٹ	-238
▁تم	-239
▁عم	-240
پور	-241
▁دیک	-242
رح	-243
▁مطابق	-244
ئر	-245
دی	-246
ارہ	-247
▁جائے	-248
▁رہا	-249
ڑھ	-250
دا	-251
▁لگ	-252
کر	-253
▁والے	-254
ارے	-255
▁سب	-256
▁فر	-257
قت	-258
▁ہیں۔	-259
▁لیکن	-260
▁دیکھ	-261
ائن	-262
▁ہونے	-263
▁مت	-264
▁ہوں	-265
▁فیص	-266
▁خو	-267
▁او	-268
▁دن	-269
▁رکھ	-270
▁چھ	-271
▁ہوا	-272
▁انہوں	-273
▁گئے	-274
▁مس	-275
پے	-276
ہر	-277
▁مر	-278
""	-279
یز	-280
▁کرکٹ	-281
▁حک	-282
دار	-283
▁بات	-284
▁کوئی	-285
▁جات	-286
دو	-287
▁دوس	-288
▁ض	-289
▁تع	-290
در	-291
▁لو	-292
▁با	-293
انہ	-294
▁رہی	-295
ٹس	-296
▁تر	-297
لو	-298
▁ٹی	-299
▁جبکہ	-300
▁اخ	-301
بی	-302
▁۲	-303
▁کپ	-304
قی	-305
لئے	-306
کے	-307
نس	-308
وا	-309
▁پہلے	-310
▁آپ	-311
لام	-312
▁کسی	-313
ارت	-314
▁نام	-315
▁جانب	-316
▁لئے	-317
▁وا	-318
▁کیلئے	-319
▁چاہ	-320
نچ	-321
▁کھلا	-322
یہ	-323
▁زیا	-324
▁ری	-325
ٹھ	-326
▁کہنا	-327
اصل	-328
وج	-329
▁اداک	-330
لاف	-331
▁کچھ	-332
▁نظ	-333
▁مش	-334
▁کھلاڑی	-335
ورت	-336
▁اح	-337
▁تھا۔	-338
▁روپے	-339
یاں	-340
▁زیادہ	-341
▁وز	-342
▁کریں	-343
▁ملک	-344
لق	-345
▁حاصل	-346
..	-347
کار	-348
اح	-349
مل	-350
▁انڈ	-351
▁وقت	-352
▁رنز	-353
▁ور	-354
ائنٹ	-355
بل	-356
▁کمی	-357
اہور	-358
▁مار	-359
اہم	-360
ران	-361
▁علی	-362
▁وی	-363
یسٹ	-364
امل	-365
▁تح	-366
رہ	-367
▁بل	-368
کل	-369
▁میر	-370
▁طرح	-371
▁انت	-372
چی	-373
▁اسے	-374
▁ہوئی	-375
▁والی	-376
▁لاہور	-377
▁ہر	-378
▁ڈال	-379
▁بنا	-380
بار	-381
ائیں	-382
زی	-383
▁کرا	-384
▁کھیل	-385
زہ	-386
▁طور	-387
▁مجھ	-388
ائل	-389
نج	-390
مال	-391
▁اہ	-392
▁اے	-393
مبر	-394
▁جی	-395
▁است	-396
▁(	-397
مان	-398
زار	-399
▁ترین	-400
▁لوگ	-401
▁جاری	-402
ادی	-403
▁ڈی	-404
▁ات	-405
▁پھر	-406
▁پوائنٹ	-407
▁گر	-408
ڑے	-409
▁مز	-410
ٹری	-411
فی	-412
شی	-413
▁شر	-414
فر	-415
▁اض	-416
▁ضر	-417
رز	-418
▁حکوم	-419
▁سام	-420
ریز	-421
▁اج	-422
▁دوران	-423
▁بار	-424
▁نو	-425
▁شاہ	-426
ڑا	-427
▁پیش	-428
▁خلاف	-429
جود	-430
▁محمد	-431
▁کرنا	-432
▁بال	-433
اج	-434
فت	-435
▁اضاف	-436
وال	-437
▁""	-438
▁دل	-439
صو	-440
بہ	-441
لاق	-442
▁اگر	-443
▁دے	-444
▁سم	-445
▁بچ	-446
▁خبر	-447
▁وزیر	-448
▁حکومت	-449
شتہ	-450
▁نی	-451
▁مہ	-452
مین	-453
▁شامل	-454
ونوں	-455
▁موجود	-456
ومی	-457
▁مجھے	-458
▁وجہ	-459
مہ	-460
▁صرف	-461
ریب	-462
▁لیا	-463
▁نظر	-464
▁بین	-465
کت	-466
▁مد	-467
▁میڈ	-468
▁قیم	-469
ولی	-470
لس	-471
▁پہنچ	-472
▁بتا	-473
▁تج	-474
▁این	-475
▁دونوں	-476
▁ئی	-477
اہر	-478
▁حص	-479
وہ	-480
▁ٹیک	-481
▁بج	-482
▁اسلام	-483
امی	-484
انا	-485
▁روز	-486
لڈ	-487
▁آ	-488
▁شرو	-489
عی	-490
▁ٹیسٹ	-491
▁انہیں	-492
▁قیمت	-493
▁کراچی	-494
▁پاکستانی	-495
▁شروع	-496
▁کل	-497
تان	-498
▁اخبار	-499
قع	-500
▁قر	-501
ارڈ	-502
وڑ	-503
وس	-504
▁ہوتا	-505
ائر	-506
▁تین	-507
وت	-508
▁بڑھ	-509
▁متع	-510
▁تق	-511
▁بے	-512
▁گز	-513
▁جانے	-514
▁تب	-515
▁جہ	-516
▁چی	-517
▁گھ	-518
▁بھر	-519
▁حس	-520
▁ماہ	-521
ثر	-522
ظم	-523
کس	-524
جی	-525
▁شی	-526
▁مقاب	-527
▁را	-528
▁دنیا	-529
▁اردو	-530
کٹر	-531
اع	-532
پر	-533
▁مزید	-534
ینی	-535
▁لے	-536
▁سیریز	-537
▁بند	-538
▁بتایا	-539
ونی	-540
▁تی	-541
ارتی	-542
▁کمپ	-543
▁پرو	-544
▁انگ	-545
▁تھی۔	-546
▁وکٹ	-547
بت	-548
▁مص	-549
▁سن	-550
ایا	-551
▁شہ	-552
تم	-553
▁سیک	-554
▁تمام	-555
▁پور	-556
مب	-557
▁پری	-558
▁بد	-559
▁طرف	-560
▁سکتا	-561
لان	-562
▁تاہم	-563
عہ	-564
▁گھر	-565
ورڈ	-566
▁قومی	-567
▁دوسرے	-568
▁ہزار	-569
▁رپور	-570
▁انھ	-571
▁جاتا	-572
▁خود	-573
سے	-574
▁مگر	-575
اکھ	-576
▁ڈالر	-577
▁’	-578
▁امری	-579
▁نا	-580
▁کامیا	-581
▁دھ	-582
▁لکھ	-583
▁استع	-584
ندگی	-585
جم	-586
▁مین	-587
▁شک	-588
یات	-589
عت	-590
ئیں	-591
▁حوال	-592
▁۳	-593
▁کھلاڑیوں	-594
▁انٹر	-595
پی	-596
نو	-597
▁میڈیا	-598
▁اسی	-599
▁مخت	-600
ئن	-601
▁بھارت	-602
یال	-603
▁ث	-604
▁غیر	-605
▁جم	-606
▁ہوگ	-607
▁مک	-608
انچ	-609
ڈی	-610
ائد	-611
▁درمی	-612
▁ٹو	-613
▁اسٹ	-614
دم	-615
▁اسک	-616
▁تف	-617
▁اگ	-618
ارف	-619
▁فیصلہ	-620
▁کردار	-621
▁کپتان	-622
▁استعمال	-623
▁نم	-624
▁اٹھ	-625
▁کب	-626
▁درمیان	-627
▁اق	-628
میت	-629
▁بورڈ	-630
▁اک	-631
▁حال	-632
▁احمد	-633
▁چار	-634
▁اند	-635
شنل	-636
▁دیگر	-637
اور	-638
کیٹ	-639
ریف	-640
یسے	-641
▁عام	-642
▁متعلق	-643
▁قبل	-644
▁موقع	-645
▁اُ	-646
اتی	-647
▁اضافہ	-648
لف	-649
▁ڈر	-650
▁بیٹ	-651
▁ایم	-652
شش	-653
▁سامنے	-654
▁نق	-655
▁سین	-656
▁خط	-657
▁کور	-658
▁عب	-659
▁حوالے	-660
▁کیے	-661
▁عال	-662
▁فیصد	-663
لیم	-664
▁ہوتی	-665
دال	-666
▁تھے۔	-667
▁پیدا	-668
▁ذری	-669
سم	-670
شل	-671
یں۔	-672
▁ایف	-673
▁ما	-674
لینڈ	-675
ڈیو	-676
▁دہ	-677
▁پہلی	-678
▁میرے	-679
▁کت	-680
▁اداکارہ	-681
▁پاس	-682
▁لوگوں	-683
▁ایل	-684
لین	-685
▁ورلڈ	-686
▁نیو	-687
▁ہاتھ	-688
▁دکھ	-689
▁زندگی	-690
ریق	-691
▁اداکار	-692
▁کمپنی	-693
▁کوشش	-694
▁اپنا	-695
▁سہ	-696
▁پنج	-697
▁جہاں	-698
▁لاکھ	-699
▁بھارتی	-700
سر	-701
▁باز	-702
وز	-703
▁اظ	-704
▁شہر	-705
ائنل	-706
وار	-707
▁عر	-708
ورن	-709
▁ارب	-710
▁شکست	-711
رم	-712
▁پڑھ	-713
▁سمجھ	-714
ائم	-715
▁ظ	-716
▁جیت	-717
▁باد	-718
لاس	-719
▁از	-720
▁واق	-721
بان	-722
▁مض	-723
▁جائیں	-724
▁سابق	-725
▁بول	-726
راد	-727
▁کرتا	-728
تازہ	-729
ونکہ	-730
▁چل	-731
ندی	-732
▁پیر	-733
شہ	-734
▁بڑی	-735
عے	-736
▁علا	-737
▁فائنل	-738
▁گزشتہ	-739
لیا	-740
▁اخبارتازہ	-741
اتے	-742
▁انس	-743
▁پنجاب	-744
▁واپ	-745
▁لیگ	-746
▁دوسری	-747
▁تن	-748
▁انداز	-749
▁کرے	-750
ائٹ	-751
▁شع	-752
▁بارے	-753
▁مالی	-754
▁جگ	-755
قین	-756
▁لڑ	-757
▁کئی	-758
امات	-759
▁صدر	-760
▁مختلف	-761
▁جل	-762
▁کن	-763
ندہ	-764
ونٹ	-765
▁چیم	-766
ائع	-767
عث	-768
▁سیا	-769
خص	-770
▁میری	-771
▁یہاں	-772
ارا	-773
▁افراد	-774
▁اہم	-775
لیس	-776
▁اعلان	-777
▁مست	-778
▁پس	-779
▁پار	-780
▁جھ	-781
▁باعث	-782
▁ایسا	-783
▁ائی	-784
لط	-785
غیر	-786
دان	-787
▁اسٹی	-788
▁کرد	-789
▁شو	-790
دید	-791
▁کاروب	-792
▁دینے	-793
▁خیال	-794
▁ادا	-795
▁بح	-796
▁تعلق	-797
▁مکمل	-798
▁سکتے	-799
▁اچھ	-800
▁فرو	-801
▁گو	-802
▁تقریب	-803
▁بنانے	-804
▁ریک	-805
▁صح	-806
باد	-807
▁حصہ	-808
ڈر	-809
نگز	-810
سپ	-811
ویز	-812
▁آئی	-813
▁نئی	-814
▁پانچ	-815
پن	-816
ضح	-817
▁لگا	-818
▁اش	-819
سن	-820
▁گا۔	-821
▁بیان	-822
▁اللہ	-823
▁کیونکہ	-824
▁بینک	-825
▁فون	-826
▁۴	-827
▁کروڑ	-828
▁سنگ	-829
▁نش	-830
▁صورت	-831
یاد	-832
صوص	-833
▁چین	-834
▁تیار	-835
اروں	-836
▁الح	-837
▁جیسے	-838
▁بلکہ	-839
جے	-840
▁تص	-841
▁ڈاک	-842
اگر	-843
شم	-844
سٹری	-845
▁عو	-846
▁شخص	-847
▁عمران	-848
لوم	-849
▁دس	-850
انگ	-851
کو	-852
اپ	-853
ہار	-854
▁خری	-855
▁قرار	-856
▁کبھی	-857
▁ایسے	-858
▁نمبر	-859
▁جگہ	-860
▁ون	-861
▁مارکیٹ	-862
▁۱۰	-863
▁عمر	-864
▁شم	-865
▁تیس	-866
با	-867
▁.	-868
وبی	-869
▁عالمی	-870
یے	-871
گو	-872
▁صاح	-873
▁بہترین	-874
لز	-875
▁ملا	-876
ونا	-877
▁پڑ	-878
▁اخت	-879
▁فار	-880
وڈ	-881
▁معی	-882
▁فٹ	-883
▁جاتی	-884
▁سمیت	-885
▁اص	-886
▁پھ	-887
افی	-888
▁انگلینڈ	-889
▁الی	-890
روف	-891
مپ	-892
کان	-893
▁ست	-894
▁ریکارڈ	-895
فا	-896
▁۵	-897
▁شادی	-898
▁ہوتے	-899
▁دیکھا	-900
▁معا	-901
▁نئے	-902
▁کیوں	-903
▁لینڈ	-904
▁ختم	-905
▁کرتی	-906
▁اچ	-907
جن	-908
▁انھوں	-909
عات	-910
▁صاحب	-911
▁گیا۔	-912
▁اینڈ	-913
▁ٹیکس	-914
▁سری	-915
▁عمل	-916
▁دا	-917
▁لن	-918
▁بڑے	-919
وان	-920
▁باہر	-921
▁خوش	-922
چر	-923
▁رپورٹ	-924
▁انتظ	-925
اقی	-926
اکہ	-927
▁منص	-928
صویر	-929
▁امی	-930
▁علاوہ	-931
وجی	-932
خوا	-933
▁..	-934
▁:	-935
▁یاد	-936
▁اظہار	-937
▁نک	-938
▁مقابلے	-939
عداد	-940
▁منظ	-941
تھ	-942
▁پولیس	-943
▁مدد	-944
ائیک	-945
▁کیس	-946
بال	-947
▁وف	-948
▁ڈاکٹر	-949
ریک	-950
سیم	-951
▁تھیں	-952
▁بہتر	-953
▁ے	-954
▁سکتی	-955
▁تا	-956
ویں	-957
پورٹس	-958
▁مذ	-959
▁بو	-960
▁دست	-961
صیل	-962
▁سٹ	-963
▁ضرور	-964
▁مشکل	-965
▁برس	-966
▁ابھی	-967
▁ہوگی	-968
انس	-969
▁آج	-970
▁ٹر	-971
▁لائن	-972
یند	-973
لاح	-974
ضی	-975
▁چند	-976
ابل	-977
▁سا	-978
▁ہمارے	-979
▁دار	-980
▁ملکی	-981
▁میچز	-982
▁ضرورت	-983
▁پسند	-984
کشن	-985
▁دع	-986
▁لا	-987
ٹن	-988
اریخ	-989
لمان	-990
ندھ	-991
ائش	-992
▁معلوم	-993
▁ہدا	-994
▁علاق	-995
▁شان	-996
گا	-997
▁کس	-998
▁یون	-999
عق	-1000
▁سط	-1001
▁تیز	-1002
▁ڈے	-1003
▁شرکت	-1004
گری	-1005
▁صارف	-1006
▁چیئر	-1007
ازہ	-1008
▁تاریخ	-1009
▁دیتے	-1010
زا	-1011
▁چاہیے	-1012
▁کوچ	-1013
▁رس	-1014
▁ایش	-1015
لب	-1016
▁سطح	-1017
▁کامیابی	-1018
▁ئے	-1019
ٹریلیا	-1020
▁مم	-1021
▁امریکی	-1022
▁انٹرنی	-1023
▁آن	-1024
▁کان	-1025
▁یو	-1026
▁منت	-1027
▁والا	-1028
▁واضح	-1029
▁مج	-1030
▁اعظم	-1031
▁ذریعے	-1032
▁نقص	-1033
▁کامیاب	-1034
▁سکے	-1035
ابط	-1036
▁بیٹھ	-1037
▁عدال	-1038
رائع	-1039
▁وہاں	-1040
▁مرت	-1041
ریل	-1042
اتین	-1043
▁ہمیں	-1044
ٹا	-1045
▁سما	-1046
▁اننگز	-1047
▁گول	-1048
مالک	-1049
▁سوچ	-1050
▁زیر	-1051
▁فراہم	-1052
▁ریلی	-1053
▁حم	-1054
▁ویڈیو	-1055
▁نقصان	-1056
▁سرما	-1057
▁مخ	-1058
▁رواں	-1059
▁میرا	-1060
ابر	-1061
▁ایسی	-1062
▁ہند	-1063
▁سپ	-1064
▁کھیلے	-1065
▁تمہ	-1066
▁اباد	-1067
مت	-1068
▁مث	-1069
▁خوب	-1070
▁فن	-1071
▁ممالک	-1072
▁سوال	-1073
جمو	-1074
▁واپس	-1075
▁ء	-1076
▁دیں	-1077
▁کرو	-1078
▁پوری	-1079
صد	-1080
▁رکھنے	-1081
▁خواتین	-1082
▁سلس	-1083
▁منصوب	-1084
▁جاتے	-1085
▁بنگ	-1086
یکس	-1087
▁خصوص	-1088
امنٹ	-1089
▁کئے	-1090
▁قان	-1091
بھ	-1092
▁فری	-1093
▁ڈرام	-1094
▁تفصیل	-1095
▁سات	-1096
▁حق	-1097
▁جنوبی	-1098
ورنامنٹ	-1099
▁خر	-1100
▁مظ	-1101
ؤں	-1102
▁ریا	-1103
انڈ	-1104
▁تحت	-1105
بو	-1106
▁کمیٹی	-1107
▁گرو	-1108
لوں	-1109
▁جنگ	-1110
▁۲۰	-1111
▁اندر	-1112
او	-1113
ھے	-1114
▁دوست	-1115
▁مرک	-1116
زاد	-1117
▁سرمایہ	-1118
▁مجمو	-1119
▁شا	-1120
منٹ	-1121
▁بس	-1122
▁ایونٹ	-1123
▁دیے	-1124
▁نواز	-1125
ائز	-1126
▁۶	-1127
میں	-1128
▁رک	-1129
▁ٹورنامنٹ	-1130
نڈی	-1131
▁منا	-1132
من	-1133
▁عوام	-1134
▁قسم	-1135
▁کاروبار	-1136
وٹو	-1137
رل	-1138
▁بنائے	-1139
سوس	-1140
خر	-1141
▁جلد	-1142
خاب	-1143
▁سع	-1144
▁حسین	-1145
▁عدالت	-1146
▁تش	-1147
ٹو	-1148
▁وڈ	-1149
▁رنگ	-1150
ریشن	-1151
فار	-1152
▁ٹھ	-1153
▁بڑا	-1154
▁اجلاس	-1155
▁چیز	-1156
▁ناک	-1157
▁انتخاب	-1158
تر	-1159
کم	-1160
نال	-1161
▁انج	-1162
ورس	-1163
▁سٹی	-1164
▁ترقی	-1165
▁ہدایت	-1166
▁سوشل	-1167
رنز	-1168
▁پہلا	-1169
وسی	-1170
▁ٹیموں	-1171
▁پانی	-1172
روں	-1173
▁خاص	-1174
ریقہ	-1175
▁پا	-1176
▁قائم	-1177
▁متا	-1178
▁سائن	-1179
ستہ	-1180
▁سپر	-1181
گے	-1182
▁کرکٹر	-1183
مون	-1184
▁؟	-1185
▁حد	-1186
▁غلط	-1187
▁مشت	-1188
بے	-1189
▁دیکھنے	-1190
▁عامر	-1191
وے	-1192
▁حسن	-1193
▁زائد	-1194
وش	-1195
ھا	-1196
رات	-1197
▁بغیر	-1198
▁انھیں	-1199
▁تازہ	-1200
▁پڑھیں	-1201
▁اضافے	-1202
▁رکھا	-1203
ابت	-1204
▁چیمپ	-1205
▁سیم	-1206
▁ذرائع	-1207
▁نوج	-1208
▁گیند	-1209
▁اوور	-1210
▁فت	-1211
اعظم	-1212
▁یہی	-1213
▁الحق	-1214
▁چکی	-1215
▁چھوڑ	-1216
پاک	-1217
▁وائر	-1218
▁پوائنٹس	-1219
گرام	-1220
ینہ	-1221
▁چیف	-1222
▁انے	-1223
▁صوب	-1224
رت	-1225
▁شکار	-1226
▁بت	-1227
▁مال	-1228
▁اچھا	-1229
▁قدر	-1230
▁اچھی	-1231
خواست	-1232
▁تفصیلات	-1233
▁انتہ	-1234
اہد	-1235
▁چکے	-1236
▁فیس	-1237
▁بیٹنگ	-1238
▁مضمون	-1239
▁سندھ	-1240
ینا	-1241
ولت	-1242
▁جون	-1243
▁پھی	-1244
▁میز	-1245
اردو	-1246
▁ٹیکنال	-1247
▁ئ	-1248
▁زر	-1249
▁بنایا	-1250
وجود	-1251
▁صن	-1252
▁لنکا	-1253
▁ایکس	-1254
▁انڈسٹری	-1255
▁درخواست	-1256
▁رق	-1257
لاقات	-1258
فتے	-1259
▁۷	-1260
ندر	-1261
▁اعلی	-1262
فظ	-1263
ائری	-1264
▁تعداد	-1265
▁والوں	-1266
▁صارفین	-1267
▁فروخت	-1268
ٹل	-1269
▁خات	-1270
▁کتاب	-1271
▁رات	-1272
▁پاب	-1273
زیشن	-1274
وک	-1275
▁کیا۔	-1276
▁ملاقات	-1277
▁یقین	-1278
▁معیشت	-1279
ولائی	-1280
▁فل	-1281
▁نگ	-1282
▁گفت	-1283
وبر	-1284
▁ایپ	-1285
▁انٹرنیشنل	-1286
▁ہفتے	-1287
ڈیم	-1288
▁گے۔	-1289
▁الز	-1290
▁لکھا	-1291
▁آیا	-1292
▁جمع	-1293
▁بلے	-1294
▁شریف	-1295
اکی	-1296
ٹرز	-1297
▁پوچھ	-1298
▁بھائی	-1299
▁فلموں	-1300
▁'	-1301
▁ووڈ	-1302
an	-1303
▁اط	-1304
▁بالی	-1305
کش	-1306
▁شپ	-1307
▁گرد	-1308
▁برط	-1309
▁لہ	-1310
▁ممکن	-1311
▁کھیلا	-1312
غان	-1313
▁نیا	-1314
▁قریب	-1315
▁آنکھ	-1316
▁وزیراعظم	-1317
▁عز	-1318
▁ایشن	-1319
▁گئیں	-1320
▁ثابت	-1321
▁باوجود	-1322
دین	-1323
▁کاری	-1324
پاکستان	-1325
▁محبت	-1326
▁ہماری	-1327
▁بچوں	-1328
ڈل	-1329
▁)	-1330
ومبر	-1331
▁ٹیکنالوجی	-1332
کاری	-1333
▁تحقی	-1334
اط	-1335
▁شیئر	-1336
▁کہانی	-1337
▁بک	-1338
▁ائ	-1339
▁چکا	-1340
▁گفتگو	-1341
▁ہندو	-1342
▁ریلیز	-1343
▁شاندار	-1344
▁بجلی	-1345
▁خواہ	-1346
▁ہونا	-1347
▁زمین	-1348
ودی	-1349
▁دب	-1350
▁تصویر	-1351
مبئی	-1352
▁مجموعی	-1353
یب	-1354
تیار	-1355
▁سائنس	-1356
غاز	-1357
روپے	-1358
▁نیوزی	-1359
▁دیا۔	-1360
▁کہتے	-1361
▁صف	-1362
انیہ	-1363
▁ڈیو	-1364
▁گی۔	-1365
▁سرف	-1366
گز	-1367
▁لینے	-1368
▁خصوصی	-1369
▁اکت	-1370
رار	-1371
▁تاکہ	-1372
▁پش	-1373
▁گل	-1374
ای	-1375
▁سامنا	-1376
▁گلو	-1377
▁اوپن	-1378
▁اقد	-1379
دف	-1380
ظیم	-1381
▁دورہ	-1382
▁نس	-1383
▁۹	-1384
ورہ	-1385
▁ویسٹ	-1386
▁معام	-1387
▁زبان	-1388
▁جنرل	-1389
▁دوب	-1390
بول	-1391
▁نکل	-1392
▁ظاہر	-1393
▁مقر	-1394
▁داخ	-1395
▁افغان	-1396
▁رابط	-1397
ورٹی	-1398
▁گروپ	-1399
▁عہ	-1400
سٹر	-1401
▁سپورٹس	-1402
▁مارچ	-1403
▁رج	-1404
▁وق	-1405
پورٹ	-1406
ریم	-1407
▁فوٹو	-1408
▁۸	-1409
▁غاز	-1410
▁ضروری	-1411
▁تجویز	-1412
▁پیراگر	-1413
▁وار	-1414
رفت	-1415
▁شہری	-1416
▁ہل	-1417
▁عرص	-1418
▁ایسوسی	-1419
▁جولائی	-1420
▁گاڑی	-1421
▁رض	-1422
▁ہمی	-1423
▁پیراگراف	-1424
▁امید	-1425
▁ڈائری	-1426
▁بلو	-1427
دگی	-1428
▁نیشنل	-1429
▁اثر	-1430
▁ہوں۔	-1431
سک	-1432
▁ڈھ	-1433
اہی	-1434
▁انسان	-1435
▁دوبارہ	-1436
▁پت	-1437
مر	-1438
▁معروف	-1439
▁قیمتوں	-1440
▁اکتوبر	-1441
ویل	-1442
▁ذریعہ	-1443
▁آر	-1444
▁ویب	-1445
▁ممبئی	-1446
▁تحقیق	-1447
▁چاہتے	-1448
قید	-1449
▁مرتبہ	-1450
وق	-1451
▁اٹ	-1452
▁گئی۔	-1453
▁حیر	-1454
▁مدا	-1455
نہ	-1456
▁کھیلنے	-1457
▁نص	-1458
اند	-1459
▁کال	-1460
▁ایو	-1461
▁ہوگئے	-1462
▁دسمبر	-1463
▁اختیار	-1464
▁پابندی	-1465
▁خرید	-1466
▁مقابلہ	-1467
▁سخت	-1468
▁جسے	-1469
▁ہمیشہ	-1470
▁مطال	-1471
واز	-1472
▁مظاہ	-1473
میر	-1474
▁گیس	-1475
▁کلب	-1476
▁کردگی	-1477
▁پشاور	-1478
راز	-1479
▁پروگرام	-1480
▁۱۵	-1481
▁جرم	-1482
▁لڑکی	-1483
▁سیاسی	-1484
▁بیر	-1485
▁کہیں	-1486
▁بلا	-1487
▁ٹین	-1488
لیے	-1489
ارٹ	-1490
▁پیچھ	-1491
▁دیش	-1492
قل	-1493
ئٹ	-1494
اتا	-1495
▁بخ	-1496
▁انتہائی	-1497
تال	-1498
▁بری	-1499
▁مب	-1500
کیل	-1501
▁پلی	-1502
امد	-1503
▁ٹوئن	-1504
▁رپورٹر	-1505
▁خام	-1506
▁جنوری	-1507
▁۱۲	-1508
▁نتی	-1509
لاحیت	-1510
▁بز	-1511
▁ایوارڈ	-1512
▁ابت	-1513
▁مسائل	-1514
▁قابل	-1515
▁نمائ	-1516
گل	-1517
▁شاہد	-1518
▁نومبر	-1519
▁اختت	-1520
شا	-1521
▁حقی	-1522
ونڈ	-1523
▁دلچ	-1524
▁گرفت	-1525
▁میچوں	-1526
▁کون	-1527
▁اسکور	-1528
شید	-1529
▁فتح	-1530
▁مقامی	-1531
▁سف	-1532
انہوں	-1533
▁دوسرا	-1534
صر	-1535
▁اول	-1536
▁ٹوئنٹی	-1537
▁صحت	-1538
▁عبدال	-1539
وظ	-1540
▁ہدف	-1541
چے	-1542
▁سید	-1543
▁سفر	-1544
▁ستمبر	-1545
▁ایڈ	-1546
▁کپور	-1547
▁پالی	-1548
ادہ	-1549
ازت	-1550
▁متاثر	-1551
▁پڑا	-1552
حال	-1553
▁آئے	-1554
دیلی	-1555
▁اُس	-1556
▁روک	-1557
▁منٹ	-1558
▁نیوز	-1559
▁چھوٹ	-1560
▁پیچھے	-1561
▁سالہ	-1562
▁بننے	-1563
▁بنگلہ	-1564
▁سلی	-1565
▁کلو	-1566
ارک	-1567
▁گذ	-1568
▁یور	-1569
▁تجر	-1570
▁سکی	-1571
▁تبدیلی	-1572
▁نکال	-1573
▁محسوس	-1574
اسٹ	-1575
▁اجازت	-1576
ائب	-1577
▁فیڈ	-1578
▁عرب	-1579
▁سٹریلیا	-1580
زاز	-1581
ا۔	-1582
▁ہاں	-1583
لسل	-1584
▁رکھتے	-1585
▁وفاقی	-1586
▁تیسرے	-1587
جر	-1588
مح	-1589
▁بلوچ	-1590
▁لیں	-1591
▁کیسے	-1592
▁فائ	-1593
عنی	-1594
▁ہاکی	-1595
خلاف	-1596
▁رہنے	-1597
▁اگست	-1598
▁نوجو	-1599
▁شیخ	-1600
بات	-1601
یاتی	-1602
▁دنوں	-1603
▁سیٹ	-1604
▁پارٹی	-1605
▁سلمان	-1606
▁ڈائریکٹر	-1607
▁احس	-1608
▁ٹری	-1609
▁سنچ	-1610
شان	-1611
▁لگی	-1612
▁حکام	-1613
▁انڈیز	-1614
▁کورونا	-1615
▁ذمہ	-1616
▁ادارے	-1617
▁دف	-1618
نت	-1619
▁منعق	-1620
▁مئی	-1621
▁اسپ	-1622
▁اعزاز	-1623
▁میدان	-1624
▁جنہ	-1625
▁بچے	-1626
▁درج	-1627
▁ملے	-1628
▁ہوگا	-1629
فتہ	-1630
▁بولی	-1631
▁پیسے	-1632
سط	-1633
▁امکان	-1634
وف	-1635
ائیڈ	-1636
▁کہہ	-1637
▁نما	-1638
▁علم	-1639
▁شدید	-1640
▁سرفراز	-1641
▁چینی	-1642
▁ہا	-1643
ہور	-1644
▁خدم	-1645
▁وکٹیں	-1646
▁ساز	-1647
اون	-1648
ریح	-1649
الیہ	-1650
▁اہل	-1651
▁ذہ	-1652
▁آباد	-1653
▁کورٹ	-1654
▁وکٹوں	-1655
▁چوت	-1656
▁چیمپئن	-1657
▁پیغ	-1658
▁بنیاد	-1659
▁!	-1660
▁وائرس	-1661
فاظ	-1662
▁تعلیم	-1663
▁ہار	-1664
▁مرح	-1665
▁فروری	-1666
▁احت	-1667
حد	-1668
▁مہنگ	-1669
روس	-1670
▁توجہ	-1671
▁رہیں	-1672
▁حکم	-1673
▁قرض	-1674
ادر	-1675
وپ	-1676
▁نظام	-1677
▁ہو۔	-1678
▁ہیر	-1679
▁عائد	-1680
▁انص	-1681
▁دکھائی	-1682
▁کرن	-1683
▁آواز	-1684
▁ٹھی	-1685
▁ہندوستان	-1686
▁پک	-1687
راج	-1688
▁انتظام	-1689
▁یونی	-1690
▁۳۰	-1691
رس	-1692
▁شمار	-1693
▁حل	-1694
▁لگے	-1695
▁ڈیس	-1696
▁مظاہرہ	-1697
▁افریقہ	-1698
▁گھنٹ	-1699
▁دیر	-1700
▁مداح	-1701
▁فض	-1702
▁شاع	-1703
▁شائ	-1704
وامی	-1705
▁اختتام	-1706
▁یعنی	-1707
▁رخ	-1708
▁فیڈریشن	-1709
▁محف	-1710
▁تنقید	-1711
جو	-1712
▁کردہ	-1713
▁تیزی	-1714
▁شرح	-1715
▁کردیا	-1716
▁ملاز	-1717
کاروں	-1718
▁فیصلے	-1719
▁صلاحیت	-1720
▁تقریبا	-1721
▁راج	-1722
▁ملز	-1723
ندن	-1724
▁کیخلاف	-1725
▁روزہ	-1726
ونٹی	-1727
▁پن	-1728
▁نہیں۔	-1729
▁مف	-1730
▁رہن	-1731
فارم	-1732
▁۱۱	-1733
▁حر	-1734
▁پالیسی	-1735
▁ں	-1736
▁خوشی	-1737
▁چہ	-1738
▁رقم	-1739
انوی	-1740
زن	-1741
▁مان	-1742
نسل	-1743
▁سنگھ	-1744
▁شاید	-1745
▁مرکزی	-1746
▁سونے	-1747
▁نوٹ	-1748
▁راست	-1749
▁پوزیشن	-1750
▁الاق	-1751
▁کیلیے	-1752
▁اقبال	-1753
▁بھیج	-1754
▁ریٹ	-1755
▁خبروں	-1756
▁تحریک	-1757
▁سکیں	-1758
▁تاج	-1759
دائی	-1760
▁مشہور	-1761
بح	-1762
حک	-1763
▁پورا	-1764
▁چھو	-1765
▁گئے۔	-1766
▁گیم	-1767
▁اپریل	-1768
ریس	-1769
ستی	-1770
بائل	-1771
▁گذشتہ	-1772
▁سیمی	-1773
▁ملی	-1774
براہ	-1775
▁افس	-1776
▁خوبص	-1777
▁الاقوامی	-1778
▁اسٹار	-1779
▁وسیم	-1780
▁بجا	-1781
▁لگتا	-1782
▁چلا	-1783
▁صورتحال	-1784
▁مقصد	-1785
▁برق	-1786
یکل	-1787
▁ڈیسک	-1788
▁اقدامات	-1789
▁حالات	-1790
▁مصنو	-1791
اٹ	-1792
ٹرول	-1793
▁ریس	-1794
▁ایکشن	-1795
ائس	-1796
▁آد	-1797
▁جسم	-1798
یدر	-1799
▁چاہتا	-1800
حان	-1801
لک	-1802
یادت	-1803
▁بالکل	-1804
▁اتنا	-1805
سٹم	-1806
▁آنے	-1807
▁تفریح	-1808
▁جانا	-1809
▁اتنی	-1810
▁امریکہ	-1811
انوں	-1812
▁۲۵	-1813
▁منہ	-1814
▁فائل	-1815
▁اقت	-1816
▁داری	-1817
▁موبائل	-1818
▁تیل	-1819
▁گری	-1820
▁قانون	-1821
▁باک	-1822
ہرست	-1823
▁درجہ	-1824
▁ملین	-1825
اقت	-1826
▁کی۔	-1827
▁آف	-1828
▁متح	-1829
سب	-1830
باح	-1831
▁ھ	-1832
▁۲۴	-1833
▁”	-1834
▁مسئ	-1835
▁متعارف	-1836
▁باب	-1837
▁جذ	-1838
▁لندن	-1839
▁پرفارم	-1840
▁بیٹی	-1841
▁فور	-1842
▁فیصل	-1843
▁مرد	-1844
اکت	-1845
▁دینا	-1846
▁مشتمل	-1847
▁جائ	-1848
ذا	-1849
▁تھیں۔	-1850
▁زور	-1851
▁۱۴	-1852
▁جما	-1853
▁ناق	-1854
▁جاو	-1855
▁دیتا	-1856
▁شائقین	-1857
▁تس	-1858
بوط	-1859
▁ایشیا	-1860
▁سلسلہ	-1861
▁فو	-1862
▁کمپنیوں	-1863
▁قیادت	-1864
▁خاتون	-1865
یث	-1866
▁مسلسل	-1867
▁پڑے	-1868
▁وزارت	-1869
▁خواہش	-1870
عیب	-1871
▁موجودہ	-1872
▁صنعت	-1873
▁ٹھیک	-1874
▁انڈیا	-1875
فرنس	-1876
اکر	-1877
▁تلا	-1878
اویر	-1879
▁کاررو	-1880
ورسٹی	-1881
▁معم	-1882
▁جائی	-1883
▁دبئی	-1884
قبل	-1885
▁درو	-1886
▁ہاتھوں	-1887
▁اداروں	-1888
ولہ	-1889
▁منی	-1890
ٹے	-1891
▁کاروباری	-1892
▁شیڈ	-1893
نوان	-1894
▁عورت	-1895
تل	-1896
یثیت	-1897
▁فاسٹ	-1898
▁...	-1899
▁ہیڈ	-1900
▁ٹیمیں	-1901
▁پیداوار	-1902
▁دیئے	-1903
▁درجے	-1904
▁فائدہ	-1905
▁بع	-1906
▁کونسل	-1907
▁زخ	-1908
▁دہشت	-1909
ژن	-1910
▁حصص	-1911
▁میٹر	-1912
▁اگلے	-1913
▁خال	-1914
ٹڈ	-1915
▁سائٹ	-1916
▁کش	-1917
▁اغاز	-1918
▁صدی	-1919
▁تصاویر	-1920
▁طلب	-1921
▁نمایاں	-1922
▁رائے	-1923
▁ماں	-1924
▁خراب	-1925
▁۱۳	-1926
▁سرگر	-1927
▁لفظ	-1928
▁فارم	-1929
اہمی	-1930
▁سلط	-1931
لیو	-1932
▁بنے	-1933
▁رح	-1934
▁الیکشن	-1935
▁قل	-1936
اگ	-1937
فیظ	-1938
▁برقرار	-1939
▁راہ	-1940
▁رن	-1941
▁زم	-1942
▁سود	-1943
▁عنوان	-1944
▁خی	-1945
▁لب	-1946
▁قدم	-1947
▁افت	-1948
▁پیغام	-1949
▁آس	-1950
▁جاوید	-1951
▁اُن	-1952
▁سلسلے	-1953
▁ٹرافی	-1954
▁باقی	-1955
▁فروغ	-1956
ولپ	-1957
▁متعد	-1958
انک	-1959
▁منعقد	-1960
▁مول	-1961
▁امد	-1962
خبر	-1963
▁۰	-1964
▁ترج	-1965
▁خز	-1966
▁افغانستان	-1967
▁بیگ	-1968
▁کشم	-1969
▁صبح	-1970
▁اکی	-1971
▁ماہرین	-1972
▁سنج	-1973
دیل	-1974
▁ملنے	-1975
▁کہا۔	-1976
▁انسانی	-1977
▁ابتدائی	-1978
یاب	-1979
▁الزام	-1980
▁۱۶	-1981
▁علاقے	-1982
گار	-1983
▁مقام	-1984
▁معاشی	-1985
▁فوج	-1986
خب	-1987
▁قتل	-1988
▁رکھتی	-1989
▁قد	-1990
یکی	-1991
دھ	-1992
▁سرکاری	-1993
▁انصاف	-1994
ایت	-1995
▁عالم	-1996
▁رین	-1997
بانی	-1998
▁مسلم	-1999
▁پوسٹ	-2000
▁لوٹ	-2001
▁طے	-2002
▁تعلقات	-2003
لمی	-2004
▁یونیورسٹی	-2005
▁محفوظ	-2006
گن	-2007
غر	-2008
▁امریکا	-2009
ڑک	-2010
▁جیس	-2011
▁ہائی	-2012
یدہ	-2013
▁کیں	-2014
▁ایچ	-2015
چہ	-2016
▁سیکر	-2017
▁شعیب	-2018
امہ	-2019
▁بٹ	-2020
▁تہ	-2021
▁اکر	-2022
▁متعدد	-2023
▁اوورز	-2024
▁الگ	-2025
رائی	-2026
لیہ	-2027
▁کارروائی	-2028
▁۱۹	-2029
▁قانونی	-2030
▁بط	-2031
▁انڈیکس	-2032
▁پین	-2033
حہ	-2034
▁کیم	-2035
▁گزار	-2036
▁میاں	-2037
▁یق	-2038
ڈا	-2039
▁مضبوط	-2040
▁سنچری	-2041
▁آئی	-2042
جد	-2043
▁مستقبل	-2044
▁کہاں	-2045
ڑوں	-2046
▁مری	-2047
▁قوم	-2048
ناک	-2049
▁خاندان	-2050
صول	-2051
▁گلی	-2052
شد	-2053
▁۵۰	-2054
یام	-2055
▁اسم	-2056
▁تیاری	-2057
مبلی	-2058
▁جماعت	-2059
▁دیکھتے	-2060
▁اسٹیڈیم	-2061
▁منگ	-2062
▁فوری	-2063
پو	-2064
تصویر	-2065
▁ڈیز	-2066
▁اسمبلی	-2067
▁بنائی	-2068
▁اچھے	-2069
▁تعمیر	-2070
▁آگے	-2071
ٹنگ	-2072
▁بدل	-2073
▁طال	-2074
▁حیدر	-2075
▁برت	-2076
▁شکل	-2077
▁اداکاری	-2078
▁کروں	-2079
ظر	-2080
▁نمائش	-2081
▁عرصے	-2082
▁حض	-2083
زل	-2084
باز	-2085
▁مصباح	-2086
▁عہد	-2087
▁بجٹ	-2088
▁مسلمان	-2089
▁بعض	-2090
▁نور	-2091
قہ	-2092
لائی	-2093
▁تنا	-2094
ویو	-2095
▁ناکام	-2096
▁روش	-2097
ہزار	-2098
▁شہزاد	-2099
واڈ	-2100
▁جدید	-2101
ائیکل	-2102
▁۱۸	-2103
▁گزر	-2104
▁کرس	-2105
▁تبدیل	-2106
▁بیٹے	-2107
▁خوف	-2108
▁سعودی	-2109
ئٹہ	-2110
▁قط	-2111
▁تلاش	-2112
▁رکھی	-2113
▁نع	-2114
▁نر	-2115
▁انع	-2116
▁داخل	-2117
▁ٹینس	-2118
ئیر	-2119
▁تقسیم	-2120
▁یقینی	-2121
ارب	-2122
الہ	-2123
▁یوں	-2124
اض	-2125
▁جت	-2126
ریر	-2127
مود	-2128
▁معاملے	-2129
▁رفت	-2130
▁خوبصورت	-2131
is	-2132
▁حفیظ	-2133
▁مہمان	-2134
▁کشمیر	-2135
بارک	-2136
▁بجے	-2137
▁وہی	-2138
▁بارش	-2139
▁شام	-2140
▁تعاون	-2141
▁شکر	-2142
اسک	-2143
▁سینئر	-2144
▁شیر	-2145
عقاد	-2146
▁بیم	-2147
▁سزا	-2148
▁حیثیت	-2149
▁والد	-2150
▁واپسی	-2151
▁طویل	-2152
▁ماح	-2153
▁سیکرٹری	-2154
▁موت	-2155
▁کمرے	-2156
▁ریاست	-2157
▁کوہ	-2158
▁یونس	-2159
▁گرفتار	-2160
▁میل	-2161
▁بابر	-2162
▁بلند	-2163
شر	-2164
▁کمیشن	-2165
▁انعقاد	-2166
▁منظر	-2167
▁سون	-2168
▁جسٹس	-2169
▁سماجی	-2170
▁اسٹریلیا	-2171
کردگی	-2172
▁واقع	-2173
▁منظوری	-2174
▁خطاب	-2175
▁خدمات	-2176
▁ویم	-2177
▁برابر	-2178
▁بلوچستان	-2179
▁بطور	-2180
▁اصل	-2181
▁آئ	-2182
▁سماعت	-2183
▁کرکٹرز	-2184
بیر	-2185
▁شعبے	-2186
▁بیک	-2187
فیصد	-2188
▁موسی	-2189
▁خیبر	-2190
کرو	-2191
▁باتیں	-2192
▁اسرائی	-2193
▁حقیقت	-2194
▁ٹوئ	-2195
▁خار	-2196
▁کانفرنس	-2197
راہ	-2198
▁الم	-2199
▁سبب	-2200
▁اظہر	-2201
▁دان	-2202
▁بہتری	-2203
▁میزبان	-2204
▁مصروف	-2205
▁بیٹس	-2206
▁فریدی	-2207
▁طریق	-2208
▁ہٹ	-2209
▁ایڈی	-2210
▁امت	-2211
▁پل	-2212
▁ذکر	-2213
▁رہنما	-2214
▁نیچے	-2215
▁آگ	-2216
▁جائزہ	-2217
▁سیاست	-2218
▁میک	-2219
▁ڈان	-2220
▁علاقوں	-2221
دری	-2222
▁گھروں	-2223
▁مقرر	-2224
▁گورن	-2225
▁۱۷	-2226
▁کھل	-2227
▁انتظامیہ	-2228
▁....	-2229
▁نجی	-2230
لیف	-2231
▁کوئٹہ	-2232
▁مصنوعات	-2233
▁چھوٹے	-2234
▁منس	-2235
▁خدا	-2236
▁ہوا۔	-2237
▁معاہد	-2238
▁مداحوں	-2239
▁تھو	-2240
ولپنڈی	-2241
ضہ	-2242
▁ہسپ	-2243
▁ملتان	-2244
▁پورے	-2245
▁کھول	-2246
▁لط	-2247
▁ماڈل	-2248
▁سروس	-2249
▁ٹاپ	-2250
▁کیمپ	-2251
▁محمود	-2252
▁شیڈول	-2253
▁مطالبہ	-2254
▁تیر	-2255
▁اعتم	-2256
ہم	-2257
▁طل	-2258
▁کارکردگی	-2259
▁تخ	-2260
▁اعت	-2261
▁دریا	-2262
جب	-2263
▁منصوبہ	-2264
کمہ	-2265
▁اختر	-2266
▁وس	-2267
عدہ	-2268
تمام	-2269
▁متحدہ	-2270
▁کیری	-2271
▁سعید	-2272
▁اسکے	-2273
▁حو	-2274
دیق	-2275
یسر	-2276
▁پخت	-2277
▁برطانوی	-2278
▁فہرست	-2279
▁احساس	-2280
▁بزنس	-2281
▁جے	-2282
▁پتہ	-2283
▁چوہ	-2284
▁ماضی	-2285
▁کاروں	-2286
▁اطلا	-2287
▁محنت	-2288
▁بیٹسمین	-2289
▁فٹبال	-2290
داری	-2291
▁خبریں	-2292
▁حالت	-2293
▁بندی	-2294
▁معلومات	-2295
▁ایئر	-2296
▁مثبت	-2297
in	-2298
▁تصدیق	-2299
▁دیتی	-2300
واہ	-2301
▁ٹرین	-2302
▁نت	-2303
▁ریاض	-2304
▁رابطہ	-2305
▁انتظار	-2306
▁کھیلی	-2307
▁نشانہ	-2308
حی	-2309
▁نتیجے	-2310
▁رائ	-2311
▁پلان	-2312
کرا	-2313
▁ناز	-2314
▁سربراہ	-2315
▁توڑ	-2316
▁ٹونٹی	-2317
▁امن	-2318
▁عباس	-2319
▁مند	-2320
▁لکھیں۔	-2321
▁انڈر	-2322
▁تجارت	-2323
▁تنظیم	-2324
▁عرف	-2325
▁انکار	-2326
▁رہتے	-2327
▁انتخابات	-2328
شنز	-2329
▁اوپر	-2330
▁نگر	-2331
▁موسم	-2332
شق	-2333
▁منصوبے	-2334
▁غور	-2335
طن	-2336
▁آدمی	-2337
▁سہیل	-2338
▁سکور	-2339
▁پچ	-2340
▁A	-2341
▁زخمی	-2342
کروڑ	-2343
▁اٹھا	-2344
▁شدہ	-2345
▁رکھے	-2346
ینڈ	-2347
▁صوبائی	-2348
▁اخری	-2349
ئرز	-2350
▁انڈین	-2351
▁۲۲	-2352
▁ڈرامہ	-2353
▁اسکی	-2354
لاکھ	-2355
▁ہالی	-2356
▁چلے	-2357
▁لائ	-2358
▁اعتماد	-2359
▁اشیا	-2360
▁انٹرویو	-2361
▁وغیر	-2362
▁مہم	-2363
▁مرزا	-2364
▁شوٹ	-2365
▁ویں	-2366
▁کھانے	-2367
▁چاہتی	-2368
▁انسٹ	-2369
▁جنہوں	-2370
▁چاہئے	-2371
▁آنکھوں	-2372
▁اکثر	-2373
▁تمہیں	-2374
▁دھم	-2375
▁راولپنڈی	-2376
▁الدین	-2377
▁توقع	-2378
▁عمدہ	-2379
▁روس	-2380
لش	-2381
▁قری	-2382
▁بلی	-2383
چین	-2384
▁ٹوئٹر	-2385
▁یں	-2386
▁خزانہ	-2387
▁چن	-2388
▁چہرے	-2389
▁نیٹ	-2390
▁منتخب	-2391
▁انجام	-2392
کنگ	-2393
صل	-2394
▁بیوی	-2395
▁خور	-2396
▁سان	-2397
▁سلطان	-2398
شاہ	-2399
▁چیل	-2400
▁درست	-2401
▁شہباز	-2402
▁ایران	-2403
▁دہلی	-2404
▁نامی	-2405
پا	-2406
▁اون	-2407
▁پچھ	-2408
▁آہ	-2409
▁کرپ	-2410
▁بولا	-2411
لوی	-2412
▁وغیرہ	-2413
▁روشنی	-2414
▁برا	-2415
▁کرنی	-2416
گت	-2417
▁گانے	-2418
احت	-2419
▁فنڈ	-2420
▁مسئلہ	-2421
▁عث	-2422
▁کلاس	-2423
▁طب	-2424
▁برتری	-2425
ائیو	-2426
▁اعلیٰ	-2427
▁شوہر	-2428
▁پیک	-2429
▁چیمبر	-2430
▁مچ	-2431
▁بنیا	-2432
▁ترجمان	-2433
لیٹ	-2434
▁سج	-2435
▁داد	-2436
▁لیتے	-2437
▁پریس	-2438
خری	-2439
▁شریک	-2440
▁دعوی	-2441
▁فخر	-2442
▁اسٹاک	-2443
▁اکرم	-2444
▁منتقل	-2445
▁الرح	-2446
جاج	-2447
▁مشکلات	-2448
▁مالیت	-2449
خبروں	-2450
▁صاف	-2451
▁محکمہ	-2452
▁تجربہ	-2453
ادلہ	-2454
واں	-2455
▁ہسپتال	-2456
▁مبارک	-2457
▁طاقت	-2458
▁اہمیت	-2459
▁برمد	-2460
▁اسد	-2461
علی	-2462
▁کرکے	-2463
▁لگایا	-2464
▁اولمپ	-2465
▁مطلب	-2466
▁یک	-2467
▁لمح	-2468
▁جیتنے	-2469
▁جار	-2470
▁خون	-2471
▁فیلڈ	-2472
▁مانگ	-2473
▁چو	-2474
▁جائے۔	-2475
▁افری	-2476
یوں	-2477
▁تجارتی	-2478
▁برطانیہ	-2479
▁کھو	-2480
▁کریں۔	-2481
▁اقتص	-2482
ویٹ	-2483
شیا	-2484
▁دبا	-2485
▁پائی	-2486
▁لہذا	-2487
▁ساتھی	-2488
▁خیر	-2489
▁پرفارمنس	-2490
▁وطن	-2491
ضو	-2492
▁اسٹیٹ	-2493
▁بہن	-2494
▁کری	-2495
▁چیت	-2496
▁رون	-2497
▁روم	-2498
▁مقد	-2499
▁ڈرامے	-2500
▁گہ	-2501
▁پائے	-2502
▁مذہ	-2503
▁تے	-2504
فہ	-2505
▁لک	-2506
یکا	-2507
▁ساری	-2508
▁پہنچا	-2509
▁ویر	-2510
الیف	-2511
▁الفاظ	-2512
▁آتا	-2513
▁بیچ	-2514
▁میگا	-2515
▁جیل	-2516
▁سور	-2517
ٹک	-2518
▁۲۱	-2519
بوں	-2520
▁دم	-2521
▁ٹائٹ	-2522
▁ادائی	-2523
▁۲۳	-2524
▁گھنٹے	-2525
▁جیسی	-2526
▁دلچسپ	-2527
مق	-2528
▁ظفر	-2529
▁ہیرو	-2530
▁مثال	-2531
▁معاہدے	-2532
بور	-2533
▁سچ	-2534
فیق	-2535
▁سسٹم	-2536
یکٹ	-2537
▁مقبول	-2538
سیع	-2539
اسی	-2540
▁بنیادی	-2541
▁گلوکار	-2542
ادری	-2543
▁معامل	-2544
▁کاشت	-2545
▁ہمارا	-2546
▁سنی	-2547
▁خواب	-2548
▁سہولت	-2549
▁قاب	-2550
▁دستیاب	-2551
مے	-2552
ذیر	-2553
▁حملے	-2554
▁۴۰	-2555
▁پختون	-2556
▁مخال	-2557
▁کیپ	-2558
▁کیریئر	-2559
▁متعلقہ	-2560
▁فرق	-2561
▁غص	-2562
ولیت	-2563
ارات	-2564
▁شہرت	-2565
▁لوڈ	-2566
▁آب	-2567
▁چیلنج	-2568
▁روشن	-2569
▁احتجاج	-2570
▁سیکی	-2571
▁گران	-2572
▁باکس	-2573
▁جیسا	-2574
▁کردی	-2575
▁آخر	-2576
▁منظور	-2577
▁حیات	-2578
▁اکمل	-2579
▁فوجی	-2580
▁معاملات	-2581
▁چیئرمین	-2582
▁حیرت	-2583
▁ٹن	-2584
▁حیران	-2585
▁اقتصادی	-2586
ہی	-2587
▁فلمیں	-2588
دت	-2589
▁پروف	-2590
▁ادب	-2591
سپی	-2592
▁گاہ	-2593
▁سیزن	-2594
ہا	-2595
▁دی۔	-2596
▁پیٹر	-2597
سٹک	-2598
▁طریقہ	-2599
▁عظیم	-2600
▁جارہ	-2601
ائج	-2602
▁تعین	-2603
ریہ	-2604
▁شعبہ	-2605
مباب	-2606
▁طبی	-2607
▁ہمراہ	-2608
▁نائب	-2609
▁ٹران	-2610
▁مانی	-2611
▁تیسری	-2612
▁سنبھ	-2613
▁کیٹ	-2614
▁کامرس	-2615
داشت	-2616
▁قص	-2617
تھی	-2618
دود	-2619
▁کالج	-2620
▁انگلش	-2621
مز	-2622
▁سارے	-2623
▁اتر	-2624
▁ضل	-2625
▁ذیل	-2626
▁۱۰۰	-2627
▁ڈپ	-2628
▁کاسٹ	-2629
▁کیف	-2630
▁نوٹس	-2631
▁یار	-2632
▁پریشان	-2633
▁نف	-2634
شتر	-2635
▁بیٹھے	-2636
▁ویل	-2637
▁ائے	-2638
▁سٹری	-2639
▁حملہ	-2640
▁عید	-2641
▁ایگز	-2642
▁برو	-2643
▁قیام	-2644
▁حریف	-2645
▁برائے	-2646
وروں	-2647
▁وہیں	-2648
▁قبول	-2649
▁ٹیل	-2650
▁ہن	-2651
▁مقابلوں	-2652
▁ئندہ	-2653
▁مقدم	-2654
▁ٹک	-2655
▁چوتھے	-2656
ایک	-2657
▁قب	-2658
▁رد	-2659
▁چڑھ	-2660
▁اندازہ	-2661
▁کھیلوں	-2662
▁بدولت	-2663
▁حما	-2664
تیب	-2665
▁کررہ	-2666
▁ٹیلی	-2667
▁سمی	-2668
▁ذخ	-2669
ویلین	-2670
▁کمار	-2671
▁گیمز	-2672
▁مواد	-2673
▁کوار	-2674
▁ماحول	-2675
▁گرام	-2676
▁مسکر	-2677
▁دیو	-2678
▁حوص	-2679
ئنز	-2680
▁خس	-2681
▁تحفظ	-2682
▁زندہ	-2683
میل	-2684
نک	-2685
▁یاسر	-2686
▁علاج	-2687
▁صحافی	-2688
▁عثمان	-2689
▁کلی	-2690
▁پول	-2691
▁نشان	-2692
▁ریم	-2693
▁رہتا	-2694
▁معمولی	-2695
▁اتھ	-2696
▁ایج	-2697
▁رہتی	-2698
اً	-2699
▁زین	-2700
ھیر	-2701
▁سائ	-2702
▁بش	-2703
▁طریقے	-2704
دد	-2705
تمی	-2706
توں	-2707
▁سیکیورٹی	-2708
▁گن	-2709
▁آتے	-2710
زادی	-2711
▁ادائیگی	-2712
ارٹی	-2713
▁کوالیف	-2714
▁سنا	-2715
▁زبر	-2716
▁معیار	-2717
فاق	-2718
▁غر	-2719
بیت	-2720
▁ناقابل	-2721
▁کروا	-2722
▁نمائندگی	-2723
▁ٹاس	-2724
▁سٹیڈیم	-2725
▁جواب	-2726
▁روح	-2727
اڑ	-2728
▁اہلیہ	-2729
▁مبنی	-2730
▁خوا	-2731
پوائنٹ	-2732
▁ٹائٹل	-2733
▁اشرف	-2734
اؤ	-2735
▁فراہمی	-2736
▁دلچسپی	-2737
وبز	-2738
▁آنکھیں	-2739
▁سلام	-2740
▁معاملہ	-2741
▁مستح	-2742
▁بالر	-2743
▁باپ	-2744
▁کہنے	-2745
▁پیم	-2746
▁زمباب	-2747
یح	-2748
▁مقررہ	-2749
▁دورے	-2750
▁مرحلے	-2751
▁چوہدری	-2752
▁دین	-2753
▁ند	-2754
▁شائع	-2755
▁فکر	-2756
▁عملی	-2757
▁جاپ	-2758
ورٹ	-2759
کارہ	-2760
▁ہےاس	-2761
کٹس	-2762
▁آتی	-2763
▁انتق	-2764
▁ہونگ	-2765
▁ایر	-2766
▁عرفان	-2767
▁لگانے	-2768
▁صدار	-2769
▁نگار	-2770
▁ریل	-2771
▁ڈب	-2772
▁اثرات	-2773
▁تحقیقات	-2774
▁نتائج	-2775
▁موضو	-2776
▁روانہ	-2777
▁بیس	-2778
▁محدود	-2779
ہرہ	-2780
▁سالانہ	-2781
▁بازی	-2782
اتح	-2783
▁افسوس	-2784
▁رضا	-2785
▁ہوگئی	-2786
▁صد	-2787
دن	-2788
کوں	-2789
▁خیالات	-2790
رکہ	-2791
ٹنے	-2792
▁بولنگ	-2793
▁چلی	-2794
میوں	-2795
▁چھوٹی	-2796
▁ئیں	-2797
▁سٹار	-2798
▁سپریم	-2799
▁وض	-2800
▁خد	-2801
▁نار	-2802
▁کھڑے	-2803
▁شرما	-2804
ادت	-2805
ist	-2806
▁لانے	-2807
یاز	-2808
▁ہوئیں	-2809
▁زلمی	-2810
▁مولانا	-2811
اگرام	-2812
▁اکان	-2813
▁جر	-2814
▁معاش	-2815
▁امام	-2816
▁مجبور	-2817
▁الیون	-2818
▁مندر	-2819
▁متو	-2820
▁شکا	-2821
▁سکا	-2822
▁شاد	-2823
ماغ	-2824
▁انکش	-2825
▁پیار	-2826
▁سڑک	-2827
▁ناول	-2828
▁اعداد	-2829
فع	-2830
شے	-2831
انڈر	-2832
▁اتنے	-2833
▁واقعات	-2834
▁روپ	-2835
er	-2836
فلم	-2837
▁کنٹرول	-2838
▁خانہ	-2839
▁کوہلی	-2840
▁جانتے	-2841
▁پوچھا	-2842
▁۲۶	-2843
▁چا	-2844
▁کوارٹر	-2845
▁باس	-2846
▁انکشاف	-2847
▁قید	-2848
ورز	-2849
چینج	-2850
▁ادھر	-2851
▁حالیہ	-2852
زد	-2853
راض	-2854
اقب	-2855
لاب	-2856
▁روڈ	-2857
▁پروڈیو	-2858
▁براہ	-2859
▁سینی	-2860
▁پھیل	-2861
▁میوز	-2862
▁محض	-2863
لت	-2864
▁H	-2865
لیل	-2866
▁برامد	-2867
▁حمایت	-2868
▁رم	-2869
▁گرین	-2870
ولیم	-2871
▁ممبر	-2872
▁تینوں	-2873
▁گند	-2874
▁باق	-2875
▁اچانک	-2876
▁تعریف	-2877
ے۔	-2878
▁سل	-2879
▁مایو	-2880
▁دماغ	-2881
اہدہ	-2882
جنسی	-2883
سین	-2884
▁رکھتا	-2885
▁بڑھا	-2886
▁پیپ	-2887
▁نیوی	-2888
▁الزامات	-2889
▁چم	-2890
ئل	-2891
ڑھے	-2892
▁بگ	-2893
▁دیکھی	-2894
▁تصور	-2895
▁سیل	-2896
▁لیا۔	-2897
▁سکیورٹی	-2898
▁بیل	-2899
▁اسٹری	-2900
▁فال	-2901
جنگ	-2902
▁شاعری	-2903
▁فکس	-2904
▁مور	-2905
▁شوٹنگ	-2906
▁رفتار	-2907
▁انسٹاگرام	-2908
▁مزاح	-2909
▁کھڑا	-2910
▁حقوق	-2911
رک	-2912
▁افتتا	-2913
▁شنا	-2914
ادث	-2915
▁چود	-2916
▁ایگزیک	-2917
▁پڑتا	-2918
سال	-2919
▁ہوئی۔	-2920
▁گھوم	-2921
▁سکول	-2922
▁مغر	-2923
طل	-2924
▁پویلین	-2925
▁کنگ	-2926
اویز	-2927
▁کمر	-2928
▁شخصیت	-2929
▁سینٹر	-2930
▁یکم	-2931
کیشن	-2932
▁واحد	-2933
▁رسائی	-2934
▁عط	-2935
داد	-2936
▁زمبابوے	-2937
حا	-2938
۰۰	-2939
▁جہاز	-2940
دوس	-2941
▁آزاد	-2942
▁غلطی	-2943
▁بالنگ	-2944
▁خیز	-2945
▁جملے	-2946
انت	-2947
عال	-2948
▁ہونی	-2949
▁عرصہ	-2950
رد	-2951
▁تربیت	-2952
▁خواجہ	-2953
▁ناص	-2954
▁ایکسچینج	-2955
ابی	-2956
▁رجحان	-2957
▁پلا	-2958
▁شوبز	-2959
▁تیسرا	-2960
▁تحریر	-2961
▁عزت	-2962
▁شب	-2963
▁غال	-2964
▁کمز	-2965
▁بیماری	-2966
on	-2967
▁عدم	-2968
▁خالد	-2969
ڈنگ	-2970
▁مقدمہ	-2971
▁علام	-2972
▁۲۸	-2973
▁اسلامی	-2974
▁جام	-2975
▁پختونخوا	-2976
▁واقعہ	-2977
▁۲۷	-2978
▁پاور	-2979
▁ریٹائر	-2980
ss	-2981
▁کارڈ	-2982
▁سنہ	-2983
▁رام	-2984
▁ٹوٹ	-2985
▁ووٹ	-2986
▁مالک	-2987
▁ملازمین	-2988
مار	-2989
▁اڑ	-2990
لن	-2991
▁فلس	-2992
▁پانچویں	-2993
▁مخصوص	-2994
▁دعوت	-2995
▁حصے	-2996
ھوں	-2997
▁ائندہ	-2998
▁ذاتی	-2999
▁حتمی	-3000
▁لینا	-3001
▁انی	-3002
▁منفی	-3003
▁پیس	-3004
▁حادث	-3005
▁ہوکر	-3006
▁سائیکل	-3007
▁سلیم	-3008
▁حکومتی	-3009
▁سکھ	-3010
▁تکلیف	-3011
ریت	-3012
▁فرانس	-3013
▁ہرا	-3014
▁فائر	-3015
▁پڑی	-3016
▁اسکواڈ	-3017
▁حوصلہ	-3018
▁زی	-3019
ومت	-3020
▁قائد	-3021
حکام	-3022
▁غلام	-3023
▁کمشن	-3024
شک	-3025
▁چاند	-3026
▁پکڑ	-3027
▁فہ	-3028
▁ترجی	-3029
istan	-3030
▁بڑھانے	-3031
▁پورٹ	-3032
▁کیچ	-3033
▁فواد	-3034
▁یوس	-3035
▁زبرد	-3036
ڈو	-3037
▁آخری	-3038
▁ہوٹل	-3039
▁رابطے	-3040
▁کھانا	-3041
▁حضرت	-3042
▁ٹائم	-3043
،،	-3044
اقع	-3045
اء	-3046
▁زمان	-3047
▁سینما	-3048
▁مریض	-3049
▁مشترکہ	-3050
▁رشید	-3051
بین	-3052
▁شراکت	-3053
▁ایکسپ	-3054
▁اخراج	-3055
▁پہلو	-3056
▁غریب	-3057
یرہ	-3058
اریہ	-3059
▁درمد	-3060
فے	-3061
دل	-3062
▁دعا	-3063
▁کیساتھ	-3064
▁جج	-3065
▁موٹر	-3066
▁کنٹ	-3067
▁درد	-3068
ڈمی	-3069
▁جونی	-3070
▁کرایا	-3071
▁ذہن	-3072
ھیں	-3073
▁حصول	-3074
▁گوگل	-3075
▁واقعی	-3076
▁کرپشن	-3077
▁اسکول	-3078
▁الیکٹر	-3079
▁نامور	-3080
▁چپ	-3081
▁ترکی	-3082
واضح	-3083
um	-3084
▁رکن	-3085
▁نہایت	-3086
▁سنس	-3087
اہے	-3088
▁دیکھنا	-3089
▁نج	-3090
▁بولر	-3091
▁لنکن	-3092
▁ماب	-3093
ew	-3094
▁فٹنس	-3095
▁کیر	-3096
▁عزیز	-3097
▁اث	-3098
▁پہن	-3099
▁طی	-3100
▁تھام	-3101
▁مواقع	-3102
▁اپیل	-3103
جوہ	-3104
▁تسلیم	-3105
▁امیدو	-3106
قات	-3107
▁حلق	-3108
▁اہتمام	-3109
▁اسکرین	-3110
▁واب	-3111
▁بھاری	-3112
افت	-3113
▁کہاکہ	-3114
▁درواز	-3115
▁گولڈ	-3116
▁لگائے	-3117
▁بیگم	-3118
▁حجم	-3119
▁بھول	-3120
▁فرم	-3121
▁پال	-3122
▁مناسب	-3123
ایتی	-3124
▁سنبھال	-3125
▁یافتہ	-3126
▁گیندوں	-3127
نم	-3128
▁زرا	-3129
▁دھر	-3130
رب	-3131
بتہ	-3132
▁افسر	-3133
▁بنی	-3134
پنر	-3135
▁مختصر	-3136
▁بحران	-3137
ائیوں	-3138
افٹ	-3139
▁نتیجہ	-3140
▁مدت	-3141
▁ویسے	-3142
▁صحیح	-3143
▁ڈبلیو	-3144
▁تمہارے	-3145
▁وکیل	-3146
خواہ	-3147
▁گرا	-3148
▁ٹرم	-3149
وث	-3150
▁تباہ	-3151
▁پہنچنے	-3152
▁دوڑ	-3153
▁وفد	-3154
▁انتقال	-3155
▁امپ	-3156
▁پہنچے	-3157
▁ماس	-3158
▁سامان	-3159
▁رکھنا	-3160
▁جائیگا	-3161
حکومت	-3162
▁حرکت	-3163
کورہ	-3164
نڈا	-3165
▁ہلاک	-3166
ونگ	-3167
▁موسیقی	-3168
▁رپورٹس	-3169
جیب	-3170
▁خارجہ	-3171
▁دشم	-3172
▁انور	-3173
▁باغ	-3174
▁منافع	-3175
▁معاون	-3176
▁فاتح	-3177
▁ایشین	-3178
▁قابو	-3179
▁نشر	-3180
▁فلمی	-3181
▁جلدی	-3182
▁واٹس	-3183
▁نوجوان	-3184
▁ڈیٹا	-3185
▁قوت	-3186
▁جوش	-3187
▁شف	-3188
یاس	-3189
▁پایا	-3190
▁شہریوں	-3191
▁جنسی	-3192
▁ڈیزائن	-3193
▁انائی	-3194
▁وائرل	-3195
▁سست	-3196
▁اکیڈمی	-3197
ews	-3198
▁امیر	-3199
پٹ	-3200
▁تشدد	-3201
▁استحکام	-3202
▁مابین	-3203
ئین	-3204
▁اسپورٹس	-3205
اکرات	-3206
▁فیم	-3207
جا	-3208
▁سانس	-3209
ٹیف	-3210
▁رانا	-3211
▁کنگز	-3212
▁برداشت	-3213
▁سیف	-3214
▁دفاع	-3215
▁تشکیل	-3216
▁ڈبل	-3217
▁پروفیسر	-3218
▁اسرائیل	-3219
▁بدھ	-3220
وکٹ	-3221
▁ھے	-3222
▁یوسف	-3223
▁شاعر	-3224
▁وقار	-3225
▁والدہ	-3226
یف	-3227
▁شخصیات	-3228
نویر	-3229
جمنٹ	-3230
▁سلیکٹر	-3231
ٹین	-3232
▁متاث	-3233
▁تھری	-3234
راف	-3235
▁مسترد	-3236
یلی	-3237
ونیو	-3238
▁شاہین	-3239
▁بحالی	-3240
▁t	-3241
▁یونٹ	-3242
اعدہ	-3243
▁سلو	-3244
▁اگرچہ	-3245
▁مریم	-3246
▁سرگرمیوں	-3247
▁جاں	-3248
▁بحث	-3249
▁ڈار	-3250
▁صفر	-3251
▁ڈالرز	-3252
ur	-3253
▁فکسنگ	-3254
▁ادارہ	-3255
▁رکھیں	-3256
▁رینکنگ	-3257
▁کانگ	-3258
▁مہر	-3259
گان	-3260
ولر	-3261
▁حامل	-3262
بوت	-3263
▁ہفتہ	-3264
▁ثق	-3265
▁ترق	-3266
▁مذاکرات	-3267
روم	-3268
▁اتفاق	-3269
▁شہروں	-3270
▁گاڑیوں	-3271
▁گندم	-3272
▁ہوگیا	-3273
▁سیکٹر	-3274
وشی	-3275
▁لاہوراردو	-3276
▁ٹکٹ	-3277
▁انا	-3278
▁ٹرانس	-3279
▁۲۹	-3280
▁۳۱	-3281
▁ضلع	-3282
▁چھی	-3283
▁روایتی	-3284
▁گرم	-3285
▁ہوم	-3286
▁پھول	-3287
▁رش	-3288
▁نصف	-3289
قف	-3290
▁مرا	-3291
▁لگا۔	-3292
▁سرخ	-3293
فری	-3294
عتی	-3295
▁فیچر	-3296
▁خرچ	-3297
▁نبھ	-3298
▁کیٹگری	-3299
▁ٹرمپ	-3300
جاز	-3301
تیں	-3302
▁سفید	-3303
▁ڈوی	-3304
▁مہی	-3305
رینہ	-3306
کپ	-3307
ہے	-3308
▁انٹرنیٹ	-3309
▁البتہ	-3310
▁پیپلز	-3311
▁مہنگائی	-3312
▁تاریخی	-3313
▁فورس	-3314
▁آباد	-3315
▁بنانا	-3316
▁کمشنر	-3317
▁شدت	-3318
▁نسل	-3319
▁ترجیح	-3320
▁دوں	-3321
ریٹری	-3322
▁حوالہ	-3323
ئیے	-3324
▁چیک	-3325
فق	-3326
▁ہوئے۔	-3327
وانین	-3328
▁ین	-3329
▁اداکاروں	-3330
ارث	-3331
▁ائیں	-3332
▁عوامی	-3333
▁دروازے	-3334
▁کٹ	-3335
▁کرنسی	-3336
▁ملکوں	-3337
▁سپورٹ	-3338
وام	-3339
▁معاہدہ	-3340
▁مندرجہ	-3341
▁پتا	-3342
حاظ	-3343
▁رکنی	-3344
▁ڈیوڈ	-3345
▁مرکز	-3346
ائیٹڈ	-3347
▁مشر	-3348
▁موجودگی	-3349
نر	-3350
‘‘	-3351
▁مندی	-3352
▁بوجھ	-3353
▁پرویز	-3354
▁افریدی	-3355
▁راستے	-3356
▁حفاظ	-3357
▁حقیقی	-3358
وخ	-3359
▁وین	-3360
▁شعبوں	-3361
▁گلوکارہ	-3362
▁قوانین	-3363
▁جنہیں	-3364
▁تناز	-3365
▁عشق	-3366
▁کہتی	-3367
▁والدین	-3368
▁دفت	-3369
▁بحال	-3370
▁پذیر	-3371
▁اتھارٹی	-3372
▁ڈیلی	-3373
▁اطلاعات	-3374
▁تمہاری	-3375
▁امور	-3376
▁سراہ	-3377
▁ڈرا	-3378
گریز	-3379
▁رہا۔	-3380
▁منگل	-3381
▁خطر	-3382
▁نامہ	-3383
▁نرخ	-3384
▁دھو	-3385
▁جمہ	-3386
▁نیک	-3387
▁لاز	-3388
▁سالوں	-3389
▁دوستوں	-3390
▁بھا	-3391
▁غالب	-3392
▁گرانڈ	-3393
▁مذکورہ	-3394
▁ناصر	-3395
▁ایگزیکٹو	-3396
▁ٹریل	-3397
▁تقریباً	-3398
▁پہچ	-3399
▁ملزم	-3400
▁خاموش	-3401
ضان	-3402
▁اسلم	-3403
▁جمعرات	-3404
پوائنٹس	-3405
▁جلو	-3406
▁سمجھا	-3407
▁بخش	-3408
...	-3409
▁کھڑی	-3410
گیا	-3411
▁کرلیا	-3412
▁بارہ	-3413
▁فنکاروں	-3414
▁مسلمانوں	-3415
ھری	-3416
▁ہنگ	-3417
نامہ	-3418
▁آپ	-3419
▁زراعت	-3420
▁تولہ	-3421
▁ایا	-3422
▁دائر	-3423
▁جیم	-3424
▁ملوث	-3425
▁زرعی	-3426
▁وہاب	-3427
▁ایجنسی	-3428
▁بھاگ	-3429
▁لباس	-3430
▁روب	-3431
▁بق	-3432
▁ڈیل	-3433
▁میزبانی	-3434
▁ممکنہ	-3435
▁امارات	-3436
▁مشورہ	-3437
▁اوسط	-3438
▁اتح	-3439
▁تخلی	-3440
▁چائے	-3441
uman	-3442
▁رہے۔	-3443
اطر	-3444
▁Ass	-3445
▁منصوبوں	-3446
ولیات	-3447
▁کشی	-3448
▁ہونگے	-3449
فرد	-3450
▁پچھلے	-3451
at	-3452
▁الا	-3453
▁شعر	-3454
▁اعتر	-3455
▁رشتہ	-3456
▁وصول	-3457
▁اتوار	-3458
▁صدیقی	-3459
▁راستہ	-3460
▁ٹیکسٹ	-3461
▁ملت	-3462
خط	-3463
▁ٹریننگ	-3464
▁ترقیاتی	-3465
▁لحاظ	-3466
زم	-3467
▁Human	-3468
▁یونائیٹڈ	-3469
▁وابستہ	-3470
▁ذخائر	-3471
▁جانتا	-3472
▁ہوج	-3473
تیس	-3474
▁صلاحیتوں	-3475
میری	-3476
▁مبت	-3477
▁عجیب	-3478
▁اصلاح	-3479
▁خطرہ	-3480
▁احسان	-3481
▁جز	-3482
▁چر	-3483
▁ڈین	-3484
istant	-3485
عود	-3486
▁اتار	-3487
▁بیرون	-3488
▁پرست	-3489
ندرز	-3490
▁مخالف	-3491
▁پلیٹ	-3492
▁موضوع	-3493
▁پریکٹس	-3494
▁طرز	-3495
▁انعام	-3496
▁واقعے	-3497
▁چھپ	-3498
▁خاطر	-3499
▁تبص	-3500
▁چلنے	-3501
▁ورزی	-3502
al	-3503
▁ماہر	-3504
▁سیکھ	-3505
▁Assistant	-3506
▁فونز	-3507
▁بھرپور	-3508
▁انفر	-3509
وتھ	-3510
▁ڈالیں	-3511
کری	-3512
▁جمعہ	-3513
ڑھی	-3514
▁ڈیم	-3515
▁وجود	-3516
▁بھٹو	-3517
▁بنائیں	-3518
ضم	-3519
▁برادری	-3520
▁سیر	-3521
▁کمال	-3522
لوب	-3523
▁خریداری	-3524
▁ملتا	-3525
چا	-3526
▁حارث	-3527
▁ذرا	-3528
▁افسران	-3529
▁زبردست	-3530
▁کھا	-3531
▁جانی	-3532
▁سوئ	-3533
▁اعتراف	-3534
▁انکی	-3535
آمد	-3536
▁پروڈ	-3537
▁بازوں	-3538
▁دکھایا	-3539
واری	-3540
▁اسکا	-3541
▁شاداب	-3542
▁درامد	-3543
▁وٹ	-3544
▁ولیم	-3545
▁نیویارک	-3546
▁جارح	-3547
نوں	-3548
▁مسجد	-3549
ومیسٹک	-3550
▁کتنی	-3551
▁عمارت	-3552
▁چوک	-3553
▁مشین	-3554
▁"	-3555
▁ٹریلر	-3556
سل	-3557
صف	-3558
ینگے	-3559
جھے	-3560
▁شرم	-3561
▁فیشن	-3562
▁دیوار	-3563
▁کینی	-3564
▁اُسے	-3565
▁پرواز	-3566
▁گردی	-3567
▁جاپان	-3568
▁مبتلا	-3569
▁داخلہ	-3570
▁چہرہ	-3571
▁تھوڑی	-3572
▁فیملی	-3573
▁گیت	-3574
▁ملتی	-3575
▁عرو	-3576
روز	-3577
چکے	-3578
▁دلا	-3579
والی	-3580
▁ذہنی	-3581
▁کیپر	-3582
ریزی	-3583
▁جرمنی	-3584
▁بادشاہ	-3585
نگی	-3586
▁مستحکم	-3587
راء	-3588
▁لم	-3589
خیر	-3590
▁جیک	-3591
▁وضاحت	-3592
▁اضافی	-3593
▁صدارت	-3594
▁ویمن	-3595
▁انوں	-3596
▁کامی	-3597
▁کمزور	-3598
▁گیل	-3599
▁فصل	-3600
▁مالیاتی	-3601
▁اعجاز	-3602
▁کرائی	-3603
▁عہدے	-3604
▁منفرد	-3605
▁برمدات	-3606
▁دفتر	-3607
▁حاض	-3608
▁اخراجات	-3609
▁علیح	-3610
▁چاہے	-3611
حص	-3612
ارق	-3613
▁قلندرز	-3614
▁نگاہ	-3615
▁ویرات	-3616
▁مسعود	-3617
▁ڈرائی	-3618
▁زمانے	-3619
ناز	-3620
▁ورک	-3621
▁اقدام	-3622
اوی	-3623
لات	-3624
▁سفار	-3625
عمل	-3626
▁جوڑی	-3627
▁معطل	-3628
دیا	-3629
نٹس	-3630
▁ناکامی	-3631
▁گورنر	-3632
▁ڈومیسٹک	-3633
en	-3634
▁پید	-3635
▁چاہیے۔	-3636
▁منڈی	-3637
▁بیٹا	-3638
جس	-3639
▁آمد	-3640
▁کہتا	-3641
▁پارلیم	-3642
کسی	-3643
▁لال	-3644
▁فرح	-3645
▁سیکریٹری	-3646
ٹیل	-3647
کیا	-3648
▁روکنے	-3649
▁وزن	-3650
▁جھوٹ	-3651
▁نگری	-3652
▁کافی	-3653
▁ثبوت	-3654
▁پانے	-3655
▁کارکن	-3656
▁اکا	-3657
▁افریق	-3658
▁ٹائی	-3659
▁دلی	-3660
▁خالی	-3661
▁مرتب	-3662
▁نماز	-3663
▁آہستہ	-3664
اداک	-3665
▁جنی	-3666
▁دریافت	-3667
▁انگی	-3668
غا	-3669
▁یورپ	-3670
ڈین	-3671
▁پڑھی	-3672
▁کلچر	-3673
▁گانا	-3674
▁معنی	-3675
▁بازار	-3676
▁پیشکش	-3677
▁کیو	-3678
شانی	-3679
▁یونین	-3680
▁آغاز	-3681
▁کرائے	-3682
▁ائوٹ	-3683
▁حکمت	-3684
▁چینل	-3685
▁بلیک	-3686
▁ریلوے	-3687
▁ساڑھے	-3688
▁ریونیو	-3689
▁انو	-3690
▁نظم	-3691
▁ورنہ	-3692
▁۳۵	-3693
▁ڈیوٹی	-3694
▁رومان	-3695
▁بم	-3696
خیال	-3697
▁سرگرم	-3698
▁برسوں	-3699
بن	-3700
تھر	-3701
چرز	-3702
▁ازیں	-3703
نسر	-3704
▁ویز	-3705
▁ندیم	-3706
▁ایڈیشن	-3707
▁نفس	-3708
▁بچی	-3709
▁دکان	-3710
▁سمجھتے	-3711
▁اختلاف	-3712
▁گال	-3713
▁اینج	-3714
یکر	-3715
▁سیشن	-3716
▁شفیق	-3717
▁غم	-3718
یوٹر	-3719
▁سورج	-3720
▁ویمنز	-3721
▁مقامات	-3722
▁تنخواہ	-3723
اہٹ	-3724
انسی	-3725
▁سوچا	-3726
مزید	-3727
▁متوقع	-3728
▁محروم	-3729
▁فاص	-3730
دے	-3731
▁خاموشی	-3732
▁فائرنگ	-3733
ڈز	-3734
▁دیکھیں	-3735
▁بانی	-3736
▁اسمارٹ	-3737
▁فرنچ	-3738
▁ڈویژن	-3739
▁سارا	-3740
▁جونیئر	-3741
▁پناہ	-3742
نام	-3743
▁آرہ	-3744
▁موقف	-3745
▁خطرناک	-3746
▁صنعتی	-3747
▁میوزک	-3748
▁اٹھایا	-3749
▁ہزاروں	-3750
▁طاہر	-3751
▁تار	-3752
ڑیوں	-3753
شات	-3754
ٹھی	-3755
▁چیزیں	-3756
یرا	-3757
he	-3758
▁صوبے	-3759
▁لاش	-3760
▁فیڈر	-3761
▁تاجر	-3762
▁انگریزی	-3763
▁سیٹھی	-3764
فرت	-3765
▁عائ	-3766
▁۶۰	-3767
▁واش	-3768
▁خلا	-3769
▁وسط	-3770
▁رہنا	-3771
▁مقدار	-3772
▁کلام	-3773
▁فس	-3774
▁دکھانے	-3775
▁ارادہ	-3776
or	-3777
▁لیج	-3778
▁ماہرہ	-3779
اسم	-3780
▁کوالیفائی	-3781
انکا	-3782
گرہ	-3783
نف	-3784
▁حساب	-3785
▁کریم	-3786
▁امر	-3787
▁مساف	-3788
▁وسیع	-3789
دس	-3790
▁کھیلتے	-3791
▁مراد	-3792
زر	-3793
▁چوری	-3794
▁جاؤ	-3795
▁فنکار	-3796
▁بینکوں	-3797
▁عاب	-3798
▁ثنا	-3799
▁جذبات	-3800
▁مبینہ	-3801
▁تشوی	-3802
▁محسن	-3803
▁چوپ	-3804
▁نیل	-3805
▁سلیکشن	-3806
▁چیمپی	-3807
▁درکار	-3808
▁اوپنر	-3809
مبادلہ	-3810
اجی	-3811
▁ٹریڈ	-3812
طہ	-3813
پیکا	-3814
▁قمر	-3815
ar	-3816
▁ٹیکسٹائل	-3817
▁“	-3818
▁گلیڈی	-3819
اکے	-3820
▁ہال	-3821
▁قریشی	-3822
▁ولی	-3823
ڈال	-3824
ندوں	-3825
▁چھٹی	-3826
شور	-3827
▁مبارکباد	-3828
▁رضوان	-3829
▁کاب	-3830
▁پیٹ	-3831
▁کرسک	-3832
▁الہ	-3833
▁دفعہ	-3834
un	-3835
▁کروانے	-3836
▁رئی	-3837
▁قدیم	-3838
▁ہدایات	-3839
▁اوٹ	-3840
▁برامدات	-3841
▁رب	-3842
▁شوق	-3843
▁بابا	-3844
▁دارال	-3845
▁ہنس	-3846
▁مذہبی	-3847
▁کین	-3848
ونس	-3849
میز	-3850
▁ارکان	-3851
▁گیارہ	-3852
▁زون	-3853
▁معاشرے	-3854
▁باقاعدہ	-3855
▁ترتیب	-3856
▁سہولیات	-3857
▁آزادی	-3858
▁ایکسپریس	-3859
▁چیمپئنز	-3860
پل	-3861
▁ضمان	-3862
▁قرضوں	-3863
▁دھی	-3864
▁میس	-3865
▁انتظامات	-3866
▁شہید	-3867
▁رمضان	-3868
▁شکایت	-3869
ڈن	-3870
▁کنٹری	-3871
▁لاک	-3872
▁سمندر	-3873
انو	-3874
۲۰	-3875
▁بیرونی	-3876
▁راجہ	-3877
▁اکانٹ	-3878
سام	-3879
پوری	-3880
درن	-3881
افظ	-3882
▁نجم	-3883
▁تعلی	-3884
▁بڑھنے	-3885
▁مینجمنٹ	-3886
▁حمل	-3887
▁تجز	-3888
▁بچن	-3889
▁کامران	-3890
▁ماہی	-3891
▁شرٹس	-3892
▁عماد	-3893
▁مشن	-3894
▁ایمان	-3895
▁حج	-3896
▁خدمت	-3897
▁طارق	-3898
▁امیدوار	-3899
▁سخ	-3900
▁غزل	-3901
▁عباسی	-3902
▁افز	-3903
انچہ	-3904
▁مائیک	-3905
▁امداد	-3906
▁بچانے	-3907
▁عزم	-3908
▁بچہ	-3909
▁کوریا	-3910
▁پروڈیوسر	-3911
یا۔	-3912
▁سکون	-3913
▁بھٹ	-3914
فاعی	-3915
▁اصول	-3916
▁شور	-3917
▁تما	-3918
▁رکا	-3919
▁پریشانی	-3920
▁اشیاء	-3921
ضمام	-3922
عیت	-3923
▁ہوس	-3924
▁براز	-3925
ڑیاں	-3926
▁باتوں	-3927
ٹم	-3928
▁مغربی	-3929
▁فلسط	-3930
▁طالبان	-3931
▁شناخت	-3932
▁جاس	-3933
▁ترک	-3934
▁عہدید	-3935
▁مصر	-3936
▁چودھری	-3937
تہ	-3938
رگ	-3939
▁لاگت	-3940
▁دولت	-3941
▁راشد	-3942
▁مایوس	-3943
▁غصے	-3944
▁مہینے	-3945
▁لاس	-3946
▁ویڈیوز	-3947
▁نکا	-3948
▁ملزمان	-3949
▁تاجروں	-3950
▁شمالی	-3951
▁مشا	-3952
▁سٹاک	-3953
▁دیکھا۔	-3954
▁ٹاک	-3955
▁اوقات	-3956
ادو	-3957
میچ	-3958
▁ڈپٹی	-3959
▁سیاح	-3960
▁اعتراض	-3961
▁سول	-3962
▁اقوام	-3963
▁پرا	-3964
▁لطف	-3965
▁پبل	-3966
ابھ	-3967
▁سیاہ	-3968
▁کتنا	-3969
▁ہمت	-3970
▁تعلیمی	-3971
▁منسلک	-3972
سو	-3973
▁مستقل	-3974
نڈے	-3975
▁فق	-3976
▁انگیز	-3977
▁موصول	-3978
▁آئیں	-3979
▁ساح	-3980
▁دروازہ	-3981
▁گولی	-3982
▁اینڈر	-3983
جز	-3984
▁لایا	-3985
▁دکھا	-3986
▁ٹور	-3987
▁اشارہ	-3988
▁ٹیلنٹ	-3989
▁ٹیبل	-3990
▁نیپ	-3991
▁اشتہ	-3992
▁آیا۔	-3993
▁تل	-3994
▁تعاقب	-3995
والے	-3996
ندرہ	-3997
گھ	-3998
▁بڑھتی	-3999
▁سفیر	-4000
▁اینٹی	-4001
ندگان	-4002
▁جین	-4003
ائو	-4004
▁جاسک	-4005
▁وسائل	-4006
▁امین	-4007
▁اسرائیلی	-4008
▁باہمی	-4009
▁زیاد	-4010
▁شمولیت	-4011
یما	-4012
▁ایٹرز	-4013
▁درجوں	-4014
▁سیکنڈ	-4015
▁تاح	-4016
▁ٹریف	-4017
پس	-4018
▁ڈراموں	-4019
▁انہوںنے	-4020
▁تبادلہ	-4021
▁بیشتر	-4022
▁زینت	-4023
▁ہولڈ	-4024
▁اکبر	-4025
▁گھٹ	-4026
▁ملازمت	-4027
▁سوئی	-4028
رڈ	-4029
▁ارشد	-4030
▁کرداروں	-4031
مائی	-4032
▁دستخط	-4033
▁لین	-4034
▁انجری	-4035
کیٹگری	-4036
▁دہائی	-4037
▁صوبہ	-4038
▁قریبی	-4039
مع	-4040
▁بیڈ	-4041
لح	-4042
خی	-4043
▁جنید	-4044
▁ابو	-4045
▁دفاعی	-4046
▁پلے	-4047
▁ازاں	-4048
وزیشن	-4049
▁ملتوی	-4050
ترین	-4051
▁وں	-4052
▁پلیئرز	-4053
وئل	-4054
▁تفتی	-4055
▁چاروں	-4056
▁طالب	-4057
▁آبادی	-4058
میم	-4059
▁اپن	-4060
ندے	-4061
▁نواب	-4062
▁عارف	-4063
▁تمھ	-4064
▁ٹویٹ	-4065
▁فرائ	-4066
▁لمی	-4067
اش	-4068
▁استاد	-4069
▁ہےانہوں	-4070
▁منسوخ	-4071
▁کاش	-4072
ارٹمنٹ	-4073
الے	-4074
نگٹن	-4075
▁لڑکے	-4076
▁لگی۔	-4077
▁پھل	-4078
▁رول	-4079
▁ہاس	-4080
▁سرو	-4081
▁ضمانت	-4082
ادات	-4083
کیٹگریز	-4084
▁لیٹر	-4085
▁اسپتال	-4086
▁گار	-4087
▁نسیم	-4088
▁سکے۔	-4089
▁تاثر	-4090
▁فضل	-4091
▁سالگرہ	-4092
▁انق	-4093
▁عنا	-4094
▁پروڈکشن	-4095
▁درخت	-4096
▁لیتا	-4097
خار	-4098
لر	-4099
▁بائ	-4100
▁وبا	-4101
ٹیول	-4102
▁لاکھوں	-4103
▁پرائی	-4104
▁زرمبادلہ	-4105
▁اجمل	-4106
▁کسٹم	-4107
▁مغ	-4108
▁نسبت	-4109
▁چیزوں	-4110
▁دودھ	-4111
▁انضمام	-4112
▁بلال	-4113
▁سردار	-4114
▁امپائر	-4115
▁مکی	-4116
▁بائی	-4117
▁پٹ	-4118
▁تجزیہ	-4119
▁روسی	-4120
الم	-4121
▁افتتاحی	-4122
▁کرونا	-4123
▁بحق	-4124
▁۷۰	-4125
▁نفرت	-4126
▁دوستی	-4127
▁یورپی	-4128
▁لمب	-4129
▁نیند	-4130
▁فنڈز	-4131
▁پندرہ	-4132
یدگی	-4133
▁سرحد	-4134
▁باند	-4135
حات	-4136
▁کتنے	-4137
▁ہتھی	-4138
▁پاکستانیوں	-4139
▁قا	-4140
▁قسمت	-4141
▁وح	-4142
▁انجم	-4143
▁خاں	-4144
▁چونکہ	-4145
▁مردوں	-4146
▁کھینچ	-4147
غذ	-4148
▁مشاورت	-4149
صولی	-4150
▁آکر	-4151
▁معافی	-4152
▁انتہا	-4153
▁فرما	-4154
چار	-4155
▁تاخیر	-4156
▁افریقا	-4157
▁سیکشن	-4158
▁فیر	-4159
▁ہندوستانی	-4160
▁محب	-4161
▁مشیر	-4162
▁گنج	-4163
▁خاتمہ	-4164
▁ہری	-4165
▁مصنف	-4166
▁پہچان	-4167
▁فرائض	-4168
▁کپڑے	-4169
▁منیجر	-4170
▁کابینہ	-4171
▁فرد	-4172
ٹرنگ	-4173
▁کراچ	-4174
▁لطیف	-4175
▁کمپیوٹر	-4176
▁کرلی	-4177
▁تاب	-4178
▁نگرانی	-4179
▁وو	-4180
ابطہ	-4181
▁ڈسٹر	-4182
▁چلتا	-4183
▁معذ	-4184
▁مودی	-4185
وط	-4186
News	-4187
▁مناظر	-4188
▁عبور	-4189
▁اسپنر	-4190
اکین	-4191
▁اطلاع	-4192
▁فیسٹیول	-4193
▁کول	-4194
▁چوپڑا	-4195
▁دشمن	-4196
ثار	-4197
▁روزگار	-4198
▁اہلکار	-4199
عل	-4200
▁مٹی	-4201
▁کولم	-4202
▁بیٹھا	-4203
▁آر	-4204
ونٹس	-4205
▁راز	-4206
▁دیں۔	-4207
▁۳۲	-4208
▁گاؤں	-4209
▁مزاج	-4210
▁زیب	-4211
▁مکان	-4212
▁ناٹ	-4213
▁قیمتیں	-4214
▁شیئرز	-4215
▁ایوارڈز	-4216
▁لڑکیوں	-4217
ائشی	-4218
▁اولمپکس	-4219
▁مون	-4220
▁کلک	-4221
▁میم	-4222
▁سازی	-4223
واش	-4224
▁رانڈر	-4225
▁گوشت	-4226
▁اعتبار	-4227
▁مذہب	-4228
▁خوراک	-4229
▁الع	-4230
▁سوالات	-4231
▁خانے	-4232
لیکس	-4233
▁بیٹھی	-4234
▁مذاق	-4235
▁کمرشل	-4236
▁دائ	-4237
▁S	-4238
▁دیکھے	-4239
ونک	-4240
▁فیلڈنگ	-4241
▁دیدی	-4242
تاز	-4243
▁تمغ	-4244
▁جوڑ	-4245
▁لہجے	-4246
ینوں	-4247
▁شہریار	-4248
▁۸۰	-4249
▁شار	-4250
نگا	-4251
▁ریجن	-4252
ٹرک	-4253
▁’’	-4254
▁یوٹی	-4255
▁قلم	-4256
فیہ	-4257
▁کررہے	-4258
▁ہائیک	-4259
▁زمانہ	-4260
ھم	-4261
▁ادبی	-4262
▁متاثرہ	-4263
؟""	-4264
▁سنجے	-4265
▁معین	-4266
▁انگلی	-4267
▁دام	-4268
▁ہوگی۔	-4269
فٹ	-4270
▁۴۵	-4271
▁دارالحکومت	-4272
▁ناف	-4273
▁حمزہ	-4274
▁پیدائش	-4275
▁فارمی	-4276
مپنی	-4277
▁تنگ	-4278
▁ایپل	-4279
▁پچاس	-4280
▁رانڈ	-4281
▁سبز	-4282
ڈیا	-4283
▁معمول	-4284
▁بلاک	-4285
▁دوسروں	-4286
اث	-4287
▁جعلی	-4288
▁عبد	-4289
▁جنا	-4290
منگ	-4291
▁بناتے	-4292
انکہ	-4293
▁سعد	-4294
گوار	-4295
طر	-4296
▁علاقہ	-4297
▁کاغذ	-4298
▁ترسی	-4299
▁سونا	-4300
▁چمپ	-4301
▁باری	-4302
▁کیسز	-4303
▁ہدایتکار	-4304
▁تھیٹر	-4305
▁منزل	-4306
▁آج	-4307
▁بولا۔	-4308
es	-4309
▁۳۳	-4310
پہ	-4311
▁پارک	-4312
▁کچ	-4313
▁مزد	-4314
اعت	-4315
▁قی	-4316
▁پود	-4317
▁اگے	-4318
▁دستاویز	-4319
▁جیمز	-4320
ic	-4321
▁کاٹ	-4322
▁چکر	-4323
▁سکتا۔	-4324
▁پراج	-4325
اجد	-4326
▁خطرے	-4327
▁پشت	-4328
▁جادو	-4329
▁واز	-4330
▁اپوزیشن	-4331
▁نیب	-4332
نٹی	-4333
▁گئیں۔	-4334
▁الرحمان	-4335
▁نقل	-4336
ولنگ	-4337
▁مسکرا	-4338
ٹرولیم	-4339
▁کوچنگ	-4340
▁روزانہ	-4341
▁الیکٹرک	-4342
▁بجائے	-4343
▁بھیجا	-4344
ڈٹ	-4345
▁پریانکا	-4346
▁احسن	-4347
ڈنی	-4348
▁دیکر	-4349
▁بہار	-4350
▁سنائی	-4351
▁لمیٹڈ	-4352
▁ٹوی	-4353
▁توسیع	-4354
▁گام	-4355
▁o	-4356
▁ضیا	-4357
الت	-4358
▁اراکین	-4359
▁جلس	-4360
دیش	-4361
شاریہ	-4362
▁انکے	-4363
▁پریمی	-4364
▁لیک	-4365
▁ابتدا	-4366
ویلپ	-4367
عظم	-4368
▁سودے	-4369
▁وجوہ	-4370
▁اولمپک	-4371
▁سوار	-4372
▁جارحانہ	-4373
▁پیمانے	-4374
▁یورو	-4375
▁فیک	-4376
▁مارک	-4377
▁تربی	-4378
ذرائع	-4379
قومی	-4380
▁سکواڈ	-4381
▁نارا	-4382
▁جسمانی	-4383
▁لگائی	-4384
▁زرداری	-4385
ائپ	-4386
▁ہورہ	-4387
کیو	-4388
▁حفاظت	-4389
▁رکاوٹ	-4390
▁افتخار	-4391
▁الحال	-4392
▁قاسم	-4393
▁بنگلا	-4394
کیاں	-4395
▁خطے	-4396
▁نکھ	-4397
▁۹۲	-4398
▁کپاس	-4399
▁نشست	-4400
▁وک	-4401
▁عابد	-4402
▁غصہ	-4403
▁سمیع	-4404
▁عالیہ	-4405
▁افزائی	-4406
پیش	-4407
▁پیچ	-4408
▁حادثے	-4409
▁مطلوب	-4410
▁چوتھی	-4411
▁آنس	-4412
▁کوششوں	-4413
▁ڈیپ	-4414
▁اتحاد	-4415
▁لسٹ	-4416
۱۰	-4417
▁خسارہ	-4418
▁سیلز	-4419
ریاں	-4420
▁نیم	-4421
▁مے	-4422
▁کوٹ	-4423
▁مقب	-4424
▁ردعمل	-4425
جیل	-4426
▁ریگ	-4427
▁دئیے	-4428
امت	-4429
▁مسٹر	-4430
▁ایرانی	-4431
فیع	-4432
▁مینز	-4433
▁میڈل	-4434
▁اٹھانے	-4435
▁رسول	-4436
▁جتنا	-4437
▁فرنچائز	-4438
▁ٹریفک	-4439
یابی	-4440
▁فضا	-4441
▁لیجنڈ	-4442
it	-4443
تک	-4444
▁کینیڈا	-4445
▁لہر	-4446
دوسری	-4447
▁پڑھنے	-4448
▁چلانے	-4449
قے	-4450
▁گرفتاری	-4451
لاد	-4452
تانی	-4453
محمد	-4454
▁ڈیوائس	-4455
▁ریز	-4456
▁ڈیزل	-4457
▁آؤ	-4458
▁قدرتی	-4459
▁اکٹ	-4460
اندی	-4461
▁الرحمن	-4462
▁رساں	-4463
ورے	-4464
▁ڈون	-4465
▁بولرز	-4466
▁مسئلے	-4467
▁مقبولیت	-4468
تو	-4469
▁مہنگا	-4470
▁وقفے	-4471
▁استق	-4472
▁سینٹ	-4473
▁انیس	-4474
▁ھو	-4475
▁نکاح	-4476
▁بلاول	-4477
مید	-4478
▁ترمیم	-4479
▁الف	-4480
▁اسٹیج	-4481
▁حالانکہ	-4482
▁روہ	-4483
کھلا	-4484
▁عائشہ	-4485
▁ریڈ	-4486
▁گہری	-4487
ینڈل	-4488
▁سربر	-4489
▁تکمیل	-4490
سا	-4491
▁ایوان	-4492
نیف	-4493
▁رف	-4494
▁بالرز	-4495
▁دپیکا	-4496
▁بنک	-4497
▁گارڈ	-4498
ذر	-4499
▁لائی	-4500
▁زیادتی	-4501
▁ڈالی	-4502
بھارتی	-4503
ضل	-4504
اللہ	-4505
لاہور	-4506
▁چنانچہ	-4507
بوس	-4508
▁تعالی	-4509
▁پڑھیے	-4510
▁عا	-4511
▁انجین	-4512
▁طلبا	-4513
▁کھیلنا	-4514
▁عق	-4515
▁ملائی	-4516
▁اونس	-4517
▁ڈیڑھ	-4518
▁بالا	-4519
▁عکس	-4520
▁ڈسٹرکٹ	-4521
▁سراہا	-4522
عم	-4523
▁ہوش	-4524
▁مرو	-4525
▁تھوڑا	-4526
▁چھوٹا	-4527
ذافی	-4528
▁سوا	-4529
سٹن	-4530
▁پہنچی	-4531
▁ڈیر	-4532
▁معاو	-4533
جان	-4534
وٹی	-4535
▁مثلا	-4536
▁عطا	-4537
ؤس	-4538
▁فوڈ	-4539
▁سنسنی	-4540
▁زاد	-4541
▁لیڈر	-4542
▁چاہی	-4543
▁جیو	-4544
الا	-4545
▁خفیہ	-4546
▁فضائی	-4547
▁بازو	-4548
ریری	-4549
▁کیٹی	-4550
▁رہی۔	-4551
▁تہذ	-4552
کمپنی	-4553
▁کیرئیر	-4554
▁چور	-4555
▁نظروں	-4556
▁گلے	-4557
▁تشویش	-4558
▁چلتے	-4559
▁طلاق	-4560
▁پھیلا	-4561
▁ھی	-4562
▁فالو	-4563
▁تعینات	-4564
▁ڈالا	-4565
نیاں	-4566
▁۹۰	-4567
▁بانڈ	-4568
▁مائیکل	-4569
▁ہائیکورٹ	-4570
▁ہےان	-4571
▁لکھے	-4572
▁باکسر	-4573
▁پٹرولیم	-4574
▁اذ	-4575
جنٹ	-4576
▁مام	-4577
▁میکس	-4578
▁نمائندہ	-4579
▁ڈانس	-4580
▁پبلک	-4581
▁دراصل	-4582
گزشتہ	-4583
▁ٹوئٹ	-4584
▁سربراہی	-4585
▁تفتیش	-4586
▁خاتمے	-4587
کتہ	-4588
▁واقف	-4589
▁انفرادی	-4590
▁لازمی	-4591
▁کارپوری	-4592
▁کپتانی	-4593
▁پریمیئر	-4594
▁سینے	-4595
ورو	-4596
▁پتھر	-4597
▁وائٹ	-4598
▁ڈسپ	-4599
عام	-4600
▁غزہ	-4601
فوٹو	-4602
جیٹل	-4603
▁ڈھونڈ	-4604
▁میڈیکل	-4605
▁خلائی	-4606
▁بھٹی	-4607
▁ہندی	-4608
اتر	-4609
▁اسح	-4610
▁وعدہ	-4611
▁ائیر	-4612
▁قیمتی	-4613
ستا	-4614
▁نائٹ	-4615
▁اننگ	-4616
▁عار	-4617
▁جوڑے	-4618
ورتی	-4619
ہو	-4620
▁یکس	-4621
سپورٹس	-4622
▁فاط	-4623
▁ایٹ	-4624
▁جذب	-4625
▁گون	-4626
▁مختص	-4627
▁۳۴	-4628
▁کامیڈی	-4629
▁گھری	-4630
▁پارلیمنٹ	-4631
▁ہیںاس	-4632
▁آٹھ	-4633
▁بچا	-4634
▁سنٹر	-4635
▁تربیتی	-4636
▁سمت	-4637
ضے	-4638
▁ئل	-4639
▁نمو	-4640
▁لیتی	-4641
▁وائس	-4642
▁لیس	-4643
▁امیت	-4644
▁ریٹائرمنٹ	-4645
▁لائے	-4646
▁چمک	-4647
▁پینے	-4648
▁منعقدہ	-4649
▁کنٹریکٹ	-4650
▁رنبیر	-4651
ترام	-4652
▁مرحوم	-4653
▁پوچھا۔	-4654
ماہ	-4655
▁قسط	-4656
▁ڈیب	-4657
▁بچپن	-4658
▁حافظ	-4659
▁وجوہات	-4660
▁نامزد	-4661
▁لگنے	-4662
▁C	-4663
▁معیاری	-4664
▁امکانات	-4665
▁چک	-4666
برگ	-4667
▁ابلا	-4668
▁نوٹیف	-4669
▁مچھ	-4670
▁ضمن	-4671
اے	-4672
▁جارہا	-4673
▁ٹرائل	-4674
ینگ	-4675
▁باکسنگ	-4676
ظمی	-4677
امین	-4678
▁راحت	-4679
▁بھری	-4680
▁مرضی	-4681
▁تمہارا	-4682
▁گڑھ	-4683
▁رع	-4684
▁مہارت	-4685
▁وصولی	-4686
▁بریف	-4687
▁امتحان	-4688
▁اقتدار	-4689
▁برانڈ	-4690
▁سڈنی	-4691
▁بہا	-4692
▁انف	-4693
ائمہ	-4694
▁مرض	-4695
▁سرا	-4696
▁تذ	-4697
ادیا	-4698
▁پیشہ	-4699
دہی	-4700
▁لکھی	-4701
ہبی	-4702
بادل	-4703
▁صو	-4704
▁گھنٹوں	-4705
ترتیب	-4706
▁دال	-4707
▁ڈوب	-4708
▁لگتی	-4709
▁فرسٹ	-4710
▁تاحال	-4711
▁قطر	-4712
مقابل	-4713
▁مصط	-4714
▁ویٹ	-4715
▁نوعیت	-4716
▁ملبوس	-4717
▁ناراض	-4718
▁اٹھائے	-4719
▁ڈھیر	-4720
▁قذافی	-4721
▁۳۶	-4722
▁آنسو	-4723
▁غائب	-4724
▁کلین	-4725
▁مہنگی	-4726
▁خدشہ	-4727
▁قسمتی	-4728
ویلپمنٹ	-4729
▁آسان	-4730
▁جدو	-4731
▁عاص	-4732
▁قبر	-4733
▁مطالعہ	-4734
ائٹی	-4735
▁افی	-4736
یکشن	-4737
▁قبضہ	-4738
▁اندھی	-4739
▁جلوہ	-4740
▁لیکر	-4741
▁ول	-4742
▁ملتے	-4743
▁ابلاغ	-4744
▁طوف	-4745
ھیل	-4746
▁ہفت	-4747
▁لکھنے	-4748
ملکت	-4749
▁کشمیری	-4750
▁الق	-4751
▁جناب	-4752
▁جانتی	-4753
▁پسندیدہ	-4754
▁اسٹو	-4755
ئرلینڈ	-4756
▁شین	-4757
▁تیری	-4758
▁گیر	-4759
چکا	-4760
▁ریلیف	-4761
▁ناقص	-4762
▁P	-4763
▁نوید	-4764
▁جیتا	-4765
▁حرارت	-4766
پیسے	-4767
▁اینجلس	-4768
▁چاول	-4769
▁کہی	-4770
▁کرینگے	-4771
والہ	-4772
▁حکیم	-4773
▁سبس	-4774
▁ممتاز	-4775
ورا	-4776
سٹریلیا	-4777
▁کینسر	-4778
▁احترام	-4779
▁روی	-4780
بالی	-4781
خان	-4782
▁عدن	-4783
عکس	-4784
▁رہائش	-4785
▁رجسٹر	-4786
▁دہانی	-4787
▁لمحے	-4788
▁اسٹیشن	-4789
▁ڈیجیٹل	-4790
▁کمپنیاں	-4791
▁واہ	-4792
▁دیکھتا	-4793
▁ہاؤس	-4794
▁غرض	-4795
اکا	-4796
▁جشن	-4797
▁پیرس	-4798
▁ایتھ	-4799
▁متبادل	-4800
▁مقیم	-4801
▁اسٹاف	-4802
▁اسپی	-4803
▁نزد	-4804
▁یادگار	-4805
▁کروایا	-4806
▁چیمپیئن	-4807
▁امتیاز	-4808
نڈر	-4809
وریج	-4810
▁ہیل	-4811
▁تخلیق	-4812
▁مدن	-4813
▁چھوڑنے	-4814
▁آل	-4815
▁محل	-4816
uny	-4817
یاط	-4818
▁پیٹرولیم	-4819
▁دھمکی	-4820
▁صحافیوں	-4821
ڈوک	-4822
▁h	-4823
▁اسکیم	-4824
▁نافذ	-4825
▁پہنچایا	-4826
▁عروج	-4827
لیت	-4828
▁فاطمہ	-4829
▁خراج	-4830
▁الحسن	-4831
▁عن	-4832
▁کترینہ	-4833
▁شراب	-4834
▁سمجھنے	-4835
▁جانوروں	-4836
▁اسکر	-4837
▁مقدمات	-4838
▁کوئ	-4839
شاد	-4840
▁پھنس	-4841
▁ایکٹ	-4842
▁تکن	-4843
▁ذوال	-4844
▁تیاریاں	-4845
▁سپلائی	-4846
▁بندھ	-4847
شو	-4848
تاہم	-4849
▁اثاث	-4850
▁چمپئن	-4851
▁درپیش	-4852
▁روٹ	-4853
▁سروسز	-4854
▁بنیادوں	-4855
ماع	-4856
▁پے	-4857
▁مارے	-4858
▁نوازا	-4859
وشکا	-4860
▁یقینا	-4861
▁فین	-4862
ائیاں	-4863
▁سنچریاں	-4864
▁واپڈا	-4865
▁جتنی	-4866
▁منیر	-4867
▁جرمانہ	-4868
▁حکمران	-4869
تاق	-4870
▁سنجیدہ	-4871
▁مجرم	-4872
▁جڑ	-4873
▁بدن	-4874
▁کیفیت	-4875
کام	-4876
▁برف	-4877
▁دت	-4878
▁روایت	-4879
▁مرحلہ	-4880
▁ناد	-4881
▁مالکان	-4882
▁مایہ	-4883
▁آرام	-4884
ٹنر	-4885
▁سٹریلوی	-4886
▁بلندی	-4887
▁کنڈی	-4888
▁رشتے	-4889
▁فرا	-4890
▁خشک	-4891
▁یوم	-4892
شین	-4893
▁سننے	-4894
▁طلبہ	-4895
▁گردن	-4896
۳۰	-4897
▁نشاندہی	-4898
آن	-4899
▁عی	-4900
▁تجربے	-4901
▁راک	-4902
دانوں	-4903
▁of	-4904
کراچی	-4905
▁بیٹری	-4906
▁کرچکے	-4907
▁پانڈ	-4908
▁عدنان	-4909
▁گھریلو	-4910
▁چاندی	-4911
▁تقر	-4912
▁درجن	-4913
ion	-4914
▁مملکت	-4915
▁شرط	-4916
▁اندو	-4917
▁مقدمے	-4918
▁داروں	-4919
▁پابند	-4920
عا	-4921
▁پھینک	-4922
زادہ	-4923
▁سرگرمیاں	-4924
▁سمجھتا	-4925
اداکارہ	-4926
سہ	-4927
▁پہا	-4928
▁پاپ	-4929
▁امیتابھ	-4930
ادل	-4931
▁ذات	-4932
▁کمپلیکس	-4933
بھی	-4934
جبکہ	-4935
▁لائٹ	-4936
بیب	-4937
▁ادو	-4938
▁کھیلیں	-4939
▁اصف	-4940
▁ریپ	-4941
▁فورا	-4942
▁روبوٹ	-4943
▁وے	-4944
▁تفص	-4945
▁ڈیبیو	-4946
▁ریڈیو	-4947
▁کشید	-4948
▁سرور	-4949
▁اغ	-4950
▁اسٹر	-4951
▁رگ	-4952
▁چاہیں	-4953
مانی	-4954
▁مسکراہٹ	-4955
▁ضائع	-4956
▁پرت	-4957
▁جماعتوں	-4958
▁اطمین	-4959
لنگ	-4960
▁دینی	-4961
▁سبزی	-4962
▁مصنوعی	-4963
مارچ	-4964
▁مخالفت	-4965
▁علیہ	-4966
▁الب	-4967
▁سفارش	-4968
سٹریشن	-4969
▁میٹنگ	-4970
▁سافٹ	-4971
کھر	-4972
▁عوض	-4973
▁مفت	-4974
▁فیض	-4975
▁مدمقابل	-4976
▁لڑائی	-4977
▁زاہد	-4978
▁کوششیں	-4979
▁صراف	-4980
▁اسحاق	-4981
▁اٹلی	-4982
▁شرجیل	-4983
▁یوٹیوب	-4984
▁پیا	-4985
▁لیون	-4986
▁ابن	-4987
▁فاروق	-4988
▁احتیاط	-4989
▁گرینڈ	-4990
▁مریضوں	-4991
▁جنس	-4992
▁آئی۔	-4993
▁دیکھو	-4994
....	-4995
▁دوا	-4996
▁رٹ	-4997
▁بھلا	-4998
▁ابراہ	-4999
وزیر	-5000
▁سیلاب	-5001
▁جوان	-5002
صوم	-5003
▁پہنچانے	-5004
▁سینٹرل	-5005
▁تحسین	-5006
▁صنعتوں	-5007
▁بناکر	-5008
▁موثر	-5009
▁بتائی	-5010
ٹھا	-5011
▁کھلے	-5012
▁ابھر	-5013
▁جیتے	-5014
▁ہج	-5015
▁۳۷	-5016
▁فیڈرل	-5017
▁ایشیائی	-5018
▁اواز	-5019
▁لکھتے	-5020
ذہ	-5021
▁متناز	-5022
▁برعکس	-5023
▁واس	-5024
▁مطلوبہ	-5025
▁سازش	-5026
چکی	-5027
▁نعیم	-5028
▁کرینہ	-5029
▁اکث	-5030
▁خسارے	-5031
▁لگے۔	-5032
▁آنا	-5033
▁چارج	-5034
▁ہوسک	-5035
باب	-5036
▁فا	-5037
▁اعلام	-5038
▁پینل	-5039
▁برازیل	-5040
▁بیج	-5041
وشن	-5042
▁ساتویں	-5043
▁مچل	-5044
▁افریقی	-5045
ائونڈ	-5046
▁ہاف	-5047
▁رویہ	-5048
ٹیز	-5049
▁گویا	-5050
▁لائیو	-5051
▁تقریر	-5052
▁مشتاق	-5053
▁گریز	-5054
▁پراجیکٹ	-5055
▁انسانوں	-5056
▁دھونی	-5057
▁مصطفی	-5058
▁بالترتیب	-5059
▁کوچز	-5060
▁آپریشن	-5061
▁طبیعت	-5062
▁نظریں	-5063
▁نکلا	-5064
▁جاگ	-5065
▁اطمینان	-5066
▁اگلی	-5067
▁ڈرائیور	-5068
▁مجموعہ	-5069
▁تھر	-5070
بیا	-5071
الح	-5072
زمین	-5073
▁ابر	-5074
میشن	-5075
▁پروج	-5076
▁چلو	-5077
کھا	-5078
▁اعشاریہ	-5079
راعظم	-5080
▁فارسی	-5081
▁گرنے	-5082
▁چھا	-5083
▁بریفنگ	-5084
▁تیرے	-5085
▁عبداللہ	-5086
▁دہشتگر	-5087
▁معاف	-5088
▁تجاویز	-5089
دسمبر	-5090
خصوص	-5091
لابی	-5092
▁بتاتے	-5093
داروں	-5094
▁کاموں	-5095
▁ثانی	-5096
ننگ	-5097
▁جارہی	-5098
▁جع	-5099
▁اصلاحات	-5100
▁سرفہرست	-5101
قیہ	-5102
▁رچر	-5103
▁تباہی	-5104
▁رقص	-5105
▁تنویر	-5106
▁پلیئر	-5107
▁ماہانہ	-5108
▁ثانیہ	-5109
▁معصوم	-5110
وو	-5111
▁امجد	-5112
▁۔	-5113
▁دانش	-5114
سری	-5115
پاکستانی	-5116
▁کمیونٹی	-5117
لیکن	-5118
▁جلا	-5119
▁ارجنٹ	-5120
▁اجت	-5121
▁مں	-5122
▁بیمار	-5123
▁امان	-5124
▁فیفا	-5125
▁گردش	-5126
▁ملیں	-5127
▁سٹیٹ	-5128
نومبر	-5129
▁بدترین	-5130
▁عقید	-5131
ائق	-5132
▁ظلم	-5133
▁فنانس	-5134
▁مداخ	-5135
▁ماد	-5136
▁حملوں	-5137
▁تردید	-5138
▁انکو	-5139
▁ممبران	-5140
▁اِ	-5141
▁گرمی	-5142
▁چھت	-5143
▁فط	-5144
ائیں۔	-5145
وریہ	-5146
شاء	-5147
▁پیداواری	-5148
ڈوکون	-5149
▁سہارا	-5150
▁فارمیٹ	-5151
▁محبوب	-5152
سید	-5153
▁تبصرہ	-5154
▁چھکے	-5155
▁سائیڈ	-5156
▁ابراہیم	-5157
▁s	-5158
کوٹ	-5159
▁ڈائی	-5160
▁استف	-5161
▁انوشکا	-5162
▁سارہ	-5163
جہد	-5164
امری	-5165
▁علیحدگی	-5166
▁ویو	-5167
▁نزدیک	-5168
▁قاضی	-5169
▁مقابل	-5170
▁فلسطینی	-5171
▁مارا	-5172
▁گروہ	-5173
▁سیریل	-5174
▁جمیل	-5175
▁سکندر	-5176
▁سادہ	-5177
▁کمائی	-5178
▁اعص	-5179
بری	-5180
▁مارکیٹوں	-5181
▁نکلنے	-5182
▁شاٹ	-5183
▁نچ	-5184
▁ضروریات	-5185
رچ	-5186
▁فہیم	-5187
▁جمشید	-5188
▁ملائیشیا	-5189
فقار	-5190
لاع	-5191
▁تد	-5192
▁بھگ	-5193
▁کھرب	-5194
de	-5195
▁ڈگری	-5196
▁افتتاح	-5197
▁روئی	-5198
▁ہلا	-5199
▁اہلکاروں	-5200
ائنڈ	-5201
▁گاڑیاں	-5202
▁ماسٹر	-5203
ڈیشن	-5204
▁T	-5205
▁جھگ	-5206
▁تجا	-5207
▁بھیجنے	-5208
▁۷۵	-5209
ظاہر	-5210
▁جھک	-5211
▁۳۸	-5212
▁سح	-5213
▁بالوں	-5214
▁ڈویلپمنٹ	-5215
▁جاؤں	-5216
▁M	-5217
▁انجینئر	-5218
▁ڈونلڈ	-5219
جون	-5220
▁جدوجہد	-5221
▁صفائی	-5222
▁انعامات	-5223
▁عش	-5224
▁بست	-5225
علوم	-5226
▁زید	-5227
▁فیروز	-5228
▁ریو	-5229
▁چال	-5230
▁مطم	-5231
▁رہائشی	-5232
▁آگئی	-5233
▁مرغ	-5234
▁بچھ	-5235
▁وسطی	-5236
▁سلطانز	-5237
▁مشرقی	-5238
▁ہفتوں	-5239
▁the	-5240
▁سرکار	-5241
▁کرم	-5242
▁ریف	-5243
▁جنم	-5244
▁غذ	-5245
▁انحص	-5246
▁سابقہ	-5247
▁قرضے	-5248
▁معاونت	-5249
▁سڑکوں	-5250
▁کتابوں	-5251
▁میٹ	-5252
▁لمبی	-5253
▁مانچ	-5254
▁ہانگ	-5255
▁رئیس	-5256
▁صوبوں	-5257
▁مداخلت	-5258
▁پیسہ	-5259
▁صبا	-5260
▁ٹکر	-5261
du	-5262
▁گم	-5263
▁نیز	-5264
▁گریڈ	-5265
▁نگران	-5266
▁فریق	-5267
▁بچنے	-5268
الیس	-5269
▁ٹیو	-5270
▁جاننے	-5271
ستور	-5272
▁خوفناک	-5273
▁میں۔	-5274
▁کرانے	-5275
▁چوکوں	-5276
▁پاؤں	-5277
▁۲۰۰	-5278
▁ٹائیگر	-5279
▁مرکوز	-5280
▁پنجابی	-5281
▁ہوسکے	-5282
▁دعویٰ	-5283
▁مقص	-5284
مئی	-5285
▁کروڑوں	-5286
▁دلہ	-5287
▁اسپین	-5288
▁عربی	-5289
اسلام	-5290
ثیر	-5291
▁جھلک	-5292
▁کرسکے	-5293
▁انسٹی	-5294
▁ریگولی	-5295
▁اخلاق	-5296
▁اسمتھ	-5297
▁سنگلز	-5298
▁بزرگ	-5299
▁دکھائے	-5300
▁سنیما	-5301
▁بان	-5302
▁پڈوکون	-5303
▁سنگین	-5304
▁سرد	-5305
▁سپی	-5306
وریت	-5307
کرز	-5308
▁ادویات	-5309
شاں	-5310
▁۴۸	-5311
▁عورتوں	-5312
▁شاہی	-5313
▁اسپاٹ	-5314
▁نکالنے	-5315
ولا	-5316
▁بخاری	-5317
▁سیمنٹ	-5318
ملین	-5319
▁باض	-5320
حل	-5321
▁باڈی	-5322
▁گھی	-5323
▁کیسی	-5324
▁ہیںان	-5325
بط	-5326
▁خاک	-5327
▁ابوظ	-5328
▁پرس	-5329
▁سٹر	-5330
▁حرا	-5331
ازی	-5332
▁پلس	-5333
▁ٹویٹر	-5334
▁کنارے	-5335
▁لارڈ	-5336
▁گھومتی	-5337
▁رنویر	-5338
▁گھبر	-5339
▁شارجہ	-5340
▁ہونٹ	-5341
▁عناصر	-5342
▁فرار	-5343
▁صوف	-5344
▁فورسز	-5345
▁نبی	-5346
▁تسلسل	-5347
▁کیمرے	-5348
▁رخص	-5349
▁داغ	-5350
▁براڈ	-5351
▁عادت	-5352
▁آسمان	-5353
▁مات	-5354
و۔	-5355
▁تہذیب	-5356
▁ہیک	-5357
▁جائز	-5358
گریٹ	-5359
نان	-5360
▁برآمد	-5361
▁تفصیلی	-5362
▁بنتی	-5363
▁تجربات	-5364
▁سیال	-5365
شلز	-5366
▁انحصار	-5367
▁حصوں	-5368
▁سنجیدگی	-5369
▁سوس	-5370
▁اقسام	-5371
▁موڑ	-5372
▁گنا	-5373
▁معذرت	-5374
▁چوتھا	-5375
▁مذمت	-5376
▁گلگت	-5377
▁نصب	-5378
▁ہارون	-5379
▁مطمئن	-5380
وکٹوں	-5381
▁گناہ	-5382
مینہ	-5383
▁بیت	-5384
▁اسرار	-5385
▁شرکا	-5386
وع	-5387
▁بڑ	-5388
▁منش	-5389
▁نیت	-5390
▁صاد	-5391
▁بائیں	-5392
▁حبیب	-5393
طرف	-5394
▁پٹرول	-5395
▁تیم	-5396
▁ارے	-5397
▁مایوسی	-5398
▁ورژن	-5399
▁نکلے	-5400
سٹنٹ	-5401
▁خریدنے	-5402
▁خارج	-5403
▁تشہ	-5404
▁نان	-5405
▁انچ	-5406
▁دلوں	-5407
؟؟	-5408
▁ہوتا۔	-5409
ختہ	-5410
ہیر	-5411
▁آئین	-5412
▁بولڈ	-5413
▁پکس	-5414
▁لمحہ	-5415
▁نصیب	-5416
▁زدہ	-5417
▁طیارے	-5418
▁کندھ	-5419
▁ٹرک	-5420
▁اشع	-5421
▁ساد	-5422
▁انتخابی	-5423
▁ایونٹس	-5424
▁فرحان	-5425
▁شفیع	-5426
▁ٹیلر	-5427
▁کروائی	-5428
▁پردہ	-5429
▁باضابطہ	-5430
ردو	-5431
▁مڈل	-5432
▁ہڑ	-5433
▁انہی	-5434
ائون	-5435
▁مانچسٹر	-5436
ویت	-5437
▁جاسکتا	-5438
▁شفاف	-5439
▁بیجنگ	-5440
▁جنگل	-5441
▁جانور	-5442
ٹیو	-5443
▁تبدیلیاں	-5444
▁عد	-5445
اصد	-5446
▁عین	-5447
▁اکشے	-5448
▁۴۲	-5449
▁پروڈیوس	-5450
▁۵۵	-5451
▁ترجمہ	-5452
واج	-5453
▁سختی	-5454
اہتمام	-5455
▁مشرق	-5456
▁فائیو	-5457
▁دیوی	-5458
شمی	-5459
▁سمند	-5460
▁پیٹرول	-5461
کرین	-5462
▁شوکت	-5463
▁دوپ	-5464
▁کلچرل	-5465
▁موڈ	-5466
▁ٹان	-5467
وائی	-5468
▁خدشات	-5469
وچ	-5470
▁فرینڈ	-5471
صوب	-5472
خانہ	-5473
▁عہدیدار	-5474
▁خوبصورتی	-5475
▁تلے	-5476
▁نذیر	-5477
▁گود	-5478
▁ملکہ	-5479
▁نذر	-5480
▁ہلاکت	-5481
گرا	-5482
ارتھ	-5483
▁گئ	-5484
▁میسر	-5485
▁مضامین	-5486
موں	-5487
▁علامہ	-5488
▁ہائ	-5489
بھارت	-5490
▁ہاشم	-5491
▁ثقافت	-5492
▁استقبال	-5493
▁وارنر	-5494
▁رے	-5495
▁پڑتی	-5496
▁مولوی	-5497
▁لنک	-5498
ٹرکچر	-5499
▁بیانات	-5500
▁شارٹ	-5501
▁سفارت	-5502
▁سٹاف	-5503
▁مقصود	-5504
▁عاصم	-5505
▁جنھوں	-5506
▁رت	-5507
▁حاضر	-5508
▁اخلا	-5509
▁منصور	-5510
▁نوکری	-5511
▁افواہ	-5512
▁مخاط	-5513
▁اضلاع	-5514
▁ارد	-5515
یرے	-5516
▁بائیک	-5517
▁خلی	-5518
▁تنازع	-5519
▁فرانسی	-5520
▁کلیئر	-5521
کلو	-5522
▁بہادر	-5523
▁عادل	-5524
▁عملے	-5525
▁مہوش	-5526
▁سلامتی	-5527
ساب	-5528
▁مفید	-5529
▁انٹی	-5530
▁واشنگٹن	-5531
▁سیکورٹی	-5532
▁بابراعظم	-5533
جرز	-5534
▁صرافہ	-5535
▁ریسرچ	-5536
▁میسی	-5537
اپریل	-5538
▁بولی۔	-5539
ویلی	-5540
▁برہ	-5541
▁ہمدر	-5542
یکو	-5543
▁فیچرز	-5544
▁قصور	-5545
▁کرسی	-5546
▁کورس	-5547
▁نمٹنے	-5548
▁جھٹ	-5549
▁جال	-5550
▁چیخ	-5551
▁اسٹریلوی	-5552
▁پرچ	-5553
▁آئے۔	-5554
▁تمغہ	-5555
▁لانچ	-5556
▁مہیا	-5557
▁جمال	-5558
▁کک	-5559
▁نرخوں	-5560
▁آئندہ	-5561
ائنگ	-5562
▁ڈوپ	-5563
کوک	-5564
▁گھو	-5565
▁زیراہتمام	-5566
▁ٹم	-5567
▁کائن	-5568
گزین	-5569
▁بظاہر	-5570
▁سردی	-5571
▁محتا	-5572
▁ذوالفقار	-5573
▁ڈراپ	-5574
نگر	-5575
▁ورلڈکپ	-5576
▁فعال	-5577
▁اماں	-5578
ذی	-5579
▁الت	-5580
▁نرم	-5581
▁قرآن	-5582
▁سینیٹ	-5583
▁کوک	-5584
▁دباؤ	-5585
▁کراچیاردو	-5586
ٹیم	-5587
▁حامی	-5588
انگیر	-5589
▁چون	-5590
▁جرائم	-5591
▁گرل	-5592
▁ڈالنے	-5593
▁ڈو	-5594
▁پارٹنر	-5595
اؤن	-5596
▁تجاوز	-5597
▁بہر	-5598
▁جانچ	-5599
▁اسٹیل	-5600
▁رانی	-5601
▁آصف	-5602
▁چٹ	-5603
وریا	-5604
▁۴۱	-5605
▁انقلاب	-5606
▁مدر	-5607
▁جرمن	-5608
▁گوج	-5609
▁باندھ	-5610
▁کھڑ	-5611
▁فرمایا	-5612
▁نوٹیفکیشن	-5613
▁بڑھتے	-5614
▁الجھ	-5615
▁باجوہ	-5616
▁سرچ	-5617
▁پان	-5618
ستمبر	-5619
▁ایکڑ	-5620
سالہ	-5621
▁ہیںانہوں	-5622
▁الس	-5623
▁بنتا	-5624
▁۴۴	-5625
▁فلی	-5626
▁مزاحیہ	-5627
▁ٹنڈ	-5628
گاہ	-5629
▁مرے	-5630
▁ہےس	-5631
▁مچھلی	-5632
▁اری	-5633
جنوری	-5634
▁نہی	-5635
▁خل	-5636
▁نامعلوم	-5637
▁فرانسیسی	-5638
▁جائیں۔	-5639
▁انکم	-5640
▁سکرین	-5641
فن	-5642
▁حلقوں	-5643
▁رحم	-5644
▁مخاطب	-5645
▁جناح	-5646
▁عدالتی	-5647
ودہ	-5648
▁I	-5649
▁کھلی	-5650
▁کوڈ	-5651
▁کسانوں	-5652
تق	-5653
ائرز	-5654
▁کشتی	-5655
▁آسانی	-5656
▁اندوز	-5657
▁ٹام	-5658
▁فارغ	-5659
▁اکثریت	-5660
ادم	-5661
▁ٹریک	-5662
▁بیرل	-5663
▁۳۹	-5664
▁ونڈ	-5665
▁منشیات	-5666
گئی	-5667
ed	-5668
▁صبر	-5669
▁فاصلہ	-5670
ئم	-5671
▁عہدہ	-5672
▁نژ	-5673
▁گوہر	-5674
▁دھوم	-5675
▁ریفری	-5676
▁بیا	-5677
▁جائیگی	-5678
▁عملدر	-5679
ڈے	-5680
▁سکواش	-5681
ائف	-5682
▁کررہی	-5683
▁قات	-5684
▁موہ	-5685
▁رمی	-5686
▁لگتے	-5687
▁طوفان	-5688
▁جمی	-5689
▁لی۔	-5690
▁لگیں	-5691
▁بلین	-5692
▁کرے۔	-5693
▁غازی	-5694
▁فلا	-5695
▁آرہا	-5696
▁توان	-5697
▁سند	-5698
▁نژاد	-5699
کمپنیوں	-5700
▁ویک	-5701
▁زد	-5702
▁حاجی	-5703
مکن	-5704
▁ناس	-5705
▁اسان	-5706
▁ایمر	-5707
▁ثناء	-5708
▁کیٹیگری	-5709
▁چھٹے	-5710
▁نفسیاتی	-5711
▁تقاض	-5712
▁علمی	-5713
ناس	-5714
▁خرم	-5715
▁ایکسپورٹ	-5716
▁شکیل	-5717
▁وفات	-5718
▁ملنا	-5719
▁کوال	-5720
افتی	-5721
▁اسسٹنٹ	-5722
▁پاگل	-5723
▁جہانگیر	-5724
▁رجسٹریشن	-5725
▁مقاصد	-5726
اخ	-5727
▁ہیم	-5728
▁سدرن	-5729
اما	-5730
۱۵	-5731
▁اُردو	-5732
▁فرض	-5733
جولائی	-5734
▁لات	-5735
▁گوئی	-5736
▁نب	-5737
اطف	-5738
▁مسافر	-5739
▁گردوں	-5740
▁داستان	-5741
ولرز	-5742
▁جذباتی	-5743
▁چاہیئے	-5744
▁ذمے	-5745
▁لوں	-5746
▁ڈیٹ	-5747
▁متحرک	-5748
▁کائنات	-5749
یائی	-5750
▁سستی	-5751
!""	-5752
▁صدارتی	-5753
▁دھن	-5754
ائوں	-5755
▁ایپلی	-5756
ورین	-5757
▁ویژن	-5758
▁یوکرین	-5759
▁نثار	-5760
▁وائی	-5761
▁ویکس	-5762
▁ڈیرن	-5763
▁رویے	-5764
ثی	-5765
▁پڑا۔	-5766
▁سکیم	-5767
منی	-5768
▁کلوگرام	-5769
▁بولنے	-5770
▁روہت	-5771
▁اگاہ	-5772
ماعیل	-5773
عب	-5774
وبل	-5775
ائنہ	-5776
انج	-5777
▁اکھ	-5778
▁مانیٹرنگ	-5779
▁پروفی	-5780
عو	-5781
▁کیمرہ	-5782
▁محکم	-5783
▁رونال	-5784
▁آم	-5785
▁''	-5786
▁جامع	-5787
▁شاپ	-5788
▁پلاٹ	-5789
▁جمہوریت	-5790
▁معاوضہ	-5791
▁زہر	-5792
▁ہوائی	-5793
▁عاشق	-5794
▁سلوک	-5795
▁جائیداد	-5796
▁c	-5797
ہری	-5798
▁ساتھیوں	-5799
خو	-5800
▁طنز	-5801
▁اوہ	-5802
▁اطلاق	-5803
۱۹	-5804
▁سحر	-5805
▁اخر	-5806
▁سدھ	-5807
▁فاصلے	-5808
▁بھجو	-5809
▁گنجائش	-5810
▁گڑ	-5811
▁پرستی	-5812
▁ناموں	-5813
ھو	-5814
▁کبڈی	-5815
▁ملبوسات	-5816
▁باص	-5817
▁امراض	-5818
▁اندرونی	-5819
▁اشتر	-5820
رن	-5821
▁سرزمین	-5822
▁لاہورسپورٹس	-5823
▁سستا	-5824
▁نقوی	-5825
ستے	-5826
ؤنڈ	-5827
▁جولائیء	-5828
▁شری	-5829
ومن	-5830
▁اسماعیل	-5831
طرفہ	-5832
om	-5833
▁مسی	-5834
▁نغ	-5835
▁بیش	-5836
دھر	-5837
▁گیٹ	-5838
▁حقائق	-5839
▁؟""	-5840
▁کانگریس	-5841
▁مفاد	-5842
▁طاقتور	-5843
▁احک	-5844
▁فلاح	-5845
▁فتو	-5846
as	-5847
▁انگریز	-5848
▁گہر	-5849
ائندہ	-5850
▁لائف	-5851
▁شن	-5852
▁پکسل	-5853
اپنے	-5854
▁مثلاً	-5855
▁۴۳	-5856
▁قربانی	-5857
ئس	-5858
▁تنظیموں	-5859
▁حمید	-5860
▁چینج	-5861
▁چھکوں	-5862
ائٹس	-5863
▁دش	-5864
ph	-5865
▁احکامات	-5866
▁گرائونڈ	-5867
▁بھرے	-5868
▁افسانہ	-5869
▁جنون	-5870
▁چنا	-5871
▁سروے	-5872
▁بلت	-5873
▁سجاد	-5874
پورٹرز	-5875
▁پریم	-5876
▁پروجیکٹ	-5877
▁گھنٹہ	-5878
▁دراز	-5879
▁روکا	-5880
وایا	-5881
▁پکار	-5882
▁دیشی	-5883
ونڈر	-5884
▁۴۷	-5885
ملکی	-5886
▁تماش	-5887
فصیل	-5888
▁سینیٹر	-5889
▁۶۴	-5890
▁نن	-5891
▁اوپننگ	-5892
▁ائل	-5893
▁چھین	-5894
▁مشرو	-5895
▁سولہ	-5896
▁بولے	-5897
رانوالہ	-5898
ایس	-5899
▁توانائی	-5900
▁انکا	-5901
▁ادیب	-5902
اتذہ	-5903
▁شرائ	-5904
tt	-5905
le	-5906
▁ٹانگ	-5907
▁ہٹا	-5908
▁نکالا	-5909
اگست	-5910
حقی	-5911
▁پرنس	-5912
▁۴۶	-5913
▁پرم	-5914
▁جوہر	-5915
▁اغوا	-5916
▁سرج	-5917
کرہ	-5918
▁منتظر	-5919
▁اخلاقی	-5920
▁بھی۔	-5921
▁نسخ	-5922
▁تائی	-5923
▁سیکھنے	-5924
▁رفیق	-5925
▁پیغامات	-5926
▁کھاد	-5927
▁کتابیں	-5928
▁جونء	-5929
▁ہائے	-5930
▁عص	-5931
▁طبقے	-5932
ڑپ	-5933
▁کاشتکاروں	-5934
▁افواج	-5935
▁روٹی	-5936
▁آفس	-5937
▁ٹار	-5938
▁گہرے	-5939
▁کارپوریشن	-5940
ائزیشن	-5941
▁نقطہ	-5942
▁پہنے	-5943
ائسنس	-5944
▁گواہ	-5945
بٹ	-5946
دونوں	-5947
▁۶۵	-5948
▁بلتستان	-5949
▁خوشگوار	-5950
▁ڈیف	-5951
▁میتھی	-5952
▁مائیکرو	-5953
▁کہے	-5954
▁فیکٹری	-5955
▁مراک	-5956
اکتوبر	-5957
▁دائرہ	-5958
▁چرا	-5959
؟“	-5960
▁وکلا	-5961
▁دیکھتی	-5962
▁حامد	-5963
▁مےں	-5964
امن	-5965
▁قلت	-5966
▁چالیس	-5967
▁لیول	-5968
▁گراونڈ	-5969
دوں	-5970
▁مشکوک	-5971
▁سگریٹ	-5972
▁گوادر	-5973
▁باصلاحیت	-5974
▁فنی	-5975
▁انجن	-5976
▁دوپہر	-5977
▁بقول	-5978
▁مئیء	-5979
▁اسٹائل	-5980
زوں	-5981
▁مارشل	-5982
زید	-5983
▁وادی	-5984
▁فتوحات	-5985
▁کریڈٹ	-5986
▁اجاگر	-5987
جئے	-5988
▁ظہیر	-5989
▁کارنامہ	-5990
▁کھولنے	-5991
▁مہینوں	-5992
ازن	-5993
▁انسداد	-5994
نبی	-5995
▁شرائط	-5996
▁یوتھ	-5997
▁ڈھائی	-5998
▁پلانٹ	-5999
▁اساں	-6000
▁ایوب	-6001
▁اٹھانا	-6002
ڈالر	-6003
▁آرہی	-6004
کور	-6005
ائزر	-6006
شار	-6007
▁اکاؤ	-6008
▁کیل	-6009
▁اربوں	-6010
فروری	-6011
▁آرمی	-6012
▁اشعار	-6013
▁حدود	-6014
▁الو	-6015
▁مدنی	-6016
▁سوسائٹی	-6017
▁نجات	-6018
▁ترا	-6019
▁لانا	-6020
▁انٹری	-6021
▁ابوظہبی	-6022
▁انجمن	-6023
ورلڈ	-6024
▁ویلی	-6025
▁بننا	-6026
▁بغ	-6027
فصیلات	-6028
ڈلز	-6029
▁بھائیوں	-6030
▁مسافروں	-6031
▁اصغر	-6032
▁لائنز	-6033
▁بھیجے	-6034
▁غربت	-6035
▁الر	-6036
▁ستمبرء	-6037
▁کیون	-6038
▁فورم	-6039
▁اساتذہ	-6040
ایوں	-6041
▁بروقت	-6042
▁دھماکے	-6043
ہین	-6044
▁توقعات	-6045
▁لگاتے	-6046
▁زلز	-6047
تالیس	-6048
▁فلمس	-6049
▁ٹیر	-6050
ps	-6051
▁ڈس	-6052
▁افضل	-6053
▁بور	-6054
▁پہاڑ	-6055
۲۶	-6056
▁رہنمائی	-6057
▁سکر	-6058
▁لائسنس	-6059
▁تنہا	-6060
▁ڈبلز	-6061
▁تبدیلیوں	-6062
بوضہ	-6063
▁فوراً	-6064
▁اسل	-6065
▁رخصت	-6066
سار	-6067
▁انسانیت	-6068
▁اسپن	-6069
▁ایجو	-6070
▁ادھ	-6071
▁تمھیں	-6072
▁وج	-6073
▁ملازم	-6074
▁دائیں	-6075
▁میشا	-6076
▁خطرات	-6077
▁جذبہ	-6078
بینک	-6079
▁نیازی	-6080
▁پڑنے	-6081
▁گائے	-6082
▁ریال	-6083
▁کرت	-6084
re	-6085
▁ٹرانسپورٹ	-6086
▁سونم	-6087
▁اگستء	-6088
▁گھڑی	-6089
زدگی	-6090
ٹرن	-6091
▁ہےم	-6092
▁مارنے	-6093
▁استعفی	-6094
▁علیحدہ	-6095
▁دھڑ	-6096
▁خالص	-6097
▁مشرف	-6098
▁کیسا	-6099
▁داریاں	-6100
شوں	-6101
یریا	-6102
▁اپریلء	-6103
راق	-6104
▁اولین	-6105
▁جنھیں	-6106
ارہے	-6107
▁کمیون	-6108
▁اولاد	-6109
▁کارکنوں	-6110
▁صلاح	-6111
▁سینک	-6112
نگل	-6113
▁مرنے	-6114
▁ساحل	-6115
▁بینڈ	-6116
ہرا	-6117
ودگی	-6118
▁قرضہ	-6119
▁چیٹ	-6120
▁صادق	-6121
چک	-6122
▁بینچ	-6123
▁تنز	-6124
▁پروفیشنل	-6125
▁ہیروئن	-6126
▁دلہن	-6127
▁بڑھایا	-6128
▁لڑکا	-6129
▁عاطف	-6130
▁عسک	-6131
▁بنیں	-6132
ارہی	-6133
ٹیسٹ	-6134
▁ہتھیار	-6135
and	-6136
▁دستاویزات	-6137
▁p	-6138
▁بص	-6139
▁کنگنا	-6140
▁معد	-6141
▁سرٹیف	-6142
▁مراحل	-6143
نیوز	-6144
▁غذا	-6145
▁پیج	-6146
▁کھاتے	-6147
▁رتھر	-6148
▁مغرب	-6149
▁آرٹ	-6150
▁بشیر	-6151
▁کنو	-6152
▁اختتامی	-6153
▁دیدیا	-6154
▁ٹائمز	-6155
▁سلور	-6156
▁توہین	-6157
▁چودہ	-6158
▁گلیکسی	-6159
▁گوت	-6160
▁خاصی	-6161
اہو	-6162
▁پرائیویٹ	-6163
▁تھائی	-6164
▁دیوان	-6165
▁لیں۔	-6166
▁بریک	-6167
▁اشتراک	-6168
▁جارج	-6169
اہل	-6170
▁لڑکیاں	-6171
▁عظم	-6172
▁سیڈ	-6173
▁اہد	-6174
ھائی	-6175
▁گلاس	-6176
▁۴۹	-6177
▁پروم	-6178
▁حضور	-6179
▁خواہشات	-6180
▁پسندی	-6181
▁سُ	-6182
زیب	-6183
▁کشیدگی	-6184
▁سے۔	-6185
▁گورنمنٹ	-6186
▁خلیل	-6187
▁انسپ	-6188
▁رحیم	-6189
▁اسٹارز	-6190
▁الل	-6191
▁دہی	-6192
▁رحمان	-6193
▁تجھے	-6194
افہ	-6195
▁کینگ	-6196
▁حکومتوں	-6197
▁مدعو	-6198
ویب	-6199
▁سماج	-6200
▁ڈرون	-6201
▁مزاحمت	-6202
▁کہل	-6203
▁ضلعی	-6204
▁بوٹ	-6205
▁دلکش	-6206
▁کسان	-6207
▁سکیں۔	-6208
▁ہولی	-6209
▁زبانوں	-6210
▁سماء	-6211
▁بنتے	-6212
▁موضوعات	-6213
▁ذخیرہ	-6214
▁مومن	-6215
▁جملہ	-6216
وئی	-6217
▁ویئر	-6218
▁رائونڈ	-6219
▁سنگا	-6220
▁ہڑتال	-6221
▁مقبوضہ	-6222
▁رچرڈ	-6223
▁ڈریس	-6224
▁ضبط	-6225
انڈیکس	-6226
▁نازک	-6227
▁اختلافات	-6228
▁شعور	-6229
▁الط	-6230
▁جیسن	-6231
▁پلیز	-6232
▁اُٹھ	-6233
▁نمائندوں	-6234
▁رحمت	-6235
▁دانوں	-6236
▁غذائی	-6237
▁تحفظات	-6238
▁بدلے	-6239
▁خصوصیات	-6240
ازاں	-6241
▁مسلح	-6242
طے	-6243
۱۲	-6244
▁بتائیں	-6245
▁آف	-6246
▁خرابی	-6247
▁خبردار	-6248
▁ڈوم	-6249
▁سنو	-6250
قار	-6251
▁جنت	-6252
▁۵۰۰	-6253
▁کثیر	-6254
▁احتساب	-6255
▁خوشبو	-6256
▁نادر	-6257
انداد	-6258
▁ستاروں	-6259
▁بچت	-6260
▁بلایا	-6261
▁تقریبات	-6262
▁بدر	-6263
▁گج	-6264
▁شماریات	-6265
▁اسکو	-6266
▁ڈک	-6267
▁دادا	-6268
▁توازن	-6269
انیاں	-6270
۱۴	-6271
▁چلتی	-6272
▁لیاقت	-6273
▁جیب	-6274
▁خطوط	-6275
▁جاپانی	-6276
▁سوم	-6277
وین	-6278
▁تان	-6279
▁ود	-6280
▁ٹھہر	-6281
urdu	-6282
▁جایا	-6283
ڑہ	-6284
▁ہین	-6285
▁ولا	-6286
ing	-6287
▁گپ	-6288
▁سیالکوٹ	-6289
▁پائل	-6290
▁اہداف	-6291
سابق	-6292
▁گرانٹ	-6293
▁محق	-6294
▁اسنے	-6295
▁بتانے	-6296
▁رہنماؤں	-6297
▁تیرہ	-6298
▁رڈر	-6299
▁عقل	-6300
▁تشہیر	-6301
▁لف	-6302
افر	-6303
انگلینڈ	-6304
▁سیکوئل	-6305
▁کاٹن	-6306
▁پڑھا	-6307
▁میجر	-6308
▁پالیسیوں	-6309
▁سہی	-6310
ائی۔	-6311
▁یر	-6312
▁اٹھاتے	-6313
▁ڈیپارٹمنٹ	-6314
▁سمجھے	-6315
▁نگاری	-6316
▁میڈرڈ	-6317
سٹی	-6318
▁بلڈ	-6319
▁عارضی	-6320
▁بھرا	-6321
▁ذہانت	-6322
▁آت	-6323
▁۶۲	-6324
▁بڑھے	-6325
▁ہمایوں	-6326
گلنگ	-6327
ینڈنٹ	-6328
▁ویکسین	-6329
▁راہد	-6330
▁لمحات	-6331
us	-6332
یش	-6333
▁سوی	-6334
▁اکانٹس	-6335
▁جنگی	-6336
کھی	-6337
▁تیاریوں	-6338
▁اینڈرسن	-6339
یاض	-6340
▁کیپٹن	-6341
▁اختیارات	-6342
▁نری	-6343
یکیشن	-6344
▁سوچنے	-6345
▁گزرنے	-6346
▁D	-6347
▁متنازع	-6348
▁ہیلتھ	-6349
▁ذی	-6350
▁میلب	-6351
▁News	-6352
▁ہالینڈ	-6353
▁سپنر	-6354
▁شوگر	-6355
▁۵۲	-6356
▁عقیدت	-6357
▁بندش	-6358
▁مؤ	-6359
//	-6360
▁htt	-6361
▁نفا	-6362
▁ہلکی	-6363
▁علاقائی	-6364
پری	-6365
زے	-6366
▁ہیٹ	-6367
▁b	-6368
▁چھپا	-6369
زش	-6370
://	-6371
▁ڈائریکٹ	-6372
▁ٹریڈنگ	-6373
▁مینی	-6374
▁متاثرین	-6375
▁مرتضی	-6376
▁کاوش	-6377
بع	-6378
بیہ	-6379
▁تذکرہ	-6380
▁عند	-6381
وکٹیں	-6382
گس	-6383
▁بیٹسمینوں	-6384
▁قہ	-6385
▁دُ	-6386
پک	-6387
▁لارڈز	-6388
▁تبصرے	-6389
▁تیمور	-6390
ماٹر	-6391
▁فیصلوں	-6392
▁لاح	-6393
یمی	-6394
گاری	-6395
▁تحریری	-6396
▁B	-6397
▁ابی	-6398
▁اتے	-6399
▁https	-6400
▁گزارنے	-6401
▁اٹھارہ	-6402
▁۶۳	-6403
▁قیصر	-6404
▁ہنسی	-6405
▁زبیر	-6406
ونل	-6407
▁بالخصوص	-6408
▁سمارٹ	-6409
▁پریشر	-6410
▁مزہ	-6411
شپ	-6412
▁مختار	-6413
▁روپیہ	-6414
▁سینکڑوں	-6415
▁سائنسدانوں	-6416
یرو	-6417
▁مدنظر	-6418
▁سپاٹ	-6419
ولکر	-6420
▁ولیمز	-6421
▁فص	-6422
▁گامزن	-6423
▁اثنا	-6424
▁کاپ	-6425
دانی	-6426
▁[	-6427
فائل	-6428
▁معت	-6429
▁حضرات	-6430
▁سبق	-6431
▁صفحہ	-6432
▁راہداری	-6433
▁w	-6434
▁صلی	-6435
▁سز	-6436
حالی	-6437
▁بیماریوں	-6438
▁جمعے	-6439
انگی	-6440
▁فیسر	-6441
▁منع	-6442
ءمیں	-6443
▁بوس	-6444
▁زادی	-6445
ہائی	-6446
▁رجوع	-6447
▁سرگ	-6448
▁چاہئے۔	-6449
امدی	-6450
ڈیز	-6451
▁چھٹ	-6452
▁نیپال	-6453
سان	-6454
▁باش	-6455
▁ڈاکو	-6456
▁انصاری	-6457
▁بدستور	-6458
وانے	-6459
▁نہوں	-6460
▁مدار	-6461
▁مجید	-6462
▁۳۰۰	-6463
▁نویں	-6464
▁اشتہار	-6465
▁لڑکوں	-6466
▁اتا	-6467
▁لاپ	-6468
▁ثقافتی	-6469
▁نظریہ	-6470
▁ریٹائرڈ	-6471
▁کپل	-6472
آ	-6473
▁وم	-6474
▁یہیں	-6475
▁گوجرانوالہ	-6476
▁قادر	-6477
▁نال	-6478
▁اسٹوڈیو	-6479
▁حویلی	-6480
▁محفل	-6481
▁حب	-6482
▁طریقوں	-6483
▁تھانہ	-6484
عالمی	-6485
▁رونالڈو	-6486
رجی	-6487
▁اوگرا	-6488
▁واٹر	-6489
▁حساس	-6490
▁دھون	-6491
▁شکایات	-6492
جسٹ	-6493
▁قاتل	-6494
▁ائر	-6495
▁بٹن	-6496
▁چوٹ	-6497
پینڈنٹ	-6498
▁بقیہ	-6499
▁سلطنت	-6500
▁بلائنڈ	-6501
▁ارا	-6502
▁جوز	-6503
▁ارجنٹائن	-6504
ent	-6505
▁برج	-6506
▁رسم	-6507
▁نعمان	-6508
کرکٹ	-6509
▁ہیںیہ	-6510
▁بستر	-6511
▁لمبے	-6512
▁موس	-6513
▁تحفہ	-6514
▁کرنل	-6515
ونہ	-6516
▁پام	-6517
▁پنڈ	-6518
-%	-6519
▁کالی	-6520
▁میلبورن	-6521
▁ناممکن	-6522
▁نمک	-6523
▁متن	-6524
▁ڈالے	-6525
▁دبنگ	-6526
▁تبھی	-6527
ریوں	-6528
▁ماری	-6529
▁یکساں	-6530
▁درمدات	-6531
▁چاہئیں	-6532
▁مظہر	-6533
▁اڑا	-6534
▁وحید	-6535
▁حراست	-6536
▁بھوک	-6537
▁لیف	-6538
فارمیشن	-6539
▁میگزین	-6540
وسیم	-6541
▁ساجد	-6542
▁نوائے	-6543
▁ٹماٹر	-6544
▁کاشف	-6545
نمائندہ	-6546
▁انٹیلی	-6547
▁پرور	-6548
▁فائز	-6549
▁نرمی	-6550
▁ہیلی	-6551
واٹ	-6552
▁عموم	-6553
▁میانداد	-6554
▁بتانا	-6555
▁بریڈ	-6556
اوورز	-6557
▁f	-6558
▁فرنٹ	-6559
▁گوتم	-6560
▁جاتا۔	-6561
ولز	-6562
ویسی	-6563
۱۶	-6564
امید	-6565
ac	-6566
▁نظیر	-6567
▁منگنی	-6568
روی	-6569
▁مرچ	-6570
▁پھوٹ	-6571
▁سائٹس	-6572
▁دھند	-6573
▁بھال	-6574
▁اسٹین	-6575
ٹیج	-6576
▁روزنامہ	-6577
▁قرن	-6578
▁شکی	-6579
▁خوبی	-6580
ویہ	-6581
▁کسٹمز	-6582
کھلاڑیوں	-6583
▁حنیف	-6584
▁کنڈیشنز	-6585
▁رابطوں	-6586
▁ہاشمی	-6587
▁شرٹ	-6588
▁قدرت	-6589
▁کیویز	-6590
▁درامدات	-6591
▁برگ	-6592
لانگ	-6593
▁شہزادہ	-6594
▁پلاسٹک	-6595
▁محتاط	-6596
نجر	-6597
۱۷	-6598
▁ٹوکیو	-6599
▁چاہا	-6600
▁مہنگے	-6601
▁حفاظتی	-6602
▁صنم	-6603
▁انتظامی	-6604
▁مفادات	-6605
پش	-6606
رزاق	-6607
▁ہڈی	-6608
▁شنو	-6609
وزی	-6610
▁رہائی	-6611
▁لیٹ	-6612
▁مواز	-6613
▁قربان	-6614
▁سپاہی	-6615
چل	-6616
▁اطراف	-6617
▁ماڈلز	-6618
▁شیڈنگ	-6619
▁سبھی	-6620
▁کولمبو	-6621
لوار	-6622
▁وفاق	-6623
▁m	-6624
▁جموں	-6625
▁فراز	-6626
ابری	-6627
▁علامت	-6628
ستانی	-6629
▁سائنسی	-6630
▁غف	-6631
▁پرع	-6632
▁رونے	-6633
▁تحصیل	-6634
▁بوت	-6635
▁فلمساز	-6636
▁شہادت	-6637
لینا	-6638
▁ارٹ	-6639
▁وارد	-6640
▁اسکرپٹ	-6641
▁کتے	-6642
▁تحقیقی	-6643
▁ناتھ	-6644
▁ٹرائلز	-6645
▁بشری	-6646
▁منق	-6647
گیاں	-6648
▁کینگروز	-6649
▁واٹسن	-6650
▁بینکنگ	-6651
▁تکنیکی	-6652
▁مارکیٹنگ	-6653
▁مغل	-6654
▁نامزدگی	-6655
▁میلے	-6656
ائنس	-6657
عدم	-6658
▁نز	-6659
▁پیکج	-6660
▁سٹیج	-6661
▁عکا	-6662
▁تعارف	-6663
ایف	-6664
▁ٹوئی	-6665
پوت	-6666
قلی	-6667
▁فرش	-6668
▁کرو۔	-6669
▁پسندوں	-6670
▁دھا	-6671
▁بھج	-6672
▁راضی	-6673
▁منانے	-6674
▁ستارے	-6675
▁کما	-6676
▁قدرے	-6677
انجام	-6678
گنی	-6679
▁قبضے	-6680
▁چڑھا	-6681
▁رضوی	-6682
شانت	-6683
نل	-6684
▁نعرے	-6685
▁سار	-6686
▁دہائیوں	-6687
▁مخلو	-6688
گٹ	-6689
▁اداکاراں	-6690
▁ایبٹ	-6691
▁شیل	-6692
▁جوائن	-6693
▁فوائد	-6694
▁ملاح	-6695
▁امیدواروں	-6696
▁بہاول	-6697
▁ہنگامی	-6698
وانی	-6699
!!	-6700
گال	-6701
▁اتی	-6702
▁ہول	-6703
زب	-6704
▁سپین	-6705
▁R	-6706
▁آگاہ	-6707
▁رضام	-6708
▁باخبر	-6709
▁فلک	-6710
▁سکتے۔	-6711
▁تھرل	-6712
وائے	-6713
▁ناردرن	-6714
▁افیسر	-6715
▁ناظ	-6716
واعد	-6717
▁شوز	-6718
اہاہ	-6719
صوبائی	-6720
▁نوا	-6721
▁اوم	-6722
▁ہینڈ	-6723
▁رنج	-6724
ریٹ	-6725
▁۵۴	-6726
▁ازاد	-6727
▁کریز	-6728
▁جتنے	-6729
▁کڑی	-6730
▁کہوں	-6731
▁حسنین	-6732
▁سبسڈی	-6733
▁سرانجام	-6734
▁ہوجائے	-6735
▁لٹ	-6736
▁ترسیلات	-6737
▁تسلی	-6738
▁پہر	-6739
▁سبزیوں	-6740
وند	-6741
▁پریشن	-6742
▁کیشن	-6743
جنوبی	-6744
خل	-6745
ابہ	-6746
۱۳	-6747
▁کالا	-6748
▁کاج	-6749
▁سنیل	-6750
▁ترسیل	-6751
▁بندہ	-6752
▁ویس	-6753
▁شبہ	-6754
▁نوش	-6755
▁لگانا	-6756
اریوں	-6757
▁پیرا	-6758
▁چوکے	-6759
▁ریت	-6760
▁پرک	-6761
▁سرم	-6762
▁جلسے	-6763
▁‘	-6764
▁گور	-6765
▁۸۵	-6766
▁دھوپ	-6767
▁تناظر	-6768
▁رائل	-6769
▁جگر	-6770
▁آرا	-6771
▁کمرہ	-6772
▁۵۷	-6773
▁پلٹ	-6774
▁بروز	-6775
▁فکشن	-6776
▁ران	-6777
▁انفارمیشن	-6778
▁نمائندے	-6779
▁واج	-6780
▁سنٹرل	-6781
▁مشق	-6782
ولیاتی	-6783
▁بجھ	-6784
▁ٹنڈولکر	-6785
▁شاخ	-6786
▁فول	-6787
▁موزوں	-6788
نوی	-6789
▁چانس	-6790
▁پٹی	-6791
▁طلباء	-6792
ستانہ	-6793
▁پیز	-6794
▁تیرا	-6795
▁ڈسپلے	-6796
▁ایجوکیشن	-6797
▁دارانہ	-6798
▁in	-6799
▁ملہ	-6800
▁امدادی	-6801
▁السلام	-6802
▁ریاستی	-6803
▁چڑ	-6804
▁نصیر	-6805
دھا	-6806
▁انڈسٹریل	-6807
▁مستحق	-6808
’’	-6809
▁اجتما	-6810
▁رجسٹرڈ	-6811
▁کاغذات	-6812
▁حلقہ	-6813
▁آئینی	-6814
اکو	-6815
▁شفقت	-6816
▁بڑھتا	-6817
وات	-6818
▁دلو	-6819
▁L	-6820
▁مجموعے	-6821
عز	-6822
ملک	-6823
▁عکاسی	-6824
▁نامے	-6825
▁پروٹ	-6826
▁۵۶	-6827
ol	-6828
▁علیم	-6829
▁پائیں	-6830
▁وزیرِ	-6831
▁صفدر	-6832
▁پھلوں	-6833
▁پولیو	-6834
▁قواعد	-6835
▁۵۳	-6836
نیشنل	-6837
▁کاپی	-6838
سلونا	-6839
▁آؤٹ	-6840
▁وڈیو	-6841
▁کروائے	-6842
▁انیل	-6843
▁حلف	-6844
▁اسٹریٹ	-6845
▁پڑھنا	-6846
▁کرش	-6847
▁۵۸	-6848
ظہ	-6849
گیر	-6850
خیص	-6851
ناسب	-6852
پارٹی	-6853
▁راجپوت	-6854
▁زخم	-6855
▁پائپ	-6856
▁کہانیوں	-6857
▁چرچ	-6858
▁نقش	-6859
▁فز	-6860
▁عیسی	-6861
▁لیئے	-6862
▁مووی	-6863
سنگ	-6864
▁ناخ	-6865
وقی	-6866
▁عرض	-6867
▁ڈاکٹروں	-6868
▁سنتے	-6869
▁ڈاکٹرز	-6870
▁سٹریلین	-6871
▁حکمر	-6872
▁متوجہ	-6873
▁ہےفلم	-6874
▁مزدور	-6875
▁پانچواں	-6876
شمند	-6877
▁وفا	-6878
▁اشت	-6879
▁کرائم	-6880
▁انعامی	-6881
▁نکلی	-6882
▁گان	-6883
▁اوز	-6884
▁پھیر	-6885
احمد	-6886
▁جوکو	-6887
▁یونٹس	-6888
فیل	-6889
▁مردہ	-6890
▁عہدیداروں	-6891
▁لڑنے	-6892
کڑ	-6893
▁نفاذ	-6894
▁اسلحہ	-6895
▁ڈٹ	-6896
دعا	-6897
امریکی	-6898
▁سیاحت	-6899
▁پابندیوں	-6900
▁ھا	-6901
▁رز	-6902
▁زیور	-6903
▁شواہد	-6904
ریو	-6905
▁نجکاری	-6906
▁انکوائری	-6907
▁پھولوں	-6908
▁ہواوے	-6909
▁تحقیقاتی	-6910
▁مسکراتے	-6911
▁ایڈم	-6912
▁فلپ	-6913
▁اونچی	-6914
▁منتقلی	-6915
▁تنزلی	-6916
▁اسانی	-6917
لیڈ	-6918
▁شمسی	-6919
▁مظفر	-6920
۱۸	-6921
▁ایڈیشنل	-6922
جھی	-6923
▁انڈپینڈنٹ	-6924
ak	-6925
▁اپریشن	-6926
▁فاٹا	-6927
▁گانوں	-6928
▁سرے	-6929
▁مڑ	-6930
ضر	-6931
▁سیدھا	-6932
▁سودوں	-6933
▁منح	-6934
▁ہوتی۔	-6935
▁حسب	-6936
▁حادثہ	-6937
▁سلیکٹرز	-6938
ولے	-6939
▁راونڈ	-6940
▁سٹیشن	-6941
▁ریسلنگ	-6942
▁سفارشات	-6943
وگ	-6944
▁واک	-6945
▁بتائے	-6946
▁چھڑ	-6947
فل	-6948
زدہ	-6949
▁کانوں	-6950
▁چشم	-6951
▁چھوڑا	-6952
▁ٹیکسی	-6953
▁فیاض	-6954
▁پاتے	-6955
▁اتحادی	-6956
▁ٹیکسوں	-6957
▁ہٹانے	-6958
بلی	-6959
ینز	-6960
▁دعوے	-6961
▁ارتھر	-6962
▁کمانے	-6963
▁گالی	-6964
▁صوفی	-6965
▁نیپرا	-6966
▁چائ	-6967
▁ایجنٹ	-6968
▁سمندری	-6969
▁تنازعات	-6970
▁چوب	-6971
ودھا	-6972
▁تلخ	-6973
▁بخوبی	-6974
▁فائی	-6975
ماں	-6976
▁سوچتے	-6977
▁ناظرین	-6978
▁مراعات	-6979
▁اصلی	-6980
اتھا	-6981
▁مارٹن	-6982
▁اینڈرائیڈ	-6983
▁گہرا	-6984
راط	-6985
▁تال	-6986
▁ہنر	-6987
▁صفح	-6988
▁سکوں	-6989
ختی	-6990
▁کالم	-6991
حمد	-6992
▁مطالبات	-6993
▁ماحولیاتی	-6994
▁کتب	-6995
▁الیاس	-6996
▁پچیس	-6997
▁بارشوں	-6998
▁سمجھتی	-6999
▁ٹھوس	-7000
▁کندھے	-7001
▁میلہ	-7002
پہلے	-7003
▁ماف	-7004
▁فوٹ	-7005
ذب	-7006
مجھے	-7007
اتار	-7008
▁تمھارے	-7009
▁قیا	-7010
▁برے	-7011
▁ابا	-7012
▁برسبین	-7013
▁مچا	-7014
▁کالعدم	-7015
▁رنگوں	-7016
▁امدنی	-7017
▁ویلز	-7018
▁ثاقب	-7019
▁سانی	-7020
▁شے	-7021
▁شہزادی	-7022
ڈان	-7023
▁رنا	-7024
▁لیپ	-7025
▁وضع	-7026
عمران	-7027
▁دلائل	-7028
این	-7029
یکچر	-7030
اندھی	-7031
انھوں	-7032
▁سیلفی	-7033
وزہ	-7034
۲۵	-7035
▁نین	-7036
▁غیرملکی	-7037
▁کرسکتے	-7038
▁راب	-7039
▁سٹو	-7040
▁نریندر	-7041
▁اوپنرز	-7042
▁اٹھی	-7043
۳۷	-7044
▁وان	-7045
تفصیلات	-7046
▁تخلیقی	-7047
▁شنواری	-7048
▁میزائل	-7049
یکٹس	-7050
▁سٹریٹ	-7051
▁گورننگ	-7052
▁مٹ	-7053
▁راف	-7054
▁جمہوری	-7055
▁بحیثیت	-7056
▁بذ	-7057
▁ناج	-7058
شمار	-7059
▁کلیم	-7060
جہاں	-7061
▁سکا۔	-7062
▁ریسٹ	-7063
▁سنگل	-7064
▁بیٹھنے	-7065
▁ریفرنس	-7066
سکی	-7067
▁تشخیص	-7068
▁ضیاء	-7069
▁سجل	-7070
ro	-7071
▁سوز	-7072
▁ممبئیاردو	-7073
▁دفاتر	-7074
▁قائل	-7075
الدین	-7076
▁ریگولیٹری	-7077
زئی	-7078
▁جہان	-7079
▁ہموار	-7080
کپتان	-7081
▁ڈیڈ	-7082
▁ڈور	-7083
▁چینلز	-7084
▁بیورو	-7085
پیٹ	-7086
جیے	-7087
▁رسی	-7088
▁حماس	-7089
▁ٹیگ	-7090
▁بعدازاں	-7091
بنگ	-7092
▁مضح	-7093
میٹر	-7094
▁ٹکرا	-7095
▁اجزا	-7096
▁نقاب	-7097
▁شکریہ	-7098
▁عبوری	-7099
▁،،	-7100
▁رائی	-7101
dex	-7102
▁پرعزم	-7103
▁شامی	-7104
▁پیکی	-7105
▁لکھنو	-7106
▁بارسلونا	-7107
▁اشاعت	-7108
▁کہانیاں	-7109
▁فریم	-7110
▁موازنہ	-7111
▁مضحکہ	-7112
▁استفادہ	-7113
▁قصہ	-7114
▁جھیل	-7115
▁انکھ	-7116
▁ژ	-7117
▁انرجی	-7118
ولین	-7119
ومیہ	-7120
▁عدالتوں	-7121
▁جڑی	-7122
نٹری	-7123
▁گلوکاری	-7124
▁رہیں۔	-7125
▁کھڑکی	-7126
el	-7127
نیا	-7128
▁محی	-7129
▁مینوف	-7130
۱۱	-7131
▁خصوصا	-7132
▁فائٹ	-7133
▁جارہے	-7134
▁داس	-7135
▁اکن	-7136
▁ملکیت	-7137
اعلی	-7138
▁اکیلے	-7139
▁,	-7140
▁ایپس	-7141
▁جذبے	-7142
▁عندیہ	-7143
▁انڈونی	-7144
▁دیہ	-7145
▁ریجنل	-7146
▁رہوں	-7147
▁دے۔	-7148
▁.....	-7149
▁جوہ	-7150
▁پہنا	-7151
▁عیس	-7152
▁سائز	-7153
▁عبدالح	-7154
▁ماسک	-7155
▁کیوی	-7156
▁اصولوں	-7157
▁چاہنے	-7158
▁رہو	-7159
▁شرکاء	-7160
▁ارمی	-7161
▁سمتھ	-7162
▁ظالم	-7163
▁حزب	-7164
tv	-7165
▁کرسٹ	-7166
▁لاحق	-7167
▁گھور	-7168
▁E	-7169
▁عظمت	-7170
▁پُ	-7171
▁برینڈ	-7172
▁انسپکٹر	-7173
▁ناں	-7174
▁مہدی	-7175
▁جھکا	-7176
▁پوچھنے	-7177
▁پہلوان	-7178
نوع	-7179
▁منایا	-7180
unya	-7181
▁بانو	-7182
▁ہونٹوں	-7183
▁اسکینڈل	-7184
php	-7185
▁بادی	-7186
▁تناسب	-7187
▁میڈلز	-7188
▁سکتی۔	-7189
▁پیاز	-7190
▁ماننا	-7191
▁اعوان	-7192
▁دستیابی	-7193
▁ہیری	-7194
▁تقرری	-7195
unyan	-7196
▁بیسٹ	-7197
▁بڑھی	-7198
index	-7199
▁بھرتی	-7200
کھے	-7201
▁تعیناتی	-7202
▁سمری	-7203
▁سترہ	-7204
سٹھ	-7205
ندو	-7206
Dunya	-7207
dunyan	-7208
▁ارجن	-7209
▁لار	-7210
▁زیدی	-7211
▁سائبر	-7212
▁باولنگ	-7213
▁سوان	-7214
▁قلب	-7215
▁زار	-7216
▁پودوں	-7217
▁کاشتکار	-7218
▁سچن	-7219
▁فہد	-7220
▁زاوی	-7221
روش	-7222
لیئر	-7223
▁ٹا	-7224
il	-7225
▁and	-7226
▁افر	-7227
رپورٹ	-7228
▁توڑنے	-7229
dunyanews	-7230
▁خوفزدہ	-7231
▁سرجری	-7232
▁یت	-7233
طی	-7234
عمر	-7235
▁ڈائ	-7236
▁نڈال	-7237
▁رونما	-7238
▁میٹرک	-7239
▁ٹرانز	-7240
▁درآمد	-7241
پت	-7242
▁یومیہ	-7243
▁ہونیوالے	-7244
مس	-7245
▁بنگلادیش	-7246
▁قہقہ	-7247
▁چلیں	-7248
چیئر	-7249
▁اورنگ	-7250
▁سلیمان	-7251
▁ہولڈرز	-7252
▁۵۱	-7253
▁ایجاد	-7254
انٹر	-7255
▁نیاز	-7256
▁فاروقی	-7257
▁گمب	-7258
▁ایشیاء	-7259
▁روانگی	-7260
▁گجرات	-7261
▁مفتی	-7262
▁کلا	-7263
ستھ	-7264
ائے۔	-7265
▁دلائی	-7266
دیپ	-7267
▁زو	-7268
▁شکیب	-7269
نہیں	-7270
▁الہی	-7271
▁کمزوری	-7272
▁ہمدردی	-7273
▁بناتا	-7274
▁باولر	-7275
▁البم	-7276
▁آئ	-7277
▁زوال	-7278
▁گلوبل	-7279
▁۶۶	-7280
▁موسیقار	-7281
▁نیلامی	-7282
▁پتی	-7283
▁درجنوں	-7284
▁ایشوریا	-7285
▁پہاڑی	-7286
▁اترے	-7287
▁بوم	-7288
▁خوشحالی	-7289
ائلڈ	-7290
▁پیچیدہ	-7291
اتھی	-7292
▁خورشید	-7293
▁عظمی	-7294
▁پٹھ	-7295
▁بائیو	-7296
▁جوڑا	-7297
▁پکڑے	-7298
▁ہونگی	-7299
ئٹزر	-7300
میرے	-7301
▁کپڑوں	-7302
▁مظاہرین	-7303
▁رومانوی	-7304
▁ازدو	-7305
▁جوڈی	-7306
▁۱۵۰	-7307
▁بدلنے	-7308
▁رجب	-7309
،،،	-7310
دما	-7311
▁ٹیوٹ	-7312
▁فیورٹ	-7313
▁سپیشل	-7314
▁کنٹین	-7315
▁دھواں	-7316
غاوت	-7317
▁فطرت	-7318
▁یاب	-7319
▁بحری	-7320
▁حرم	-7321
▁شیو	-7322
▁اٹیک	-7323
▁میان	-7324
ابلہ	-7325
ائیڈن	-7326
▁اکٹھے	-7327
▁۵۹	-7328
وجیز	-7329
▁وسلم	-7330
▁اکاؤنٹ	-7331
▁طبقہ	-7332
▁علامات	-7333
▁اسپیشل	-7334
ارہا	-7335
▁اعلامیے	-7336
▁نوب	-7337
ستگی	-7338
▁نقصانات	-7339
▁سانپ	-7340
▁گاندھی	-7341
▁مورگن	-7342
اداکار	-7343
▁ہارنے	-7344
▁عبدالرح	-7345
▁استدعا	-7346
▁باسکٹ	-7347
ادیت	-7348
▁وارم	-7349
am	-7350
انیے	-7351
▁فہمی	-7352
▁سینا	-7353
ایات	-7354
▁پودے	-7355
شکر	-7356
اہرہ	-7357
▁ڈاؤن	-7358
▁کیمی	-7359
▁دلانے	-7360
▁محت	-7361
▁ئرلینڈ	-7362
▁حنا	-7363
▁بخار	-7364
▁بحریہ	-7365
▁طرفہ	-7366
▁تعالیٰ	-7367
▁شج	-7368
▁قاف	-7369
▁خٹک	-7370
▁اموات	-7371
▁درخواستیں	-7372
▁گرے	-7373
▁اصط	-7374
▁ارسال	-7375
ائلی	-7376
ورنیا	-7377
یمت	-7378
▁چھاپ	-7379
▁جانسن	-7380
▁ڈری	-7381
غرل	-7382
▁فرید	-7383
کون	-7384
▁سکھر	-7385
▁پکڑا	-7386
▁گنگ	-7387
اکار	-7388
▁کیش	-7389
▁نمی	-7390
▁وعد	-7391
▁کرایہ	-7392
▁فلیٹ	-7393
▁ٹیرف	-7394
▁رمیز	-7395
شام	-7396
روسہ	-7397
▁لوک	-7398
▁ونگ	-7399
▁کیک	-7400
▁آنے	-7401
▁اٹھائی	-7402
▁پیرزادہ	-7403
▁مہمانوں	-7404
▁سپیکر	-7405
امک	-7406
▁منظم	-7407
▁بغاوت	-7408
▁اگیا	-7409
▁انٹربینک	-7410
▁پڑوسی	-7411
کیز	-7412
▁مستع	-7413
ابھی	-7414
▁ججز	-7415
▁تھک	-7416
▁وسعت	-7417
لور	-7418
▁پہنچیں	-7419
جہتی	-7420
▁کامیابیوں	-7421
▁ریاستوں	-7422
▁جگہوں	-7423
ٹلر	-7424
▁اشتہارات	-7425
▁مشورے	-7426
▁رفتہ	-7427
▁بتاؤ	-7428
▁عبدالرزاق	-7429
▁فٹبالر	-7430
▁ایڈو	-7431
▁اینڈی	-7432
▁مسرت	-7433
▁کیمرا	-7434
▁ایتھلیٹ	-7435
▁دامن	-7436
▁جواز	-7437
▁عملہ	-7438
▁عسکری	-7439
▁افسانے	-7440
▁بلد	-7441
▁کھولا	-7442
▁ولیمسن	-7443
▁آفت	-7444
▁شاپنگ	-7445
شکل	-7446
▁پرچم	-7447
▁بنگال	-7448
▁کوم	-7449
▁حتی	-7450
ation	-7451
▁پیاری	-7452
نور	-7453
▁نوجوانوں	-7454
ینار	-7455
▁ملاحظہ	-7456
▁کالے	-7457
▁اگلا	-7458
▁لکڑی	-7459
▁متواز	-7460
▁ڈیوائسز	-7461
▁فلسطین	-7462
▁۶۷	-7463
یبت	-7464
گہ	-7465
▁پذیرائی	-7466
▁حدی	-7467
▁علوم	-7468
▁کمانڈر	-7469
دھی	-7470
▁دستبر	-7471
▁عراق	-7472
▁خورد	-7473
اتوں	-7474
▁مانگی	-7475
▁عبدالق	-7476
▁عل	-7477
▁چراغ	-7478
▁ٹیکن	-7479
▁روابط	-7480
▁دسویں	-7481
▁واٹ	-7482
▁ہورہی	-7483
▁سنبھالنے	-7484
▁اپنایا	-7485
▁نرس	-7486
ریدی	-7487
▁N	-7488
یسن	-7489
▁مزے	-7490
لکہ	-7491
▁کابل	-7492
▁وش	-7493
▁جعفر	-7494
▁سمیٹ	-7495
▁گیلانی	-7496
▁سالار	-7497
▁خامی	-7498
▁عدلیہ	-7499
غت	-7500
▁ذیشان	-7501
▁مینوفیکچر	-7502
▁۷۲	-7503
▁ٹکڑے	-7504
ٹرا	-7505
▁دنیائے	-7506
▁فوجیوں	-7507
▁حیا	-7508
▁گزرے	-7509
▁چھلانگ	-7510
بود	-7511
▁انٹرٹین	-7512
▁ئوٹ	-7513
▁آمین	-7514
طان	-7515
▁۰۲	-7516
▁۷۶	-7517
▁تعبیر	-7518
▁دو۔	-7519
▁خواہشمند	-7520
▁آمدنی	-7521
▁جری	-7522
▁بُ	-7523
▁سینیئر	-7524
▁پیڈ	-7525
▁مادہ	-7526
▁بستی	-7527
▁دوری	-7528
▁بولٹ	-7529
▁پرکشش	-7530
▁سرگودھا	-7531
▁شنگ	-7532
▁فریقین	-7533
▁اکٹھا	-7534
▁پٹیل	-7535
▁جدا	-7536
حقیقت	-7537
▁پرنٹ	-7538
برا	-7539
▁آئے	-7540
▁سائیں	-7541
▁چیلنجز	-7542
اسٹرکچر	-7543
▁تمھاری	-7544
▁حرام	-7545
▁مددگار	-7546
▁پرستاروں	-7547
▁بلکل	-7548
▁ئر	-7549
▁گمبھیر	-7550
▁طلعت	-7551
▁پچھلی	-7552
▁گینگ	-7553
ڈرز	-7554
▁ریٹنگ	-7555
▁آتے	-7556
▁لاج	-7557
▁کیلی	-7558
▁سراج	-7559
▁جامعہ	-7560
▁بھیجی	-7561
▁ایندھ	-7562
شیر	-7563
باس	-7564
▁ہےواضح	-7565
▁پیپلزپارٹی	-7566
▁تصنیف	-7567
▁ناچ	-7568
▁آسٹریلیا	-7569
قدر	-7570
زانہ	-7571
▁اکس	-7572
کمل	-7573
▁گرلز	-7574
▁عادی	-7575
▁جرا	-7576
▁ٹارگٹ	-7577
▁فائنلز	-7578
▁یارک	-7579
▁شاہراہ	-7580
▁مزار	-7581
▁پراپر	-7582
▁ورث	-7583
▁مجاہد	-7584
▁پلاننگ	-7585
خبری	-7586
▁کبیر	-7587
▁بھگت	-7588
ٰی	-7589
▁جلسہ	-7590
▁ٹی۲۰	-7591
▁بہاولپور	-7592
▁کلارک	-7593
▁جونز	-7594
▁سانگ	-7595
اپنی	-7596
شورنس	-7597
▁تری	-7598
▁مکھی	-7599
▁منائی	-7600
▁منصب	-7601
ڈیٹ	-7602
▁بورڈز	-7603
▁ماسکو	-7604
▁نقد	-7605
▁سپرد	-7606
بند	-7607
▁اشفاق	-7608
▁پائلٹ	-7609
▁الاس	-7610
▁امپائرز	-7611
▁وینا	-7612
▁سرمائے	-7613
▁کوشاں	-7614
▁ایندھن	-7615
▁پارلیمانی	-7616
▁گرہ	-7617
▁کانسی	-7618
▁لانگ	-7619
▁چہر	-7620
▁بانڈز	-7621
▁انشاء	-7622
▁گھوڑے	-7623
▁مولا	-7624
▁انڈونیشیا	-7625
▁دہشتگردی	-7626
▁یل	-7627
عامر	-7628
▁حرف	-7629
▁دھیرے	-7630
▁فرن	-7631
ضا	-7632
▁دھیان	-7633
▁مظاہر	-7634
▁دعائیں	-7635
▁منڈ	-7636
اکشی	-7637
▁آور	-7638
▁چئیر	-7639
▁مقدس	-7640
▁یم	-7641
▁بائولنگ	-7642
▁آپس	-7643
ینٹی	-7644
▁اصرار	-7645
▁پھیلانے	-7646
▁غز	-7647
▁مشینری	-7648
▁چیمہ	-7649
▁نارتھ	-7650
▁ساہ	-7651
▁دریائے	-7652
▁جوکووچ	-7653
وتی	-7654
▁تہہ	-7655
▁F	-7656
▁ستارہ	-7657
نگے	-7658
▁رعایت	-7659
▁مراکز	-7660
خلا	-7661
▁روایات	-7662
▁ایبل	-7663
▁ڈیزائنر	-7664
▁دہر	-7665
▁آتش	-7666
▁دلایا	-7667
▁مرغی	-7668
▁دوم	-7669
▁عبادت	-7670
▁الطاف	-7671
▁لع	-7672
▁سکس	-7673
▁نٹ	-7674
پھ	-7675
▁۹۵	-7676
▁پدما	-7677
سوں	-7678
▁اجے	-7679
▁گونج	-7680
▁میسج	-7681
▁اورم	-7682
▁دانت	-7683
▁جلال	-7684
▁کولن	-7685
شمول	-7686
▁انشورنس	-7687
▁تھپ	-7688
▁پروٹیز	-7689
▁کرنٹ	-7690
▁بلندیوں	-7691
▁اترنے	-7692
▁کتا	-7693
▁منور	-7694
▁فیڈرر	-7695
▁سنگاپور	-7696
▁تہلکہ	-7697
▁رونق	-7698
▁بناتی	-7699
▁غض	-7700
▁ہورہا	-7701
ئنگ	-7702
▁ڈراما	-7703
▁کا۔	-7704
▁پوچھے	-7705
▁مزدوروں	-7706
▁رینجرز	-7707
رگاہ	-7708
ویسٹ	-7709
▁ڈیولپ	-7710
▁طو	-7711
▁میکسیکو	-7712
▁عالی	-7713
▁حسینہ	-7714
▁گیاس	-7715
▁فرام	-7716
▁نشستوں	-7717
▁مانا	-7718
▁قدموں	-7719
▁ٹرینڈ	-7720
▁چارہ	-7721
▁جاسکے	-7722
▁ٹیوب	-7723
▁گراف	-7724
▁مجوزہ	-7725
et	-7726
▁خزانے	-7727
▁لفظوں	-7728
▁برٹ	-7729
ارکس	-7730
▁ٹائون	-7731
▁۷۴	-7732
بندی	-7733
▁دریں	-7734
▁تعمیراتی	-7735
▁علوی	-7736
▁اصطلاح	-7737
▁اجتماعی	-7738
▁ندا	-7739
▁آغا	-7740
▁لان	-7741
▁کولکتہ	-7742
▁برقی	-7743
▁ایسٹ	-7744
لیں	-7745
▁قائمہ	-7746
▁بہو	-7747
▁درس	-7748
▁خوشخبری	-7749
▁قیامت	-7750
▁دری	-7751
طغرل	-7752
▁رابر	-7753
▁ایڈجسٹ	-7754
▁سوئٹزر	-7755
▁ڈھاکہ	-7756
صہ	-7757
▁بوائز	-7758
▁حاضری	-7759
▁بادل	-7760
▁متفق	-7761
▁تنخواہوں	-7762
▁بارڈر	-7763
▁نمود	-7764
▁ینگ	-7765
▁پریرا	-7766
▁لگاتار	-7767
▁کشمیریوں	-7768
ائنٹس	-7769
ریڈ	-7770
▁بحر	-7771
▁ٹاسک	-7772
▁جبر	-7773
لاگ	-7774
سانی	-7775
تا۔	-7776
ؤ	-7777
▁بتایاکہ	-7778
▁ہولڈر	-7779
▁لائیں	-7780
▁میرٹ	-7781
▁چیمپیئنز	-7782
▁۶۸	-7783
▁ویلیو	-7784
▁جانیں	-7785
▁سوٹ	-7786
▁بندرگاہ	-7787
▁جنوب	-7788
گئے	-7789
ونچر	-7790
صوف	-7791
▁چیر	-7792
بجے	-7793
▁ارشاد	-7794
▁مٹھ	-7795
▁بائیکاٹ	-7796
▁کونے	-7797
▁تڑپ	-7798
▁کردے	-7799
▁شمال	-7800
▁کرب	-7801
پولی	-7802
▁سیون	-7803
▁ایان	-7804
▁ویزا	-7805
▁لہجہ	-7806
▁درمیانی	-7807
فیس	-7808
▁معاشر	-7809
▁دید	-7810
▁پیٹرسن	-7811
▁طیارہ	-7812
▁حماد	-7813
▁برانچ	-7814
▁ورزش	-7815
▁نایا	-7816
ثرت	-7817
▁تماشائیوں	-7818
▁انڈے	-7819
▁درختوں	-7820
▁سنسر	-7821
▁گایا	-7822
▁انگوٹ	-7823
▁کرتے۔	-7824
ڈاک	-7825
▁ہنڈ	-7826
▁ایڈیلیڈ	-7827
اباد	-7828
▁سائیکلنگ	-7829
▁پیکیج	-7830
▁پردے	-7831
ھن	-7832
▁ڈول	-7833
وکی	-7834
انچے	-7835
▁وص	-7836
▁اوول	-7837
عین	-7838
▁فان	-7839
▁کشش	-7840
ائیکی	-7841
طینہ	-7842
▁فنچ	-7843
▁ازادی	-7844
▁لائب	-7845
▁رائٹر	-7846
▁مصیبت	-7847
▁شناختی	-7848
▁پرف	-7849
چیف	-7850
▁صفحات	-7851
▁بسی	-7852
تھا	-7853
ایم	-7854
▁لوٹے	-7855
▁شمس	-7856
پال	-7857
▁نوکر	-7858
▁کیجئے	-7859
▁لپیٹ	-7860
▁لاتے	-7861
▁ترام	-7862
▁ٹیز	-7863
▁پیارے	-7864
▁ٹھک	-7865
▁ارہی	-7866
انہیں	-7867
بتا	-7868
▁مکر	-7869
▁۶۱	-7870
▁بھروسہ	-7871
▁مائی	-7872
▁ہوئ	-7873
▁ساختہ	-7874
▁تمنا	-7875
▁خاندانوں	-7876
▁روحانی	-7877
▁۷۷	-7878
▁کررہا	-7879
▁طالبات	-7880
▁کوالٹی	-7881
▁اکاونٹ	-7882
▁وقاص	-7883
▁ادائیگیوں	-7884
▁مقت	-7885
▁ڈیرہ	-7886
▁نظریات	-7887
▁چوٹی	-7888
▁شروعات	-7889
▁مُ	-7890
▁بازاروں	-7891
▁خاصا	-7892
▁بمق	-7893
▁ہدایتکاری	-7894
لنے	-7895
چارج	-7896
▁کلم	-7897
▁بوائے	-7898
▁ڈھی	-7899
▁منٹو	-7900
▁گیری	-7901
ھار	-7902
▁پھٹ	-7903
▁فلور	-7904
▁رشی	-7905
▁رقوم	-7906
▁ناظم	-7907
▁ہلکا	-7908
▁زیرو	-7909
▁انڈسٹ	-7910
▁اعصام	-7911
▁قیاس	-7912
▁۴۰۰	-7913
▁؟“	-7914
▁سیکھا	-7915
▁نگاہوں	-7916
▁زائ	-7917
▁ہونیوالی	-7918
▁زبردستی	-7919
▁اندھیرے	-7920
▁دھار	-7921
▁پیپر	-7922
▁بشمول	-7923
▁جرمانے	-7924
)،	-7925
▁المبارک	-7926
ایا۔	-7927
▁کچن	-7928
▁احاط	-7929
▁ماور	-7930
▁امریکن	-7931
▁پاسپورٹ	-7932
کول	-7933
▁سجا	-7934
▁ایاز	-7935
▁سوائے	-7936
▁اللّ	-7937
▁چوبیس	-7938
زیر	-7939
▁خاور	-7940
▁بٹھ	-7941
▁سیٹس	-7942
▁کمانڈ	-7943
ڑھا	-7944
▁واں	-7945
▁معاشرتی	-7946
▁کھیت	-7947
▁پاشا	-7948
▁سکو	-7949
▁عورتیں	-7950
▁گرما	-7951
▁کیے۔	-7952
▁کیمیکل	-7953
▁پرائیویسی	-7954
▁شہریت	-7955
▁کےلئے	-7956
▁پڑیں	-7957
▁معائنہ	-7958
▁ایشز	-7959
▁رکی	-7960
پرو	-7961
▁پڑھتے	-7962
▁صدیق	-7963
▁منتظ	-7964
▁روئے	-7965
▁ستم	-7966
▁نشریات	-7967
▁۹۹	-7968
▁ڈالتے	-7969
▁روتے	-7970
▁ڈپارٹمنٹ	-7971
▁اگئی	-7972
▁آرز	-7973
▁ریمارکس	-7974
ائڈ	-7975
▁نیر	-7976
▁پوسٹر	-7977
▁قاری	-7978
▁شاگر	-7979
نامے	-7980
▁ایڈمن	-7981
▁جاندار	-7982
▁ہوگئے۔	-7983
پنج	-7984
کات	-7985
▁فام	-7986
▁بلڈنگ	-7987
صب	-7988
▁ارام	-7989
▁ایگزیکٹیو	-7990
▁تنہائی	-7991
▁گہرائی	-7992
▁اذیت	-7993
▁ہاوس	-7994
▁مروہ	-7995
▁سمجھنا	-7996
آپ	-7997
▁اِس	-7998
▁ہجوم	-7999
▁تھرو	-8000
▁دھمکیاں	-8001
▁ہنگامہ	-8002
▁فیشل	-8003
▁دنی	-8004
▁ڈائریکٹرز	-8005
▁ﷺ	-8006
▁چاک	-8007
چری	-8008
▁شق	-8009
▁حلقے	-8010
▁معاہدوں	-8011
▁اسکاٹ	-8012
▁۷۸	-8013
▁پراپرٹی	-8014
▁گھٹنے	-8015
▁خاندانی	-8016
▁کووڈ	-8017
▁وارڈ	-8018
اذ	-8019
▁باداردو	-8020
▁آش	-8021
▁کنسر	-8022
▁ہز	-8023
▁مافیا	-8024
اصر	-8025
▁چش	-8026
▁یکجہتی	-8027
▁جوکہ	-8028
▁زلزلے	-8029
اجمان	-8030
▁پرتھ	-8031
▁۰۳	-8032
▁لانڈر	-8033
▁مشروط	-8034
▁مصروفیات	-8035
▁مجلس	-8036
▁قرنطینہ	-8037
▁مانند	-8038
▁اندازی	-8039
▁دماغی	-8040
▁درحقیقت	-8041
▁معز	-8042
▁جوڈیشل	-8043
▁جد	-8044
پخت	-8045
▁ائرلینڈ	-8046
▁دخل	-8047
▁ارڈر	-8048
▁اجنبی	-8049
▁خا	-8050
▁سگن	-8051
▁ہتھ	-8052
▁جولی	-8053
▁اسٹوریج	-8054
▁تھااس	-8055
▁رئیل	-8056
▁نیلم	-8057
فائنل	-8058
نیز	-8059
▁کوالیفائنگ	-8060
▁باجی	-8061
▁ترامیم	-8062
▁مالا	-8063
▁مناس	-8064
دوم	-8065
▁قیدیوں	-8066
لیٹس	-8067
▁احتجاجی	-8068
▁لیلا	-8069
▁ناسا	-8070
▁فرین	-8071
▁اداس	-8072
▁چونک	-8073
▁ارو	-8074
▁خم	-8075
▁اسٹور	-8076
▁دلیل	-8077
▁سوات	-8078
▁ارطغرل	-8079
▁پیروں	-8080
▁اشیائے	-8081
▁وب	-8082
▁ہراس	-8083
▁لانڈرنگ	-8084
مص	-8085
▁لاپتہ	-8086
▁گلا	-8087
▁نظری	-8088
▁ا۔	-8089
▁منط	-8090
▁واجبات	-8091
▁اسٹیشنز	-8092
▁ساٹھ	-8093
▁اینٹ	-8094
۲۴	-8095
▁G	-8096
▁مائ	-8097
▁بیرسٹر	-8098
▁برباد	-8099
▁پریٹنگ	-8100
▁سکت	-8101
▁نسخہ	-8102
▁انڈسٹریز	-8103
▁توں	-8104
▁فوکس	-8105
▁بگڑ	-8106
▁نشریاتی	-8107
▁ستر	-8108
▁اشارے	-8109
دنیا	-8110
▁تصویریں	-8111
▁راجا	-8112
▁گڈ	-8113
▁میوزیم	-8114
واگ	-8115
▁عتی	-8116
▁غالبا	-8117
▁اعلامیہ	-8118
▁عذ	-8119
▁ریکارڈنگ	-8120
ul	-8121
یمہ	-8122
اقان	-8123
۵۰	-8124
▁رُ	-8125
▁ملاقاتیں	-8126
▁کہو	-8127
یتی	-8128
▁براد	-8129
▁چادر	-8130
▁اکیس	-8131
▁چلائی	-8132
▁کالونی	-8133
▁بولتے	-8134
▁ایڈونچر	-8135
▁شت	-8136
▁تخمینہ	-8137
▁ازم	-8138
▁میگاواٹ	-8139
▁ہوت	-8140
▁أ	-8141
▁شنگھائی	-8142
▁ناشتہ	-8143
▁فیشلز	-8144
▁بکھیر	-8145
ورتھ	-8146
▁ہےب	-8147
▁فیو	-8148
گوں	-8149
▁لق	-8150
▁ڈا	-8151
▁براجمان	-8152
▁ہما	-8153
شاہد	-8154
▁دیہی	-8155
یفہ	-8156
▁قلعہ	-8157
جمع	-8158
منگھم	-8159
▁ریسکیو	-8160
▁ٹے	-8161
گیند	-8162
▁لبوں	-8163
▁قون	-8164
وفاقی	-8165
▁فردوس	-8166
ضحی	-8167
اویزی	-8168
▁جوتے	-8169
▁انسٹا	-8170
▁لیڈی	-8171
▁ساخت	-8172
▁؟؟	-8173
▁شمع	-8174
▁ڈریسنگ	-8175
▁مما	-8176
ad	-8177
▁کاپٹر	-8178
▁کامل	-8179
▁آرمی	-8180
▁انٹرٹینمنٹ	-8181
ہیں	-8182
حت	-8183
▁ہےمزید	-8184
ادے	-8185
▁عج	-8186
▁اسٹوری	-8187
▁مستعفی	-8188
▁ارتق	-8189
▁پشن	-8190
▁فرنی	-8191
▁مایا	-8192
▁یہودی	-8193
کچھ	-8194
▁پینٹ	-8195
▁ناجائز	-8196
▁اسلوب	-8197
▁حکمرانی	-8198
▁فطری	-8199
▁کنندگان	-8200
▁استحص	-8201
▁پرسن	-8202
▁پہننے	-8203
الر	-8204
دریج	-8205
▁پابندیاں	-8206
▁ہائیڈ	-8207
akistan	-8208
▁گلوکاروں	-8209
▁تجھ	-8210
▁لگائیں	-8211
▁عامہ	-8212
▁یوا	-8213
▁دہندگان	-8214
▁نائن	-8215
حسن	-8216
▁راس	-8217
▁مطل	-8218
جائے	-8219
▁بدلہ	-8220
▁ورکرز	-8221
جل	-8222
▁نوں	-8223
▁پست	-8224
▁عطیہ	-8225
▁متحد	-8226
▁جوں	-8227
▁چہروں	-8228
▁سستے	-8229
▁چاہت	-8230
ٹھے	-8231
▁کلر	-8232
▁دیسی	-8233
▁حور	-8234
▁تشریف	-8235
▁تاثرات	-8236
ٰہ	-8237
▁پردیش	-8238
▁نصرت	-8239
▁ذکا	-8240
▁ٹیکنالوجیز	-8241
ابیر	-8242
▁سوری	-8243
▁سنچریوں	-8244
▁سوچنا	-8245
▁سوچتا	-8246
▁محصول	-8247
▁تاز	-8248
▁ایمب	-8249
▁سانحہ	-8250
▁پڑتے	-8251
▁ذوق	-8252
▁خواہاں	-8253
▁ماریہ	-8254
▁کریک	-8255
ومنٹ	-8256
▁غلطیوں	-8257
▁دباو	-8258
برط	-8259
▁ارگن	-8260
▁بندھن	-8261
الیا	-8262
▁لیفٹین	-8263
ریعہ	-8264
▁کھولے	-8265
▁گولڈن	-8266
▁زکر	-8267
کنار	-8268
▁نایاب	-8269
▁اٹک	-8270
▁۷۳	-8271
▁نائ	-8272
درہ	-8273
▁انٹ	-8274
▁سرینا	-8275
▁تباد	-8276
▁منتظمین	-8277
▁سیمینار	-8278
▁لپ	-8279
▁اقدار	-8280
▁مناسبت	-8281
▁منڈیوں	-8282
▁ایمرجنسی	-8283
پنے	-8284
▁وقفہ	-8285
آخر	-8286
اکارا	-8287
الین	-8288
▁وقف	-8289
▁دربار	-8290
▁شہن	-8291
▁میون	-8292
▁گولیاں	-8293
َل	-8294
▁شگ	-8295
▁سنہا	-8296
جیت	-8297
▁پون	-8298
▁مخلوق	-8299
▁قوی	-8300
رواں	-8301
▁محققین	-8302
▁منو	-8303
▁چمن	-8304
▁اسپیڈ	-8305
▁موسمیاتی	-8306
▁صہ	-8307
▁چئیرمین	-8308
بس	-8309
▁لیبار	-8310
▁نیشن	-8311
▁سنہری	-8312
پیئن	-8313
▁زمینی	-8314
▁پیسوں	-8315
▁O	-8316
▁مسابق	-8317
▁پروسی	-8318
▁لمبا	-8319
کیٹس	-8320
▁فیول	-8321
▁منے	-8322
▁آپکو	-8323
لص	-8324
▁گلابی	-8325
▁کرتا۔	-8326
▁لیے۔	-8327
▁ذاکر	-8328
حم	-8329
▁رکھا۔	-8330
▁زند	-8331
▁کروانا	-8332
▁سیاحوں	-8333
▁مظاہرے	-8334
حدی	-8335
▁تخت	-8336
▁جیکسن	-8337
▁فیل	-8338
بہت	-8339
▁جاب	-8340
▁دھڑکن	-8341
▁رضامندی	-8342
▁بتدریج	-8343
▁پھیلنے	-8344
▁ڈیولپمنٹ	-8345
▁شبیر	-8346
چن	-8347
▁سکاٹ	-8348
▁ٹرسٹ	-8349
پختون	-8350
▁سعود	-8351
▁دستاویزی	-8352
▁مہاج	-8353
▁شکن	-8354
▁ٹیزر	-8355
تن	-8356
▁سفارتی	-8357
▁سبسکر	-8358
ڈنٹ	-8359
▁طر	-8360
▁شعری	-8361
ٹیٹ	-8362
▁مدثر	-8363
اکس	-8364
▁قدمی	-8365
▁مسیح	-8366
▁۶۹	-8367
▁اکنامک	-8368
▁۰۴	-8369
db	-8370
▁ہور	-8371
▁ڈیلیٹ	-8372
▁گھس	-8373
▁اسٹریلین	-8374
▁تلوار	-8375
▁منسوب	-8376
نواز	-8377
▁منج	-8378
▁ضابطہ	-8379
▁تدابیر	-8380
▁عوامل	-8381
▁ایریا	-8382
ندرا	-8383
▁چلنا	-8384
نیوزی	-8385
▁شرمندہ	-8386
▁محتر	-8387
▁جھگڑا	-8388
▁ملا۔	-8389
▁غلطیاں	-8390
▁نکلتے	-8391
▁جھوٹی	-8392
ونز	-8393
▁کرروپے	-8394
▁بنگلور	-8395
▁نعمت	-8396
▁کاروائی	-8397
لیٹی	-8398
▁رونا	-8399
▁سیارے	-8400
▁مہک	-8401
▁۸۴	-8402
▁جاسوس	-8403
▁ذائ	-8404
▁برمنگھم	-8405
▁ہیںس	-8406
▁دوطرفہ	-8407
▁شیک	-8408
▁مشاہدہ	-8409
▁بیو	-8410
▁کنس	-8411
▁سواری	-8412
▁۸۶	-8413
▁ذیلی	-8414
▁ہارر	-8415
▁دلیپ	-8416
سپو	-8417
▁ضمیر	-8418
۲۲	-8419
▁قبائلی	-8420
▁کرائیں	-8421
▁فقیر	-8422
▁آغاز	-8423
▁مارجن	-8424
▁سکولوں	-8425
▁بینر	-8426
باری	-8427
▁دیے۔	-8428
صغیر	-8429
ڈاکٹر	-8430
▁قطار	-8431
▁راح	-8432
عدگی	-8433
▁شیشے	-8434
▁خالق	-8435
▁شہدا	-8436
▁مکت	-8437
▁ماتھ	-8438
▁فلائٹ	-8439
▁ہرایا	-8440
▁خصوصیت	-8441
▁جمہوریہ	-8442
▁لالی	-8443
▁مکس	-8444
یان	-8445
پسند	-8446
▁راونڈر	-8447
▁دکھاتے	-8448
▁مکال	-8449
▁ناقدین	-8450
▁پرتگال	-8451
▁ئند	-8452
▁تشریح	-8453
▁ویزے	-8454
▁ہتھیاروں	-8455
▁گلاب	-8456
غم	-8457
۱۰۰	-8458
▁راکٹ	-8459
▁کمب	-8460
▁اوپ	-8461
▁ماڈلنگ	-8462
▁تکنیک	-8463
شتوں	-8464
سیٹ	-8465
▁یادداشت	-8466
▁لاگو	-8467
▁قبرستان	-8468
▁الود	-8469
▁چھکا	-8470
▁پھین	-8471
▁بدنام	-8472
جیئم	-8473
▁اپس	-8474
▁فصلوں	-8475
▁لکھنا	-8476
الف	-8477
▁استحصال	-8478
▁میدانوں	-8479
▁۸۸	-8480
▁پاتا	-8481
▁حکمرانوں	-8482
▁آثار	-8483
▁سوتی	-8484
▁لیور	-8485
▁بائیڈن	-8486
▁اڈ	-8487
▁کانٹی	-8488
نسٹی	-8489
▁حریم	-8490
لٹن	-8491
▁ٹھنڈا	-8492
▁نوم	-8493
▁سایہ	-8494
▁بنالی	-8495
▁ساکھ	-8496
بعد	-8497
▁افراط	-8498
▁براو	-8499
▁برینڈن	-8500
پورہ	-8501
▁ڈیلرز	-8502
▁ضمنی	-8503
▁لائبریری	-8504
▁ڈیوس	-8505
▁ظہور	-8506
▁واچ	-8507
ct	-8508
▁فہم	-8509
▁کرائ	-8510
▁پنچ	-8511
▁باور	-8512
پنجاب	-8513
گول	-8514
▁جڑے	-8515
▁اخبارات	-8516
▁پاکستا	-8517
▁غنی	-8518
▁فرنیچر	-8519
▁سیٹل	-8520
▁راہول	-8521
▁نفسیات	-8522
▁دھوکہ	-8523
▁سرکل	-8524
پیگ	-8525
▁سمجھی	-8526
st	-8527
▁باریک	-8528
▁حمد	-8529
▁کینٹ	-8530
۲۳	-8531
▁۷۱	-8532
▁مردان	-8533
▁افیشلز	-8534
▁ہاتھی	-8535
▁حالی	-8536
▁ٹاکر	-8537
▁جیا	-8538
▁بشکر	-8539
▁ضو	-8540
▁بلیو	-8541
▁مخدوم	-8542
▁تھانے	-8543
▁دادی	-8544
▁رونمائی	-8545
▁ممبئیبالی	-8546
▁چوم	-8547
▁اپری	-8548
▁چکن	-8549
▁شکوہ	-8550
ut	-8551
کوئی	-8552
▁مریخ	-8553
▁مدینہ	-8554
رفراز	-8555
جک	-8556
▁انجینئرنگ	-8557
▁کیں۔	-8558
▁لیبارٹری	-8559
▁دشمنی	-8560
▁چنگ	-8561
پولیس	-8562
جانے	-8563
▁چھیڑ	-8564
▁کرون	-8565
ارنی	-8566
▁مشاع	-8567
▁اسٹیو	-8568
▁سیدھی	-8569
یاسی	-8570
▁کہن	-8571
▁یقیناً	-8572
▁یونانی	-8573
▁ہمہ	-8574
▁بناء	-8575
▁یے	-8576
▁کارروائیوں	-8577
دیر	-8578
▁ٹکٹوں	-8579
▁مہارا	-8580
▁آزم	-8581
▁سشانت	-8582
▁فرحت	-8583
▁عکسبندی	-8584
▁امیدیں	-8585
▁محترمہ	-8586
▁سیاستدان	-8587
▁پوش	-8588
▁میئر	-8589
دوسرے	-8590
▁آمیز	-8591
▁رائیڈ	-8592
▁اسکواش	-8593
▁یش	-8594
▁کامیابیاں	-8595
▁اراضی	-8596
▁عدد	-8597
▁کانٹے	-8598
▁عبید	-8599
▁خاقان	-8600
▁ہانیہ	-8601
▁ارم	-8602
پھر	-8603
پشاور	-8604
▁لیبر	-8605
ہاں	-8606
▁دوستانہ	-8607
▁دوچار	-8608
▁جنازہ	-8609
▁وچ	-8610
▁اعدادو	-8611
▁گزرتے	-8612
غب	-8613
▁حید	-8614
▁ہاتھا	-8615
▁پرواہ	-8616
▁سپن	-8617
▁حجاب	-8618
▁حا	-8619
▁سولر	-8620
▁پرائس	-8621
▁گنو	-8622
▁ھیں	-8623
▁نوشی	-8624
▁چندر	-8625
▁کلیدی	-8626
▁کنسرٹ	-8627
صیب	-8628
▁اسامہ	-8629
▁مکھ	-8630
▁لیفٹیننٹ	-8631
▁ندی	-8632
▁الحم	-8633
▁طاری	-8634
▁ہوسکتا	-8635
میچز	-8636
▁امپورٹ	-8637
▁ڈز	-8638
▁سرسید	-8639
▁بہنوں	-8640
▁کرنا۔	-8641
علا	-8642
لوس	-8643
▁ڈسپلن	-8644
انسبرگ	-8645
▁جنگلی	-8646
ائزنگ	-8647
▁کود	-8648
▁صدیوں	-8649
▁خریدا	-8650
یادہ	-8651
▁ڈاٹ	-8652
تس	-8653
▁سیب	-8654
▁رواج	-8655
▁کرام	-8656
▁افسوسناک	-8657
ولس	-8658
▁سلامت	-8659
▁مارش	-8660
▁راجر	-8661
▁رنگا	-8662
▁باسانی	-8663
▁گنوا	-8664
▁برائی	-8665
▁دون	-8666
▁دستی	-8667
▁۰۵	-8668
▁پرائز	-8669
▁بیلٹ	-8670
اسن	-8671
▁برطرف	-8672
▁مرہ	-8673
▁بھو	-8674
▁مطلع	-8675
▁جائینگے	-8676
▁ڈینی	-8677
▁شئیر	-8678
▁جنگلات	-8679
▁گزرا	-8680
▁ویلیئرز	-8681
▁ذہین	-8682
▁گھرانے	-8683
▁امانت	-8684
۲۷	-8685
رام	-8686
کھرب	-8687
▁رافیل	-8688
▁سہواگ	-8689
▁جاتی۔	-8690
▁to	-8691
ندا	-8692
▁رابی	-8693
▁بھیا	-8694
▁پائیدار	-8695
▁بتاتی	-8696
▁کٹو	-8697
▁رقبہ	-8698
وکری	-8699
کتاب	-8700
▁انقلابی	-8701
▁طبع	-8702
▁لالہ	-8703
▁تنقیدی	-8704
▁کثرت	-8705
▁مشاہد	-8706
▁اورنگزیب	-8707
▁بکھ	-8708
لیوں	-8709
▁پہل	-8710
اسے	-8711
▁میمن	-8712
▁ہیںفلم	-8713
▁ترجم	-8714
▁ہمکنار	-8715
▁پارلی	-8716
▁پھیلی	-8717
▁عمری	-8718
▁نرگس	-8719
▁کو۔	-8720
▁ٹائپ	-8721
▁کنول	-8722
▁ایکسائز	-8723
▁کامیڈین	-8724
▁جدت	-8725
▁فراموش	-8726
انسر	-8727
▁تمیم	-8728
۲۸	-8729
▁بلوں	-8730
میرا	-8731
▁ہارٹ	-8732
▁اقلی	-8733
▁مینڈ	-8734
▁ہےیہ	-8735
▁راستوں	-8736
▁شد	-8737
▁خیا	-8738
لیگ	-8739
▁افواہیں	-8740
ائیہ	-8741
▁کیمروں	-8742
▁سلا	-8743
▁پلک	-8744
▁گوری	-8745
▁کاربن	-8746
▁آرڈر	-8747
▁رائٹ	-8748
ہرے	-8749
▁پہاڑوں	-8750
▁ایمنسٹی	-8751
▁جھٹکے	-8752
▁۰۱	-8753
▁مہربانی	-8754
▁صاحبہ	-8755
▁وژن	-8756
▁۸۳	-8757
▁ہائوس	-8758
گلو	-8759
▁اسلامیہ	-8760
ڈیننس	-8761
▁مائل	-8762
▁بائولر	-8763
▁بوڑھے	-8764
▁فریال	-8765
▁طورپر	-8766
▁ہوئیں۔	-8767
▁ڈھانچے	-8768
▁ہون	-8769
▁ایکسپورٹرز	-8770
▁حسرت	-8771
▁وَ	-8772
▁اکیلا	-8773
▁پیشرفت	-8774
▁سلم	-8775
▁بخت	-8776
▁مرمت	-8777
▁کونس	-8778
ظوظ	-8779
▁آیا	-8780
▁ایشنز	-8781
▁سینٹی	-8782
▁مفاہم	-8783
▁ہیںم	-8784
▁موج	-8785
▁نفی	-8786
▁نمونہ	-8787
▁پولنگ	-8788
▁ہوشی	-8789
▁عمارتوں	-8790
▁برسی	-8791
▁طیاروں	-8792
▁ضوابط	-8793
▁قطع	-8794
▁نازی	-8795
▁گلزار	-8796
▁۰۶	-8797
▁اندرون	-8798
▁ٹیکنیکل	-8799
▁نشے	-8800
▁سوئنگ	-8801
▁امل	-8802
▁عہدوں	-8803
▁جاننا	-8804
▁بزدار	-8805
▁دکھائیں	-8806
▁یز	-8807
▁ایکسپو	-8808
غہ	-8809
▁ڈسٹری	-8810
▁عنصر	-8811
▁پڑھائی	-8812
▁اثاثوں	-8813
▁طیب	-8814
▁جعفری	-8815
▁فلاحی	-8816
▁ٹوئیٹ	-8817
▁ہیروز	-8818
لیسی	-8819
▁کنارہ	-8820
▁تھرلر	-8821
▁بگا	-8822
▁آیت	-8823
▁اعصاب	-8824
قا	-8825
▁سنے	-8826
قسم	-8827
گنا	-8828
▁n	-8829
▁معر	-8830
▁کنڈ	-8831
▁خلو	-8832
قدرت	-8833
▁بندے	-8834
گرو	-8835
▁کروز	-8836
▁،،،	-8837
▁مجب	-8838
▁ساحر	-8839
▁موتی	-8840
میڈیا	-8841
شمنٹ	-8842
▁حیدرباد	-8843
▁بنچ	-8844
▁اٹھے	-8845
▁کرسکیں	-8846
▁لوہا	-8847
گیس	-8848
▁زری	-8849
▁چلایا	-8850
▁سوناکشی	-8851
im	-8852
▁راغب	-8853
▁پرنسپل	-8854
شبہ	-8855
▁روکنا	-8856
▁سبقت	-8857
▁جرات	-8858
▁کھوکھر	-8859
▁پلانٹس	-8860
▁واجد	-8861
طیل	-8862
▁کنز	-8863
▁لکیر	-8864
▁پیسر	-8865
▁سائرہ	-8866
▁سٹیل	-8867
▁نامناسب	-8868
▁سازگار	-8869
▁d	-8870
▁پڑی۔	-8871
▁ٹھنڈی	-8872
▁علماء	-8873
▁داخلی	-8874
▁بھجوا	-8875
▁ہیںپاکستان	-8876
۲۱	-8877
ثنی	-8878
▁لر	-8879
▁l	-8880
▁محاذ	-8881
▁نبھا	-8882
▁کیمر	-8883
▁جیتنا	-8884
▁حسی	-8885
الوں	-8886
▁چائنا	-8887
خزانہ	-8888
▁اسپیکر	-8889
▁ولن	-8890
▁کارپوریٹ	-8891
▁سادگی	-8892
فید	-8893
وٹا	-8894
بز	-8895
▁یاس	-8896
▁جہازوں	-8897
▁۰۷	-8898
▁ویلتھ	-8899
▁لگیں۔	-8900
▁پرامید	-8901
انز	-8902
▁ریسٹور	-8903
▁میا	-8904
▁روحیل	-8905
ائیٹ	-8906
▁اٹھائیں	-8907
▁نڈ	-8908
▁متف	-8909
▁مانگنے	-8910
▁کامن	-8911
▁صنف	-8912
▁بلدیاتی	-8913
▁پرائم	-8914
لیاں	-8915
▁چچا	-8916
▁پڑھے	-8917
▁تھیا	-8918
▁براوو	-8919
▁نبھانے	-8920
▁بائیس	-8921
▁گد	-8922
▁محظوظ	-8923
▁زہری	-8924
▁تامل	-8925
▁مخالفین	-8926
▁دھچکا	-8927
▁وزیراعلی	-8928
▁رگن	-8929
▁فعل	-8930
▁یادیں	-8931
▁اجراء	-8932
▁لوئس	-8933
iv	-8934
▁پرستار	-8935
▁ٹھویں	-8936
▁لائق	-8937
▁میڈیم	-8938
▁ڈرافٹ	-8939
▁سخن	-8940
▁جرنل	-8941
▁جواد	-8942
▁صائمہ	-8943
▁بذریعہ	-8944
ho	-8945
▁بدع	-8946
▁دفن	-8947
دیہ	-8948
▁فرمان	-8949
▁شائر	-8950
▁شہنشاہ	-8951
▁سمر	-8952
▁دشواری	-8953
▁عتیق	-8954
▁سراہتے	-8955
▁لیلی	-8956
دیک	-8957
▁بریگی	-8958
▁دھرم	-8959
▁ریسلر	-8960
▁اٹارنی	-8961
▁درہم	-8962
▁ٹھہرا	-8963
▁۸۷	-8964
وریل	-8965
▁مانے	-8966
▁فرماتے	-8967
▁گزارا	-8968
نیپ	-8969
یشی	-8970
▁انڈرائیڈ	-8971
شناک	-8972
▁رسل	-8973
▁اٹھنے	-8974
▁گنے	-8975
▁گےاس	-8976
▁معط	-8977
▁ناگز	-8978
▁بھان	-8979
▁میتھیوز	-8980
یکسپو	-8981
▁سٹین	-8982
▁وول	-8983
▁نثر	-8984
▁جیتی	-8985
اہوں	-8986
▁کمپنیز	-8987
▁ارت	-8988
▁خیبرپختون	-8989
▁ڈینگی	-8990
▁جوہانسبرگ	-8991
▁خوشیاں	-8992
▁صوفے	-8993
▁محکموں	-8994
▁درخواستوں	-8995
▁اردوپوائنٹ	-8996
▁آئینہ	-8997
▁فنان	-8998
▁ضد	-8999
وئ	-9000
▁حوصلے	-9001
▁بسر	-9002
▁اولڈ	-9003
▁فیئر	-9004
▁بیلجیئم	-9005
گیندوں	-9006
حش	-9007
▁کر۔	-9008
▁زن	-9009
▁پونے	-9010
▁لود	-9011
▁......	-9012
▁سائے	-9013
▁سیرت	-9014
▁راتوں	-9015
▁فاض	-9016
نٹن	-9017
▁پروین	-9018
اظ	-9019
▁سرحدی	-9020
▁وعدے	-9021
▁ازدواج	-9022
▁جریدے	-9023
▁وارن	-9024
▁برصغیر	-9025
▁شہد	-9026
▁نغمہ	-9027
▁آرزو	-9028
▁کوئلے	-9029
▁سعادت	-9030
▁ہارڈ	-9031
▁لازم	-9032
▁وت	-9033
▁بھیڑ	-9034
▁الصوبائی	-9035
▁پر۔	-9036
ائمنڈ	-9037
▁ماننے	-9038
▁۹۶	-9039
▁عمومی	-9040
▁شرارت	-9041
ادوس	-9042
▁زینب	-9043
▁فف	-9044
بیس	-9045
▁کھایا	-9046
جاری	-9047
▁کریگی	-9048
مراہ	-9049
▁ڈیک	-9050
مرہ	-9051
▁بڑھانا	-9052
▁اندازے	-9053
▁گھاس	-9054
▁مرزا۔	-9055
ہوم	-9056
گرد	-9057
▁صحافت	-9058
▁نبھایا	-9059
▁سازوں	-9060
▁جوزف	-9061
▁۰۸	-9062
▁عموماً	-9063
▁پولو	-9064
یوال	-9065
▁تھرڈ	-9066
کب	-9067
▁بٹلر	-9068
▁داخلے	-9069
▁گروپس	-9070
▁کھٹ	-9071
▁محرم	-9072
▁بیدار	-9073
▁استفسار	-9074
▁پرورش	-9075
▁دیوگن	-9076
▁دکھانا	-9077
▁شبلی	-9078
▁گالف	-9079
کشی	-9080
▁۷۹	-9081
▁ننھے	-9082
▁ہسپتالوں	-9083
▁رائٹرز	-9084
▁قیدی	-9085
▁تصادم	-9086
▁ماموں	-9087
▁ہلکے	-9088
▁لبنان	-9089
▁انگریزوں	-9090
تین	-9091
▁اسمگلنگ	-9092
▁ایز	-9093
▁پُر	-9094
▁بندوق	-9095
▁ٹیکسز	-9096
▁دھرنے	-9097
▁ڈائیلاگ	-9098
▁پتے	-9099
▁جینی	-9100
▁دنگل	-9101
▁ورانہ	-9102
▁احتیاطی	-9103
▁ڈپریشن	-9104
▁بنو	-9105
کاش	-9106
▁سوئٹزرلینڈ	-9107
▁کوا	-9108
▁مطالعے	-9109
▁ابوال	-9110
▁ماتھے	-9111
غیب	-9112
▁نشو	-9113
سٹس	-9114
▁اویس	-9115
▁ریفنڈ	-9116
وزیراعظم	-9117
یبی	-9118
▁گنڈا	-9119
بیونل	-9120
▁نارمل	-9121
ٹیکس	-9122
▁مسک	-9123
▁ایون	-9124
کوچ	-9125
▁شہاب	-9126
▁حدیث	-9127
▁منصف	-9128
▁بوری	-9129
▁رٹس	-9130
اضافہ	-9131
▁متوازن	-9132
▁پکڑنے	-9133
▁ٹوینٹی	-9134
▁معال	-9135
▁عہدیداران	-9136
▁مصد	-9137
▁پکا	-9138
خاص	-9139
▁ریشم	-9140
▁ناگزیر	-9141
▁اوس	-9142
▁قول	-9143
▁سنگاکارا	-9144
▁سچائی	-9145
▁نامکمل	-9146
▁سنت	-9147
▁گروپوں	-9148
▁نقشہ	-9149
▁وکی	-9150
▁پمپ	-9151
▁۰۹	-9152
▁ساس	-9153
▁تشویشناک	-9154
▁فراڈ	-9155
▁اگئے	-9156
▁لگن	-9157
▁خوابوں	-9158
ائیل	-9159
▁ایٹمی	-9160
▁پروگرامز	-9161
▁الاسلام	-9162
راور	-9163
▁مباح	-9164
بادی	-9165
ڈیلی	-9166
▁کڑ	-9167
▁اوب	-9168
▁ایشون	-9169
▁ترکیب	-9170
▁دستبردار	-9171
سکون	-9172
▁احد	-9173
▁اثاثہ	-9174
▁سہولتیں	-9175
کمی	-9176
▁بولتا	-9177
▁سلوا	-9178
عقوب	-9179
بنگلہ	-9180
لیفورنیا	-9181
▁تلف	-9182
▁بوٹی	-9183
ساتھ	-9184
▁گوشو	-9185
▁!""	-9186
▁قطعی	-9187
▁ایوی	-9188
▁حام	-9189
▁خوبرو	-9190
▁ڈیفنس	-9191
▁تھوڑے	-9192
▁ورکنگ	-9193
▁بدلا	-9194
▁ناہ	-9195
▁بچایا	-9196
کرنے	-9197
▁نکالی	-9198
▁کھج	-9199
▁متراد	-9200
▁برائن	-9201
▁معق	-9202
سٹار	-9203
▁پیروی	-9204
ٹرل	-9205
▁ضرب	-9206
▁قار	-9207
ce	-9208
▁اں	-9209
▁چیمپین	-9210
▁پنک	-9211
▁موٹی	-9212
▁۱۲۰	-9213
▁سسر	-9214
▁جوئے	-9215
▁ٹورنامنٹس	-9216
شیک	-9217
▁سد	-9218
قان	-9219
▁چاپ	-9220
▁خانم	-9221
▁نمودار	-9222
▁پھانسی	-9223
یکسپوائنٹس	-9224
▁کارخ	-9225
▁سکی۔	-9226
▁آفتاب	-9227
▁سیدھے	-9228
▁اسٹوکس	-9229
▁تھیم	-9230
▁سندھی	-9231
▁لنگ	-9232
▁نعرہ	-9233
▁آز	-9234
▁۹۴	-9235
▁تاریک	-9236
کھلاڑی	-9237
▁۸۹	-9238
▁ایئرل	-9239
▁اسٹیون	-9240
▁بوتل	-9241
؟‘	-9242
▁تجدید	-9243
▁سرگرمی	-9244
بلشمنٹ	-9245
▁فلمز	-9246
▁تنصیب	-9247
▁بسٹر	-9248
▁مترادف	-9249
▁جوئی	-9250
▁یادوں	-9251
▁پارلیمان	-9252
شیدہ	-9253
▁ڈکی	-9254
▁محیط	-9255
▁ہےپ	-9256
متی	-9257
▁بندر	-9258
▁کاٹنے	-9259
▁ریان	-9260
▁نمونے	-9261
▁نصاب	-9262
▁التوا	-9263
▁جسٹن	-9264
▁تحلیل	-9265
▁کھائی	-9266
▁رابرٹ	-9267
مول	-9268
▁مشغ	-9269
ونے	-9270
▁ید	-9271
کیوں	-9272
▁جھگڑے	-9273
▁گولز	-9274
▁ایڈوو	-9275
▁استوار	-9276
▁سنایا	-9277
شعیب	-9278
▁منشی	-9279
▁فلسفہ	-9280
▁الٹ	-9281
▁بروئے	-9282
▁سائیک	-9283
▁محلے	-9284
▁ہنی	-9285
▁ابادی	-9286
▁ملٹی	-9287
▁انفراسٹرکچر	-9288
▁مجبوری	-9289
▁یکطرفہ	-9290
▁جوائنٹ	-9291
▁قاصر	-9292
طع	-9293
▁مثالیں	-9294
▁عبر	-9295
▁فوق	-9296
▁صالح	-9297
▁ہوپ	-9298
▁جھن	-9299
▁رفتاری	-9300
▁ایگری	-9301
▁سرٹیفکیٹ	-9302
▁اسلئے	-9303
▁معطلی	-9304
▁بلاگ	-9305
▁قونصل	-9306
▁زارا	-9307
▁جسکے	-9308
▁شرمن	-9309
▁ملح	-9310
▁کرنیوالے	-9311
میہ	-9312
سیریز	-9313
▁سائنسدان	-9314
▁بھرنے	-9315
▁مثالی	-9316
▁اینگ	-9317
▁کانپ	-9318
▁اسٹیک	-9319
▁بخود	-9320
ازم	-9321
▁رنگت	-9322
▁عبدالقادر	-9323
▁ملیر	-9324
▁پہنچتے	-9325
▁بمقابلہ	-9326
▁الیکٹرانک	-9327
▁وفاد	-9328
▁حروف	-9329
▁ڈاون	-9330
ِل	-9331
▁کاجول	-9332
ڈیل	-9333
▁خریدار	-9334
▁طلائی	-9335
▁آزاد	-9336
▁نون	-9337
▁غیرت	-9338
▁روزگاری	-9339
▁یعقوب	-9340
▁اسباب	-9341
▁قبی	-9342
▁سٹائل	-9343
کاروب	-9344
▁زبانی	-9345
▁تھپڑ	-9346
▁اندی	-9347
▁کراٹے	-9348
صرف	-9349
▁پرج	-9350
انوے	-9351
▁کھر	-9352
▁۸۲	-9353
▁یس	-9354
نوانی	-9355
da	-9356
▁افیشل	-9357
▁بنوں	-9358
ینک	-9359
▁جمالی	-9360
دیگر	-9361
▁مساو	-9362
▁بالآخر	-9363
▁جست	-9364
▁ہنستے	-9365
▁صنعتکاروں	-9366
▁کرک	-9367
است	-9368
الیوں	-9369
▁مضبوطی	-9370
ٹیشن	-9371
▁آفریدی	-9372
▁افواہوں	-9373
▁دھرنا	-9374
▁کرسٹی	-9375
▁وارننگ	-9376
▁ہوے	-9377
▁داریوں	-9378
▁الک	-9379
منٹن	-9380
▁ٹرمین	-9381
▁افزا	-9382
▁مباحث	-9383
▁آصف	-9384
▁فنانشل	-9385
▁رسمی	-9386
▁میوزیکل	-9387
عید	-9388
▁باقا	-9389
عزیز	-9390
▁ترغیب	-9391
▁۹۸	-9392
▁گیان	-9393
▁مویشی	-9394
▁منحصر	-9395
یمپ	-9396
والا	-9397
▁شوقین	-9398
▁بیٹیوں	-9399
▁کستان	-9400
▁ہوچکی	-9401
▁سوانح	-9402
▁قابلیت	-9403
▁دھکیل	-9404
▁نکھوں	-9405
▁میرپور	-9406
▁درمدی	-9407
▁اجرا	-9408
ئیس	-9409
▁بیٹھتے	-9410
▁ہےپی	-9411
▁فائد	-9412
▁گھبرا	-9413
ؤن	-9414
▁کیلے	-9415
▁فحش	-9416
▁عصر	-9417
▁ایڈوان	-9418
▁شمیم	-9419
مانیٹرنگ	-9420
▁تبادلے	-9421
▁اکائ	-9422
▁ٹیس	-9423
▁ے۔	-9424
▁کے۔	-9425
▁ناب	-9426
▁۹۳	-9427
چھی	-9428
▁ایجنڈے	-9429
▁خامیوں	-9430
▁پڑے۔	-9431
▁گجر	-9432
▁پھٹی	-9433
▁بلاشبہ	-9434
▁لوگو	-9435
▁کرائسٹ	-9436
▁مشعل	-9437
وریٹ	-9438
▁انگلیوں	-9439
▁معاشرہ	-9440
▁ہوجائیں	-9441
خال	-9442
▁صفحۂ	-9443
▁چھان	-9444
کٹرز	-9445
▁شیئرنگ	-9446
▁موسمیات	-9447
▁رسالہ	-9448
▁نمٹ	-9449
▁واد	-9450
▁اسپنرز	-9451
▁بشریٰ	-9452
▁مربوط	-9453
▁ونس	-9454
▁اثاثے	-9455
▁گراں	-9456
▁بردار	-9457
Pakistan	-9458
نجی	-9459
▁ایڈووکیٹ	-9460
اہت	-9461
▁جاسکتی	-9462
▁لمس	-9463
▁متعین	-9464
▁کینیڈین	-9465
▁فخ	-9466
▁کیبل	-9467
رہے	-9468
بلڈن	-9469
▁دانتوں	-9470
▁ٹیچر	-9471
▁دورانیہ	-9472
▁جوڈو	-9473
▁بپا	-9474
▁بمبئی	-9475
▁تعطیل	-9476
▁مکہ	-9477
ئے۔	-9478
▁یوان	-9479
ضاد	-9480
▁ایرون	-9481
▁دیوانہ	-9482
▁کسر	-9483
▁واسطے	-9484
▁متنازعہ	-9485
▁۹۷	-9486
▁آدم	-9487
▁کاس	-9488
▁دورانیے	-9489
▁پروگراموں	-9490
▁کلیئرنس	-9491
▁پروڈیوسرز	-9492
▁جٹ	-9493
اڑی	-9494
▁کُ	-9495
▁رسوم	-9496
▁پنڈی	-9497
▁وغیرہ۔	-9498
▁سگنل	-9499
▁نشہ	-9500
▁واردات	-9501
▁شل	-9502
▁سودا	-9503
▁بدلتے	-9504
▁مہینہ	-9505
▁چڑیا	-9506
▁الات	-9507
▁حیدراباد	-9508
ag	-9509
▁لٹک	-9510
▁قرعہ	-9511
▁شرمندگی	-9512
اجلاس	-9513
▁دشوار	-9514
▁چانسلر	-9515
▁یاہو	-9516
▁لیگی	-9517
▁کیلیفورنیا	-9518
رحال	-9519
▁سنبھالا	-9520
▁کوت	-9521
▁لعنت	-9522
▁ہائیڈرو	-9523
▁ورڈ	-9524
▁برٹش	-9525
▁دائرے	-9526
ینٹ	-9527
۲۹	-9528
▁پشتو	-9529
یوم	-9530
▁مینجر	-9531
▁فوٹوفائل	-9532
رزمان	-9533
▁ہےذرائع	-9534
یوان	-9535
▁لغ	-9536
▁حقدار	-9537
واس	-9538
▁فانڈیشن	-9539
رائے	-9540
▁کرشن	-9541
▁پیچھا	-9542
سیف	-9543
▁اعدادوشمار	-9544
id	-9545
ٰذا	-9546
▁نوکیا	-9547
▁پارٹ	-9548
▁فاف	-9549
▁کارکنان	-9550
قر	-9551
سمس	-9552
کستان	-9553
ot	-9554
▁نادیہ	-9555
▁قند	-9556
▁کنی	-9557
▁رسید	-9558
▁رائٹس	-9559
▁تقویت	-9560
▁غا	-9561
بنا	-9562
روح	-9563
▁مباد	-9564
▁معنوں	-9565
▁استعداد	-9566
▁قلندر	-9567
▁چوں	-9568
▁مارکیٹس	-9569
فورڈ	-9570
▁ساہیوال	-9571
▁اندراج	-9572
▁چیمبرز	-9573
▁ہےخیال	-9574
▁آئیں۔	-9575
▁ناگ	-9576
▁ثقلین	-9577
▁نفیس	-9578
▁گذر	-9579
▁بٹھا	-9580
▁تہوار	-9581
▁کٹی	-9582
▁کہاہے	-9583
▁فرز	-9584
▁ایلن	-9585
▁دیواروں	-9586
▁نیدر	-9587
▁نسبتا	-9588
▁سیری	-9589
▁کمیونیکیشن	-9590
رساں	-9591
▁پیرو	-9592
ir	-9593
▁سنوکر	-9594
▁بیوٹی	-9595
▁اسٹورز	-9596
ئیرز	-9597
▁گوشوارے	-9598
▁حائل	-9599
▁کاوشوں	-9600
ڑنے	-9601
▁مڈ	-9602
▁صابر	-9603
▁ہستی	-9604
▁دشمنوں	-9605
▁سکینڈل	-9606
▁ٹول	-9607
▁خریدی	-9608
▁دھڑک	-9609
گوئی	-9610
▁پیشانی	-9611
▁وزیرستان	-9612
▁آجائے	-9613
▁مونگ	-9614
ter	-9615
ہندو	-9616
▁چھپانے	-9617
ملوں	-9618
▁عملدرمد	-9619
ab	-9620
▁پہون	-9621
سکو	-9622
▁پولینڈ	-9623
▁سبحان	-9624
▁اینی	-9625
▁فضائیہ	-9626
▁آپکی	-9627
اتھن	-9628
▁لیڈ	-9629
▁انخلا	-9630
▁W	-9631
▁کوالیفائر	-9632
▁۸۱	-9633
▁یونان	-9634
▁نکلتا	-9635
▁دنیش	-9636
▁مہلت	-9637
▁شہرہ	-9638
▁انکل	-9639
▁علیکم	-9640
em	-9641
▁ڈھال	-9642
▁معقول	-9643
▁کزن	-9644
▁ٹاؤن	-9645
▁اللّٰہ	-9646
▁باقاعدگی	-9647
▁اجزاء	-9648
▁پروموشن	-9649
ویڈ	-9650
▁ئن	-9651
▁عض	-9652
▁فلسطینیوں	-9653
▁بہبود	-9654
▁ٹرینٹ	-9655
▁سوالیہ	-9656
▁زندگیوں	-9657
▁کراتے	-9658
▁ناصرف	-9659
▁شعراء	-9660
الو	-9661
▁شرمناک	-9662
▁ئین	-9663
▁ستان	-9664
ھھ	-9665
▁سیز	-9666
▁ایڈجسٹمنٹ	-9667
▁بھڑک	-9668
▁اکرام	-9669
▁گپٹل	-9670
▁مثنوی	-9671
▁موخر	-9672
▁ماجد	-9673
▁بہانے	-9674
▁ودیا	-9675
▁پوشیدہ	-9676
▁کوری	-9677
▁اسٹارک	-9678
▁عاقب	-9679
▁تقرر	-9680
▁نانا	-9681
▁برتن	-9682
▁بھتی	-9683
▁جھوٹے	-9684
▁کارپٹ	-9685
▁محصولات	-9686
▁انگل	-9687
▁اجناس	-9688
ٓمد	-9689
▁ریحان	-9690
▁تمغے	-9691
▁نہر	-9692
ch	-9693
▁نکتہ	-9694
▁کینیا	-9695
▁مادھ	-9696
▁عقیل	-9697
▁فلیگ	-9698
▁مساوات	-9699
▁کیاس	-9700
▁متفقہ	-9701
فون	-9702
▁تفریحی	-9703
▁ایمپ	-9704
▁مانتے	-9705
▁فاضل	-9706
▁جوی	-9707
▁ڈزنی	-9708
▁بھگو	-9709
▁انوار	-9710
▁ریمانڈ	-9711
▁ناش	-9712
▁شیخو	-9713
▁غفلت	-9714
دایت	-9715
فیو	-9716
▁ریمپ	-9717
▁صداقت	-9718
▁اتریں	-9719
▁چنے	-9720
تیہ	-9721
▁حلال	-9722
▁پنڈت	-9723
▁ہےدوسری	-9724
▁ڈائن	-9725
لیفہ	-9726
▁پنشن	-9727
پرنگ	-9728
▁فرخ	-9729
▁ہینڈل	-9730
▁مہربان	-9731
▁پنی	-9732
مخت	-9733
▁فضول	-9734
▁وارث	-9735
▁ٹھکانے	-9736
▁اداکارائیں	-9737
▁!!	-9738
▁ٹینک	-9739
سوشل	-9740
▁کارگو	-9741
▁ہولڈنگ	-9742
▁بینکاری	-9743
▁ڈھاکا	-9744
▁ارہے	-9745
▁جھٹکا	-9746
▁کمپوز	-9747
▁ٹائیگرز	-9748
▁کرلے	-9749
▁کریئر	-9750
▁رحمن	-9751
▁اظہرعلی	-9752
▁اورس	-9753
▁کیمرون	-9754
▁خالہ	-9755
▁مربع	-9756
▁فرمائے	-9757
سکے	-9758
▁چھپی	-9759
▁اونٹ	-9760
عبدال	-9761
ہران	-9762
▁منھ	-9763
▁ویت	-9764
▁نچلی	-9765
▁شیریں	-9766
ریروں	-9767
▁ریکارڈز	-9768
عدالت	-9769
فرو	-9770
▁ارس	-9771
▁برپا	-9772
▁کیام	-9773
▁پروفائل	-9774
کارا	-9775
▁اورق	-9776
▁جماعتیں	-9777
▁گھنٹی	-9778
▁کوس	-9779
▁گلین	-9780
لٹ	-9781
▁ابرار	-9782
کشاپ	-9783
ig	-9784
▁گلشن	-9785
الوی	-9786
▁ایکٹر	-9787
▁صدف	-9788
▁ہوٹ	-9789
▁باغی	-9790
▁مجاز	-9791
▁مواصل	-9792
مو	-9793
امے	-9794
چو	-9795
▁انتقام	-9796
▁برابری	-9797
▁ڑ	-9798
▁قربت	-9799
ادوں	-9800
▁شیطان	-9801
▁دھماکہ	-9802
▁دیرینہ	-9803
مپٹن	-9804
▁انگلیاں	-9805
یکٹر	-9806
▁مثل	-9807
▁مضر	-9808
▁تعمیرات	-9809
گھنٹ	-9810
▁وائٹس	-9811
▁دلبر	-9812
ائنز	-9813
▁جزیرے	-9814
▁مساوی	-9815
اؤں	-9816
▁آو	-9817
امان	-9818
▁لہٰذا	-9819
▁بیڈمنٹن	-9820
▁نوری	-9821
▁گانٹھ	-9822
▁مصری	-9823
▁ڈرائیونگ	-9824
▁سوئپ	-9825
▁ملٹری	-9826
▁انجوائے	-9827
▁نگہ	-9828
▁نکات	-9829
▁الرحیم	-9830
▁تعجب	-9831
▁لیو	-9832
▁پیدل	-9833
▁کرسکی	-9834
▁لیجنڈری	-9835
▁آوازیں	-9836
َّ	-9837
▁کھیتوں	-9838
ائیے	-9839
▁ترجیحات	-9840
▁ڈائمنڈ	-9841
▁ٹاور	-9842
▁زہرہ	-9843
زیت	-9844
ھرا	-9845
▁گوار	-9846
خود	-9847
▁اوائل	-9848
▁اسٹیبلشمنٹ	-9849
▁جاسوسی	-9850
▁ریح	-9851
▁ماتح	-9852
▁بہادری	-9853
▁بیوق	-9854
▁سوہ	-9855
▁ایتھلیٹس	-9856
▁معذور	-9857
▁گرتی	-9858
▁پکچرز	-9859
▁کمنٹس	-9860
▁نگاروں	-9861
تاً	-9862
سس	-9863
اہری	-9864
▁کیاگیا	-9865
وتہ	-9866
چھا	-9867
▁تمھارا	-9868
▁پاکس	-9869
▁کمایا	-9870
▁تائید	-9871
▁ہمدرد	-9872
▁گریج	-9873
▁راگ	-9874
▁راہی	-9875
▁عمیر	-9876
▁لواح	-9877
▁اسنو	-9878
جیم	-9879
▁کویت	-9880
▁جاؤ۔	-9881
▁چیمپئین	-9882
کھیل	-9883
▁ٹاون	-9884
▁زنج	-9885
▁سراغ	-9886
▁فنڈنگ	-9887
▁اثناء	-9888
▁الص	-9889
▁مقدر	-9890
▁بینی	-9891
▁ایڈیٹر	-9892
▁شاز	-9893
غراف	-9894
▁مینیجر	-9895
▁نعت	-9896
▁منرو	-9897
▁جنگجو	-9898
▁جاتے۔	-9899
ٹیوٹ	-9900
▁بنائیں۔	-9901
▁یارم	-9902
▁سیٹھ	-9903
▁مینو	-9904
▁میسنجر	-9905
▁اسپیس	-9906
▁خیریت	-9907
▁حصار	-9908
ستھان	-9909
تاب	-9910
▁دکانوں	-9911
ِن	-9912
ومیں	-9913
▁ملکر	-9914
▁بنایا۔	-9915
▁سعدیہ	-9916
▁گاں	-9917
▁جدی	-9918
▁کیوب	-9919
▁ادر	-9920
▁ایڈن	-9921
▁آگئی۔	-9922
▁سیڑھی	-9923
▁موقعے	-9924
▁آپریشن	-9925
▁ہیلز	-9926
▁کلکتہ	-9927
معروف	-9928
▁ہوتے۔	-9929
▁تقاضوں	-9930
▁شرا	-9931
▁رپورٹرنمائندہ	-9932
▁گزارے	-9933
▁اہلیت	-9934
▁اُدھر	-9935
ٰہی	-9936
▁خانی	-9937
▁لائحہ	-9938
▁بود	-9939
▁تعصب	-9940
▁بابو	-9941
▁سمگلنگ	-9942
▁خلوص	-9943
▁شیکھر	-9944
نیتی	-9945
▁قطب	-9946
▁ورون	-9947
▁چائنہ	-9948
▁رشوت	-9949
▁بکھر	-9950
▁الن	-9951
▁آلات	-9952
▁ماما	-9953
▁کنسل	-9954
▁وکلاء	-9955
یری	-9956
▁ایلیٹ	-9957
▁سمان	-9958
▁افسانوں	-9959
▁احباب	-9960
▁ذائقہ	-9961
▁پارکنگ	-9962
▁نازیبا	-9963
لانے	-9964
▁نگاہیں	-9965
▁لیوا	-9966
▁دلاور	-9967
▁زرد	-9968
▁راوی	-9969
▁رولز	-9970
▁دھوکا	-9971
▁چوہان	-9972
▁کالز	-9973
▁اخبارئی	-9974
▁لاؤ	-9975
▁واجب	-9976
▁ششم	-9977
▁بینوں	-9978
▁کورنگی	-9979
رہی	-9980
▁کسے	-9981
▁کیڑے	-9982
▁نکھار	-9983
▁ایلس	-9984
▁بون	-9985
▁ومبلڈن	-9986
▁احساسات	-9987
▁اہلخانہ	-9988
▁لواحقین	-9989
▁فقدان	-9990
▁چارجنگ	-9991
▁جاگیر	-9992
▁چلاتے	-9993
▁ابتداء	-9994
▁صحرا	-9995
▁مجسم	-9996
▁محافظ	-9997
▁لیکچر	-9998
▁فاریکس	-9999
▁بتاتا	-10000
▁سارک	-10001
▁امپائرنگ	-10002
▁اسلامک	-10003
▁اُسی	-10004
▁گیاہے	-10005
▁ہجرت	-10006
▁سٹور	-10007
▁اگاہی	-10008
▁ہیںواضح	-10009
▁لاہ	-10010
▁اذان	-10011
▁جراث	-10012
▁جغراف	-10013
▁جول	-10014
▁کیانی	-10015
▁وارنٹ	-10016
اتاہم	-10017
▁رنگین	-10018
▁محترم	-10019
۳۱	-10020
َا	-10021
لینڈر	-10022
▁مظالم	-10023
▁کوئین	-10024
▁ناپسند	-10025
▁کرسکتا	-10026
▁ورکشاپ	-10027
▁چارلس	-10028
▁چاہوں	-10029
▁اٹھویں	-10030
▁لیگز	-10031
▁لشکر	-10032
ویلا	-10033
▁نانی	-10034
▁مہندی	-10035
▁زب	-10036
▁گین	-10037
▁سبزیاں	-10038
▁مطبو	-10039
▁دیوانے	-10040
▁سوئس	-10041
▁الفطر	-10042
▁گاہی	-10043
▁فرنینڈ	-10044
▁رسد	-10045
▁نتا	-10046
▁سمیر	-10047
▁دمی	-10048
▁وینیو	-10049
▁جک	-10050
▁دکن	-10051
▁رفیع	-10052
ماہرین	-10053
▁کولمبیا	-10054
روسافٹ	-10055
▁تھکا	-10056
▁نیس	-10057
▁ٹرو	-10058
▁کھپت	-10059
سز	-10060
نسالی	-10061
▁عبارت	-10062
جھا	-10063
▁نائی	-10064
▁حادثات	-10065
▁ووٹنگ	-10066
▁خیبرپختونخوا	-10067
▁؛	-10068
▁بیئر	-10069
▁خیل	-10070
▁درامدی	-10071
▁بدعنوانی	-10072
▁بندوب	-10073
▁جسکی	-10074
▁ایلی	-10075
▁معزز	-10076
▁مسز	-10077
▁تماشا	-10078
▁سمجھو	-10079
▁کیجیے	-10080
▁کروائیں	-10081
▁لرز	-10082
▁بلانے	-10083
▁فرنچائزز	-10084
▁لمحوں	-10085
ٹیبل	-10086
▁دینگے	-10087
نون	-10088
غی	-10089
▁اینکر	-10090
▁چتر	-10091
▁دیول	-10092
▁ناخوش	-10093
▁مدرسہ	-10094
▁زیورات	-10095
▁پڑتال	-10096
▁ویران	-10097
اسر	-10098
خواتین	-10099
▁بمشکل	-10100
▁جزوی	-10101
▁نوے	-10102
▁ہیز	-10103
▁ملر	-10104
▁تاجران	-10105
▁گےانہوں	-10106
▁موٹا	-10107
▁کردیں	-10108
▁ہوگئیں	-10109
▁مخلص	-10110
▁بھوپ	-10111
▁خادم	-10112
ڈم	-10113
▁پاتی	-10114
▁قوالی	-10115
▁پروان	-10116
▁ٹال	-10117
▁آرٹیکل	-10118
▁دستے	-10119
▁ہسپانوی	-10120
صلہ	-10121
▁ستار	-10122
▁اُنھوں	-10123
▁انڈس	-10124
▁العین	-10125
▁انویس	-10126
▁خاصے	-10127
▁ووکس	-10128
▁اڈے	-10129
▁چوروں	-10130
▁بہہ	-10131
▁اینیمی	-10132
▁تکی	-10133
▁میگ	-10134
▁کٹوتی	-10135
▁روزمرہ	-10136
▁ہوسکتی	-10137
▁ثال	-10138
▁ٹھاکر	-10139
▁صلاحیتیں	-10140
▁جویریہ	-10141
زادے	-10142
▁ریٹیل	-10143
▁پنال	-10144
فیئر	-10145
▁بھنسالی	-10146
▁ہےج	-10147
▁خبررساں	-10148
▁صلح	-10149
▁پختہ	-10150
▁سٹارز	-10151
▁ٹیپ	-10152
▁ستا	-10153
▁فارمز	-10154
▁ہےیاد	-10155
▁صہیب	-10156
▁کارٹ	-10157
▁میلان	-10158
▁پروپیگ	-10159
▁نکالے	-10160
▁میموریل	-10161
تھم	-10162
▁پھاڑ	-10163
▁مرتکب	-10164
▁امیج	-10165
▁بندوبست	-10166
▁ایسو	-10167
یندر	-10168
▁رتی	-10169
▁نیہ	-10170
▁چھے	-10171
سٹو	-10172
تسلیم	-10173
▁جیول	-10174
ھیرا	-10175
۵۲	-10176
▁عبرت	-10177
واک	-10178
انص	-10179
▁احاطہ	-10180
یزہ	-10181
▁جڑواں	-10182
▁بام	-10183
برن	-10184
▁پتوں	-10185
▁بمب	-10186
▁صاب	-10187
▁پہنچنا	-10188
زاج	-10189
▁برادر	-10190
▁فائدے	-10191
▁انشا	-10192
▁بھئی	-10193
▁سیاستدانوں	-10194
▁شبنم	-10195
▁ائند	-10196
▁فرمائش	-10197
ِی	-10198
▁دعو	-10199
▁رومانس	-10200
▁پسمان	-10201
▁سچی	-10202
▁خانوں	-10203
▁دیس	-10204
ہمارے	-10205
▁سیکڑوں	-10206
▁سوئمنگ	-10207
▁ماسٹرز	-10208
▁۲۵۰	-10209
▁جھنجھ	-10210
▁رکھو	-10211
▁انش	-10212
▁جہلم	-10213
▁رائونڈر	-10214
▁دیم	-10215
▁ابات	-10216
▁عری	-10217
▁ضابط	-10218
افل	-10219
▁تمب	-10220
▁برتا	-10221
▁ویلنگٹن	-10222
▁بھوت	-10223
آئی	-10224
▁پرندوں	-10225
▁وزراء	-10226
▁دبائو	-10227
▁بدقسم	-10228
ٹیڈ	-10229
▁تھم	-10230
فور	-10231
▁نشین	-10232
▁الے	-10233
▁سروں	-10234
۴۱	-10235
فیصل	-10236
▁رائج	-10237
▁روتی	-10238
▁مشکور	-10239
▁اسٹینڈ	-10240
▁کراچیک	-10241
▁آہنگ	-10242
▁اسنیپ	-10243
▁معاوضے	-10244
▁دیکھیے	-10245
▁کنکشن	-10246
▁اوبر	-10247
▁جھوٹا	-10248
▁لیام	-10249
▁اولی	-10250
▁طول	-10251
▁ناروے	-10252
▁سینچری	-10253
▁اسکولوں	-10254
▁کینو	-10255
▁تدریس	-10256
▁سائوتھ	-10257
▁سفری	-10258
چرل	-10259
▁چھوڑے	-10260
▁منقطع	-10261
▁پروازوں	-10262
▁انویسٹ	-10263
▁سمجھوتہ	-10264
▁عنایت	-10265
▁عصمت	-10266
▁بقا	-10267
چوں	-10268
▁اشد	-10269
▁باج	-10270
▁وزرا	-10271
▁لیاری	-10272
اہلی	-10273
▁مشابہ	-10274
▁ریزرو	-10275
▁تحفے	-10276
▁پگ	-10277
▁عذاب	-10278
▁نکلو	-10279
▁فاق	-10280
▁گالیاں	-10281
▁نظریے	-10282
▁نارائن	-10283
▁شیٹھی	-10284
▁پرانے	-10285
▁مادھوری	-10286
▁بیٹوں	-10287
▁غل	-10288
اثر	-10289
▁ارمان	-10290
▁آن	-10291
▁منجمد	-10292
▁ترجیحی	-10293
ائیس	-10294
▁ماورا	-10295
لافی	-10296
▁فارن	-10297
▁ففٹی	-10298
▁حاملہ	-10299
▁بکنگ	-10300
▁واری	-10301
▁ونڈوز	-10302
▁ہراساں	-10303
▁جھانک	-10304
▁ٹریب	-10305
▁سبسکرائب	-10306
▁کوکیز	-10307
▁ماتحت	-10308
▁چت	-10309
▁کف	-10310
▁نوٹوں	-10311
▁کیپشن	-10312
▁مجسٹری	-10313
▁آگے	-10314
▁کیتھ	-10315
▁افسردہ	-10316
▁زونز	-10317
▁کیئے	-10318
▁حاک	-10319
▁معتبر	-10320
سیز	-10321
گھر	-10322
▁ٹھو	-10323
کرم	-10324
▁میتھیو	-10325
▁الد	-10326
▁مٹھی	-10327
▁لیب	-10328
▁جھون	-10329
▁گھڑ	-10330
▁چوکی	-10331
▁ڈوپلیسی	-10332
▁In	-10333
ؤف	-10334
▁مکئی	-10335
▁اٹو	-10336
▁اتھلیٹ	-10337
▁کرسمس	-10338
▁مستفید	-10339
پیر	-10340
▁پاپا	-10341
▁تارک	-10342
▁بہرحال	-10343
▁برہم	-10344
▁رومی	-10345
▁وباء	-10346
راؤ	-10347
▁جہنم	-10348
▁]	-10349
▁راجستھان	-10350
▁بیچنے	-10351
جموعی	-10352
▁نسلی	-10353
ارم	-10354
الز	-10355
▁ڈیری	-10356
▁سمیٹی	-10357
▁اخبا	-10358
ہمیں	-10359
▁بڑوں	-10360
▁شردھا	-10361
وسن	-10362
علاوہ	-10363
▁پیاس	-10364
▁جراثیم	-10365
▁تارڑ	-10366
▁اعتراضات	-10367
▁لو۔	-10368
گذ	-10369
ینو	-10370
▁کارروائیاں	-10371
تی۔	-10372
▁کمروں	-10373
▁وینس	-10374
▁انسٹیٹیوٹ	-10375
▁شیخوپورہ	-10376
▁الج	-10377
بد	-10378
▁فینز	-10379
▁سینسر	-10380
▁جلوے	-10381
▁کمائے	-10382
▁۸۰۰	-10383
سٹل	-10384
▁ڈائریک	-10385
ٹیک	-10386
▁مبشر	-10387
▁وائن	-10388
▁اطالوی	-10389
▁مانگا	-10390
▁برہمی	-10391
دوش	-10392
▁موصوف	-10393
▁مہلک	-10394
▁آدمیوں	-10395
▁ارض	-10396
▁چنائی	-10397
▁وقوف	-10398
▁لوٹنے	-10399
▁ہوتیں	-10400
▁ویسا	-10401
▁لیوک	-10402
▁تاک	-10403
▁سمٹ	-10404
▁سامعین	-10405
چوئل	-10406
▁خضر	-10407
▁خیرباد	-10408
▁بیری	-10409
اندلی	-10410
▁سرپر	-10411
▁کروشیا	-10412
▁ریکوری	-10413
▁گایہ	-10414
▁بالائی	-10415
۴۰	-10416
▁غریبوں	-10417
▁مفہوم	-10418
▁الٰہی	-10419
کارڈ	-10420
▁زنجیر	-10421
برطانوی	-10422
▁سیٹلائٹ	-10423
▁یابی	-10424
▁وقتی	-10425
▁مرکب	-10426
▁یاسین	-10427
▁قادری	-10428
▁آفیسر	-10429
▁ڈرائیو	-10430
▁جواہر	-10431
▁چلانا	-10432
▁لکی	-10433
▁لاشیں	-10434
▁قارئین	-10435
الحہ	-10436
▁کھلنے	-10437
▁ڈرتے	-10438
▁تعطل	-10439
▁پروٹو	-10440
▁سوویت	-10441
▁انوکھا	-10442
▁جھوم	-10443
▁رحجان	-10444
▁الوقت	-10445
▁خلیفہ	-10446
▁توثی	-10447
جمان	-10448
منٹس	-10449
یمل	-10450
▁سربیا	-10451
▁حریفوں	-10452
▁خریداروں	-10453
▁آدھی	-10454
▁ریڈی	-10455
▁جلوس	-10456
مگر	-10457
▁نشی	-10458
ضع	-10459
▁فیوچر	-10460
▁زخمیوں	-10461
ڑھائی	-10462
▁کیمپس	-10463
روب	-10464
سمہ	-10465
▁داموں	-10466
▁رائیڈرز	-10467
▁لیکس	-10468
▁لیفٹ	-10469
▁جائزے	-10470
▁وفود	-10471
▁پنالٹی	-10472
▁تھوک	-10473
▁سلنڈر	-10474
▁کبری	-10475
علم	-10476
نسی	-10477
▁رناوت	-10478
▁کھلانے	-10479
▁موہن	-10480
▁سونی	-10481
▁انٹروی	-10482
فس	-10483
▁گمان	-10484
▁قندیل	-10485
▁۹۱	-10486
▁۶۰۰	-10487
▁ٹھنڈے	-10488
▁قمی	-10489
▁مومنہ	-10490
▁سونپ	-10491
▁منصفانہ	-10492
▁سوراخ	-10493
▁موسمی	-10494
▁سونیا	-10495
▁برن	-10496
▁کورین	-10497
▁ڈیمانڈ	-10498
▁ریٹرن	-10499
▁ایلکس	-10500
کاس	-10501
▁ایمی	-10502
▁خصوصاً	-10503
▁پیتے	-10504
▁تہران	-10505
▁چھاپے	-10506
▁سوالوں	-10507
حق	-10508
▁توثیق	-10509
▁کھیلتا	-10510
▁کپتانوں	-10511
▁فیسٹ	-10512
▁ارسلان	-10513
▁کتوں	-10514
▁اسٹیٹس	-10515
▁دیتا۔	-10516
▁مرشد	-10517
▁مظلوم	-10518
▁ایمرجنگ	-10519
▁ریسل	-10520
▁بکو	-10521
ٹوں	-10522
▁جلی	-10523
▁th	-10524
میگا	-10525
نمارک	-10526
▁افسروں	-10527
▁رومانٹک	-10528
▁اسٹرائیک	-10529
فیڈ	-10530
▁بحرین	-10531
حمت	-10532
▁ہیش	-10533
ونت	-10534
▁ریما	-10535
▁مشتبہ	-10536
▁مدی	-10537
▁یونیورس	-10538
▁تمباکو	-10539
▁کھانوں	-10540
▁ہڈ	-10541
▁مبادلہ	-10542
▁پلو	-10543
▁چارجز	-10544
▁اپنانے	-10545
اسانی	-10546
▁اچک	-10547
▁ککی	-10548
▁کوریج	-10549
▁نہاد	-10550
▁اڑان	-10551
▁کراچیا	-10552
▁علموں	-10553
▁حکومتیں	-10554
▁U	-10555
وزارت	-10556
▁دوسر	-10557
▁ڈائر	-10558
▁رنر	-10559
▁ملالہ	-10560
نا۔	-10561
ایل	-10562
▁سکرپٹ	-10563
▁بچیوں	-10564
▁ربی	-10565
▁سونپی	-10566
▁ٹرانسفر	-10567
رفی	-10568
▁پرسکون	-10569
▁مطالبے	-10570
▁نظارہ	-10571
▁قیوم	-10572
▁کرپٹ	-10573
▁لچک	-10574
ڑو	-10575
▁بانس	-10576
▁سیلف	-10577
▁ہں	-10578
▁جھاڑ	-10579
▁سناتے	-10580
▁پراڈ	-10581
شع	-10582
▁چھونے	-10583
▁تز	-10584
▁نے۔	-10585
ومین	-10586
ایونٹ	-10587
▁وزیرخزانہ	-10588
▁تعزیت	-10589
▁کھنہ	-10590
▁قابض	-10591
▁مچانے	-10592
▁دئے	-10593
▁امدن	-10594
▁قوتوں	-10595
▁استن	-10596
▁مقالہ	-10597
تار	-10598
▁الحمد	-10599
پانچ	-10600
▁دہرا	-10601
▁مہیش	-10602
▁جانیوالے	-10603
▁ہاں۔	-10604
▁گیو	-10605
یاق	-10606
▁بزرگوں	-10607
▁لاگ	-10608
▁گراؤنڈ	-10609
▁وحشت	-10610
▁نیلی	-10611
▁ھر	-10612
▁ہرن	-10613
▁گھاٹ	-10614
▁پوجا	-10615
▁ہوچکا	-10616
▁احمق	-10617
▁راول	-10618
▁اعزازی	-10619
▁خاکہ	-10620
یرت	-10621
وسط	-10622
▁یوز	-10623
▁پگھ	-10624
▁حاضرین	-10625
▁حواس	-10626
▁بالن	-10627
تھک	-10628
▁ڈھول	-10629
▁تھاوہ	-10630
▁مستند	-10631
▁لون	-10632
▁اطہر	-10633
▁سوچتی	-10634
سپل	-10635
▁یکے	-10636
▁نیلے	-10637
جین	-10638
▁کھاتا	-10639
▁گیتوں	-10640
▁شعرا	-10641
وڑوں	-10642
▁باؤ	-10643
▁کٹھ	-10644
تقریب	-10645
محکمہ	-10646
▁محکمے	-10647
▁سپیڈ	-10648
▁آئین	-10649
▁لوکل	-10650
ww	-10651
▁گلہ	-10652
▁مانیٹری	-10653
▁پیو	-10654
▁ایام	-10655
▁خریدے	-10656
▁دیکھئے	-10657
انیت	-10658
▁رشتوں	-10659
▁گراس	-10660
▁کےلیے	-10661
▁ریفائن	-10662
▁صوفیہ	-10663
مط	-10664
▁فنگر	-10665
▁شاعروں	-10666
▁بالغ	-10667
▁ٹوٹل	-10668
▁کیپٹل	-10669
▁ملہوت	-10670
▁وجے	-10671
▁جینے	-10672
▁انار	-10673
▁تائیوان	-10674
▁شاہکار	-10675
▁ہرادیا	-10676
▁گزری	-10677
▁برکت	-10678
تاح	-10679
▁پہنچانا	-10680
▁مدارس	-10681
▁بیوقوف	-10682
▁تناؤ	-10683
افراد	-10684
▁آمد	-10685
▁بڑھاتے	-10686
▁خوشیوں	-10687
▁چھپے	-10688
ولیشن	-10689
▁امیدوں	-10690
▁غضب	-10691
▁ہچک	-10692
▁K	-10693
▁تاحیات	-10694
▁دیدہ	-10695
▁صل	-10696
▁انڈی	-10697
وسک	-10698
▁اندھیرا	-10699
▁جمعیت	-10700
▁شاکر	-10701
وبھی	-10702
▁عیسیٰ	-10703
َّ	-10704
▁سیلی	-10705
▁گلیوں	-10706
▁مہار	-10707
▁مینا	-10708
▁افط	-10709
▁چھوڑی	-10710
▁e	-10711
قریب	-10712
▁سینہ	-10713
▁گائیڈ	-10714
▁صدور	-10715
▁لینی	-10716
افغان	-10717
▁شفافیت	-10718
ers	-10719
برس	-10720
▁بہانہ	-10721
▁شرافت	-10722
▁داؤ	-10723
▁فرقہ	-10724
یہاں	-10725
▁رومن	-10726
▁جستجو	-10727
▁اسیک	-10728
▁ڈنر	-10729
▁فلاور	-10730
▁ہارے	-10731
▁شہزادے	-10732
۵۱	-10733
▁ریئل	-10734
وں۔	-10735
▁میٹرو	-10736
▁دیپ	-10737
ائین	-10738
▁جیپ	-10739
▁آدھے	-10740
▁مورخ	-10741
▁امتزاج	-10742
▁ضم	-10743
▁زادہ	-10744
سکین	-10745
▁شرف	-10746
▁سنبھل	-10747
▁گستا	-10748
▁بھاگنے	-10749
مایا	-10750
▁آپکے	-10751
▁ششماہی	-10752
بئی	-10753
منہ	-10754
▁جملوں	-10755
▁گاس	-10756
▁احوال	-10757
دمے	-10758
▁پٹو	-10759
▁خطہ	-10760
قیر	-10761
▁کھجور	-10762
▁کپڑا	-10763
▁عملدرامد	-10764
▁اغا	-10765
ڑھیاں	-10766
فو	-10767
▁پاں	-10768
▁بیور	-10769
▁انتشار	-10770
▁پالیس	-10771
▁لوہے	-10772
▁کرسٹیانو	-10773
▁کریگ	-10774
▁حاوی	-10775
▁دکانیں	-10776
▁جارحیت	-10777
▁فالوورز	-10778
▁کیمیائی	-10779
▁لاڈ	-10780
رانا	-10781
▁سہولتوں	-10782
پائی	-10783
▁نشتر	-10784
▁عینی	-10785
▁دفع	-10786
▁ایڈوانس	-10787
▁فکری	-10788
▁ئس	-10789
▁مہندرا	-10790
▁کمپیو	-10791
▁مطا	-10792
▁بولتی	-10793
▁جھنڈے	-10794
▁پیشگوئی	-10795
▁پٹھان	-10796
▁ارباب	-10797
▁ڈکیتی	-10798
▁سرنگ	-10799
▁رسومات	-10800
▁ڈائون	-10801
▁ازالہ	-10802
▁اسف	-10803
▁موٹے	-10804
باء	-10805
▁مزا	-10806
گون	-10807
▁داڑھی	-10808
▁انتھ	-10809
▁سویڈن	-10810
▁ادھی	-10811
▁گیشن	-10812
▁کاظمی	-10813
▁وصولیوں	-10814
▁ایور	-10815
▁رگبی	-10816
▁چشمہ	-10817
▁یکسر	-10818
▁تقدیر	-10819
▁الٹا	-10820
▁ہیکرز	-10821
▁پولارڈ	-10822
ودے	-10823
▁برامدی	-10824
▁شش	-10825
▁تھیاس	-10826
رانی	-10827
▁عمرہ	-10828
▁کلاسیکی	-10829
▁پرے	-10830
▁چائلڈ	-10831
▁ظہبی	-10832
▁سینئرز	-10833
لگ	-10834
▁ہےپاکستان	-10835
▁منسٹر	-10836
ویشن	-10837
▁انفرا	-10838
▁مہذب	-10839
▁پتلی	-10840
▁فوٹوگر	-10841
▁ریاضی	-10842
واب	-10843
▁اسٹرکچر	-10844
▁عجب	-10845
▁امنے	-10846
ظیر	-10847
▁گھٹیا	-10848
▁پارہ	-10849
▁غالباً	-10850
▁ہیںمزید	-10851
▁جینا	-10852
▁دانیال	-10853
▁موم	-10854
▁زخموں	-10855
▁ڈنمارک	-10856
▁ملی۔	-10857
گالی	-10858
طس	-10859
▁سمجھیں	-10860
▁فخرزمان	-10861
▁کھوج	-10862
▁بناسکے	-10863
▁الجھن	-10864
▁حرکات	-10865
▁شماری	-10866
▁ملائش	-10867
▁ڈالنا	-10868
صت	-10869
▁برانڈز	-10870
▁بولنا	-10871
▁چارٹر	-10872
▁کع	-10873
▁حیرانی	-10874
پول	-10875
وتھی	-10876
▁پینا	-10877
بولی	-10878
▁کرہ	-10879
▁مجسمہ	-10880
▁طالبہ	-10881
▁ھے۔	-10882
▁نیکی	-10883
▁کبھار	-10884
▁جانیوالی	-10885
چینی	-10886
▁مظاہروں	-10887
▁خودکار	-10888
▁بناسکی	-10889
کوم	-10890
▁خوار	-10891
▁کشیدہ	-10892
▁اسنوکر	-10893
▁گیندیں	-10894
▁ہنری	-10895
▁قاعدہ	-10896
▁پرندے	-10897
▁ہےہ	-10898
▁برلن	-10899
▁تصورات	-10900
ٹنٹ	-10901
▁ریویو	-10902
▁اونچا	-10903
▁گرمیوں	-10904
▁ءمیں	-10905
▁امتیا	-10906
▁معرکے	-10907
▁نگراں	-10908
▁جور	-10909
▁تنازعہ	-10910
▁اونچے	-10911
▁کچی	-10912
▁مکھر	-10913
▁نشستیں	-10914
▁پروازیں	-10915
▁داران	-10916
▁انہو	-10917
وجو	-10918
▁سوچیں	-10919
▁دوروں	-10920
▁چھٹیاں	-10921
▁میت	-10922
▁ڈیٹس	-10923
▁سبھا	-10924
▁عیسائی	-10925
گور	-10926
نیل	-10927
▁معرکہ	-10928
▁کیپی	-10929
▁رست	-10930
▁پہنچتا	-10931
▁ٹکڑا	-10932
▁بڑھائی	-10933
لوک	-10934
▁رسک	-10935
▁دھاندلی	-10936
▁پھنسے	-10937
▁افادیت	-10938
▁الائنس	-10939
شرو	-10940
برٹ	-10941
ژری	-10942
▁گائیکی	-10943
▁چھاپہ	-10944
▁ٹرمینل	-10945
ON	-10946
▁اخذ	-10947
▁دولہ	-10948
▁بلز	-10949
گذشتہ	-10950
ارس	-10951
اگرچہ	-10952
▁مائیکروسافٹ	-10953
▁ہرارے	-10954
▁ہلاکتوں	-10955
▁جدہ	-10956
▁مہاراش	-10957
اہا	-10958
مایہ	-10959
▁وسی	-10960
▁آخری	-10961
▁کمنٹری	-10962
▁جھڑپ	-10963
▁عموما	-10964
▁بدتمی	-10965
os	-10966
▁نکلنا	-10967
سٹریلوی	-10968
▁لت	-10969
▁سوزوکی	-10970
▁لیز	-10971
▁وظ	-10972
▁انویسٹمنٹ	-10973
▁صلہ	-10974
▁صاحبزادے	-10975
▁چرچے	-10976
▁مطابقت	-10977
▁ڈھونڈنے	-10978
▁ریسٹورنٹ	-10979
▁لٹر	-10980
▁رتن	-10981
▁پتھ	-10982
▁ویلفیئر	-10983
▁عائزہ	-10984
▁ٹیکساس	-10985
▁نااہل	-10986
▁منز	-10987
▁ورد	-10988
▁یحی	-10989
▁کارڈز	-10990
▁ٹوپی	-10991
▁وط	-10992
▁ئٹم	-10993
▁پاؤنڈ	-10994
▁ارجنٹینا	-10995
کیلئے	-10996
▁باشندوں	-10997
میچوں	-10998
▁عدیل	-10999
▁جانوں	-11000
▁فوٹیج	-11001
▁گمش	-11002
اسکرین	-11003
▁رچرڈسن	-11004
▁راد	-11005
▁گزاری	-11006
▁راحیل	-11007
▁لام	-11008
▁نسلوں	-11009
▁گھیر	-11010
▁سربراہان	-11011
▁جیکولین	-11012
▁فاس	-11013
▁ارہا	-11014
▁درانی	-11015
▁ناراضگی	-11016
رہا	-11017
▁گچھ	-11018
▁برآمد	-11019
اکوں	-11020
▁بھلے	-11021
▁تحویل	-11022
▁کریگا	-11023
▁اینڈریو	-11024
شنگ	-11025
▁ترس	-11026
▁نکلیں	-11027
▁سدھارتھ	-11028
ارتنے	-11029
▁ایدھی	-11030
اسکر	-11031
▁کرین	-11032
▁نجیب	-11033
▁وابستگی	-11034
▁یمن	-11035
▁خیالی	-11036
▁رہنماں	-11037
▁مدتی	-11038
▁نااہلی	-11039
▁سنجو	-11040
برد	-11041
▁مداف	-11042
غل	-11043
▁اکیلی	-11044
▁زمینوں	-11045
▁یامین	-11046
▁سُن	-11047
▁انچارج	-11048
▁فقط	-11049
▁تسکین	-11050
▁سہل	-11051
▁بیانیہ	-11052
ER	-11053
▁وٹامن	-11054
▁لمبائی	-11055
▁ٹربیونل	-11056
▁محقق	-11057
▁باقر	-11058
▁کنڈیشن	-11059
▁شکنی	-11060
▁اجرت	-11061
▁دستور	-11062
شری	-11063
یتر	-11064
▁کنون	-11065
▁ایئرلائن	-11066
▁ٹکٹس	-11067
▁نظامی	-11068
▁بھینچ	-11069
▁رٹسٹ	-11070
▁چھائی	-11071
▁تحریروں	-11072
▁اتارنے	-11073
▁لسانی	-11074
▁دہشتگرد	-11075
▁جوس	-11076
▁لوٹا	-11077
▁استنبول	-11078
▁دھول	-11079
▁فزیکل	-11080
▁تہائی	-11081
▁کہکش	-11082
۰۱	-11083
▁گھٹن	-11084
▁ملوں	-11085
▁الرٹ	-11086
▁نکولس	-11087
سیوں	-11088
▁شیٹ	-11089
▁نظموں	-11090
▁ائیرپورٹ	-11091
▁ایمن	-11092
▁یاسمین	-11093
▁اونچ	-11094
▁گزرتا	-11095
▁فیکٹریوں	-11096
بتھ	-11097
▁پوسٹس	-11098
▁کروڈ	-11099
▁کمنز	-11100
▁یادیو	-11101
▁گمراہ	-11102
نوعہ	-11103
▁آتا۔	-11104
گلی	-11105
▁شاگرد	-11106
▁استعفیٰ	-11107
▁انگوٹھی	-11108
▁زوم	-11109
▁ہمس	-11110
▁ربا	-11111
▁گھومنے	-11112
▁پوچھتے	-11113
▁رکاوٹوں	-11114
▁اڈٹ	-11115
پرٹ	-11116
▁ڈرامائی	-11117
▁آؤں	-11118
▁دوکان	-11119
▁عمان	-11120
▁سنانے	-11121
▁اینا	-11122
th	-11123
▁دیجئے	-11124
▁اقتباس	-11125
▁گنتی	-11126
▁ملہوترا	-11127
▁تکلف	-11128
▁پھوڑ	-11129
▁چھٹیوں	-11130
ادھر	-11131
▁بڑھیں	-11132
▁قلیل	-11133
▁رکنیت	-11134
ویسے	-11135
حکم	-11136
▁کبوت	-11137
▁نات	-11138
▁تجزی	-11139
▁وسطیٰ	-11140
ودھ	-11141
▁کھال	-11142
▁اقرار	-11143
▁پاکست	-11144
▁تفتیشی	-11145
ائلز	-11146
▁بنگالی	-11147
▁کاکہ	-11148
▁لکھیں	-11149
نئے	-11150
▁قو	-11151
▁اورقیمت	-11152
حید	-11153
رکنی	-11154
فران	-11155
▁وہیل	-11156
نیات	-11157
▁شائد	-11158
▁شعاع	-11159
▁ہیرا	-11160
▁فرنس	-11161
▁پہنچا۔	-11162
▁ہوچکے	-11163
گزار	-11164
▁یکجا	-11165
▁دیوتا	-11166
▁مجروح	-11167
▁کلپ	-11168
▁پانڈے	-11169
▁کھوس	-11170
▁توشہ	-11171
▁سردیوں	-11172
▁بیروز	-11173
▁ویگن	-11174
▁ڈائریکشن	-11175
کرتے	-11176
▁تفریق	-11177
▁نند	-11178
▁خوانی	-11179
▁آلودگی	-11180
▁ہوشیار	-11181
ia	-11182
تاج	-11183
▁مراس	-11184
▁منیجمنٹ	-11185
▁عطاء	-11186
▁سزائے	-11187
پہلی	-11188
طرح	-11189
راچی	-11190
▁کشمکش	-11191
نیٹ	-11192
▁ٹوٹنے	-11193
▁چاندنی	-11194
▁لیڈز	-11195
لیز	-11196
میٹ	-11197
▁لیونل	-11198
پشن	-11199
▁چھٹا	-11200
▁جہد	-11201
▁کمنٹ	-11202
▁ریستور	-11203
سایہ	-11204
▁خروش	-11205
▁ساوتھ	-11206
▁بیٹیاں	-11207
▁تماشائی	-11208
جات	-11209
باتی	-11210
▁یوریا	-11211
▁ممب	-11212
▁سیکس	-11213
روت	-11214
▁جھی	-11215
گوگل	-11216
▁ادریس	-11217
▁خوشحال	-11218
▁ٹرپل	-11219
▁حن	-11220
▁دہشتگردوں	-11221
یران	-11222
▁الیس	-11223
سیہ	-11224
▁کیپس	-11225
▁تغیر	-11226
▁نیدرلینڈ	-11227
۹۲	-11228
▁رکاوٹیں	-11229
▁سیارہ	-11230
▁لہسن	-11231
▁سزائیں	-11232
▁تھامے	-11233
▁گواہی	-11234
▁فالورز	-11235
▁ثر	-11236
▁کھولی	-11237
▁فنانسنگ	-11238
▁وئیر	-11239
صی	-11240
▁اعادہ	-11241
عودی	-11242
▁ارٹس	-11243
▁آمادہ	-11244
▁بشر	-11245
وقت	-11246
▁اسما	-11247
▁فرصت	-11248
▁ڈارک	-11249
وکھی	-11250
▁تارکین	-11251
▁گرڈ	-11252
▁قائ	-11253
▁۷۰۰	-11254
▁غی	-11255
▁ڈائریکٹوریٹ	-11256
▁اِن	-11257
▁ستائش	-11258
▁رنے	-11259
▁محلہ	-11260
▁ورچوئل	-11261
▁اباداردو	-11262
لیکشن	-11263
▁پیشی	-11264
▁مساجد	-11265
▁اعظمی	-11266
▁پیٹھ	-11267
▁یواے	-11268
▁ٹریبونل	-11269
▁باسط	-11270
▁چنئی	-11271
▁اشتعال	-11272
▁توڑا	-11273
▁ذر	-11274
▁مسودہ	-11275
▁نظمیں	-11276
▁مطبوعہ	-11277
▁کنٹینرز	-11278
یندرا	-11279
طینی	-11280
▁جیولرز	-11281
یکم	-11282
▁تڑ	-11283
▁راہیں	-11284
▁کیشنز	-11285
▁مارکس	-11286
بلو	-11287
وبہ	-11288
▁بنال	-11289
▁نکالنا	-11290
۳رنز	-11291
▁کلائی	-11292
▁پکی	-11293
▁تاریکی	-11294
▁تہذیبی	-11295
▁میتھ	-11296
▁نا۔	-11297
ڑکانہ	-11298
▁ابھیشیک	-11299
▁مجسٹریٹ	-11300
▁کھائے	-11301
▁گید	-11302
▁کرتیں	-11303
op	-11304
▁ایمانداری	-11305
▁لہو	-11306
▁واسطہ	-11307
▁اُٹھا	-11308
کاز	-11309
َی	-11310
▁رچ	-11311
▁چٹا	-11312
▁ماریا	-11313
▁برمدی	-11314
▁رکھوں	-11315
▁فنون	-11316
▁مجیب	-11317
▁ہےں	-11318
▁آئینی	-11319
ہل	-11320
▁بگٹی	-11321
▁تھایہ	-11322
▁سہرا	-11323
▁پرانی	-11324
ha	-11325
▁پرن	-11326
▁اٹھتے	-11327
▁۱۲۸	-11328
▁دیتے۔	-11329
▁بھون	-11330
▁مینڈس	-11331
▁ٹس	-11332
لسن	-11333
▁بیلا	-11334
▁تلافی	-11335
▁گرہن	-11336
▁توفیق	-11337
▁بڑھنا	-11338
بہترین	-11339
▁پیمرا	-11340
▁ماحولیات	-11341
درا	-11342
▁ٹرانسمیشن	-11343
▁ٹرن	-11344
▁چھوڑنا	-11345
مری	-11346
▁ڈھل	-11347
ادا	-11348
▁تیک	-11349
▁سوتے	-11350
ائریکٹر	-11351
▁ممنوعہ	-11352
▁ٹچ	-11353
▁سٹیو	-11354
▁سبک	-11355
▁فروش	-11356
▁مزمل	-11357
▁اندیشہ	-11358
▁عظمیٰ	-11359
▁انکشافات	-11360
▁عرش	-11361
▁پزیر	-11362
▁عاج	-11363
صورت	-11364
▁لفٹ	-11365
▁صدمے	-11366
▁سڑکیں	-11367
تری	-11368
▁مردم	-11369
▁پینٹنگ	-11370
ءکے	-11371
▁ویزہ	-11372
▁بمباری	-11373
▁سمجھانے	-11374
▁g	-11375
▁نقوش	-11376
▁چیرمین	-11377
▁تحا	-11378
▁امتیازی	-11379
▁کروٹ	-11380
▁جمیکا	-11381
▁کلاسک	-11382
▁ملانے	-11383
▁عالمگیر	-11384
▁ناکامیوں	-11385
▁وائلڈ	-11386
AL	-11387
▁گریم	-11388
▁۱۱۰	-11389
▁پتھروں	-11390
الحق	-11391
▁کاکڑ	-11392
ائزڈ	-11393
▁معمر	-11394
▁ورتھ	-11395
▁رجحانات	-11396
▁ہان	-11397
خیز	-11398
▁میڈم	-11399
▁کیڑوں	-11400
▁سٹوڈیو	-11401
▁یتیم	-11402
▁شجاعت	-11403
▁مختاری	-11404
▁بصورت	-11405
▁اسکورر	-11406
▁فارمولا	-11407
▁نظریاتی	-11408
▁جگم	-11409
کال	-11410
▁رکشہ	-11411
▁وڑ	-11412
▁مفاہمت	-11413
▁ہیںتاہم	-11414
▁مینوفیکچرنگ	-11415
▁صدمہ	-11416
▁اعمال	-11417
▁قصے	-11418
▁وافر	-11419
▁صفت	-11420
▁پھیلے	-11421
▁فیسٹول	-11422
▁ثم	-11423
▁شہروز	-11424
▁The	-11425
▁کمنٹی	-11426
▁خرچہ	-11427
▁تھےاس	-11428
▁سرمد	-11429
▁سہارے	-11430
▁کنٹینر	-11431
▁ہیںایک	-11432
فریدی	-11433
▁آدھا	-11434
▁بگاڑ	-11435
▁""""	-11436
ra	-11437
▁اڈیا	-11438
▁نکلتی	-11439
▁نوک	-11440
▁انوکھی	-11441
▁اڑے	-11442
▁چہل	-11443
▁ٹوک	-11444
▁بخشی	-11445
▁لوکی	-11446
▁مماث	-11447
▁پروٹین	-11448
▁حاج	-11449
▁ارادے	-11450
▁ٹائر	-11451
▁برداری	-11452
▁ٹیسٹنگ	-11453
ضوں	-11454
▁متر	-11455
▁ماشاء	-11456
▁کرلیں	-11457
▁ادائیگیاں	-11458
▁انوراگ	-11459
▁فلپائن	-11460
▁مروت	-11461
▁خلاصہ	-11462
صدر	-11463
ضاء	-11464
▁گھونٹ	-11465
▁دیپیکا	-11466
▁شاہینوں	-11467
▁کرچکی	-11468
▁پٹن	-11469
▁بیاہ	-11470
▁خسرو	-11471
▁مجرموں	-11472
▁عبدالحفیظ	-11473
▁جہاد	-11474
▁اپشن	-11475
▁تقاضا	-11476
▁صابری	-11477
▁ناانص	-11478
▁نشانات	-11479
▁میونسپل	-11480
ثوم	-11481
▁چٹان	-11482
▁شہناز	-11483
▁ڈوپنگ	-11484
▁آگ	-11485
یلو	-11486
▁اعل	-11487
فیف	-11488
▁دیئے۔	-11489
▁فارورڈ	-11490
▁پالیسیاں	-11491
▁فروٹ	-11492
▁چھل	-11493
▁ملاقاتوں	-11494
▁عشرت	-11495
▁متوسط	-11496
▁ورکس	-11497
▁ابھرتے	-11498
▁قصبے	-11499
ینس	-11500
▁سکتیں	-11501
▁بتایا۔	-11502
▁وارانہ	-11503
▁موومنٹ	-11504
باہ	-11505
▁یورپین	-11506
▁مسکان	-11507
▁اوری	-11508
▁ٹھنڈ	-11509
ٹیلٹی	-11510
اوید	-11511
▁اوراس	-11512
▁ٹرانزٹ	-11513
▁مینوفیکچررز	-11514
est	-11515
▁انجلینا	-11516
▁دیہات	-11517
▁دستک	-11518
▁بولیں	-11519
▁بسمہ	-11520
▁ادراک	-11521
▁بیحد	-11522
▁لارا	-11523
▁کارنامے	-11524
▁ہاک	-11525
▁چھوڑتے	-11526
▁گریب	-11527
▁باولرز	-11528
▁موٹروے	-11529
▁پیکر	-11530
▁افریقن	-11531
▁جھٹک	-11532
▁وری	-11533
▁ہمسایہ	-11534
▁بتاؤں	-11535
▁پکو	-11536
▁ہضم	-11537
ینیٹر	-11538
▁گارڈن	-11539
▁بینظیر	-11540
▁مگ	-11541
ستار	-11542
▁ایما	-11543
▁غدار	-11544
▁ظاہری	-11545
▁رقبے	-11546
یعنی	-11547
گھن	-11548
▁ایجنسیوں	-11549
▁لذ	-11550
▁توبہ	-11551
▁سنگر	-11552
▁محاور	-11553
▁بکس	-11554
▁محرک	-11555
یابیطس	-11556
▁لودھی	-11557
▁طاقتوں	-11558
ایشیا	-11559
تع	-11560
▁اپارٹمنٹ	-11561
▁ہادی	-11562
▁دیگرے	-11563
▁لالچ	-11564
▁پہلوؤں	-11565
▁نیتھن	-11566
▁پیشگی	-11567
نڈنٹ	-11568
▁اچھل	-11569
▁تنخواہیں	-11570
انٹرنیشنل	-11571
▁انفیکشن	-11572
▁مہاجرین	-11573
▁پانچوں	-11574
▁باتھ	-11575
▁زلزلہ	-11576
▁تیں	-11577
پار	-11578
▁حفظ	-11579
▁ہتک	-11580
▁ثمینہ	-11581
کوئٹہ	-11582
چاہ	-11583
▁لڑتے	-11584
▁لگاتا	-11585
▁ہیںاور	-11586
▁صنعتیں	-11587
▁پراجیکٹس	-11588
جلی	-11589
ونما	-11590
▁گنگا	-11591
اتہ	-11592
▁اڑانے	-11593
▁ذہنوں	-11594
▁قبیلے	-11595
▁تحائف	-11596
▁لطیفہ	-11597
▁شائستہ	-11598
▁اجارہ	-11599
ادوسری	-11600
▁صائم	-11601
▁پورہ	-11602
▁نفع	-11603
کہا	-11604
▁ہوجاتی	-11605
کوار	-11606
▁سپرے	-11607
▁▁	-11608
▁پیری	-11609
▁اڈیالہ	-11610
اؤ	-11611
▁بائولرز	-11612
▁کرگیا	-11613
▁لاہورنمائندہ	-11614
▁زویا	-11615
کنندگان	-11616
▁کوارٹرفائنل	-11617
▁۱۲۵	-11618
مقامی	-11619
▁وع	-11620
▁اجتماع	-11621
▁ازب	-11622
▁مراکش	-11623
روٹ	-11624
▁صحن	-11625
▁شجاع	-11626
▁بلب	-11627
▁طبقات	-11628
▁المع	-11629
پورٹر	-11630
▁کھلو	-11631
▁فلوری	-11632
▁کعبہ	-11633
▁پاناما	-11634
▁پونٹ	-11635
▁برہان	-11636
▁بھیانک	-11637
۲رنز	-11638
▁بیہ	-11639
▁فانی	-11640
▁ہوجاتا	-11641
▁ساحلی	-11642
ٰن	-11643
▁بالز	-11644
▁عروہ	-11645
▁فروختروپے	-11646
▁منیجنگ	-11647
▁ورن	-11648
▁طع	-11649
▁پھیپھ	-11650
▁نمائشی	-11651
ینیشن	-11652
▁پہنچے۔	-11653
مقدم	-11654
▁وومن	-11655
▁بسم	-11656
▁گرتے	-11657
▁چھائے	-11658
▁رکنے	-11659
▁سالی	-11660
▁فلاں	-11661
▁بوٹیوں	-11662
▁مارننگ	-11663
ہام	-11664
▁تو۔	-11665
▁تمیز	-11666
▁ملائشیا	-11667
▁ہےگزشتہ	-11668
گانہ	-11669
وقار	-11670
▁مکانات	-11671
▁مارٹم	-11672
اہب	-11673
▁سننا	-11674
▁سوچے	-11675
▁لاڑکانہ	-11676
▁ہزارہ	-11677
▁گروہوں	-11678
▁روکے	-11679
ٹز	-11680
یمن	-11681
▁پھرتی	-11682
▁بیٹر	-11683
▁دنگ	-11684
ایسا	-11685
ئیاں	-11686
▁سینڈ	-11687
▁روانی	-11688
▁ناانصافی	-11689
▁تدار	-11690
▁پایا۔	-11691
▁ہاہاہ	-11692
▁گھم	-11693
ایسے	-11694
▁میڈیسن	-11695
نڈہ	-11696
▁یان	-11697
▁پانڈیا	-11698
ُم	-11699
▁سنتا	-11700
▁فیضان	-11701
تھے	-11702
▁چے	-11703
▁لفٹنگ	-11704
▁اردن	-11705
▁امتحانات	-11706
▁ہیوی	-11707
▁ڈیانا	-11708
▁بااسانی	-11709
▁جلتی	-11710
▁اورک	-11711
▁سٹوکس	-11712
▁حاکم	-11713
▁انعم	-11714
▁پولٹری	-11715
سکتے	-11716
▁لیگل	-11717
▁رکھیں۔	-11718
المپور	-11719
گرین	-11720
▁ویسی	-11721
▁ترمیمی	-11722
▁ڈھانچہ	-11723
▁سرحدوں	-11724
▁اکائونٹ	-11725
ئرنگ	-11726
گریشن	-11727
▁ارباز	-11728
▁لکھتا	-11729
▁الحمرا	-11730
▁کروم	-11731
▁فاش	-11732
▁کیپیٹل	-11733
▁میپ	-11734
▁لائٹس	-11735
▁سیکنڈز	-11736
▁حی	-11737
▁تعلیمات	-11738
▁میکسویل	-11739
▁فلو	-11740
▁الہٰی	-11741
▁چھوڑیں	-11742
▁کلیکشن	-11743
ساط	-11744
اکارہ	-11745
کورونا	-11746
ویڈیو	-11747
▁پیما	-11748
▁نصیح	-11749
▁رابعہ	-11750
▁باہم	-11751
TI	-11752
▁پاٹ	-11753
▁۱۳۰	-11754
▁وقو	-11755
▁شہداء	-11756
▁متھیرا	-11757
▁حشر	-11758
▁اتری	-11759
▁ٹوٹے	-11760
▁لہروں	-11761
▁الخ	-11762
▁پرسوں	-11763
▁نچلے	-11764
▁کالجز	-11765
▁ذیابیطس	-11766
ھاھا	-11767
▁محم	-11768
▁ڈانٹ	-11769
▁پشتون	-11770
▁بااثر	-11771
▁استثنی	-11772
▁اصولی	-11773
▁گارنٹی	-11774
یاسر	-11775
▁نصر	-11776
▁لاء	-11777
ولو	-11778
▁is	-11779
▁طلحہ	-11780
▁آکسی	-11781
وای	-11782
▁تالی	-11783
▁نیٹو	-11784
▁رشک	-11785
▁قطرے	-11786
▁چہار	-11787
▁برسات	-11788
شہر	-11789
▁مصالح	-11790
▁بیلنس	-11791
▁گئیا	-11792
▁شفا	-11793
▁پدماوتی	-11794
▁چترال	-11795
ائرس	-11796
ڈرڈ	-11797
▁نیلام	-11798
▁ہد	-11799
رمیں	-11800
▁کیرو	-11801
▁کہلاتا	-11802
▁جیف	-11803
▁افق	-11804
▁کنونشن	-11805
ظام	-11806
▁بسوں	-11807
۴رنز	-11808
▁زیارت	-11809
ٹرو	-11810
▁بھنگ	-11811
▁ڈرگ	-11812
▁فش	-11813
▁گارڈز	-11814
▁جوا	-11815
▁ہندوؤں	-11816
جہانی	-11817
▁بیکار	-11818
▁نکی	-11819
▁اوکا	-11820
▁روبرو	-11821
▁مانگتے	-11822
▁منیب	-11823
▁جیولری	-11824
▁معصو	-11825
انیف	-11826
▁دھونے	-11827
▁زوہ	-11828
▁نوٹسز	-11829
وطنی	-11830
▁مدھم	-11831
▁افرادی	-11832
▁مارخ	-11833
▁فرٹیل	-11834
▁ٹریڈرز	-11835
▁بچانا	-11836
▁میکر	-11837
▁نبیل	-11838
▁کارنر	-11839
▁اشتیاق	-11840
▁بوڑھا	-11841
▁مشینوں	-11842
▁خامیاں	-11843
▁روزی	-11844
▁ممنوع	-11845
افے	-11846
▁ہیزل	-11847
▁اکاؤنٹس	-11848
اختیار	-11849
▁گزارش	-11850
▁پیارا	-11851
▁زہ	-11852
▁پاؤ	-11853
▁گرج	-11854
▁صند	-11855
▁مؤقف	-11856
▁آئندہ	-11857
▁وزرائے	-11858
▁ہورہے	-11859
▁راؤ	-11860
▁گیٹس	-11861
▁والہ	-11862
▁آزادی	-11863
▁ڈگ	-11864
▁ہلچل	-11865
اسمی	-11866
▁پروا	-11867
▁سہیلی	-11868
▁ویڈنگ	-11869
▁کرواتے	-11870
▁ایجنڈا	-11871
▁ویڈ	-11872
▁مرلی	-11873
▁میٹھی	-11874
▁مصرع	-11875
▁re	-11876
▁سٹے	-11877
▁ریڑھ	-11878
اظہر	-11879
فیشل	-11880
نار	-11881
▁رضی	-11882
▁پھرتے	-11883
▁پولی	-11884
▁لاشوں	-11885
▁بھینس	-11886
▁فورڈ	-11887
▁خارجی	-11888
▁بولے۔	-11889
▁درم	-11890
▁سیکھنا	-11891
▁ربڑ	-11892
▁شنکر	-11893
▁فارس	-11894
کلوگرام	-11895
▁تائیک	-11896
▁کاؤ	-11897
▁فیز	-11898
▁کچے	-11899
▁بغور	-11900
▁اسکین	-11901
▁قہقہہ	-11902
▁ابراہم	-11903
▁خوان	-11904
▁میلبرن	-11905
▁سٹینڈ	-11906
▁کومل	-11907
▁سانسیں	-11908
▁یحیی	-11909
▁چمچ	-11910
▁گودام	-11911
▁کارلوس	-11912
واق	-11913
▁پارٹنرشپ	-11914
▁پرکاش	-11915
▁اقرا	-11916
▁رؤف	-11917
▁آسم	-11918
▁لتا	-11919
▁۱۰۵	-11920
▁سیفٹی	-11921
▁آکس	-11922
▁چھبیس	-11923
▁کمان	-11924
▁دکانداروں	-11925
▁ہاری	-11926
▁ساتھ۔	-11927
داز	-11928
▁جوشی	-11929
▁تجاوزات	-11930
▁کنسلٹنٹ	-11931
▁ادویہ	-11932
▁پیشے	-11933
▁سجایا	-11934
گاس	-11935
▁کانس	-11936
بڑ	-11937
▁محرو	-11938
صباح	-11939
▁ٹرینر	-11940
▁پوچھنا	-11941
▁ننھی	-11942
▁مسر	-11943
▁سونو	-11944
▁پسی	-11945
ویر	-11946
▁گوش	-11947
▁ادھوری	-11948
سٹاف	-11949
▁ذکاء	-11950
جٹ	-11951
▁دوش	-11952
▁چپکے	-11953
▁شیری	-11954
▁ریلویز	-11955
کرت	-11956
▁کارٹون	-11957
▁پینٹس	-11958
▁گردشی	-11959
▁کھیر	-11960
شیم	-11961
▁نادرا	-11962
▁کرشمہ	-11963
▁ریٹس	-11964
▁لگایا۔	-11965
▁مواف	-11966
▁فلائی	-11967
▁لوم	-11968
▁صاحبزادہ	-11969
▁فرہ	-11970
▁اضطر	-11971
▁اردگرد	-11972
▁میل۔	-11973
▁الوداع	-11974
▁اٹھائیس	-11975
▁قلعے	-11976
▁باورچی	-11977
▁کرسکتی	-11978
ow	-11979
▁رینج	-11980
▁پسماندہ	-11981
▁دیار	-11982
▁تصانیف	-11983
▁ہیراتھ	-11984
الٹ	-11985
▁ستی	-11986
▁النس	-11987
▁عبدالرحمن	-11988
▁ثالثی	-11989
نئی	-11990
▁غزلیں	-11991
▁کااضافہ	-11992
▁تخیل	-11993
▁منشا	-11994
▁پونڈ	-11995
حط	-11996
▁لاع	-11997
▁گڑیا	-11998
▁چلائے	-11999
▁وید	-12000
▁وائ	-12001
▁پیشاب	-12002
▁کونسی	-12003
▁مطلق	-12004
▁پاونڈ	-12005
▁پارٹیوں	-12006
▁۱۴۰	-12007
▁جولیا	-12008
لفی	-12009
▁اورب	-12010
▁تمد	-12011
الفطر	-12012
▁پکارا	-12013
▁علالت	-12014
▁فاتحانہ	-12015
▁اکستان	-12016
▁جکڑ	-12017
▁اشتہاری	-12018
▁زیرِ	-12019
▁پرومو	-12020
۱رنز	-12021
سندھ	-12022
▁جیٹ	-12023
نڈیشن	-12024
▁کوسٹ	-12025
▁سیڑھیاں	-12026
▁مواصلات	-12027
نتی	-12028
▁سورہ	-12029
▁ووٹوں	-12030
ُو	-12031
▁سمن	-12032
▁نواحی	-12033
▁فسادات	-12034
جنس	-12035
▁نغمے	-12036
▁انکھوں	-12037
▁احمر	-12038
▁باغات	-12039
▁عاف	-12040
▁ھوں	-12041
▁غار	-12042
▁ونڈو	-12043
▁کارہ	-12044
▁کوی	-12045
▁مشتعل	-12046
ترجمان	-12047
▁رویوں	-12048
▁پرجوش	-12049
▁ڈیموکری	-12050
▁نوع	-12051
۹رنز	-12052
▁تھامس	-12053
▁اتھلیٹکس	-12054
▁اوباما	-12055
▁مسابقت	-12056
▁نیویار	-12057
لید	-12058
امیچ	-12059
مک	-12060
▁غلامی	-12061
▁فائن	-12062
▁فلاپ	-12063
▁شاٹس	-12064
▁معصومیت	-12065
▁بیوہ	-12066
▁ارٹسٹ	-12067
▁جیکی	-12068
ہیم	-12069
▁کانز	-12070
▁ٹوٹی	-12071
▁تاثیر	-12072
▁خریدروپے	-12073
۷رنز	-12074
▁مرید	-12075
▁فولڈ	-12076
▁آجاتا	-12077
▁زحمت	-12078
▁بھائو	-12079
▁دھماکوں	-12080
▁کوش	-12081
▁لعل	-12082
▁شبانہ	-12083
▁زا	-12084
جیے۔	-12085
▁ہیلپ	-12086
▁کیٹگریز	-12087
▁رکے	-12088
▁فلوریڈا	-12089
▁فع	-12090
شریف	-12091
گین	-12092
▁خرا	-12093
▁پختونخواہ	-12094
گھنٹے	-12095
▁امرت	-12096
▁تبلی	-12097
▁خفا	-12098
▁جلے	-12099
▁سراسر	-12100
▁کلومیٹر	-12101
کروں	-12102
ربائی	-12103
ونوش	-12104
▁۱۶۰	-12105
▁مارتے	-12106
▁ہےاسی	-12107
▁سیاحتی	-12108
▁مصن	-12109
▁لیٹے	-12110
▁حیدری	-12111
ضاً	-12112
شوبز	-12113
▁زائرین	-12114
▁ہےفوٹو	-12115
▁ایکسی	-12116
▁فات	-12117
سلمان	-12118
والوں	-12119
مارکیٹ	-12120
▁لاد	-12121
غور	-12122
بادا	-12123
▁لینس	-12124
۸رنز	-12125
▁جرسی	-12126
شروع	-12127
۶رنز	-12128
▁پونٹنگ	-12129
▁روا	-12130
▁لے۔	-12131
▁شیراز	-12132
▁محور	-12133
▁ای۱۰۰	-12134
▁طنزیہ	-12135
یلا	-12136
جرم	-12137
▁جھنگ	-12138
۶۰	-12139
▁ائین	-12140
کا۔	-12141
▁بخیر	-12142
▁محتاج	-12143
ڈرن	-12144
▁پوپ	-12145
▁جونس	-12146
▁چارے	-12147
▁جزو	-12148
▁خلیجی	-12149
▁عجائب	-12150
▁چھٹکارا	-12151
سیا	-12152
اوند	-12153
▁کموڈ	-12154
▁دہانے	-12155
▁اداسی	-12156
▁چمپیئن	-12157
if	-12158
▁گٹ	-12159
▁نخ	-12160
نتخب	-12161
▁ٹیمپرنگ	-12162
لیک	-12163
▁ہیئر	-12164
▁نبھائیں	-12165
▁سٹرائیک	-12166
▁مشغول	-12167
عرف	-12168
چھے	-12169
▁جگا	-12170
▁بزم	-12171
▁تیزاب	-12172
▁پشاوراردو	-12173
▁بچاؤ	-12174
▁فخری	-12175
▁اقساط	-12176
ہہ	-12177
▁کمیونسٹ	-12178
▁ترنم	-12179
▁شفٹ	-12180
سکتی	-12181
▁صدا	-12182
▁شکستوں	-12183
یع	-12184
▁تگ	-12185
▁آجاتی	-12186
▁یوٹیلٹی	-12187
▁مہران	-12188
سٹین	-12189
▁ہندسہ	-12190
▁خیم	-12191
▁خلیج	-12192
og	-12193
ائلر	-12194
▁توپ	-12195
▁ہچکچ	-12196
▁بیٹھیں	-12197
▁یونیورسٹیوں	-12198
راپ	-12199
▁صغیر	-12200
▁بھجوایا	-12201
▁ہےبھارتی	-12202
▁طوفانی	-12203
▁کوالالمپور	-12204
▁اسمگل	-12205
▁وحد	-12206
▁کوثر	-12207
ڈیس	-12208
▁عملدرآمد	-12209
ٹریٹ	-12210
▁سطحی	-12211
▁مصطفیٰ	-12212
▁آلہ	-12213
▁سلیکٹ	-12214
لٹی	-12215
▁دیکھوں	-12216
▁جلتے	-12217
▁گھوڑا	-12218
کنز	-12219
▁انڈو	-12220
▁سیشنز	-12221
▁مزاجی	-12222
▁پیمائش	-12223
▁عبدالرحمان	-12224
▁معدنیات	-12225
▁افعال	-12226
▁پھیلاؤ	-12227
▁واقعتا	-12228
▁پستول	-12229
▁سونگ	-12230
▁ہائر	-12231
▁ویٹر	-12232
▁دھمکیوں	-12233
▁ملازمہ	-12234
▁چالان	-12235
▁قیمتروپے	-12236
اریب	-12237
▁ہرجانے	-12238
▁بدتمیزی	-12239
دور	-12240
▁لفظی	-12241
▁آئینے	-12242
AR	-12243
▁ناولوں	-12244
▁زیبا	-12245
▁کیلا	-12246
▁احکام	-12247
▁ناہید	-12248
▁حسان	-12249
▁کنیریا	-12250
▁زمرے	-12251
▁سلطانہ	-12252
▁تصویروں	-12253
▁ریٹر	-12254
▁تلاشی	-12255
ٹورنامنٹ	-12256
▁سائیکلسٹ	-12257
▁گراوٹ	-12258
▁پلیئنگ	-12259
شمیر	-12260
▁افاق	-12261
▁گروتھ	-12262
▁‘‘	-12263
▁بیز	-12264
صور	-12265
▁۱۸۰	-12266
▁دستگیر	-12267
▁مکھرجی	-12268
ناب	-12269
▁کلامی	-12270
▁خش	-12271
▁گزرنا	-12272
نفر	-12273
▁موقعہ	-12274
ورڈن	-12275
▁ہستہ	-12276
▁گاہوں	-12277
ثہ	-12278
▁گاف	-12279
▁ٹریکٹر	-12280
▁خانیوال	-12281
▁توقیر	-12282
▁معاشیات	-12283
od	-12284
ارو	-12285
▁برازی	-12286
▁پیٹرن	-12287
▁خلاء	-12288
▁پنے	-12289
▁عسکریت	-12290
▁مرتے	-12291
▁زکربرگ	-12292
▁انڈوں	-12293
اٹھ	-12294
▁ستائیس	-12295
▁جیون	-12296
▁گےیہ	-12297
▁صوفیا	-12298
▁ٹیلیف	-12299
▁دستہ	-12300
▁بنادی	-12301
▁بھڑ	-12302
▁ذرات	-12303
▁شریعت	-12304
▁۱۴۴	-12305
سرفراز	-12306
▁ڈوئل	-12307
کین	-12308
رآ	-12309
▁مؤثر	-12310
▁میٹڈ	-12311
▁بھوپال	-12312
اتو	-12313
▁ہیومن	-12314
▁کردیئے	-12315
▁تعطیلات	-12316
▁بریگیڈ	-12317
▁نیتن	-12318
▁تالاب	-12319
▁قوموں	-12320
پین	-12321
ڈور	-12322
▁اکتیس	-12323
▁جوڑوں	-12324
تح	-12325
▁چنی	-12326
▁اتارا	-12327
▁تیا	-12328
▁کوویڈ	-12329
▁ادکارہ	-12330
▁دیوانی	-12331
▁عیاں	-12332
▁مصلح	-12333
▁اترا	-12334
▁بہنیں	-12335
▁میسجز	-12336
گروپ	-12337
▁لڑکھ	-12338
سیر	-12339
۳۵	-12340
خصوصی	-12341
▁خاوند	-12342
▁عثمانی	-12343
▁لاہو	-12344
▁بولو	-12345
▁طفیل	-12346
▁کیئر	-12347
▁سوریا	-12348
▁ماش	-12349
▁اقلیتوں	-12350
ماجی	-12351
▁مادے	-12352
▁تدارک	-12353
▁نمائندگان	-12354
IN	-12355
وڈنٹ	-12356
▁شجر	-12357
▁مکین	-12358
▁ووٹرز	-12359
▁بانٹ	-12360
نڈوں	-12361
▁لوکیشن	-12362
ہندوستان	-12363
▁ڈسک	-12364
▁درویش	-12365
مصباح	-12366
عوام	-12367
▁لکھاری	-12368
داعظم	-12369
▁مشہ	-12370
▁ڈن	-12371
انگلش	-12372
▁کرتی۔	-12373
▁ہے۔اس	-12374
▁پائونڈ	-12375
▁روف	-12376
▁بلدیہ	-12377
سٹائل	-12378
▁زیڈ	-12379
▁قاسمی	-12380
▁عزائم	-12381
▁نشانی	-12382
▁"""	-12383
▁ناشتے	-12384
▁لیسکو	-12385
▁مقبر	-12386
کنی	-12387
▁فریب	-12388
▁فوڈز	-12389
▁اوزان	-12390
▁پہونچ	-12391
▁ڑے	-12392
▁نکھیں	-12393
▁گزارنا	-12394
▁خودکش	-12395
▁لاہورپاکستان	-12396
▁رپ	-12397
▁پچز	-12398
▁ہی۔	-12399
▁علما	-12400
▁منوہر	-12401
AN	-12402
عون	-12403
یدی	-12404
▁پلاٹین	-12405
خوش	-12406
▁زمبابوین	-12407
▁خوری	-12408
▁بریتھ	-12409
▁جی۔	-12410
▁نیہا	-12411
▁رفعت	-12412
▁مینار	-12413
▁۱۹۰	-12414
موجود	-12415
▁غن	-12416
▁ہڈیوں	-12417
▁بریانی	-12418
▁ترانہ	-12419
▁منظرعام	-12420
گاں	-12421
▁زئی	-12422
▁احتشام	-12423
▁گییہ	-12424
▁v	-12425
▁نل	-12426
کتے	-12427
▁لیموں	-12428
▁بڑھائے	-12429
▁جوتوں	-12430
▁منگیتر	-12431
گانگ	-12432
▁الٹی	-12433
▁ملے۔	-12434
▁رومانیہ	-12435
▁لوپ	-12436
▁نوبت	-12437
▁ہٹایا	-12438
▁سجے	-12439
▁رناوٹ	-12440
▁مکالمے	-12441
▁فساد	-12442
▁کندھوں	-12443
▁کنندہ	-12444
شیخ	-12445
▁جبری	-12446
ڈوس	-12447
ولینس	-12448
▁لازوال	-12449
▁اخلاقیات	-12450
َن	-12451
▁نیمار	-12452
▁ٹائ	-12453
▁حمیرا	-12454
ائیت	-12455
بیئن	-12456
▁ملازمتوں	-12457
▁ایڈوائز	-12458
▁عبدالعزیز	-12459
▁نادہ	-12460
▁علمائے	-12461
▁عیدالفطر	-12462
▁سمجھایا	-12463
▁داں	-12464
▁جلیل	-12465
▁لندناردو	-12466
▁آبی	-12467
اپریلء	-12468
▁پرائمری	-12469
▁مکالمہ	-12470
▁بدقسمتی	-12471
▁مشاور	-12472
▁منشور	-12473
▁بھٹک	-12474
▁جھکائے	-12475
نیہ	-12476
ٹیاں	-12477
▁سویپ	-12478
▁تشہیری	-12479
▁ریٹویٹ	-12480
▁عمارتیں	-12481
▁تلی	-12482
▁شیشہ	-12483
براہٹ	-12484
▁ریورس	-12485
▁پاد	-12486
▁ناکا	-12487
▁اترتے	-12488
▁دیدار	-12489
▁شوخ	-12490
▁شروف	-12491
▁خلل	-12492
ڈیئر	-12493
▁مقتول	-12494
▁اسٹارٹ	-12495
▁شادیاں	-12496
▁نوچ	-12497
▁ماروی	-12498
▁چنائے	-12499
▁معش	-12500
▁سلمی	-12501
▁ہیںب	-12502
▁نوازی	-12503
▁جاہ	-12504
▁تشبیہ	-12505
▁سٹارک	-12506
▁۹۲نیوز	-12507
▁شانہ	-12508
▁کہکشاں	-12509
▁مصروفیت	-12510
▁کونسا	-12511
▁کیٹیگریز	-12512
ذول	-12513
▁مسیحی	-12514
▁ارون	-12515
▁فرینک	-12516
▁اوکاڑہ	-12517
نید	-12518
ٹمنٹ	-12519
گراف	-12520
▁دہلوی	-12521
▁ڈبے	-12522
▁کمیٹیوں	-12523
▁ملکیوں	-12524
▁دوائیں	-12525
▁ایئرپورٹ	-12526
▁راکھ	-12527
وریز	-12528
▁مجسمے	-12529
▁وزنی	-12530
▁درمیانے	-12531
▁گالا	-12532
▁انگلستان	-12533
▁ساک	-12534
▁ابھرتی	-12535
▁غرور	-12536
اعشاریہ	-12537
oc	-12538
ربائیجان	-12539
ئہ	-12540
▁کشور	-12541
▁ڈاکوؤں	-12542
▁زیت	-12543
▁کرلئے	-12544
▁لکھن	-12545
▁اُنھیں	-12546
▁آنٹی	-12547
▁کز	-12548
▁رڈ	-12549
داشتہ	-12550
▁کوہاٹ	-12551
▁چوڑ	-12552
▁نیوٹرل	-12553
▁ڈیزائنرز	-12554
▁ورق	-12555
▁افسانوی	-12556
▁اولم	-12557
▁استعفے	-12558
▁گنگولی	-12559
▁آشنا	-12560
▁حیوان	-12561
▁قافلے	-12562
▁وبائی	-12563
▁مانگے	-12564
▁لئے۔	-12565
▁گزرتی	-12566
▁پنگ	-12567
▁مزاری	-12568
▁یوٹیلیٹی	-12569
▁میرب	-12570
▁کٹائی	-12571
بیان	-12572
▁گاب	-12573
▁پریڈ	-12574
امیں	-12575
دیجہ	-12576
▁طوط	-12577
▁املا	-12578
▁for	-12579
▁نقاد	-12580
دفین	-12581
یتھ	-12582
▁ہیرس	-12583
▁ریمیک	-12584
▁کرایوں	-12585
▁مسابقتی	-12586
▁صاحبزادی	-12587
▁ہیلو	-12588
▁ہوسکا	-12589
▁وئی	-12590
▁وجاہت	-12591
▁ناگوار	-12592
▁رسوخ	-12593
▁جنریشن	-12594
▁کروں۔	-12595
▁رضاکار	-12596
▁طالبعلم	-12597
ity	-12598
▁سرکلر	-12599
گا۔	-12600
▁سندر	-12601
▁کانت	-12602
▁دکھی	-12603
▁جھا	-12604
▁سعدی	-12605
▁بھابھی	-12606
▁طلال	-12607
▁مبذول	-12608
▁نوواک	-12609
خیبر	-12610
▁بھٹہ	-12611
صن	-12612
پریت	-12613
امریکا	-12614
▁لبر	-12615
▁افطار	-12616
فیڈریشن	-12617
▁ائس	-12618
▁جوار	-12619
نسن	-12620
▁قربانیاں	-12621
▁برادرز	-12622
انڈیکسپوائنٹس	-12623
▁غفور	-12624
▁اسپینش	-12625
▁دکاندار	-12626
گزینڈر	-12627
▁تجزیے	-12628
▁گھبراہٹ	-12629
▁سمگل	-12630
▁بیلی	-12631
▁ادوار	-12632
اعی	-12633
ہالی	-12634
▁دتہ	-12635
▁صفحے	-12636
▁تعمیل	-12637
▁لائیک	-12638
▁اتحادیوں	-12639
▁فتاب	-12640
▁ناطے	-12641
▁بسے	-12642
غن	-12643
▁ارتقا	-12644
▁خودکشی	-12645
▁کشن	-12646
▁کوائن	-12647
▁منطقی	-12648
▁برڈ	-12649
▁جھر	-12650
▁شاب	-12651
▁سویا	-12652
▁پھوپ	-12653
▁کوارڈ	-12654
▁کھاتہ	-12655
▁مقف	-12656
▁صحبت	-12657
▁شلوار	-12658
▁حسیب	-12659
▁تاریخوں	-12660
▁بوسہ	-12661
▁اڑھائی	-12662
▁یاں	-12663
▁نازیہ	-12664
▁مسلط	-12665
▁اکاونٹس	-12666
▁تجسس	-12667
▁دیانت	-12668
▁عاصمہ	-12669
▁کارگر	-12670
▁اعزازات	-12671
پاشی	-12672
▁پانا	-12673
▁راشن	-12674
▁الماری	-12675
▁ہےانھوں	-12676
▁ہیرے	-12677
امرس	-12678
▁بدلتی	-12679
▁ڈویژنل	-12680
▁سائی	-12681
▁کیاج	-12682
▁ادمی	-12683
▁کلینڈ	-12684
▁تدفین	-12685
ine	-12686
▁سچے	-12687
▁ریسی	-12688
▁فنکشن	-12689
▁ھم	-12690
▁سویرے	-12691
▁انویسٹی	-12692
▁بجانے	-12693
▁نومنتخب	-12694
▁پٹنہ	-12695
▁نائیک	-12696
▁کھود	-12697
▁دول	-12698
▁شادیوں	-12699
ئٹر	-12700
▁داع	-12701
وفر	-12702
فاسٹ	-12703
▁آکسیجن	-12704
▁روں	-12705
▁اورء	-12706
▁شرمی	-12707
▁ہاروی	-12708
▁جانبدار	-12709
▁افکار	-12710
▁جزیرہ	-12711
▁پہنی	-12712
▁اثبات	-12713
▁پائ	-12714
▁چھاتی	-12715
ناف	-12716
▁ہاٹ	-12717
موم	-12718
▁آپری	-12719
▁اداکر	-12720
▁ہیںیاد	-12721
▁کائ	-12722
▁اسفند	-12723
ادیں	-12724
▁طبق	-12725
▁خاصہ	-12726
▁بقایا	-12727
شیئرز	-12728
▁سرکٹ	-12729
ووا	-12730
ٹھہ	-12731
▁ضروریہ	-12732
▁اینگرو	-12733
روض	-12734
▁ساکت	-12735
▁ریج	-12736
▁کرسکا	-12737
▁انسٹال	-12738
ائلٹ	-12739
▁سماں	-12740
▁لکس	-12741
زیادہ	-12742
▁حسد	-12743
▁لینڈرز	-12744
ay	-12745
▁بچھڑے	-12746
▁جادوئی	-12747
▁تھار	-12748
▁انکلو	-12749
▁ٹانگیں	-12750
عزت	-12751
وما	-12752
▁برانز	-12753
▁ایمپائر	-12754
اوں	-12755
▁سینٹرز	-12756
▁تندر	-12757
▁فرزند	-12758
انڈین	-12759
▁تالیف	-12760
▁پینتیس	-12761
▁ججوں	-12762
▁ہجری	-12763
ہان	-12764
جنرل	-12765
▁دانشور	-12766
▁غزلوں	-12767
▁نکلا۔	-12768
▁پلنگ	-12769
▁گولہ	-12770
سلام	-12771
▁الملک	-12772
▁بھجوائے	-12773
▁سدھو	-12774
▁فائبر	-12775
▁کاریں	-12776
▁پرب	-12777
▁سدرہ	-12778
▁پیسٹ	-12779
▁باندھے	-12780
▁ذلیل	-12781
▁ٹانگوں	-12782
▁آنچ	-12783
▁اونچائی	-12784
▁ہےرپورٹ	-12785
▁ٹراف	-12786
َر	-12787
▁بھاگتے	-12788
▁پاسداری	-12789
▁پسندانہ	-12790
اا	-12791
▁خت	-12792
▁تحمل	-12793
▁شکوک	-12794
▁ادیبوں	-12795
جاوید	-12796
▁لاتا	-12797
انڈیا	-12798
▁بہاؤ	-12799
▁شرمین	-12800
▁بالاتر	-12801
▁اکانومی	-12802
▁ائٹم	-12803
▁ہیو	-12804
▁ڈکلیئر	-12805
▁بااختیار	-12806
ائٹیڈ	-12807
▁بوبی	-12808
▁اسپانسر	-12809
لایا	-12810
▁مانس	-12811
▁کدھر	-12812
▁گپتا	-12813
▁وضو	-12814
سمنٹ	-12815
▁بدا	-12816
▁ایٹم	-12817
▁سیکرٹریٹ	-12818
▁تلک	-12819
پہلا	-12820
▁جیلوں	-12821
▁نصیحت	-12822
ly	-12823
▁کھویا	-12824
▁ڈش	-12825
▁سرخی	-12826
▁تلاوت	-12827
▁بیسویں	-12828
▁اینیمیٹڈ	-12829
▁دفعات	-12830
▁گوٹ	-12831
▁ایگ	-12832
▁بھارتیوں	-12833
▁پایہ	-12834
▁مذاہب	-12835
▁مچادی	-12836
▁خلافت	-12837
▁بدنامی	-12838
▁قاز	-12839
▁ہےک	-12840
▁ٹوٹا	-12841
▁مصالحہ	-12842
▁جھلکیاں	-12843
▁خیرمقدم	-12844
▁ہیڈکوچ	-12845
▁ہیلم	-12846
▁مینوں	-12847
▁جامہ	-12848
▁اندھا	-12849
▁کھری	-12850
▁باہ	-12851
▁الرحم	-12852
ئیل	-12853
▁لل	-12854
▁آند	-12855
▁آنسوؤں	-12856
▁انوکھے	-12857
▁مقنا	-12858
▁ہیںفوٹو	-12859
▁بوڑ	-12860
▁سرک	-12861
▁گھل	-12862
▁قمیض	-12863
▁پاکر	-12864
▁سنیں	-12865
▁نہال	-12866
▁باسمتی	-12867
ونیا	-12868
تیں۔	-12869
▁برہنہ	-12870
▁مصنفین	-12871
▁بھجوانے	-12872
▁آپی	-12873
▁کوب	-12874
▁ودہ	-12875
نٹو	-12876
▁چھن	-12877
▁کیفے	-12878
رای	-12879
وکس	-12880
▁سنوار	-12881
▁سائنسز	-12882
▁پھونک	-12883
۵رنز	-12884
▁العز	-12885
▁پریز	-12886
▁گولیوں	-12887
ادونوں	-12888
▁دلشان	-12889
▁علیزے	-12890
▁غداری	-12891
▁نشوونما	-12892
▁دواں	-12893
▁زائل	-12894
اخر	-12895
▁بہرام	-12896
▁اکھٹے	-12897
▁ایڈمنسٹری	-12898
▁ٹویٹس	-12899
▁یف	-12900
▁جلانے	-12901
▁قائداعظم	-12902
▁جیر	-12903
▁کسٹ	-12904
▁آوازوں	-12905
▁کوریو	-12906
▁انٹرویوز	-12907
▁دبے	-12908
▁مشترک	-12909
▁گےان	-12910
▁سسرال	-12911
▁مقالے	-12912
▁اپر	-12913
▁الیکٹران	-12914
▁الیکس	-12915
▁تاروں	-12916
برڈ	-12917
▁کردیے	-12918
▁امرو	-12919
▁ٹکڑوں	-12920
▁نبوی	-12921
▁کراچیم	-12922
▁دارو	-12923
▁روزے	-12924
▁لسان	-12925
مبابوے	-12926
▁تنازعے	-12927
ائرن	-12928
▁کھاتی	-12929
▁آداب	-12930
▁دانے	-12931
▁اکلو	-12932
▁دھان	-12933
▁داماد	-12934
▁خوردنی	-12935
▁چندی	-12936
▁سرشار	-12937
▁ہنڈریڈ	-12938
▁اسٹنٹ	-12939
▁چاق	-12940
▁پھینکنے	-12941
قیم	-12942
▁ولد	-12943
▁نویس	-12944
▁ہملٹن	-12945
▁خودی	-12946
▁کلبوں	-12947
▁نادرن	-12948
اشی	-12949
▁جمنا	-12950
▁گرانے	-12951
ائزرز	-12952
ri	-12953
▁غسل	-12954
▁ڈھان	-12955
▁کھائیں	-12956
▁مواقعوں	-12957
ڈرل	-12958
▁ڈچ	-12959
▁ترانے	-12960
▁جیکٹ	-12961
▁پروری	-12962
▁منطق	-12963
▁اچھال	-12964
▁ہیڈکوار	-12965
▁فرٹیلائزر	-12966
الب	-12967
چسپ	-12968
ویٹی	-12969
▁سکینہ	-12970
▁تنو	-12971
▁کھوسہ	-12972
▁اسٹیفن	-12973
▁فجر	-12974
▁کوشل	-12975
▁مشروبات	-12976
ub	-12977
▁ربادا	-12978
ٹور	-12979
▁کمبی	-12980
رینا	-12981
▁بھیک	-12982
▁کٹر	-12983
▁بھیجنا	-12984
▁کپء	-12985
▁ہنسنے	-12986
▁جانو	-12987
▁ہلال	-12988
▁مکانی	-12989
▁غرق	-12990
▁نکالتے	-12991
▁ازبکستان	-12992
فیض	-12993
چیئرمین	-12994
▁مصنفہ	-12995
▁پیمانہ	-12996
▁فقہ	-12997
▁نشاط	-12998
حض	-12999
▁مدیحہ	-13000
▁خدیجہ	-13001
نٹا	-13002
▁بکر	-13003
▁کفا	-13004
▁نوبل	-13005
ءپاکستان	-13006
▁مفتاح	-13007
▁المیہ	-13008
▁غضنفر	-13009
▁فلکیات	-13010
▁ہوسکتے	-13011
▁والٹ	-13012
▁الاضحی	-13013
▁لینڈنگ	-13014
▁تدبیر	-13015
عثمان	-13016
▁کرگئی	-13017
یسا	-13018
کھنے	-13019
▁پروٹوکول	-13020
▁فریضہ	-13021
▁تسی	-13022
▁چیلسی	-13023
▁کیاہے	-13024
ڑن	-13025
▁یونہی	-13026
بلین	-13027
▁گریٹ	-13028
▁اوورسیز	-13029
▁ایمبولینس	-13030
▁جینیفر	-13031
یروں	-13032
▁پوچھتا	-13033
▁خاکے	-13034
▁نمبروں	-13035
▁!!!	-13036
▁وردی	-13037
چند	-13038
بیل	-13039
▁جدیجا	-13040
▁فزیو	-13041
▁بصیرت	-13042
ذکورہ	-13043
▁واہگہ	-13044
▁سیاروں	-13045
زبان	-13046
▁ہندستان	-13047
▁نسخے	-13048
▁نجانے	-13049
▁بسیں	-13050
▁ایضاً	-13051
▁جلتا	-13052
▁مورال	-13053
▁زیتون	-13054
▁کھلایا	-13055
▁عارض	-13056
▁بسنے	-13057
▁رچرڈز	-13058
▁پیغمبر	-13059
مند	-13060
▁ارش	-13061
▁کاٹا	-13062
▁سرگو	-13063
چوک	-13064
▁ٹریفورڈ	-13065
▁آلود	-13066
▁تنبیہ	-13067
▁شوکاز	-13068
▁دتی	-13069
▁نوٹی	-13070
تب	-13071
کھوں	-13072
▁ہےا	-13073
▁وائنسٹن	-13074
ازون	-13075
▁عفت	-13076
▁مستی	-13077
▁مجمع	-13078
▁لاطینی	-13079
▁دیوالیہ	-13080
▁جڑا	-13081
ڈائریکٹر	-13082
▁حوا	-13083
▁سائفر	-13084
▁رضیہ	-13085
▁نقشے	-13086
▁سانسوں	-13087
شامل	-13088
▁ٹوم	-13089
▁لیوی	-13090
▁کرامت	-13091
پٹی	-13092
▁فارمیٹس	-13093
▁آپا	-13094
▁قائدین	-13095
ےں	-13096
▁سکہ	-13097
ولڈنگ	-13098
▁ولادت	-13099
▁سدا	-13100
▁لور	-13101
▁عقائد	-13102
▁خلیات	-13103
▁پراچہ	-13104
▁بہل	-13105
▁چول	-13106
▁قدیمہ	-13107
▁جھانوی	-13108
▁محبوبہ	-13109
پاٹ	-13110
▁اٹھا۔	-13111
▁ہنگری	-13112
▁باقیات	-13113
▁ریسلرز	-13114
▁اٹھتا	-13115
▁فاؤ	-13116
▁رسائل	-13117
رخ	-13118
وٹن	-13119
▁الٹرا	-13120
▁کبوتر	-13121
خوذ	-13122
▁گاک	-13123
▁بلک	-13124
▁تکرار	-13125
▁سس	-13126
▁ٹیب	-13127
▁تخلیقات	-13128
▁ایجنٹس	-13129
▁بکی	-13130
▁تھما	-13131
▁صنعتکار	-13132
▁مشاورتی	-13133
▁داعش	-13134
▁شال	-13135
▁مسرور	-13136
▁سوپ	-13137
▁بکھرے	-13138
▁گھسیٹ	-13139
▁کنا	-13140
▁پالتو	-13141
ہماری	-13142
▁یوراج	-13143
ٹائی	-13144
▁عیش	-13145
ذیڈنٹ	-13146
▁میانوالی	-13147
▁امیگریشن	-13148
▁کائی	-13149
▁دالوں	-13150
▁مصور	-13151
▁قوال	-13152
کاروباری	-13153
▁برادران	-13154
جمعرات	-13155
سکتا	-13156
بیح	-13157
▁موٹرز	-13158
▁حمی	-13159
▁کوپ	-13160
▁فلمایا	-13161
ماڈل	-13162
▁سہر	-13163
▁روشناس	-13164
پرسن	-13165
لندن	-13166
▁نمبرز	-13167
▁کلثوم	-13168
ستر	-13169
▁دوحہ	-13170
▁جیوری	-13171
شاہی	-13172
▁بتی	-13173
▁حلی	-13174
▁ڈوگر	-13175
▁آگاہی	-13176
▁بدی	-13177
▁بیلز	-13178
▁ریفریز	-13179
▁ڈرائنگ	-13180
▁ائن	-13181
▁اضطراب	-13182
▁شاء	-13183
▁شیا	-13184
▁سٹیون	-13185
▁چیکنگ	-13186
▁مونچھ	-13187
▁ولید	-13188
▁کراچیکامرس	-13189
▁رگڑ	-13190
▁چھیا	-13191
▁ترجمے	-13192
▁ڈینیئل	-13193
▁الیگزینڈر	-13194
▁بنالیے	-13195
▁پریشانیوں	-13196
گورن	-13197
▁مشفق	-13198
▁سنبھالی	-13199
▁ہنٹ	-13200
الاضحی	-13201
▁چاکلیٹ	-13202
▁پروٹیکشن	-13203
▁ی۔	-13204
ہوں	-13205
الوجی	-13206
▁اوسطا	-13207
▁مماثلت	-13208
▁کرنسیوں	-13209
▁قربانیوں	-13210
▁اعضا	-13211
▁اقر	-13212
▁گاتے	-13213
۷۰	-13214
▁کٹس	-13215
▁جھل	-13216
▁گھومتے	-13217
▁راکی	-13218
▁نہرو	-13219
▁میٹھے	-13220
▁عبدالستار	-13221
▁پکچر	-13222
▁گندگی	-13223
فک	-13224
▁۱۰۴	-13225
▁بابت	-13226
▁الزبتھ	-13227
▁ترینئی	-13228
▁جغرافیائی	-13229
▁ڈریم	-13230
▁آزمائش	-13231
▁امنہ	-13232
▁ٹھہرے	-13233
▁روسو	-13234
شہری	-13235
واسطہ	-13236
▁بروک	-13237
▁سٹیک	-13238
▁ہےای	-13239
▁اٹھایا۔	-13240
شائ	-13241
▁جینز	-13242
▁دروازوں	-13243
▁جاز	-13244
▁سوپر	-13245
▁شیم	-13246
▁بادلوں	-13247
اوت	-13248
▁گزاروں	-13249
▁وزارتوں	-13250
com	-13251
▁ایلون	-13252
▁ڈالا۔	-13253
▁رسپ	-13254
ڈون	-13255
▁بالخر	-13256
▁ایڈورڈ	-13257
بائی	-13258
جربہ	-13259
▁؟؟؟	-13260
▁سنائے	-13261
▁وحدت	-13262
▁قت	-13263
▁ایڈریس	-13264
▁سٹریلی	-13265
ملتان	-13266
▁نوٹیفیکیشن	-13267
▁کےا	-13268
▁رہتا۔	-13269
▁مارنا	-13270
▁سکھوں	-13271
▁مستحسن	-13272
▁فلڈ	-13273
▁جدائی	-13274
▁فرضی	-13275
▁رپورٹرپاکستان	-13276
▁ڈانسر	-13277
▁نبرد	-13278
▁زندگیاں	-13279
بالیہ	-13280
▁سیڑھیوں	-13281
ڑا۔	-13282
ریٹس	-13283
▁سیکٹرز	-13284
▁ایشو	-13285
▁یکا	-13286
انیوں	-13287
▁سیکرٹ	-13288
▁ملحقہ	-13289
▁سپاہیوں	-13290
▁لیتھم	-13291
▁رجسٹرار	-13292
▁ٹاکرا	-13293
▁الوطنی	-13294
ماضی	-13295
▁چونکا	-13296
▁اچکزئی	-13297
مرت	-13298
▁سٹورز	-13299
▁خوبیوں	-13300
▁سےء	-13301
▁کوں	-13302
یون	-13303
صارف	-13304
▁گھنے	-13305
▁مشقت	-13306
▁عادات	-13307
▁مانیٹر	-13308
اچھا	-13309
گوئے	-13310
▁گنی	-13311
▁افزائش	-13312
▁سبزواری	-13313
▁خطا	-13314
▁زمیں	-13315
▁رکھنی	-13316
▁بوپ	-13317
▁دوپٹ	-13318
▁be	-13319
▁چاٹ	-13320
نگن	-13321
عرفان	-13322
▁بوڑھی	-13323
▁کئے۔	-13324
▁پھٹنے	-13325
▁سجی	-13326
▁خزاں	-13327
▁کلمہ	-13328
لوع	-13329
▁ادرک	-13330
▁پیلے	-13331
▁آئیں	-13332
▁قاہرہ	-13333
▁املاک	-13334
▁لیجئے	-13335
یرن	-13336
اسکتے	-13337
ٹرافی	-13338
▁آتی۔	-13339
▁ہےت	-13340
▁گندے	-13341
▁پرینیتی	-13342
▁سےپوائنٹس	-13343
ؤٹ	-13344
یونی	-13345
▁آئر	-13346
▁عیب	-13347
▁وردھ	-13348
▁ہاسنگ	-13349
▁وفادار	-13350
▁کچہ	-13351
▁شیط	-13352
▁ریفنڈز	-13353
▁کلینک	-13354
▁لذت	-13355
▁تول	-13356
ٹیکل	-13357
اتیں	-13358
▁روئ	-13359
▁اسطرح	-13360
▁بھاشا	-13361
صیف	-13362
▁گھما	-13363
▁کمنٹیٹر	-13364
▁مود	-13365
▁ناکارہ	-13366
▁پدماوت	-13367
افغانستان	-13368
▁ہیڈن	-13369
▁تقاضے	-13370
▁مانتا	-13371
▁بروس	-13372
▁رضامند	-13373
راولپنڈی	-13374
▁گورننس	-13375
▁رسیدہ	-13376
انسرز	-13377
▁ٹرائی	-13378
▁وراث	-13379
▁دبانے	-13380
َم	-13381
سکا	-13382
▁رہنم	-13383
▁آل	-13384
▁کھانسی	-13385
رون	-13386
▁کوارٹرز	-13387
▁ماخوذ	-13388
▁شید	-13389
▁میٹھا	-13390
جیسے	-13391
▁ساڑھی	-13392
▁گنڈاپور	-13393
دبئی	-13394
▁خطیر	-13395
▁مسکراتی	-13396
▁سوگ	-13397
▁سہہ	-13398
▁چسپ	-13399
▁میڈی	-13400
▁لہرا	-13401
▁پریمئر	-13402
▁ایماندار	-13403
▁پکڑی	-13404
▁چربی	-13405
▁فیکٹر	-13406
▁موسیٰ	-13407
▁اکھاڑ	-13408
چیمپ	-13409
▁فرمائی	-13410
راب	-13411
▁جاناں	-13412
▁ممی	-13413
▁دوائی	-13414
▁جھول	-13415
▁ڈراف	-13416
ریفی	-13417
▁اوران	-13418
▁ہیملٹن	-13419
EN	-13420
▁پسینہ	-13421
▁حامیوں	-13422
▁مزین	-13423
▁ربانی	-13424
▁پہچانے	-13425
▁بلبل	-13426
▁رائس	-13427
۹۲نیوز	-13428
▁بالاخر	-13429
ستری	-13430
▁r	-13431
اسٹر	-13432
ناموں	-13433
▁شخصی	-13434
حسین	-13435
وراج	-13436
▁چڑی	-13437
گی۔	-13438
▁ڈنک	-13439
▁نفری	-13440
▁احان	-13441
▁ضیاع	-13442
▁معظم	-13443
▁چوڑی	-13444
▁جمخانہ	-13445
▁ضی	-13446
▁بختیار	-13447
▁کاک	-13448
▁دھکا	-13449
▁انجان	-13450
▁آواز	-13451
▁خوشدل	-13452
▁کوئلہ	-13453
▁کوتاہی	-13454
▁تھاب	-13455
▁ورثہ	-13456
ماعت	-13457
▁طبعی	-13458
▁فلیکس	-13459
ثانی	-13460
▁۳۵۰	-13461
▁لارنس	-13462
غنی	-13463
▁پریا	-13464
▁چمڑے	-13465
▁گڈز	-13466
▁رپورٹنگ	-13467
▁چُ	-13468
▁ڈلی	-13469
▁بحیرہ	-13470
▁جدیدیت	-13471
▁آئیے	-13472
▁منال	-13473
▁سدھار	-13474
ورتھم	-13475
▁کاہ	-13476
▁پورٹس	-13477
▁اڑنے	-13478
▁تلق	-13479
سارا	-13480
▁بغداد	-13481
▁وائرلیس	-13482
▁سپانسر	-13483
▁پروڈکٹ	-13484
۳۳	-13485
پید	-13486
▁گھٹنوں	-13487
▁برازیلین	-13488
▁پٹواری	-13489
▁[]	-13490
▁آہنگی	-13491
۸۰	-13492
سیک	-13493
▁کیچز	-13494
صرین	-13495
▁واقفیت	-13496
▁تئیں	-13497
▁کارو	-13498
▁انٹرمی	-13499
▁سوچی	-13500
▁کرافٹ	-13501
ھویں	-13502
▁عرق	-13503
▁ایڈوائزری	-13504
▁ہےلیکن	-13505
وہاب	-13506
▁ایئ	-13507
▁پکانے	-13508
▁اینجلو	-13509
▁پراس	-13510
▁بیٹھنا	-13511
▁زمیندار	-13512
▁میانمار	-13513
▁کیلنڈر	-13514
▁آدھ	-13515
▁گزارتے	-13516
▁ہیںخیال	-13517
یسٹر	-13518
مطابق	-13519
▁انھی	-13520
▁جسامت	-13521
▁دولہا	-13522
نسیاں	-13523
ستحکم	-13524
▁چاہئیے	-13525
▁ٹھہرایا	-13526
▁بدتر	-13527
▁باکسرز	-13528
ve	-13529
▁انتیس	-13530
کھل	-13531
▁پارس	-13532
▁گورنرز	-13533
رض	-13534
▁وکالت	-13535
▁ونی	-13536
▁بجر	-13537
▁سکھانے	-13538
▁نیلسن	-13539
▁خریدنا	-13540
▁معراج	-13541
▁مینڈیٹ	-13542
یونس	-13543
▁املہ	-13544
▁وائے	-13545
▁عیسوی	-13546
▁پڑھتا	-13547
▁غلبہ	-13548
▁رخصتی	-13549
▁جنتا	-13550
▁بندھے	-13551
▁ٹونی	-13552
▁ہتھک	-13553
▁دوہزار	-13554
▁ڈالتا	-13555
▁پوچھیں	-13556
خذ	-13557
▁ہیںدوسری	-13558
▁میزان	-13559
لون	-13560
▁کافر	-13561
▁ترکیہ	-13562
▁سریش	-13563
▁مارخورز	-13564
▁رند	-13565
▁سچا	-13566
کریہ	-13567
▁آئس	-13568
▁نیور	-13569
▁کارڈف	-13570
▁رزل	-13571
▁دوپٹہ	-13572
▁ں۔	-13573
▁اہستہ	-13574
▁استقبالیہ	-13575
▁۲۳۱	-13576
فرا	-13577
▁شیرازی	-13578
▁طلوع	-13579
دھے	-13580
▁مینگل	-13581
▁ٹریلین	-13582
▁منوایا	-13583
▁جاکر	-13584
▁سپرنٹ	-13585
▁راو	-13586
زخ	-13587
▁ووٹر	-13588
▁گھوڑوں	-13589
▁راکھی	-13590
▁منسوخی	-13591
▁چیمپینز	-13592
▁شیف	-13593
▁ٹرانزیکشن	-13594
▁لڑی	-13595
▁گٹھ	-13596
▁الادا	-13597
بھجن	-13598
▁اعضاء	-13599
▁پیپرز	-13600
ویژن	-13601
▁کوٹہ	-13602
▁دشت	-13603
▁تضاد	-13604
▁انتباہ	-13605
طین	-13606
▁کنویں	-13607
▁ربط	-13608
▁جنوں	-13609
▁جاتیں	-13610
▁گناہوں	-13611
▁پھیپھڑوں	-13612
▁یا۔	-13613
▁یٹ	-13614
▁فائلرز	-13615
ہنچ	-13616
▁کلکٹر	-13617
▁سکیموں	-13618
▁لینگ	-13619
▁دلاتا	-13620
قص	-13621
▁کنور	-13622
▁مرتضیٰ	-13623
وسٹر	-13624
▁پیکٹ	-13625
▁بھیجیں	-13626
▁تھاانہوں	-13627
▁وقوع	-13628
▁دیکھیں۔	-13629
▁سنچورین	-13630
▁عیدالاضحی	-13631
▁گرافی	-13632
▁چڑھنے	-13633
▁ونے	-13634
▁اشک	-13635
▁گاڑ	-13636
▁پیئر	-13637
▁میگھن	-13638
▁برآمدات	-13639
▁کہنی	-13640
یدار	-13641
▁رسالے	-13642
▁ولسن	-13643
▁سنسکرت	-13644
حدہ	-13645
▁تپ	-13646
▁نھیں	-13647
▁بھاو	-13648
▁نزاکت	-13649
خن	-13650
حصص	-13651
▁تقلید	-13652
▁اوڑھ	-13653
▁اسکار	-13654
▁کیپنگ	-13655
▁پہچانا	-13656
▁گیلری	-13657
▁بیماریاں	-13658
▁۱۰۲	-13659
▁چھتیس	-13660
.....	-13661
▁بارات	-13662
▁دلاتے	-13663
▁فکیشن	-13664
▁ہوائیں	-13665
▁ترجمانی	-13666
▁بیبر	-13667
▁مہاراشٹر	-13668
جارا	-13669
▁اقراء	-13670
▁صورتوں	-13671
▁بنگلے	-13672
▁لٹکا	-13673
رویج	-13674
▁بھتیجے	-13675
▁انفرادیت	-13676
▁تھیلے	-13677
▁ہوٹلوں	-13678
▁مہاراج	-13679
▁کورسز	-13680
▁اپریٹنگ	-13681
▁قازق	-13682
▁جادوگر	-13683
▁پیچیدگی	-13684
دلی	-13685
▁لح	-13686
▁بسا	-13687
▁دانہ	-13688
▁اناج	-13689
چوکوں	-13690
▁لگاؤ	-13691
▁شانے	-13692
اسد	-13693
کلام	-13694
▁ماؤ	-13695
▁خنجر	-13696
▁لبیک	-13697
▁تنظیمیں	-13698
▁a	-13699
▁گشت	-13700
▁مورس	-13701
کرے	-13702
▁زلف	-13703
▁مائع	-13704
▁مالدیپ	-13705
▁پروجیکٹس	-13706
▁طوائف	-13707
▁جیلانی	-13708
▁جیکب	-13709
▁صنفی	-13710
یاث	-13711
▁تزئین	-13712
▁دھرتی	-13713
▁فنا	-13714
گلوکار	-13715
▁سکھایا	-13716
▁لیہ	-13717
▁ککس	-13718
▁کیرن	-13719
وٹس	-13720
▁وآ	-13721
▁مفرو	-13722
▁سائم	-13723
▁کتابت	-13724
▁الفت	-13725
▁مرث	-13726
▁تفسیر	-13727
▁قافلہ	-13728
▁لنچ	-13729
▁تمدن	-13730
▁حیام	-13731
▁یات	-13732
▁کیج	-13733
▁زبانیں	-13734
▁ادھار	-13735
▁میونخ	-13736
▁خلق	-13737
▁ریہر	-13738
▁اسٹورٹ	-13739
داں	-13740
▁درگاہ	-13741
▁صاحبان	-13742
فیا	-13743
▁فلینڈر	-13744
▁کانسٹیبل	-13745
▁اچی	-13746
▁چاچا	-13747
▁گھن	-13748
▁پارٹس	-13749
▁فائٹر	-13750
شانک	-13751
▁لاسٹ	-13752
▁پھینکا	-13753
▁گردے	-13754
▁سنبھالیں	-13755
▁تند	-13756
▁لاجو	-13757
▁مجال	-13758
ate	-13759
▁شلپا	-13760
▁آڈیو	-13761
▁بھولے	-13762
▁بیوشن	-13763
▁تلقین	-13764
▁نشانے	-13765
▁وئے	-13766
تیسرے	-13767
▁کراچیپاکستان	-13768
▁فلیش	-13769
▁چشتی	-13770
▁فلمسٹار	-13771
▁یمان	-13772
مبیر	-13773
▁مبہ	-13774
▁اروڑا	-13775
▁بارود	-13776
▁افغ	-13777
▁نئیں	-13778
کردہ	-13779
▁سوچوں	-13780
▁پچھتا	-13781
▁صر	-13782
▁براعظم	-13783
سلو	-13784
لاً	-13785
▁مادی	-13786
▁لگاتی	-13787
ect	-13788
▁شرعی	-13789
▁اسٹریمنگ	-13790
▁بلغ	-13791
▁آبائی	-13792
▁براستہ	-13793
▁سوئے	-13794
▁نتھ	-13795
وبدل	-13796
▁شیلڈ	-13797
▁ماہنامہ	-13798
▁اسیسر	-13799
▁پسندیدگی	-13800
وئے	-13801
اراتی	-13802
▁حرکتیں	-13803
▁روشنیوں	-13804
▁اورا	-13805
▁کبریٰ	-13806
▁جرح	-13807
▁صبری	-13808
▁دکھاتا	-13809
▁ترویج	-13810
▁رجنی	-13811
▁پھسل	-13812
▁پہنچتی	-13813
▁۱۰۶	-13814
حیدر	-13815
▁کیلس	-13816
▁زاویہ	-13817
▁پوتن	-13818
▁کٹیگری	-13819
▁شاک	-13820
▁دبی	-13821
▁اپناتے	-13822
▁نث	-13823
▁مندانہ	-13824
▁سلگ	-13825
▁الام	-13826
▁محو	-13827
▁ہیلمٹ	-13828
▁تھکاوٹ	-13829
▁زکو	-13830
▁on	-13831
▁نمٹا	-13832
▁اولمپئن	-13833
▁وامان	-13834
▁ویتنام	-13835
▁کوڑے	-13836
ئیا	-13837
▁مسخ	-13838
یکھ	-13839
▁اذلان	-13840
▁وکٹوریہ	-13841
▁بیدی	-13842
▁برینٹ	-13843
▁پہنچائی	-13844
۴۵	-13845
▁ٹون	-13846
▁آرائی	-13847
▁توصیف	-13848
فیص	-13849
شیئر	-13850
آج	-13851
▁غوری	-13852
▁لائک	-13853
▁شازیہ	-13854
تمہ	-13855
ملا	-13856
▁ضامن	-13857
▁گیارہویں	-13858
▁جاوں	-13859
▁گلبرگ	-13860
حقیق	-13861
▁ہیںپ	-13862
▁گائی	-13863
▁ساج	-13864
▁الگورتھم	-13865
الات	-13866
▁کارا	-13867
▁st	-13868
▁ثواب	-13869
▁صوابی	-13870
▁نوشہرہ	-13871
▁موشن	-13872
▁آفریدی	-13873
▁مبصرین	-13874
▁زمائش	-13875
▁غبار	-13876
▁گھیرا	-13877
انڈسٹری	-13878
▁روحی	-13879
▁ہارا	-13880
▁پنجہ	-13881
▁تھاان	-13882
▁گےپاکستان	-13883
▁تور	-13884
▁ردوبدل	-13885
▁عاق	-13886
▁فرانسسکو	-13887
▁آمدن	-13888
▁کارخانے	-13889
▁آفاق	-13890
سانہ	-13891
▁جیری	-13892
▁کاٹی	-13893
قانونی	-13894
بارٹ	-13895
▁مزدوری	-13896
خا	-13897
سٹریلین	-13898
▁آبادی	-13899
▁سنڈ	-13900
▁دینا۔	-13901
▁مہمند	-13902
کشمیر	-13903
▁احاطے	-13904
▁شکاری	-13905
▁یونائٹیڈ	-13906
▁پرد	-13907
▁ڈیا	-13908
تماد	-13909
▁فیگر	-13910
▁گندی	-13911
▁کنزیوم	-13912
▁تفہیم	-13913
▁ریفر	-13914
▁تاکید	-13915
▁آفر	-13916
▁شبر	-13917
▁لیونی	-13918
▁ٹیوٹا	-13919
▁پیاف	-13920
▁راش	-13921
▁آقا	-13922
▁آٹا	-13923
▁افتاب	-13924
▁ظہر	-13925
▁برون	-13926
▁ثروت	-13927
▁جلسوں	-13928
ائیڈر	-13929
▁ثمر	-13930
▁رحمانی	-13931
▁مجرمانہ	-13932
▁کراچیاسٹاف	-13933
▁تقی	-13934
▁فروشوں	-13935
▁ڈیوائن	-13936
▁اسکیموں	-13937
▁ایشوریہ	-13938
▁پیلس	-13939
▁لوہار	-13940
▁کورٹس	-13941
▁کیمیا	-13942
▁فارما	-13943
کئی	-13944
ھیا	-13945
▁ڈالی۔	-13946
▁گدھے	-13947
▁تصوف	-13948
▁ڈھنگ	-13949
▁گاہک	-13950
▁اٹھتی	-13951
▁ادھورا	-13952
▁خیمہ	-13953
▁جونئیر	-13954
▁ٹرانسپورٹرز	-13955
ناد	-13956
▁باو	-13957
▁کلاسیکل	-13958
تیوں	-13959
▁کیوئ	-13960
▁متضاد	-13961
▁کرر	-13962
▁پارے	-13963
▁لائبہ	-13964
▁بدری	-13965
▁جواں	-13966
▁سنیئر	-13967
▁ودہولڈنگ	-13968
یمان	-13969
▁تنوع	-13970
▁برائلر	-13971
▁آپشن	-13972
▁مصدق	-13973
▁مولی	-13974
▁ایکٹنگ	-13975
▁نمبرون	-13976
▁ملبے	-13977
▁بارہویں	-13978
▁وتر	-13979
▁شاخوں	-13980
▁مسکرایا	-13981
▁محرومی	-13982
ئیڈ	-13983
▁اورج	-13984
▁باشندے	-13985
▁کفایت	-13986
▁ڈمپ	-13987
▁برقع	-13988
ٹمور	-13989
▁پورن	-13990
▁اڑایا	-13991
▁بکیز	-13992
▁گواہوں	-13993
▁اسیکیوٹر	-13994
▁اومان	-13995
▁نگل	-13996
▁بھگوان	-13997
▁میلا	-13998
بھر	-13999
امریکہ	-14000
▁سیار	-14001
▁چھڑا	-14002
باڈوس	-14003
▁تبسم	-14004
▁رستم	-14005
▁سائیکلوں	-14006
افات	-14007
▁صابن	-14008
▁فالج	-14009
قرن	-14010
▁لپٹ	-14011
▁ar	-14012
▁پھڑ	-14013
▁ہارمون	-14014
▁ِ	-14015
▁خلع	-14016
لوگوں	-14017
▁ندوی	-14018
وجہ	-14019
▁بدلی	-14020
▁کراچیاس	-14021
سنچ	-14022
نٹائل	-14023
▁اسیس	-14024
انہوںنے	-14025
کسن	-14026
نوئی	-14027
▁ترے	-14028
مالی	-14029
▁عثم	-14030
▁کھنچ	-14031
▁انٹرا	-14032
▁الذ	-14033
طوب	-14034
▁انصافی	-14035
▁نہں	-14036
▁ہسٹری	-14037
▁ممبرز	-14038
▁للہ	-14039
▁اوپیک	-14040
▁مورکل	-14041
▁رسوا	-14042
▁فیلڈر	-14043
▁پرائیوٹ	-14044
لمین	-14045
ویری	-14046
▁شعلے	-14047
سرکاری	-14048
▁گھمبیر	-14049
▁سپنرز	-14050
▁ساتواں	-14051
▁تالیاں	-14052
▁پوتے	-14053
کیونکہ	-14054
گوئیاں	-14055
▁انگور	-14056
وٹے	-14057
▁سنبھالے	-14058
▁مٹھائی	-14059
▁برتھ	-14060
▁عبدالر	-14061
▁سیدہ	-14062
▁ڈینس	-14063
▁جوڑنے	-14064
زمبابوے	-14065
ٹاپ	-14066
▁شالی	-14067
▁جگایا	-14068
▁منتشر	-14069
ant	-14070
ES	-14071
▁نشا	-14072
شادی	-14073
▁عصری	-14074
▁اسکالر	-14075
▁ہیںوہ	-14076
▁بنالئے	-14077
سٹا	-14078
▁ماند	-14079
▁مسل	-14080
▁زوہیب	-14081
▁سرخرو	-14082
▁ازدواجی	-14083
▁وہم	-14084
▁ٹوئٹس	-14085
▁بونی	-14086
▁وانگ	-14087
▁کارن	-14088
لال	-14089
▁خواص	-14090
▁گیلی	-14091
▁دلادی	-14092
▁جسپریت	-14093
▁عنہ	-14094
▁ڈریگن	-14095
یکہ	-14096
▁سڑ	-14097
▁انٹرمیڈیٹ	-14098
▁دیبا	-14099
راقی	-14100
▁ساقی	-14101
▁دبئیاردو	-14102
▁مشابہت	-14103
گرافی	-14104
▁فریش	-14105
▁ملائ	-14106
▁سکریٹری	-14107
▁حلیمہ	-14108
شیڈنگ	-14109
▁خطوں	-14110
▁فدا	-14111
▁چابی	-14112
▁کربلا	-14113
▁کرشنا	-14114
▁چلائیں	-14115
دھم	-14116
▁امریکیوں	-14117
یور	-14118
گئیں	-14119
▁تارا	-14120
▁ماتم	-14121
▁ڈبلن	-14122
▁قالین	-14123
کریں	-14124
▁مثر	-14125
▁۱۰۸	-14126
▁دیپک	-14127
▁ایمازون	-14128
▁راق	-14129
▁نیدرلینڈز	-14130
▁بانڈری	-14131
ثنا	-14132
▁سراپا	-14133
▁گوشہ	-14134
oun	-14135
▁تختہ	-14136
▁ہوبارٹ	-14137
▁زریعے	-14138
▁ذہنیت	-14139
▁ششانک	-14140
▁انکلوژ	-14141
▁لیٹی	-14142
▁گانٹھوں	-14143
▁آذ	-14144
▁شاہدہ	-14145
گیٹ	-14146
▁تھان	-14147
▁سپرہ	-14148
▁زرخیز	-14149
▁پچھاڑ	-14150
▁بدلنا	-14151
▁حدید	-14152
▁مجھے۔	-14153
▁پرپ	-14154
▁اسلح	-14155
▁مینشن	-14156
لوج	-14157
▁لاشاری	-14158
▁مردانہ	-14159
▁کارخانوں	-14160
▁قسمیں	-14161
ِک	-14162
▁جلن	-14163
▁یوسفزئی	-14164
وطہ	-14165
▁گزینوں	-14166
▁باگ	-14167
رر	-14168
▁لیوس	-14169
▁اٹھاتا	-14170
▁گزین	-14171
▁آپکا	-14172
▁لغت	-14173
▁نیول	-14174
▁سرطان	-14175
ندیپ	-14176
▁ہریتھک	-14177
▁کیرون	-14178
▁ٹوئیٹر	-14179
▁ستھر	-14180
پنگ	-14181
▁طاق	-14182
▁ٹریول	-14183
گلوکارہ	-14184
۳۶	-14185
۹۰	-14186
▁دھاڑ	-14187
وبائل	-14188
▁قبائل	-14189
▁روبوٹس	-14190
ویا	-14191
▁اضا	-14192
▁فوت	-14193
▁توسط	-14194
▁عینک	-14195
جمعہ	-14196
▁۹۰۰	-14197
چستان	-14198
▁کلف	-14199
▁معائ	-14200
دیکھ	-14201
▁ایپلیکیشن	-14202
▁ممنون	-14203
▁نبات	-14204
▁قدامت	-14205
▁گوارا	-14206
▁ٹکٹیں	-14207
▁ایجنسیاں	-14208
▁حذ	-14209
▁انوپ	-14210
▁لاتی	-14211
▁سائیٹ	-14212
▁رزاق	-14213
▁بچنا	-14214
▁نیتی	-14215
▁ہےقومی	-14216
▁مرکنٹائل	-14217
پنی	-14218
▁مشی	-14219
▁لیزر	-14220
▁نیلا	-14221
▁رسپانس	-14222
▁تجرباتی	-14223
اسکے	-14224
▁زمر	-14225
▁تھاک	-14226
▁دوگنا	-14227
▁عروسی	-14228
▁ایتھلیٹکس	-14229
▁مخط	-14230
ٹیلی	-14231
▁دیان	-14232
▁کھوسٹ	-14233
▁اکاد	-14234
▁کوٹھی	-14235
انڈا	-14236
▁بیوٹرز	-14237
▁تئیس	-14238
▁سیپ	-14239
▁قبلہ	-14240
▁انڈیکسپوائنٹس	-14241
عاد	-14242
آمد	-14243
▁ملزموں	-14244
▁کیمیکلز	-14245
▁غذائیت	-14246
▁کنج	-14247
▁مدافعت	-14248
▁اٹے	-14249
▁رکو	-14250
▁کرلوں	-14251
ریان	-14252
▁ونر	-14253
ڈیسک	-14254
▁چھوا	-14255
▁کنال	-14256
▁ستون	-14257
▁ابد	-14258
▁ٹرانسپ	-14259
▁مانو	-14260
▁آجائیں	-14261
▁جانچنے	-14262
▁فاون	-14263
▁بالاد	-14264
▁وٹس	-14265
▁عقیدہ	-14266
▁چیپ	-14267
▁جلنے	-14268
▁وننگ	-14269
▁دیتی۔	-14270
صاف	-14271
▁مکتبہ	-14272
▁اسٹوڈیوز	-14273
▁تانی	-14274
▁گیتا	-14275
▁مگن	-14276
▁نروس	-14277
▁لہریں	-14278
▁St	-14279
▁عون	-14280
▁غیاث	-14281
▁لاتعداد	-14282
▁ٹیکسیشن	-14283
فرق	-14284
▁اینڈرو	-14285
ریا	-14286
▁ڈوڈ	-14287
▁طبیب	-14288
▁انجینی	-14289
▁میموری	-14290
▁اپل	-14291
نکانہ	-14292
راتفری	-14293
▁انفو	-14294
▁محتسب	-14295
ھال	-14296
▁۱۰۱	-14297
▁متصل	-14298
یفے	-14299
▁برین	-14300
سرمایہ	-14301
▁دھارے	-14302
▁سکورر	-14303
▁قصبہ	-14304
▁مرنا	-14305
▁بھلائی	-14306
▁آغ	-14307
▁ہوجاتے	-14308
▁فے	-14309
▁حرکتوں	-14310
▁شکاگو	-14311
▁کانٹ	-14312
▁ویگاس	-14313
▁لگژری	-14314
▁بریگیڈیئر	-14315
▁انک	-14316
▁تدو	-14317
▁کھدائی	-14318
▁آلو	-14319
▁کمل	-14320
▁رزلٹ	-14321
▁ہڈیاں	-14322
کاروبار	-14323
▁بھجوائی	-14324
▁ملنگا	-14325
▁سوگوار	-14326
▁طلس	-14327
اسٹیٹ	-14328
▁کسٹمر	-14329
▁ڈرافٹنگ	-14330
▁کےمطابق	-14331
▁یں۔	-14332
▁ہربھجن	-14333
عباس	-14334
▁میسجنگ	-14335
▁ڈیکلیئر	-14336
▁پھو	-14337
▁نواسن	-14338
▁جمائے	-14339
▁سکولز	-14340
▁منائیں	-14341
▁مناتے	-14342
▁شکرگزار	-14343
▁ٹل	-14344
▁بنکوں	-14345
▁ربیع	-14346
▁ریحانہ	-14347
▁مشینیں	-14348
▁کشائی	-14349
▁چٹاگانگ	-14350
ثال	-14351
▁عاش	-14352
▁کچل	-14353
▁ملنی	-14354
▁ذلت	-14355
▁ساؤ	-14356
▁de	-14357
▁اوکے	-14358
▁ریکھا	-14359
۳۴	-14360
▁اُڑ	-14361
▁وراثت	-14362
▁عثمانیہ	-14363
▁تراش	-14364
▁اشاروں	-14365
▁ورزیوں	-14366
▁بڑھائیں	-14367
▁شطر	-14368
قیب	-14369
▁یادو	-14370
▁رائنا	-14371
▁منوانے	-14372
▁دواؤں	-14373
▁الحرام	-14374
▁فقرے	-14375
▁آگیا	-14376
▁سجائے	-14377
▁فریاد	-14378
▁سیلابی	-14379
▁مرگ	-14380
▁اعتمادی	-14381
▁چوکا	-14382
▁غروب	-14383
▁بھرو	-14384
وبکر	-14385
▁سینگ	-14386
▁اسٹون	-14387
▁فورنیا	-14388
▁۱۷۰	-14389
▁مارول	-14390
▁یب	-14391
▁نکہ	-14392
▁نبوت	-14393
▁ناری	-14394
▁مشک	-14395
ib	-14396
خوب	-14397
▁ڈکش	-14398
▁اسمان	-14399
▁قابلِ	-14400
عمال	-14401
▁ہراکر	-14402
دایتکار	-14403
ائزہ	-14404
▁جمیلہ	-14405
▁ہمار	-14406
▁بیانی	-14407
فف	-14408
کلچرل	-14409
تبی	-14410
▁شربت	-14411
▁وفاداری	-14412
▁کرنیوالی	-14413
▁مدعی	-14414
تیل	-14415
▁مشرفی	-14416
▁ہےاداکارہ	-14417
▁۱۱۵	-14418
▁اسپتالوں	-14419
▁الیکٹ	-14420
▁بندوں	-14421
▁دہلیز	-14422
▁ٹائٹلز	-14423
اضح	-14424
▁فلسفے	-14425
جھل	-14426
ممالک	-14427
▁لیٹا	-14428
▁بیکٹ	-14429
ایسوسی	-14430
▁رینگ	-14431
▁ڈومین	-14432
▁نعش	-14433
▁تکیہ	-14434
▁فروشی	-14435
▁ونود	-14436
▁لاٹھی	-14437
کیم	-14438
مئیء	-14439
▁ہےکہ	-14440
▁فریقی	-14441
▁امتنا	-14442
▁بینکس	-14443
▁معدوم	-14444
▁معینہ	-14445
▁خض	-14446
▁مہندر	-14447
▁نشیب	-14448
▁دُنیا	-14449
▁ہنڈرڈ	-14450
▁رائلز	-14451
ment	-14452
▁تالیہ	-14453
ولن	-14454
▁سموگ	-14455
▁لیڈیز	-14456
▁کیمسٹری	-14457
اوے	-14458
▁باسو	-14459
▁لاف	-14460
▁منوا	-14461
▁اسلحے	-14462
▁ریفائنری	-14463
▁ہےایک	-14464
▁بنائے۔	-14465
▁خدشے	-14466
▁ورثے	-14467
▁جسارت	-14468
▁چھوڑو	-14469
▁الرحمٰن	-14470
▁ردو	-14471
▁بران	-14472
▁ہرانے	-14473
▁ظر	-14474
▁مناف	-14475
▁قلمی	-14476
▁لٹری	-14477
▁لز	-14478
▁اہر	-14479
▁یہ۔	-14480
▁افراتفری	-14481
سبز	-14482
ھھھھ	-14483
▁اشراف	-14484
▁پورٹل	-14485
▁الحمراء	-14486
البتہ	-14487
▁عرشی	-14488
▁پریذیڈنٹ	-14489
▁ڈرائیورز	-14490
▁ایڈمنسٹریشن	-14491
▁مادر	-14492
▁امپورٹرز	-14493
▁مہا	-14494
یکیٹ	-14495
▁فریک	-14496
▁ڈیڈی	-14497
▁آسٹریلیا	-14498
▁داؤد	-14499
▁وحشی	-14500
▁گریڈیشن	-14501
▁موٹاپے	-14502
▁تلفظ	-14503
▁بتیس	-14504
▁نالی	-14505
▁دگنی	-14506
▁کچرا	-14507
▁فاکس	-14508
▁مشفیق	-14509
▁الوداعی	-14510
بابر	-14511
▁ڈکشٹ	-14512
ial	-14513
▁یہودیوں	-14514
▁عزیر	-14515
▁کشت	-14516
▁وقوعہ	-14517
▁مکیش	-14518
▁لوڈشیڈنگ	-14519
▁شعلہ	-14520
▁پڑھانے	-14521
▁ہلی	-14522
▁دوں۔	-14523
▁ردی	-14524
▁جگمگ	-14525
▁تنصیبات	-14526
روہ	-14527
اریونس	-14528
▁وائیڈ	-14529
▁چاقو	-14530
▁ندر	-14531
▁ہیںپی	-14532
اٹک	-14533
▁نیورسٹی	-14534
طیسی	-14535
ڈول	-14536
▁وادب	-14537
آئی	-14538
▁مصح	-14539
▁راقم	-14540
▁اجتناب	-14541
نما	-14542
▁برش	-14543
▁کےخلاف	-14544
▁اولمپیئن	-14545
ریٹر	-14546
▁فیور	-14547
▁ندرے	-14548
▁بھولا	-14549
▁حکمراں	-14550
▁سیکنڈری	-14551
روال	-14552
▁کھینچا	-14553
▁شاعرانہ	-14554
▁وصولیاں	-14555
▁رینز	-14556
▁گوبھی	-14557
▁برازر	-14558
▁پوز	-14559
▁ملایا	-14560
▁ٹرینوں	-14561
لاط	-14562
▁دبو	-14563
all	-14564
▁پریشنز	-14565
▁شاباش	-14566
▁یچ	-14567
وٹکس	-14568
ٹنگھم	-14569
▁کھنڈ	-14570
▁فلٹر	-14571
▁اپنوں	-14572
▁انڈر۱۹	-14573
▁بینگ	-14574
▁مارکل	-14575
▁بڈ	-14576
▁مسور	-14577
وپے	-14578
▁ڈوبنے	-14579
▁الانس	-14580
▁چاب	-14581
▁تلفی	-14582
▁گائوں	-14583
▁مشاعرے	-14584
دھوں	-14585
▁وہاڑی	-14586
▁لند	-14587
▁مدرسے	-14588
▁گرامی	-14589
▁خانزادہ	-14590
اول	-14591
صارفین	-14592
▁ننکانہ	-14593
▁کنزیومر	-14594
▁آئل	-14595
our	-14596
▁کھاتوں	-14597
▁ذیادہ	-14598
▁بارباڈوس	-14599
▁گلیم	-14600
▁اصناف	-14601
▁اسپیل	-14602
▁شگفتہ	-14603
▁ہتھیلی	-14604
▁پروپیگنڈا	-14605
راپی	-14606
▁دقی	-14607
▁بلائے	-14608
hou	-14609
▁بہنے	-14610
▁گذار	-14611
▁اوپری	-14612
▁انڈینز	-14613
▁انیسویں	-14614
▁الیکٹرون	-14615
اصف	-14616
▁شمشاد	-14617
ive	-14618
شکست	-14619
▁رکھے۔	-14620
فروخت	-14621
▁سکھا	-14622
پلس	-14623
ویارک	-14624
▁تانیہ	-14625
▁کولیس	-14626
ؤں	-14627
▁دانی	-14628
▁کیریب	-14629
▁کلنٹن	-14630
انٹ	-14631
▁وجد	-14632
▁گاوں	-14633
▁متواتر	-14634
قرار	-14635
▁اندرا	-14636
▁ماڈرن	-14637
▁قرب	-14638
▁مشاعرہ	-14639
▁ہیرانی	-14640
▁شیعہ	-14641
▁پینتالیس	-14642
▁کشادہ	-14643
اننگز	-14644
▁بختا	-14645
▁لڑنا	-14646
▁جھنڈا	-14647
▁کھینچی	-14648
▁مفر	-14649
▁پہیہ	-14650
▁تبصروں	-14651
▁صفات	-14652
▁لکھتی	-14653
▁پسینے	-14654
▁گااس	-14655
▁فاتحہ	-14656
▁ارتک	-14657
▁تفضل	-14658
▁پرسنل	-14659
▁جوناتھن	-14660
▁فرشتہ	-14661
▁دلبرداشتہ	-14662
▁پاتھ	-14663
▁غیرم	-14664
▁جھپک	-14665
مج	-14666
ang	-14667
ical	-14668
▁جبار	-14669
▁گاواضح	-14670
▁متوازی	-14671
▁فوز	-14672
▁دیاس	-14673
حفیظ	-14674
نڈو	-14675
▁جڑیں	-14676
▁زاویے	-14677
▁گئیاس	-14678
نائی	-14679
▁بشکریہ	-14680
▁ارتقاء	-14681
▁سسپ	-14682
▁جہت	-14683
▁بیزار	-14684
▁خاصیت	-14685
لوگ	-14686
ناصر	-14687
▁اقتصاد	-14688
بش	-14689
▁ریہرسل	-14690
▁قطرہ	-14691
▁آمنہ	-14692
▁شنیرا	-14693
▁کرپٹو	-14694
▁نوکریاں	-14695
▁بنت	-14696
▁انبار	-14697
▁پتنگ	-14698
▁فوجداری	-14699
▁مکعب	-14700
▁اپلیکشن	-14701
▁بکھی	-14702
▁مامور	-14703
▁ہائبرڈ	-14704
▁موذی	-14705
▁مارلن	-14706
▁منٹوں	-14707
لیئرز	-14708
▁ابھیشک	-14709
ain	-14710
جیو	-14711
سٹاک	-14712
▁بھار	-14713
▁ماہم	-14714
▁گیار	-14715
▁سیما	-14716
▁باران	-14717
▁گھیرے	-14718
▁صب	-14719
▁لس	-14720
▁طاہرہ	-14721
▁سپہ	-14722
▁مدید	-14723
▁ٹپس	-14724
▁پہننا	-14725
▁کنفیو	-14726
▁ملازمتیں	-14727
▁نڈر	-14728
▁پودا	-14729
▁الشان	-14730
▁ایشی	-14731
▁بنانی	-14732
▁ہےکمپنی	-14733
▁پھلی	-14734
▁مہیلا	-14735
▁تھکن	-14736
▁وآلہ	-14737
▁فرس	-14738
▁بنے۔	-14739
▁لیبل	-14740
▁باربی	-14741
▁مغفرت	-14742
▁معشوق	-14743
▁کاونٹی	-14744
▁چیئرپرسن	-14745
▁آٹے	-14746
▁رنزبنا	-14747
روزہ	-14748
ختر	-14749
▁رونی	-14750
▁محال	-14751
▁دھاگے	-14752
▁ابوبکر	-14753
▁پیاروں	-14754
▁سنجرانی	-14755
▁پولیٹ	-14756
▁منتظم	-14757
▁گرافر	-14758
▁رزق	-14759
▁کلہ	-14760
▁آؤٹ	-14761
▁دعاں	-14762
▁کرفیو	-14763
▁سرگوشی	-14764
▁ڈیفالٹ	-14765
▁فاونڈیشن	-14766
▁زہرا	-14767
▁شناس	-14768
▁.......	-14769
IS	-14770
▁عف	-14771
▁عابدہ	-14772
▁شمارہ	-14773
▁سمجھدار	-14774
▁قحط	-14775
▁خرد	-14776
▁سرہ	-14777
▁بیتی	-14778
یکشنسٹ	-14779
▁مسودے	-14780
غاثہ	-14781
▁عرفات	-14782
▁بیروزگاری	-14783
ure	-14784
▁سعی	-14785
▁مارٹ	-14786
▁ماندہ	-14787
▁ورسٹی	-14788
▁آزادانہ	-14789
جنل	-14790
▁مدیر	-14791
▁نیوک	-14792
▁کمپیوٹرز	-14793
قرنین	-14794
▁یونیفارم	-14795
▁بیشک	-14796
▁ورکر	-14797
▁فرینڈز	-14798
▁جنرز	-14799
▁دھیمی	-14800
▁فاؤنڈیشن	-14801
▁مٹر	-14802
OR	-14803
بنائے	-14804
▁ہواؤں	-14805
▁انمول	-14806
▁پاکیزہ	-14807
▁موافق	-14808
▁روبن	-14809
▁بالادستی	-14810
▁نازل	-14811
▁اوروہ	-14812
▁شبہات	-14813
▁خیمے	-14814
▁سنڈی	-14815
▁پلکیں	-14816
▁دسترس	-14817
▁پلاٹینم	-14818
۰۰۰	-14819
▁اسمبلیوں	-14820
جانب	-14821
▁برخلاف	-14822
▁مشرا	-14823
▁ہیپی	-14824
▁کہناتھا	-14825
▁اغواء	-14826
ئیفا	-14827
▁اصلاحی	-14828
▁انجینئرز	-14829
▁ٹھاک	-14830
▁سریز	-14831
▁ہٹائے	-14832
▁صحتیاب	-14833
▁ناخن	-14834
▁عراقی	-14835
▁مستانی	-14836
▁وکرم	-14837
لانٹ	-14838
▁راجیو	-14839
▁ریلے	-14840
▁معدے	-14841
▁سنتی	-14842
ڈیوڈ	-14843
▁کباب	-14844
▁کوئنٹن	-14845
▁سندھو	-14846
▁القادر	-14847
▁معیارات	-14848
علیم	-14849
▁مفصل	-14850
گیوں	-14851
۳۲	-14852
▁بجرنگی	-14853
فواد	-14854
▁چاہیئے۔	-14855
ill	-14856
▁بینائی	-14857
▁کیان	-14858
حاشی	-14859
▁الفور	-14860
دوار	-14861
▁جانا۔	-14862
▁المق	-14863
▁سمیرا	-14864
▁ڈیرے	-14865
▁چکوال	-14866
▁نوازالدین	-14867
۳۸	-14868
▁وہ۔	-14869
▁سنگی	-14870
▁اعتدال	-14871
▁لنگر	-14872
▁فرمائیں	-14873
▁ثبت	-14874
▁فیٹ	-14875
▁پھرنے	-14876
▁چوائس	-14877
▁پادری	-14878
▁بلوم	-14879
▁فارمولے	-14880
ary	-14881
▁بورڈپی	-14882
▁فلسفی	-14883
▁روتا	-14884
▁درآمد	-14885
▁پیڑ	-14886
▁تراشی	-14887
▁ریستوران	-14888
▁سکین	-14889
▁چارٹرڈ	-14890
▁مہات	-14891
▁تماشہ	-14892
▁ساونت	-14893
▁پریتی	-14894
▁سپیس	-14895
نوز	-14896
▁بھرمار	-14897
▁لکھنوی	-14898
▁ہےر	-14899
▁ریگولر	-14900
▁لقب	-14901
▁تبریز	-14902
▁عضو	-14903
رانداز	-14904
▁دھوکے	-14905
▁دھماکا	-14906
▁بھت	-14907
▁القاعدہ	-14908
▁قہقہے	-14909
جونء	-14910
▁جھلس	-14911
▁نوبیل	-14912
َب	-14913
▁ڈربی	-14914
▁مرج	-14915
▁شطرنج	-14916
▁پرستوں	-14917
▁ہےدونوں	-14918
▁مائنڈ	-14919
▁ڈالرکی	-14920
جیٹ	-14921
▁محس	-14922
▁رہنمائوں	-14923
▁تم۔	-14924
▁کیمبر	-14925
ئت	-14926
▁سنز	-14927
▁جنگوں	-14928
درخواست	-14929
▁تعد	-14930
▁کیاب	-14931
▁شایان	-14932
▁اکادمی	-14933
▁برفانی	-14934
▁تمغوں	-14935
▁تھاکہ	-14936
▁چولہ	-14937
▁by	-14938
وتری	-14939
▁دھات	-14940
اسٹار	-14941
▁نہا	-14942
دلچسپ	-14943
▁رویندرا	-14944
▁ناخوشگوار	-14945
▁بھیگی	-14946
▁گیفلم	-14947
▁مشاہدے	-14948
▁ریپبل	-14949
▁بازاری	-14950
▁ہیںذرائع	-14951
▁مقا	-14952
▁چندہ	-14953
▁خوردہ	-14954
▁نگہداشت	-14955
▁بلیوز	-14956
▁ڑی	-14957
▁پھنسا	-14958
▁اوجھل	-14959
▁موسیق	-14960
▁پہنچائے	-14961
▁بزدل	-14962
▁نپ	-14963
▁گروور	-14964
اتب	-14965
▁جناز	-14966
▁اسٹمپ	-14967
▁اکٹھی	-14968
▁صفی	-14969
برطانیہ	-14970
ویٰ	-14971
▁سمندروں	-14972
عالم	-14973
▁مبر	-14974
سعودی	-14975
ونیشور	-14976
▁روپوں	-14977
▁پرفیکٹ	-14978
ولیا	-14979
▁طبعیت	-14980
▁تت	-14981
▁عنقریب	-14982
روا	-14983
▁تارے	-14984
▁ہیوز	-14985
▁سیونگ	-14986
▁سمندریہ	-14987
▁اڑی	-14988
▁بنوا	-14989
▁صحابہ	-14990
▁کاز	-14991
▁نوین	-14992
▁کلدیپ	-14993
▁کات	-14994
▁خلجی	-14995
▁انتھک	-14996
▁صی	-14997
▁برد	-14998
▁عقب	-14999
فیٹ	-15000
▁۱۱۸	-15001
تے۔	-15002
▁مچھلیوں	-15003
▁انفرااسٹرکچر	-15004
حے	-15005
معاش	-15006
▁انجکشن	-15007
▁حلیم	-15008
▁نگا	-15009
▁اسکریننگ	-15010
۵۶	-15011
news	-15012
ریتی	-15013
▁بولوں	-15014
▁موڈیز	-15015
▁ایموجی	-15016
▁گمشدگی	-15017
منگل	-15018
▁کھیپ	-15019
▁اکیڈمیز	-15020
وئلز	-15021
▁کولا	-15022
▁فضاء	-15023
▁سبکدوش	-15024
عوں	-15025
▁مدعا	-15026
▁چارلی	-15027
▁جاد	-15028
▁جائلز	-15029
▁بیکٹیریا	-15030
بورڈ	-15031
▁جاہل	-15032
▁لٹل	-15033
جولائیء	-15034
غار	-15035
▁تدوین	-15036
▁روحان	-15037
▁بازیابی	-15038
▁قامت	-15039
▁عزتی	-15040
▁چندیمل	-15041
▁استغاثہ	-15042
▁جیتیں	-15043
مینی	-15044
▁سیہ	-15045
▁روئٹرز	-15046
یکشنز	-15047
▁انٹیلیجنس	-15048
▁پائی۔	-15049
▁مستثنی	-15050
▁۱۲۴	-15051
▁چٹانوں	-15052
بالا	-15053
▁چوس	-15054
▁زرین	-15055
اعتماد	-15056
اوپن	-15057
▁لگام	-15058
▁عطیات	-15059
▁لڑا	-15060
مش	-15061
ort	-15062
▁بکا	-15063
▁میلز	-15064
عور	-15065
▁فریز	-15066
▁کھادوں	-15067
▁گیک	-15068
▁صباح	-15069
▁ہونڈا	-15070
▁کث	-15071
▁گہرائیوں	-15072
▁حلو	-15073
▁رونقیں	-15074
▁مانگتا	-15075
▁خص	-15076
▁گارمنٹس	-15077
حضرت	-15078
ith	-15079
جارت	-15080
▁توڑتے	-15081
▁ڈیویلپمنٹ	-15082
▁موق	-15083
▁لغاری	-15084
▁دگی	-15085
▁دیہاتی	-15086
▁طلبی	-15087
▁چارس	-15088
وتا	-15089
▁آتی	-15090
▁موجو	-15091
▁لکش	-15092
▁ملبہ	-15093
▁گاڈ	-15094
▁مجن	-15095
▁سکوائش	-15096
▁الجز	-15097
▁ویری	-15098
شمن	-15099
▁مجتبی	-15100
قابل	-15101
▁غوث	-15102
▁دھوئیں	-15103
گیسو	-15104
▁آنی	-15105
▁وقع	-15106
▁اصطلاحات	-15107
▁فریج	-15108
▁ہرے	-15109
▁انند	-15110
▁ویلکم	-15111
▁سپرنٹنڈنٹ	-15112
▁ارتھ	-15113
▁بارہا	-15114
▁ملزمہ	-15115
▁ناگپور	-15116
▁تنے	-15117
▁کمشنرز	-15118
▁ڈگر	-15119
ٹوئٹر	-15120
▁گاگا	-15121
▁رومال	-15122
▁بربادی	-15123
▁محد	-15124
▁ہینری	-15125
▁بپاشی	-15126
سیب	-15127
▁رفع	-15128
▁اٹھی۔	-15129
اگستء	-15130
▁آتا	-15131
▁کرینگی	-15132
▁شاہنواز	-15133
▁چلڈ	-15134
▁غیرمع	-15135
▁آراستہ	-15136
▁کورے	-15137
▁راکیش	-15138
▁پراڈکٹ	-15139
▁سوئفٹ	-15140
▁چھڑی	-15141
▁مویشیوں	-15142
▁کھیلنی	-15143
▁مسکرایا۔	-15144
▁سق	-15145
جیریا	-15146
▁میںء	-15147
▁حماقت	-15148
▁سلائی	-15149
▁بازیاب	-15150
▁تعمیری	-15151
▁چوکیدار	-15152
ائچ	-15153
فیڈرل	-15154
▁پونچھ	-15155
▁چھری	-15156
یکن	-15157
▁پٹیشن	-15158
▁وردھنے	-15159
▁معمولات	-15160
▁ٹرافیاں	-15161
▁ڈربن	-15162
▁کارناموں	-15163
▁از۔	-15164
▁حقیق	-15165
▁سمال	-15166
▁شباب	-15167
عیہ	-15168
▁خستہ	-15169
▁اکتفا	-15170
▁پریمیر	-15171
▁خوبیاں	-15172
حاب	-15173
▁دلوانے	-15174
▁گوم	-15175
▁جہیز	-15176
▁ناڈو	-15177
▁دوہرا	-15178
گوش	-15179
▁لڑیں	-15180
▁کوپر	-15181
▁کچرے	-15182
نڈل	-15183
خوار	-15184
▁جود	-15185
لوڈ	-15186
▁سلپ	-15187
▁رواد	-15188
▁بچھا	-15189
▁بارشیں	-15190
▁گےواضح	-15191
▁سانڈ	-15192
▁۱۰۷	-15193
▁دیکھائی	-15194
▁ڈیموکریٹک	-15195
pt	-15196
ناتھ	-15197
ٹریل	-15198
▁ٹرکوں	-15199
▁اعلانیہ	-15200
▁یشن	-15201
▁میراتھن	-15202
▁چھاڑ	-15203
▁پھیلائی	-15204
وڈنٹس	-15205
▁رائفل	-15206
▁منافی	-15207
▁رئیلٹی	-15208
▁کالجوں	-15209
▁شیروانی	-15210
act	-15211
▁چپک	-15212
▁فحاشی	-15213
▁لانچنگ	-15214
حاصل	-15215
▁دھرن	-15216
▁الودگی	-15217
▁ہلایا۔	-15218
▁فٹبالرز	-15219
▁وعدوں	-15220
▁اجیت	-15221
▁مقناطیسی	-15222
یہی	-15223
▁نعروں	-15224
▁سائمن	-15225
▁سوں	-15226
▁کاسٹنگ	-15227
▁منیش	-15228
▁گیانا	-15229
▁پیشن	-15230
▁ملائکہ	-15231
▁لئی	-15232
ڈرامے	-15233
▁لسانیات	-15234
▁سیاہی	-15235
▁سوشانت	-15236
▁گھرانوں	-15237
▁بیوروکری	-15238
▁ٹف	-15239
▁بڑھاپے	-15240
▁متنبہ	-15241
▁مکا	-15242
▁ہوشر	-15243
دنی	-15244
▁گیپاکستان	-15245
▁کدو	-15246
▁مادام	-15247
▁مصدقہ	-15248
▁بروکرز	-15249
▁میش	-15250
▁والا۔	-15251
▁نثری	-15252
▁فادر	-15253
▁چندرن	-15254
▁جزاک	-15255
▁وارثی	-15256
▁۱۰۳	-15257
▁زائرہ	-15258
جلد	-15259
اریر	-15260
▁پیٹا	-15261
اروس	-15262
▁شعوری	-15263
▁قطری	-15264
▁یادر	-15265
▁محاصل	-15266
▁دقت	-15267
▁بھیجتے	-15268
▁نکالیں	-15269
صار	-15270
راحت	-15271
▁ذرہ	-15272
ارڈو	-15273
[]	-15274
▁انجریز	-15275
▁معائنے	-15276
▁بغل	-15277
▁موہالی	-15278
▁دیپکا	-15279
▁فریحہ	-15280
ملز	-15281
▁چان	-15282
▁جنیرو	-15283
▁ازلان	-15284
▁مخواہ	-15285
▁دلیر	-15286
دیو	-15287
▁اردوزبان	-15288
ec	-15289
وجن	-15290
▁ثریا	-15291
▁مندوں	-15292
▁کفر	-15293
▁الناس	-15294
▁الحاق	-15295
▁نالے	-15296
▁اٹھیں	-15297
▁آپریشنز	-15298
▁کمبل	-15299
▁مفاہمتی	-15300
▁بسکٹ	-15301
▁آوارہ	-15302
▁آخر	-15303
▁اکلینڈ	-15304
▁پوویلین	-15305
▁con	-15306
▁امبر	-15307
▁لیجیے	-15308
▁ڈومینی	-15309
▁کرتار	-15310
▁عدل	-15311
▁کنڈکٹ	-15312
▁رائیگاں	-15313
کرس	-15314
▁تایا	-15315
▁راہل	-15316
▁اجداد	-15317
▁فوزیہ	-15318
▁عذرا	-15319
▁ہینگ	-15320
▁کٹا	-15321
▁گفٹ	-15322
▁ڈیلیوری	-15323
▁ٹرے	-15324
▁آرڈیننس	-15325
▁اڑاتے	-15326
▁خونی	-15327
▁قز	-15328
▁کیبن	-15329
▁زباں	-15330
▁ہےئی	-15331
▁میرزا	-15332
▁ٹیلیفون	-15333
▁دستبرداری	-15334
▁خدو	-15335
▁الرشید	-15336
▁دیوالی	-15337
▁چھپائے	-15338
▁تھامزید	-15339
خور	-15340
▁صدقے	-15341
▁المعروف	-15342
▁بندھی	-15343
▁مسلمہ	-15344
▁معالج	-15345
کمار	-15346
▁بنارس	-15347
▁سفاک	-15348
▁بھولی	-15349
▁پریمئیر	-15350
▁تبو	-15351
▁صوتی	-15352
نجو	-15353
▁ہرج	-15354
▁لاہوری	-15355
واردو	-15356
▁روبی	-15357
▁لرننگ	-15358
▁پوچھی	-15359
▁ہےتفصیلات	-15360
باقی	-15361
▁میو	-15362
▁اورنج	-15363
▁چھایا	-15364
ئوں	-15365
▁کھچ	-15366
مختلف	-15367
▁الیکٹرانکس	-15368
▁پاش	-15369
▁پکے	-15370
▁خانق	-15371
▁متحمل	-15372
▁پوا	-15373
▁نتیج	-15374
▁کمیونی	-15375
▁سنہرے	-15376
▁گالوں	-15377
آباد	-15378
▁کران	-15379
▁روپی	-15380
▁ابہام	-15381
▁کلبز	-15382
راع	-15383
▁بذات	-15384
▁لورین	-15385
▁سےروپے	-15386
▁علامتی	-15387
▁باون	-15388
امنی	-15389
▁وینٹی	-15390
▁ابوظبی	-15391
▁کفالت	-15392
پہنچ	-15393
▁پروسیسنگ	-15394
▁بشارت	-15395
▁باغبان	-15396
▁لائنوں	-15397
▁نمونوں	-15398
چوت	-15399
▁وارز	-15400
▁پوچھو	-15401
▁تلخی	-15402
▁کھولتے	-15403
▁پیدائشی	-15404
ver	-15405
▁مہتاب	-15406
▁دارم	-15407
▁بوائی	-15408
▁شالیمار	-15409
یوارڈ	-15410
ائیر	-15411
▁عمد	-15412
▁قہر	-15413
▁سٹیشنز	-15414
▁منہا	-15415
پیئر	-15416
▁پوٹا	-15417
▁گریگ	-15418
▁قازقستان	-15419
▁اسٹال	-15420
▁تبلیغ	-15421
۵۹	-15422
▁ہےف	-15423
▁بڑھا۔	-15424
مولی	-15425
▁ماج	-15426
▁کلے	-15427
▁گلد	-15428
▁ایمل	-15429
▁بھیگ	-15430
▁کیااس	-15431
عیل	-15432
▁لوئر	-15433
▁دورئہ	-15434
▁برآمدے	-15435
▁گمن	-15436
▁کورڈ	-15437
▁النساء	-15438
▁الیسٹر	-15439
▁جانم	-15440
▁جھونپ	-15441
▁اسکوائر	-15442
▁داشت	-15443
▁شرارتی	-15444
پٹل	-15445
واٹس	-15446
لوجی	-15447
▁پیزا	-15448
▁پائے۔	-15449
▁بنوانے	-15450
▁انشائیہ	-15451
▁خوردونوش	-15452
▁ایشا	-15453
▁غارت	-15454
www	-15455
▁دلدل	-15456
نکس	-15457
▁اوپو	-15458
▁مصوری	-15459
▁شاستری	-15460
▁ازسر	-15461
▁خبری	-15462
▁کھلیں	-15463
▁اکھٹا	-15464
▁بھونک	-15465
▁باغیوں	-15466
▁شارک	-15467
▁پگھل	-15468
▁بھرتے	-15469
▁ہنوز	-15470
▁سٹارٹ	-15471
▁جوب	-15472
▁حریت	-15473
▁فتنہ	-15474
▁ناٹنگھم	-15475
وبیا	-15476
▁مسکن	-15477
▁گھوش	-15478
▁ماربل	-15479
▁منزلہ	-15480
▁الدولہ	-15481
▁وریندر	-15482
ثق	-15483
▁یکن	-15484
▁رعایتی	-15485
واوے	-15486
▁رونکی	-15487
▁بیانیے	-15488
▁وقتا	-15489
▁نواح	-15490
▁گیسٹ	-15491
▁محنتی	-15492
▁ٹورنٹو	-15493
▁کھیلتی	-15494
▁پتر	-15495
▁پٹائی	-15496
▁اشرافیہ	-15497
▁اسیر	-15498
▁سرخیوں	-15499
▁ہےجو	-15500
▁جامعات	-15501
▁مکسڈ	-15502
▁ایکٹو	-15503
ؤ۔	-15504
پٹن	-15505
▁قیر	-15506
▁کارل	-15507
▁قدروں	-15508
▁فیملیز	-15509
▁رفاقت	-15510
▁سرورق	-15511
▁بلٹ	-15512
▁کائل	-15513
ادگی	-15514
▁دلف	-15515
▁یکدم	-15516
▁ٹینڈر	-15517
▁ثانوی	-15518
▁گینگسٹر	-15519
hi	-15520
▁بلاس	-15521
▁اکثریتی	-15522
▁جورڈن	-15523
▁سواروں	-15524
▁مائن	-15525
حور	-15526
۷۵	-15527
▁بکری	-15528
▁سمیٹنے	-15529
مرک	-15530
سمیت	-15531
▁سرجن	-15532
▁چھلک	-15533
▁بھاگے	-15534
▁صادقہ	-15535
▁مارتا	-15536
▁جوفرا	-15537
▁واٹمور	-15538
لّ	-15539
خالد	-15540
صادی	-15541
▁پتلا	-15542
DB	-15543
▁روبینہ	-15544
▁کیفیات	-15545
خوں	-15546
ڈونا	-15547
▁عبدالغ	-15548
▁ہیںج	-15549
▁مستفیض	-15550
▁کرانا	-15551
▁سیوریج	-15552
بیٹنگ	-15553
▁لیزا	-15554
▁برتاؤ	-15555
▁سومرو	-15556
فرٹ	-15557
▁سویرا	-15558
▁سیٹوں	-15559
وائرس	-15560
▁مترجم	-15561
▁ایڈمنسٹریٹر	-15562
زین	-15563
▁خودمخت	-15564
▁شیطانی	-15565
▁ہےن	-15566
▁یادگاری	-15567
▁متاع	-15568
مرتبہ	-15569
▁حکو	-15570
▁پیل	-15571
▁لیدر	-15572
▁واضع	-15573
▁چاولہ	-15574
▁اپنانا	-15575
▁تھاپ	-15576
▁چڑھائی	-15577
▁کھینچنے	-15578
▁پالک	-15579
▁کیاک	-15580
ضحیک	-15581
▁سوامی	-15582
ارنگ	-15583
▁تھنک	-15584
▁بپاشا	-15585
▁تھییہ	-15586
▁زونگ	-15587
▁فوربز	-15588
▁کنوین	-15589
دمی	-15590
قیقت	-15591
▁خشکی	-15592
▁میوہ	-15593
▁گھنا	-15594
▁اقلیتی	-15595
▁اپریشنز	-15596
▁اشوک	-15597
▁کچہری	-15598
▁فلکس	-15599
▁ظریف	-15600
انوالہ	-15601
▁آٹھ	-15602
▁طیبہ	-15603
▁ہنڈا	-15604
▁پراسی	-15605
▁رانڈرز	-15606
▁بنگش	-15607
▁ننگے	-15608
▁گریبان	-15609
▁ڈسپلنری	-15610
▁رباب	-15611
▁تیلگو	-15612
▁روکتے	-15613
▁کھولیں	-15614
▁فیکچر	-15615
▁کھوئی	-15616
▁بتادیا	-15617
▁تحریکِ	-15618
کمیٹی	-15619
▁مشتری	-15620
فین	-15621
▁عربوں	-15622
اگہ	-15623
▁بساط	-15624
بیحہ	-15625
▁تیور	-15626
شمت	-15627
▁بوند	-15628
▁ڈالتی	-15629
خم	-15630
▁ڈویلپ	-15631
▁بیجوں	-15632
▁تقاریب	-15633
▁دانستہ	-15634
▁سسک	-15635
ھڑ	-15636
بذب	-15637
▁ئیں۔	-15638
▁کمسن	-15639
▁معیشتوں	-15640
وح	-15641
َیْ	-15642
▁خلیوں	-15643
▁کلیات	-15644
▁موٹو	-15645
▁مَ	-15646
ویئر	-15647
▁مسمار	-15648
▁سرب	-15649
▁پات	-15650
▁گڑھے	-15651
▁جمانے	-15652
▁فریکچر	-15653
▁المی	-15654
▁چناں	-15655
▁انکھیں	-15656
▁معجز	-15657
▁نالہ	-15658
▁سکینڈ	-15659
▁والٹن	-15660
▁کھونے	-15661
▁as	-15662
▁شٹر	-15663
رفورس	-15664
▁ڈیلر	-15665
▁پھاٹک	-15666
▁شاہراہوں	-15667
▁کوئنز	-15668
▁ہچکچاہٹ	-15669
▁بیالیس	-15670
▁ساتھمپٹن	-15671
▁عشرے	-15672
ستہائے	-15673
▁معن	-15674
▁ادبکا	-15675
▁پرفیکشنسٹ	-15676
لطان	-15677
▁ضعی	-15678
۳۹	-15679
▁معدہ	-15680
▁پاوں	-15681
عارف	-15682
قابلہ	-15683
اظہار	-15684
▁آگاہ	-15685
▁یلو	-15686
▁میکرز	-15687
▁رضاکارانہ	-15688
▁وینز	-15689
▁بِ	-15690
▁عاری	-15691
▁بیچارے	-15692
▁چارجر	-15693
▁تضحیک	-15694
▁پروڈکٹس	-15695
hau	-15696
▁مٹا	-15697
▁پہلوانوں	-15698
بلے	-15699
وٹر	-15700
فاظت	-15701
▁لیبیا	-15702
▁یحییٰ	-15703
▁کیمبرج	-15704
▁کردوں	-15705
▁۱۱۹	-15706
▁راؤنڈ	-15707
▁زہریلی	-15708
▁کموڈٹی	-15709
▁گنت	-15710
▁برآ	-15711
▁بخشا	-15712
▁چیری	-15713
▁مخر	-15714
▁گیپ	-15715
▁۱۳۵	-15716
▁بنکاک	-15717
▁ٹھکرا	-15718
▁ٹینشن	-15719
▁پہلوں	-15720
بریت	-15721
▁بھتہ	-15722
▁ٹیپو	-15723
▁کوٹھ	-15724
▁دوڑنے	-15725
▁العزیز	-15726
▁شپنگ	-15727
▁الش	-15728
▁کند	-15729
▁یوئیفا	-15730
مور	-15731
▁رکھی۔	-15732
▁قصیدہ	-15733
نہوں	-15734
▁۱۱۲	-15735
▁نیئر	-15736
▁ملائیشین	-15737
▁پنلٹی	-15738
▁جہانزیب	-15739
▁پالا	-15740
▁تعریفیں	-15741
▁سپرہٹ	-15742
▁چونتیس	-15743
▁ادی	-15744
▁ہےد	-15745
▁تعزی	-15746
▁ابھار	-15747
▁نارنگ	-15748
▁تینتیس	-15749
کیشنز	-15750
▁ترکمان	-15751
▁مشاہدات	-15752
▁نڈھال	-15753
▁ہوسکی	-15754
▁بالواسطہ	-15755
▁ٹوائلٹ	-15756
▁۱۳۲	-15757
کامرس	-15758
▁جوبلی	-15759
ْم	-15760
▁زنگ	-15761
▁مکھن	-15762
ائنی	-15763
الٹی	-15764
▁تاپ	-15765
▁ازمائش	-15766
▁شاذ	-15767
ستاں	-15768
▁عکاس	-15769
وڈز	-15770
▁کلمات	-15771
▁نسب	-15772
▁کردا	-15773
▁سازشوں	-15774
▁ایلو	-15775
▁انٹرپر	-15776
لیب	-15777
▁طلسم	-15778
▁ہوںگے	-15779
▁انصار	-15780
▁دلانا	-15781
▁۱۱۶	-15782
▁ارگنائزیشن	-15783
▁جودھ	-15784
▁مفلوج	-15785
▁ہوشربا	-15786
▁تاجکستان	-15787
▁گیایہ	-15788
▁مذاکر	-15789
کنر	-15790
▁صدام	-15791
▁دلفریب	-15792
▁زما	-15793
▁سپرو	-15794
▁والو	-15795
▁بادام	-15796
اگلے	-15797
▁چغت	-15798
▁تذبذب	-15799
مٹ	-15800
▁خطبہ	-15801
▁نوعمر	-15802
الڈ	-15803
کھٹ	-15804
▁یونیورسل	-15805
صنعت	-15806
کیشنل	-15807
▁دوڑا	-15808
▁ولایت	-15809
▁درجات	-15810
▁وظیفہ	-15811
▁بیٹھتا	-15812
گیم	-15813
شائقین	-15814
▁چیلنجرز	-15815
وڈا	-15816
پووا	-15817
▁سکڑ	-15818
▁نارک	-15819
ؤنٹر	-15820
▁ایجادات	-15821
▁ریاستہائے	-15822
▁نائیجیریا	-15823
▁اسکائی	-15824
▁بیٹھا۔	-15825
▁دکھاتی	-15826
دیں	-15827
▁کراچیس	-15828
▁ارز	-15829
▁انح	-15830
▁فیلو	-15831
▁معج	-15832
▁لیسٹر	-15833
▁پیکنگ	-15834
▁بارودی	-15835
▁دہرایا	-15836
▁التجا	-15837
▁سویلین	-15838
انسہ	-15839
▁بونس	-15840
▁پبلی	-15841
نش	-15842
▁ابھری	-15843
▁ٹھیکی	-15844
وکا	-15845
▁چھپائی	-15846
▁خوشن	-15847
▁لنکس	-15848
▁لبریز	-15849
▁چلڈرن	-15850
۰۲	-15851
داس	-15852
ورفت	-15853
▁اوڈ	-15854
▁بیگز	-15855
▁گٹار	-15856
▁اسناد	-15857
▁کمزوریوں	-15858
؟؟؟	-15859
▁قران	-15860
▁پراک	-15861
۴۸	-15862
▁۱۱۷	-15863
▁نبھاتے	-15864
▁معاویہ	-15865
عماد	-15866
pp	-15867
▁یکھ	-15868
▁شمشیر	-15869
▁مذکور	-15870
▁دوربین	-15871
▁مستعد	-15872
▁اماراتی	-15873
بلیو	-15874
▁فرنینڈو	-15875
▁بھارتیہ	-15876
▁ہجر	-15877
▁ٹویوٹا	-15878
▁دہلیاردو	-15879
▁افروز	-15880
▁گوشے	-15881
▁سوڈان	-15882
▁نبض	-15883
▁مہرین	-15884
▁بیداری	-15885
▁اکہ	-15886
▁پرندہ	-15887
▁میٹنگز	-15888
▁اٹا	-15889
▁کرٹ	-15890
▁شائق	-15891
▁اڑتالیس	-15892
▁چرچا	-15893
▁مکتوب	-15894
▁مراسلہ	-15895
▁جذبوں	-15896
▁مرثیہ	-15897
ہِ	-15898
▁تاوان	-15899
▁ہیںاداکارہ	-15900
امکس	-15901
▁نابینا	-15902
▁ذبح	-15903
▁سواتی	-15904
▁وقاریونس	-15905
شاع	-15906
ولوں	-15907
▁نقط	-15908
▁فرشتے	-15909
▁سیکھیں	-15910
▁وزارتِ	-15911
امام	-15912
▁تغ	-15913
▁مخلوط	-15914
▁دھک	-15915
khou	-15916
نیو	-15917
Khau	-15918
ائشہ	-15919
▁یکی	-15920
▁برگر	-15921
▁رینی	-15922
▁کمیٹیاں	-15923
▁بہتی	-15924
▁کرسٹین	-15925
▁فضیل	-15926
▁پربھ	-15927
ستمبرء	-15928
▁تسخیر	-15929
▁سنیچر	-15930
▁گواہان	-15931
▁اٹھاتی	-15932
▁جتو	-15933
حکوم	-15934
▁یوگا	-15935
▁شاخیں	-15936
▁میامی	-15937
▁نگی	-15938
▁کینڈی	-15939
▁Al	-15940
▁روغن	-15941
▁ہریا	-15942
▁انشاءاللہ	-15943
▁تپش	-15944
▁بریٹ	-15945
▁فراق	-15946
▁جھونک	-15947
▁باڑی	-15948
▁ابپاشی	-15949
▁اعصابی	-15950
▁ہائیڈروجن	-15951
▁وصال	-15952
▁کاکہنا	-15953
▁بورس	-15954
▁مسلک	-15955
▁ہیںجس	-15956
▁سالم	-15957
▁نیست	-15958
▁افشاں	-15959
▁سرائے	-15960
▁تابع	-15961
▁تقاریر	-15962
▁گلستان	-15963
▁بیمہ	-15964
▁ہنسا	-15965
▁جنازے	-15966
▁سنیم	-15967
▁ایلسٹر	-15968
▁رولنگ	-15969
▁لاپرو	-15970
▁قے	-15971
▁مصلحت	-15972
▁گریجویشن	-15973
▁کرگئے	-15974
▁چکنا	-15975
▁سپیل	-15976
▁کڈ	-15977
ٹہ	-15978
age	-15979
بڑا	-15980
▁ورم	-15981
▁بچائے	-15982
▁یلغار	-15983
▁ارائیں	-15984
▁نجمہ	-15985
▁مندوب	-15986
▁مسکرائی	-15987
▁ایڈوائزر	-15988
رہو	-15989
ازمین	-15990
▁آچکا	-15991
▁ڈپلو	-15992
▁خوروں	-15993
▁تنوشری	-15994
ختم	-15995
▁کاشان	-15996
▁انوپم	-15997
صح	-15998
الک	-15999
پیئنز	-16000
▁ریموٹ	-16001
▁سٹوری	-16002
▁امبانی	-16003
▁برفباری	-16004
ونیوز	-16005
▁جائیے	-16006
▁چپل	-16007
▁سیٹنگز	-16008
▁زوردار	-16009
▁کنگسٹن	-16010
▁کھلنا	-16011
▁قلمبند	-16012
▁چغتائی	-16013
احب	-16014
▁ٹھر	-16015
▁حدیں	-16016
▁ہولناک	-16017
ویک	-16018
▁آزما	-16019
[...]
