<unk>	0
<s>	0
</s>	0
<0x00>	0
<0x01>	0
<0x02>	0
<0x03>	0
<0x04>	0
<0x05>	0
<0x06>	0
<0x07>	0
<0x08>	0
<0x09>	0
<0x0A>	0
<0x0B>	0
<0x0C>	0
<0x0D>	0
<0x0E>	0
<0x0F>	0
<0x10>	0
<0x11>	0
<0x12>	0
<0x13>	0
<0x14>	0
<0x15>	0
<0x16>	0
<0x17>	0
<0x18>	0
<0x19>	0
<0x1A>	0
<0x1B>	0
<0x1C>	0
<0x1D>	0
<0x1E>	0
<0x1F>	0
<0x20>	0
<0x21>	0
<0x22>	0
<0x23>	0
<0x24>	0
<0x25>	0
<0x26>	0
<0x27>	0
<0x28>	0
<0x29>	0
<0x2A>	0
<0x2B>	0
<0x2C>	0
<0x2D>	0
<0x2E>	0
<0x2F>	0
<0x30>	0
<0x31>	0
<0x32>	0
<0x33>	0
<0x34>	0
<0x35>	0
<0x36>	0
<0x37>	0
<0x38>	0
<0x39>	0
<0x3A>	0
<0x3B>	0
<0x3C>	0
<0x3D>	0
<0x3E>	0
<0x3F>	0
<0x40>	0
<0x41>	0
<0x42>	0
<0x43>	0
<0x44>	0
<0x45>	0
<0x46>	0
<0x47>	0
<0x48>	0
<0x49>	0
<0x4A>	0
<0x4B>	0
<0x4C>	0
<0x4D>	0
<0x4E>	0
<0x4F>	0
<0x50>	0
<0x51>	0
<0x52>	0
<0x53>	0
<0x54>	0
<0x55>	0
<0x56>	0
<0x57>	0
<0x58>	0
<0x59>	0
<0x5A>	0
<0x5B>	0
<0x5C>	0
<0x5D>	0
<0x5E>	0
<0x5F>	0
<0x60>	0
<0x61>	0
<0x62>	0
<0x63>	0
<0x64>	0
<0x65>	0
<0x66>	0
<0x67>	0
<0x68>	0
<0x69>	0
<0x6A>	0
<0x6B>	0
<0x6C>	0
<0x6D>	0
<0x6E>	0
<0x6F>	0
<0x70>	0
<0x71>	0
<0x72>	0
<0x73>	0
<0x74>	0
<0x75>	0
<0x76>	0
<0x77>	0
<0x78>	0
<0x79>	0
<0x7A>	0
<0x7B>	0
<0x7C>	0
<0x7D>	0
<0x7E>	0
<0x7F>	0
<0x80>	0
<0x81>	0
<0x82>	0
<0x83>	0
<0x84>	0
<0x85>	0
<0x86>	0
<0x87>	0
<0x88>	0
<0x89>	0
<0x8A>	0
<0x8B>	0
<0x8C>	0
<0x8D>	0
<0x8E>	0
<0x8F>	0
<0x90>	0
<0x91>	0
<0x92>	0
<0x93>	0
<0x94>	0
<0x95>	0
<0x96>	0
<0x97>	0
<0x98>	0
<0x99>	0
<0x9A>	0
<0x9B>	0
<0x9C>	0
<0x9D>	0
<0x9E>	0
<0x9F>	0
<0xA0>	0
<0xA1>	0
<0xA2>	0
<0xA3>	0
<0xA4>	0
<0xA5>	0
<0xA6>	0
<0xA7>	0
<0xA8>	0
<0xA9>	0
<0xAA>	0
<0xAB>	0
<0xAC>	0
<0xAD>	0
<0xAE>	0
<0xAF>	0
<0xB0>	0
<0xB1>	0
<0xB2>	0
<0xB3>	0
<0xB4>	0
<0xB5>	0
<0xB6>	0
<0xB7>	0
<0xB8>	0
<0xB9>	0
<0xBA>	0
<0xBB>	0
<0xBC>	0
<0xBD>	0
<0xBE>	0
<0xBF>	0
<0xC0>	0
<0xC1>	0
<0xC2>	0
<0xC3>	0
<0xC4>	0
<0xC5>	0
<0xC6>	0
<0xC7>	0
<0xC8>	0
<0xC9>	0
<0xCA>	0
<0xCB>	0
<0xCC>	0
<0xCD>	0
<0xCE>	0
<0xCF>	0
<0xD0>	0
<0xD1>	0
<0xD2>	0
<0xD3>	0
<0xD4>	0
<0xD5>	0
<0xD6>	0
<0xD7>	0
<0xD8>	0
<0xD9>	0
<0xDA>	0
<0xDB>	0
<0xDC>	0
<0xDD>	0
<0xDE>	0
<0xDF>	0
<0xE0>	0
<0xE1>	0
<0xE2>	0
<0xE3>	0
<0xE4>	0
<0xE5>	0
<0xE6>	0
<0xE7>	0
<0xE8>	0
<0xE9>	0
<0xEA>	0
<0xEB>	0
<0xEC>	0
<0xED>	0
<0xEE>	0
<0xEF>	0
<0xF0>	0
<0xF1>	0
<0xF2>	0
<0xF3>	0
<0xF4>	0
<0xF5>	0
<0xF6>	0
<0xF7>	0
<0xF8>	0
<0xF9>	0
<0xFA>	0
<0xFB>	0
<0xFC>	0
<0xFD>	0
<0xFE>	0
<0xFF>	0
▁ک	-0
▁ا	-1
▁م	-2
▁س	-3
▁ہ	-4
یں	-5
▁ب	-6
▁پ	-7
▁کی	-8
ور	-9
▁کے	-10
▁ن	-11
ان	-12
ار	-13
▁میں	-14
▁ت	-15
▁ج	-16
▁د	-17
▁کر	-18
▁ر	-19
لی	-20
▁گ	-21
ائ	-22
▁و	-23
ری	-24
یا	-25
وں	-26
▁کا	-27
▁ہے	-28
▁سے	-29
▁ف	-30
▁کو	-31
▁ای	-32
▁نے	-33
▁کہ	-34
▁اور	-35
ال	-36
▁ان	-37
لا	-38
▁اس	-39
▁ہو	-40
▁ش	-41
ٹی	-42
▁پر	-43
ھی	-44
ین	-45
ام	-46
▁خ	-47
نے	-48
ات	-49
اک	-50
ست	-51
▁ع	-52
ئے	-53
▁چ	-54
ئی	-55
▁ح	-56
▁ل	-57
اب	-58
می	-59
ون	-60
▁ٹی	-61
اہ	-62
▁ہیں	-63
▁لی	-64
▁ڈ	-65
▁ق	-66
▁می	-67
▁پی	-68
نا	-69
نگ	-70
▁بھی	-71
ستان	-72
▁ایک	-73
▁ی	-74
اد	-75
ٹر	-76
▁رہ	-77
▁سی	-78
ائی	-79
اکستان	-80
▁دی	-81
نی	-82
▁پاکستان	-83
یر	-84
از	-85
ھا	-86
▁کیا	-87
▁نہ	-88
▁رو	-89
ند	-90
تی	-91
ول	-92
▁اپ	-93
تے	-94
▁ز	-95
بر	-96
لے	-97
▁ص	-98
یم	-99
شن	-100
اری	-101
▁ٹ	-102
کی	-103
رو	-104
سٹ	-105
▁فی	-106
تا	-107
لم	-108
نٹ	-109
کٹ	-110
کھ	-111
▁بی	-112
▁یہ	-113
سی	-114
▁ٹیم	-115
را	-116
▁نہیں	-117
▁ط	-118
الی	-119
▁کہا	-120
▁دو	-121
▁گیا	-122
ائے	-123
▁پہ	-124
عد	-125
▁بھ	-126
نڈ	-127
▁مل	-128
وی	-129
▁اد	-130
▁کرنے	-131
کہ	-132
▁جس	-133
▁تھا	-134
▁جو	-135
رین	-136
▁مو	-137
▁فلم	-138
▁وہ	-139
ابق	-140
لہ	-141
اتھ	-142
ید	-143
▁لا	-144
▁جان	-145
اف	-146
گر	-147
▁میچ	-148
▁تو	-149
▁جب	-150
ود	-151
▁گا	-152
وب	-153
ڑی	-154
▁پو	-155
مد	-156
▁اب	-157
▁انہ	-158
▁آ	-159
▁مط	-160
▁کھ	-161
یو	-162
▁بر	-163
▁ہوئے	-164
▁گی	-165
ھے	-166
▁وال	-167
▁مح	-168
▁کم	-169
وم	-170
▁ہی	-171
▁بن	-172
▁دیا	-173
▁سک	-174
▁بعد	-175
▁مع	-176
▁خان	-177
▁کھی	-178
▁بہ	-179
نز	-180
پور	-181
▁لیے	-182
▁ار	-183
▁ری	-184
اں	-185
▁۱	-186
ارت	-187
▁ساتھ	-188
▁در	-189
▁مق	-190
شت	-191
▁جی	-192
▁اف	-193
اس	-194
گی	-195
کن	-196
▁مطابق	-197
▁رہے	-198
دہ	-199
▁کار	-200
انی	-201
انے	-202
▁گے	-203
ئر	-204
▁اخ	-205
▁من	-206
▁بہت	-207
▁ال	-208
رف	-209
ما	-210
پے	-211
▁کرکٹ	-212
▁وی	-213
سر	-214
▁کام	-215
▁گئی	-216
▁سال	-217
وری	-218
▁تک	-219
▁اع	-220
ائن	-221
▁اپنے	-222
کا	-223
کار	-224
▁دور	-225
▁ایس	-226
▁جن	-227
▁سو	-228
اص	-229
دی	-230
▁فیص	-231
کر	-232
▁ام	-233
▁ہم	-234
وٹ	-235
▁غ	-236
لئے	-237
ہور	-238
ارہ	-239
▁تی	-240
▁سر	-241
▁کرتے	-242
▁ڈی	-243
زی	-244
▁انہوں	-245
▁کیلئے	-246
جہ	-247
کس	-248
▁کپ	-249
▁ذ	-250
▁جائے	-251
▁جبکہ	-252
ائنٹ	-253
▁اداک	-254
▁۲	-255
دو	-256
▁والے	-257
لاڑی	-258
▁وا	-259
ٹس	-260
▁کھلاڑی	-261
▁روپے	-262
دا	-263
▁ہونے	-264
▁فر	-265
مل	-266
وا	-267
▁جا	-268
▁او	-269
▁با	-270
▁لاہور	-271
▁یا	-272
▁پوائنٹ	-273
▁اپنی	-274
تع	-275
نس	-276
▁رنز	-277
قی	-278
▁ترین	-279
لو	-280
یت	-281
دار	-282
▁مر	-283
ہر	-284
▁کہنا	-285
خت	-286
▁گئے	-287
ھر	-288
▁جانب	-289
جی	-290
ڈی	-291
چی	-292
لاف	-293
▁حک	-294
الر	-295
▁کمی	-296
قت	-297
▁تھی	-298
انہ	-299
▁رہا	-300
▁کرا	-301
فی	-302
▁کریں	-303
▁مار	-304
قع	-305
▁کھیل	-306
مر	-307
اصل	-308
▁دن	-309
▁حاصل	-310
▁اے	-311
کے	-312
بی	-313
مبر	-314
▁شر	-315
▁جاری	-316
▁ہے۔	-317
▁لئے	-318
ریز	-319
▁پہلے	-320
▁تر	-321
اہم	-322
ازہ	-323
▁ض	-324
▁سب	-325
▁بڑ	-326
▁وز	-327
▁ہوں	-328
▁خو	-329
▁ور	-330
▁چی	-331
▁ملک	-332
▁تع	-333
بل	-334
▁اض	-335
▁بار	-336
در	-337
ٹری	-338
▁نام	-339
لام	-340
▁این	-341
زار	-342
▁اضاف	-343
▁علی	-344
▁روز	-345
نچ	-346
▁اخب	-347
▁دوران	-348
▁خبر	-349
▁ہوا	-350
▁رہی	-351
▁مج	-352
▁والی	-353
▁تھے	-354
▁قیم	-355
▁چھ	-356
▁لیکن	-357
لڈ	-358
▁نو	-359
لق	-360
▁ئی	-361
▁لگ	-362
امل	-363
▁لو	-364
▁قیمت	-365
▁ٹیسٹ	-366
▁اح	-367
ومی	-368
جود	-369
▁محمد	-370
▁نی	-371
▁مش	-372
مان	-373
ائل	-374
▁خلاف	-375
▁زیا	-376
کل	-377
▁کراچی	-378
رہ	-379
▁بنا	-380
▁مس	-381
▁رکھ	-382
▁انت	-383
تان	-384
کٹر	-385
یہ	-386
▁ڈالر	-387
شتہ	-388
▁اج	-389
نج	-390
▁زیادہ	-391
▁مز	-392
▁کوئی	-393
ائیں	-394
▁پڑ	-395
▁بین	-396
▁گر	-397
▁سیریز	-398
سے	-399
▁پاکستانی	-400
▁اہ	-401
یاں	-402
▁شاہ	-403
کت	-404
▁میڈ	-405
چھ	-406
شی	-407
سرے	-408
▁شامل	-409
مال	-410
▁تم	-411
فر	-412
ائر	-413
▁تح	-414
ارتی	-415
▁بات	-416
▁وزیر	-417
▁طور	-418
▁پیش	-419
ومت	-420
پی	-421
ورت	-422
وال	-423
▁مقاب	-424
▁چاہ	-425
مین	-426
▁تج	-427
▁وکٹ	-428
▁شی	-429
▁رپور	-430
وڑ	-431
صی	-432
▁اسلام	-433
▁را	-434
رح	-435
▁وقت	-436
▁ماہ	-437
▁کسی	-438
▁لیا	-439
ورڈ	-440
لاق	-441
▁کھلاڑیوں	-442
▁ضر	-443
▁،	-444
ادی	-445
▁جات	-446
▁حص	-447
▁بل	-448
▁دے	-449
لات	-450
▁مہ	-451
▁قومی	-452
▁کمپ	-453
▁ہوئی	-454
ولی	-455
▁انڈ	-456
مب	-457
▁حکومت	-458
لان	-459
▁اردو	-460
▁متع	-461
▁مد	-462
▁کل	-463
ئن	-464
▁کرنا	-465
▁سام	-466
▁تین	-467
سن	-468
کھا	-469
▁تھ	-470
▁بھارت	-471
▁انٹر	-472
▁ہوگ	-473
پر	-474
▁شرو	-475
بہ	-476
عی	-477
▁بج	-478
▁موجود	-479
▁عمر	-480
امی	-481
ظر	-482
وڈ	-483
▁وجہ	-484
▁ہر	-485
▁شروع	-486
کیٹ	-487
▁کپتان	-488
▁میڈیا	-489
▁ہزار	-490
رز	-491
▁۳	-492
فت	-493
▁گز	-494
▁مین	-495
لس	-496
▁مزید	-497
▁انہیں	-498
▁بھر	-499
▁بتا	-500
ونوں	-501
▁اخبارت	-502
▁شک	-503
ریب	-504
فا	-505
▁تاہم	-506
▁بورڈ	-507
▁اخبارتازہ	-508
مہ	-509
▁انگ	-510
وار	-511
▁قر	-512
▁کامیا	-513
ظم	-514
▁اداکارہ	-515
▁ٹو	-516
شنل	-517
▁پری	-518
▁دیکھ	-519
▁سین	-520
وہ	-521
ارف	-522
▁پہنچ	-523
صو	-524
ارے	-525
▁تق	-526
▁طرح	-527
▁تف	-528
▁بال	-529
▁بچ	-530
ونی	-531
لینڈ	-532
وت	-533
ائنل	-534
نو	-535
▁اضافہ	-536
▁دونوں	-537
اح	-538
▁درمی	-539
▁اداکار	-540
▁بھارتی	-541
▁لوگ	-542
▁بتایا	-543
▁اسٹ	-544
سری	-545
▁فیصلہ	-546
▁نیو	-547
▁ورلڈ	-548
▁آپ	-549
▁اگ	-550
▁صرف	-551
▁درمیان	-552
ائد	-553
▁فائنل	-554
▁کچھ	-555
▁ات	-556
اور	-557
▁شہ	-558
▁فیصد	-559
▁بیٹ	-560
ورن	-561
▁اچ	-562
تم	-563
▁اسک	-564
▁ایل	-565
▁شکست	-566
▁امری	-567
▁تمام	-568
والے	-569
▁کردار	-570
▁آ	-571
▁دین	-572
▁دوسرے	-573
▁مص	-574
لین	-575
▁موقع	-576
▁دل	-577
شل	-578
▁دنیا	-579
لیا	-580
انچ	-581
▁قبل	-582
کمل	-583
▁جم	-584
▁گزشتہ	-585
▁جیت	-586
▁پور	-587
▁کمپنی	-588
میت	-589
▁بند	-590
▁جانے	-591
▁دیگر	-592
▁چیم	-593
▁مت	-594
▁چین	-595
کو	-596
انا	-597
▁اٹ	-598
▁تب	-599
قین	-600
▁ارب	-601
رے	-602
▁ٹر	-603
▁احمد	-604
▁نا	-605
▁اسٹی	-606
▁لاکھ	-607
▁ایف	-608
▁متعلق	-609
▁لیگ	-610
▁حوالے	-611
▁کور	-612
مپ	-613
ونٹ	-614
▁استع	-615
نجاب	-616
▁سابق	-617
▁نم	-618
▁(	-619
ئیں	-620
▁اگر	-621
▁باد	-622
▁مالی	-623
عت	-624
ائٹ	-625
▁پرو	-626
▁پہلی	-627
▁ث	-628
▁کاروب	-629
▁عال	-630
▁بڑھ	-631
▁نظر	-632
▁چار	-633
▁غیر	-634
▁مخت	-635
▁پنجاب	-636
وس	-637
▁اعلان	-638
ریف	-639
▁اظ	-640
▁عام	-641
▁مارکیٹ	-642
▁ایم	-643
عث	-644
اہر	-645
▁ائی	-646
یل	-647
▁جہ	-648
منٹ	-649
بت	-650
▁باعث	-651
یات	-652
▁ہیں۔	-653
▁کرد	-654
▁استعمال	-655
▁ڈر	-656
▁کروڑ	-657
▁بد	-658
نگز	-659
▁ما	-660
▁اق	-661
▁بینک	-662
پن	-663
کان	-664
پورٹس	-665
ثر	-666
▁ون	-667
▁سم	-668
انڈ	-669
▁فٹ	-670
ضح	-671
▁فرو	-672
کارڈ	-673
▁گھ	-674
▁انگلینڈ	-675
▁عب	-676
وز	-677
سٹری	-678
ائع	-679
▁باز	-680
لف	-681
جو	-682
▁۴	-683
سک	-684
▁پھر	-685
▁دھ	-686
▁مجھے	-687
راف	-688
▁ریکارڈ	-689
▁کیے	-690
▁اسے	-691
▁۱۰	-692
▁صدر	-693
ریق	-694
ندگی	-695
▁لینڈ	-696
▁لن	-697
ندی	-698
امات	-699
▁سری	-700
▁مض	-701
▁نق	-702
ڈیو	-703
لاس	-704
ویز	-705
ندہ	-706
ھیں	-707
▁نئی	-708
▁خری	-709
▁سہ	-710
▁جائیں	-711
وبی	-712
لز	-713
راد	-714
اج	-715
▁لے	-716
▁انڈی	-717
▁عالمی	-718
▁بہترین	-719
▁دس	-720
▁پانچ	-721
▁میچز	-722
▁مکمل	-723
▁الح	-724
▁اینڈ	-725
سپ	-726
▁تقریب	-727
▁پیدا	-728
کشن	-729
▁سکتا	-730
▁گھر	-731
▁ادا	-732
▁شہر	-733
▁نمبر	-734
▁۵	-735
▁سمیت	-736
▁بنانے	-737
▁ڈے	-738
▁مقابلے	-739
دم	-740
▁فون	-741
لیس	-742
ائز	-743
دال	-744
▁افراد	-745
ارک	-746
▁کرے	-747
شش	-748
▁معی	-749
ونا	-750
▁بے	-751
▁لائن	-752
▁دوسری	-753
▁اسی	-754
▁سنگ	-755
▁واپ	-756
▁خط	-757
روف	-758
جن	-759
▁کن	-760
▁دہ	-761
ٹریلیا	-762
▁شرکت	-763
▁ٹیکس	-764
▁حصہ	-765
گو	-766
▁بول	-767
▁رپورٹ	-768
▁شو	-769
▁ہوتا	-770
▁مختلف	-771
ہار	-772
اتی	-773
ریع	-774
▁اہم	-775
▁بح	-776
ائم	-777
اع	-778
دید	-779
▁علا	-780
▁اباد	-781
▁کھیلے	-782
▁صارف	-783
چر	-784
▁قرار	-785
▁کوچ	-786
▁تفصی	-787
▁سامنے	-788
▁تیار	-789
گا	-790
یاد	-791
رائع	-792
▁مست	-793
امنٹ	-794
▁ہدا	-795
ورنامنٹ	-796
▁دینے	-797
ریل	-798
▁عر	-799
▁کوشش	-800
ویں	-801
عق	-802
▁سن	-803
▁انٹرنی	-804
مار	-805
▁الی	-806
انس	-807
▁ست	-808
▁نمائ	-809
جے	-810
▁نئے	-811
▁چیئر	-812
▁اخت	-813
▁خود	-814
افی	-815
▁گول	-816
یال	-817
▁تعلق	-818
▁ٹورنامنٹ	-819
ارم	-820
گرام	-821
خوا	-822
▁ذریع	-823
▁ملکی	-824
الو	-825
سم	-826
▁ایونٹ	-827
اپ	-828
▁ظ	-829
▁رواں	-830
اکہ	-831
▁اند	-832
▁اننگز	-833
▁جہاں	-834
▁بیان	-835
▁ریلی	-836
▁عو	-837
▁تن	-838
سین	-839
مو	-840
شہ	-841
▁گو	-842
باد	-843
▁شان	-844
▁اظہار	-845
سیم	-846
▁سٹ	-847
اردو	-848
▁لوگوں	-849
▁امی	-850
▁اپنا	-851
من	-852
▁کامیابی	-853
تھ	-854
▁ہوگی	-855
▁جاتا	-856
▁طرف	-857
▁ویڈیو	-858
▁فری	-859
▁تص	-860
▁چیمپ	-861
ای	-862
▁عمران	-863
اروں	-864
▁سٹی	-865
انگ	-866
▁کئی	-867
▁ٹیموں	-868
دان	-869
تح	-870
▁حال	-871
لیم	-872
▁کیس	-873
▁جل	-874
عداد	-875
شیا	-876
▁ء	-877
او	-878
▁از	-879
▁جنوبی	-880
▁دکھ	-881
▁بارے	-882
▁تازہ	-883
▁ضرور	-884
▁تفصیلات	-885
▁کرکٹر	-886
▁کاروبار	-887
▁منص	-888
گہ	-889
▁انتظ	-890
▁شادی	-891
▁وڈ	-892
▁دب	-893
رنز	-894
▁یون	-895
▁بہتر	-896
ٹن	-897
▁پس	-898
▁ووڈ	-899
لط	-900
▁اضافے	-901
▁بنگ	-902
ریشن	-903
▁پولیس	-904
▁سکتے	-905
▁زندگی	-906
▁۲۰	-907
بال	-908
▁بڑی	-909
▁سرما	-910
▁جمع	-911
▁سط	-912
▁شع	-913
▁ہدایت	-914
ڈر	-915
▁سطح	-916
▁واضح	-917
▁پوائنٹس	-918
▁ذرائع	-919
ونکہ	-920
▁ختم	-921
▁سپر	-922
▁۶	-923
یند	-924
وسی	-925
▁واقع	-926
▁.	-927
مون	-928
▁کمیٹی	-929
▁عامر	-930
▁کب	-931
▁کھیلا	-932
ابط	-933
▁علاوہ	-934
▁بالی	-935
روپے	-936
▁کئے	-937
▁اخبار	-938
▁لنکا	-939
▁کامیاب	-940
▁نقص	-941
▁مدد	-942
▁ڈرام	-943
▁زیر	-944
نڈی	-945
▁امریکی	-946
▁سرمایہ	-947
▁شپ	-948
ندھ	-949
▁مضمون	-950
▁نش	-951
▁صورت	-952
▁یو	-953
▁بنائے	-954
▁فو	-955
▁نقصان	-956
▁پاس	-957
غیر	-958
▁صح	-959
ابل	-960
▁فراہم	-961
▁مگر	-962
ولائی	-963
سرا	-964
▁اجلاس	-965
وٹو	-966
▁انٹرنیشنل	-967
▁صارفین	-968
▁پیرا	-969
▁جگہ	-970
سٹر	-971
لاح	-972
خص	-973
رم	-974
▁زائد	-975
بان	-976
▁سپورٹس	-977
▁برس	-978
▁خصو	-979
گری	-980
▁ایشن	-981
وبر	-982
لمان	-983
ابر	-984
کم	-985
▁الحق	-986
▁انڈسٹری	-987
زا	-988
▁بیٹنگ	-989
▁پہلا	-990
▁سوشل	-991
▁جون	-992
کش	-993
▁ایپ	-994
▁میرے	-995
مبئی	-996
▁فروخت	-997
اکی	-998
▁کیونکہ	-999
▁یقین	-1000
▁ایکس	-1001
▁کرتا	-1002
▁دست	-1003
▁ذریعے	-1004
ڈیم	-1005
لب	-1006
ومبر	-1007
الوجی	-1008
▁شیئر	-1009
▁مب	-1010
▁دیں	-1011
▁ئ	-1012
گراف	-1013
کنالوجی	-1014
▁منصوب	-1015
صد	-1016
ائری	-1017
▁خوش	-1018
▁اللہ	-1019
▁سما	-1020
فتے	-1021
ران	-1022
▁فن	-1023
▁ہوتی	-1024
▁رپورٹر	-1025
▁عمل	-1026
▁پار	-1027
▁ممبئی	-1028
▁نیوزی	-1029
▁اوور	-1030
▁اعظم	-1031
▁مجمو	-1032
▁ملا	-1033
▁بلے	-1034
▁گرو	-1035
▁ریلیز	-1036
▁پیراگراف	-1037
▁انج	-1038
▁تحت	-1039
مالک	-1040
▁بلکہ	-1041
▁ٹیکنالوجی	-1042
▁وائر	-1043
▁سیا	-1044
▁مظ	-1045
▁ہفتے	-1046
پاکستان	-1047
▁منت	-1048
▁پڑھیں	-1049
▁سع	-1050
ریک	-1051
میں	-1052
▁فا	-1053
▁اوپن	-1054
▁ڈاک	-1055
▁دع	-1056
▁پسند	-1057
▁شخص	-1058
▁افریق	-1059
کھی	-1060
عات	-1061
▁۷	-1062
▁یاد	-1063
▁لکھ	-1064
▁نواز	-1065
سٹی	-1066
ھوں	-1067
▁معیشت	-1068
زیشن	-1069
▁ئے	-1070
▁رکھنے	-1071
▁تبدی	-1072
▁ویسٹ	-1073
▁لگا	-1074
▁شاندار	-1075
▁مرت	-1076
اتین	-1077
▁لڑ	-1078
▁فلموں	-1079
خواست	-1080
▁ممالک	-1081
▁ایسوسی	-1082
▁سات	-1083
▁دیے	-1084
ارا	-1085
▁گلو	-1086
▁سندھ	-1087
▁قیمتوں	-1088
▁تھیں	-1089
▁عدال	-1090
▁تاری	-1091
▁سائن	-1092
▁گیند	-1093
▁جولائی	-1094
جھ	-1095
▁چیف	-1096
▁کلب	-1097
▁سلس	-1098
میر	-1099
▁درخواست	-1100
▁مشت	-1101
▁علاق	-1102
▁میز	-1103
▁ایسا	-1104
▁چل	-1105
یے	-1106
سان	-1107
▁عوام	-1108
▁انداز	-1109
▁اکت	-1110
شاور	-1111
▁خواتین	-1112
▁کان	-1113
▁دورہ	-1114
▁سکے	-1115
▁معا	-1116
▁تاریخ	-1117
ڈل	-1118
▁۹	-1119
▁سرف	-1120
▁ائ	-1121
دف	-1122
اعظم	-1123
▁اکتوبر	-1124
▁اص	-1125
ٹرز	-1126
▁میری	-1127
▁ضرورت	-1128
لوں	-1129
▁معام	-1130
▁منا	-1131
▁خصوصی	-1132
▁جلد	-1133
▁دسمبر	-1134
▁فوٹو	-1135
▁ڈائری	-1136
▁اٹھ	-1137
▁دیتے	-1138
▁معروف	-1139
▁مجموعی	-1140
ٹا	-1141
▁غاز	-1142
▁بجلی	-1143
▁مذ	-1144
اخ	-1145
▁ویب	-1146
صویر	-1147
▁گفت	-1148
▁شکار	-1149
▁مدا	-1150
▁مارچ	-1151
▁ڈیو	-1152
▁عدالت	-1153
▁تجویز	-1154
▁انے	-1155
▁نوجو	-1156
▁عم	-1157
▁ٹوئن	-1158
▁سٹریلیا	-1159
▁حسین	-1160
اتے	-1161
لاقات	-1162
▁کاری	-1163
▁پاب	-1164
▁گفتگو	-1165
مت	-1166
▁پشاور	-1167
an	-1168
رل	-1169
▁۸	-1170
▁بڑے	-1171
▁جنوری	-1172
▁کرتی	-1173
▁نیشنل	-1174
▁مرک	-1175
▁صوب	-1176
▁مقر	-1177
▁کھیلنے	-1178
▁متا	-1179
▁ملاقات	-1180
▁نومبر	-1181
▁زر	-1182
▁ٹوئنٹی	-1183
▁فیڈ	-1184
▁دیش	-1185
▁چیمپئن	-1186
▁ہاکی	-1187
▁ایسے	-1188
▁خوب	-1189
▁ریا	-1190
▁وزیراعظم	-1191
▁منظ	-1192
▁والا	-1193
▁پوری	-1194
▁ناک	-1195
▁میچوں	-1196
▁خر	-1197
▁نیوز	-1198
▁ترقی	-1199
▁کپور	-1200
بھ	-1201
خاب	-1202
▁صن	-1203
▁فل	-1204
▁باہر	-1205
اہد	-1206
▁گروپ	-1207
▁کش	-1208
▁سکتی	-1209
▁دار	-1210
▁حم	-1211
لوم	-1212
▁سائنس	-1213
▁برط	-1214
▁مقابلہ	-1215
ضی	-1216
خلاف	-1217
پورٹ	-1218
▁گیس	-1219
▁ستمبر	-1220
سل	-1221
▁ہوگئے	-1222
▁انتخاب	-1223
▁شاہد	-1224
وارڈ	-1225
بو	-1226
▁ابھی	-1227
ورٹی	-1228
▁سپ	-1229
▁انڈیز	-1230
ولت	-1231
▁ایوارڈ	-1232
ئٹ	-1233
اق	-1234
▁رابط	-1235
▁گلوکار	-1236
▁۱۵	-1237
راز	-1238
▁تعداد	-1239
▁ڈال	-1240
▁چاہیے	-1241
▁اعلی	-1242
▁انتہ	-1243
▁قان	-1244
▁حسن	-1245
رات	-1246
▁ہاتھ	-1247
▁واپس	-1248
▁میرا	-1249
دگی	-1250
▁ہوگا	-1251
▁تیسرے	-1252
▁ہدف	-1253
▁رق	-1254
▁وکٹوں	-1255
▁خات	-1256
یں۔	-1257
▁ڈیسک	-1258
وے	-1259
▁پاک	-1260
ڑے	-1261
▁وفا	-1262
▁فیڈریشن	-1263
▁بنایا	-1264
▁نیا	-1265
رس	-1266
ٹل	-1267
وش	-1268
▁دوست	-1269
غاز	-1270
▁بنگلہ	-1271
▁سامنا	-1272
▁خیال	-1273
▁۱۲	-1274
ڑا	-1275
▁اچھی	-1276
▁مظاہ	-1277
▁سلمان	-1278
▁اگست	-1279
زاز	-1280
▁خی	-1281
بے	-1282
امد	-1283
▁جھ	-1284
▁کردگی	-1285
▁مداح	-1286
▁کیخلاف	-1287
ینہ	-1288
▁اقد	-1289
وان	-1290
لیے	-1291
▁کردیا	-1292
▁کرو	-1293
▁اختت	-1294
▁کلو	-1295
▁پھ	-1296
▁خرید	-1297
▁قائم	-1298
▁مئی	-1299
▁ہمارے	-1300
▁پابندی	-1301
▁رس	-1302
▁منعق	-1303
▁کت	-1304
▁اعزاز	-1305
▁اسکور	-1306
▁چند	-1307
▁فروری	-1308
▁رنگ	-1309
▁سنچ	-1310
کاری	-1311
▁جیسے	-1312
▁ڈائریکٹر	-1313
▁دیکھنے	-1314
▁ہمیں	-1315
وک	-1316
▁بک	-1317
انہوں	-1318
ابت	-1319
▁تصویر	-1320
▁بغیر	-1321
ونٹی	-1322
▁ڈاکٹر	-1323
▁وکٹیں	-1324
▁مث	-1325
ونڈ	-1326
▁شہری	-1327
▁سوال	-1328
▁کبھی	-1329
▁شریف	-1330
مکن	-1331
کرو	-1332
▁گئیں	-1333
▁چکے	-1334
▁جنرل	-1335
جر	-1336
▁فتح	-1337
▁ایش	-1338
▁اک	-1339
▁سرفراز	-1340
▁ہوتے	-1341
▁چوت	-1342
انیہ	-1343
▁اسٹار	-1344
▁تش	-1345
رار	-1346
▁کورونا	-1347
▁بلا	-1348
▁سونے	-1349
▁غلط	-1350
▁باو	-1351
▁سیمی	-1352
▁روزہ	-1353
▁ٹری	-1354
▁پا	-1355
▁جاتی	-1356
▁اچھا	-1357
▁الز	-1358
ریح	-1359
▁سف	-1360
▁امید	-1361
وید	-1362
ورہ	-1363
▁تاکہ	-1364
▁افریقہ	-1365
▁پیسے	-1366
▁سنچری	-1367
▁پروگرام	-1368
▁پوزیشن	-1369
▁ٹھ	-1370
▁والوں	-1371
▁انھوں	-1372
▁بننے	-1373
▁دوب	-1374
▁فیس	-1375
▁ہائی	-1376
جم	-1377
▁ثابت	-1378
▁قدر	-1379
▁نک	-1380
▁ایڈ	-1381
▁پرف	-1382
▁مہنگ	-1383
▁حصص	-1384
گل	-1385
▁سالہ	-1386
▁انڈیکس	-1387
▁سلی	-1388
▁سیٹ	-1389
▁ایکشن	-1390
▁بلو	-1391
▁خواہ	-1392
▁چکی	-1393
گار	-1394
تال	-1395
▁مال	-1396
▁خبروں	-1397
▁کہانی	-1398
▁مرتبہ	-1399
▁اپریل	-1400
▁مظاہرہ	-1401
ویل	-1402
▁سا	-1403
▁امکان	-1404
لیئر	-1405
▁بڑا	-1406
ندن	-1407
▁مقامی	-1408
▁باوجود	-1409
▁شائ	-1410
▁دیکھا	-1411
▁تفریح	-1412
ندر	-1413
غان	-1414
▁رکھا	-1415
▁عرص	-1416
▁وفاقی	-1417
▁رض	-1418
▁ملین	-1419
زاد	-1420
▁یہاں	-1421
▁لینے	-1422
▁اول	-1423
رفت	-1424
▁حکام	-1425
▁۳۰	-1426
▁گیم	-1427
▁دوسرا	-1428
▁حد	-1429
کیورٹی	-1430
▁چھوڑ	-1431
▁دبئی	-1432
▁مشکل	-1433
▁اش	-1434
▁وار	-1435
▁آئی	-1436
▁دوبارہ	-1437
▁حق	-1438
▁ٹیمیں	-1439
▁اط	-1440
▁۱۱	-1441
ریم	-1442
▁رج	-1443
زم	-1444
▁ممکن	-1445
▁فار	-1446
""	-1447
بول	-1448
▁اختتام	-1449
▁معلوم	-1450
▁قسم	-1451
▁وق	-1452
خر	-1453
▁منی	-1454
▁بیر	-1455
▁باک	-1456
▁شیڈ	-1457
▁وائرس	-1458
لاحیت	-1459
▁بو	-1460
▁بری	-1461
▁درج	-1462
▁فاسٹ	-1463
▁۰	-1464
▁انتہائی	-1465
▁ریٹ	-1466
فظ	-1467
▁شائقین	-1468
▁لکھا	-1469
▁سمجھ	-1470
▁وسیم	-1471
▁ہار	-1472
▁پرفارم	-1473
▁پیغ	-1474
▁دلچ	-1475
پو	-1476
▁عائد	-1477
▁تحقی	-1478
▁متعارف	-1479
▁کیلیے	-1480
حال	-1481
▁ایسی	-1482
ینی	-1483
▁کردہ	-1484
▁فائل	-1485
▁یور	-1486
▁بلوچ	-1487
▁لندن	-1488
▁منٹ	-1489
▁سخت	-1490
تر	-1491
▁مرکزی	-1492
▁افغان	-1493
▁فیصل	-1494
▁شرح	-1495
عیب	-1496
▁پانی	-1497
▁بچوں	-1498
کاروں	-1499
نسل	-1500
▁گل	-1501
لسل	-1502
وظ	-1503
▁پروڈ	-1504
▁مخ	-1505
▁ٹینس	-1506
▁قرض	-1507
خبر	-1508
اٹ	-1509
▁گرد	-1510
▁گرفت	-1511
▁درجے	-1512
باح	-1513
▁کاروباری	-1514
▁کمپنیوں	-1515
▁ہیر	-1516
▁طلب	-1517
وامی	-1518
▁مرح	-1519
▁فور	-1520
▁لیں	-1521
▁میدان	-1522
▁شدید	-1523
▁عہ	-1524
▁اغاز	-1525
▁۲۵	-1526
▁ٹرافی	-1527
▁مصنو	-1528
با	-1529
▁صحت	-1530
▁۲۴	-1531
▁رہیں	-1532
براہ	-1533
ائس	-1534
▁متاثر	-1535
▁چینی	-1536
▁تیل	-1537
▁تحقیق	-1538
▁جرم	-1539
▁شیخ	-1540
▁جنہ	-1541
بائل	-1542
▁ظاہر	-1543
▁سائٹ	-1544
زن	-1545
تیار	-1546
▁۱۴	-1547
▁جائی	-1548
▁جنگ	-1549
▁سیک	-1550
▁سکیں	-1551
▁ہیڈ	-1552
اون	-1553
▁لکھیں۔	-1554
گے	-1555
تد	-1556
اویر	-1557
▁موبائل	-1558
▁نما	-1559
▁الاق	-1560
▁عرب	-1561
عہ	-1562
▁بز	-1563
▁کرن	-1564
راج	-1565
▁کیوں	-1566
نوان	-1567
ٹو	-1568
ٹڈ	-1569
ہزار	-1570
قید	-1571
▁ادارے	-1572
فیظ	-1573
▁ہونا	-1574
▁مسائل	-1575
▁برق	-1576
▁منعقد	-1577
▁نوٹ	-1578
انوی	-1579
▁خاص	-1580
ولپ	-1581
ظیم	-1582
▁رخ	-1583
▁مستق	-1584
▁شمار	-1585
▁الاقوامی	-1586
▁عنوان	-1587
▁نظ	-1588
▁بالر	-1589
▁تصاویر	-1590
▁تاج	-1591
سٹم	-1592
▁گاڑی	-1593
▁پیداوار	-1594
ودی	-1595
▁ویم	-1596
▁پین	-1597
▁ہند	-1598
صر	-1599
▁جسے	-1600
▁ہماری	-1601
▁۱۳	-1602
▁تبدیلی	-1603
سو	-1604
ہرست	-1605
▁نمائش	-1606
▁اسپ	-1607
▁سیکر	-1608
دین	-1609
▁شعیب	-1610
ائیڈ	-1611
▁اوورز	-1612
▁صف	-1613
▁ہمی	-1614
▁تا	-1615
▁بٹ	-1616
واڈ	-1617
ٹرول	-1618
▁دنوں	-1619
الیہ	-1620
▁تھا۔	-1621
▁۱۶	-1622
▁اقدامات	-1623
▁سرو	-1624
وپ	-1625
▁کونسل	-1626
▁مشتمل	-1627
▁اسٹیڈیم	-1628
▁انتظام	-1629
▁ملے	-1630
ژن	-1631
ازت	-1632
▁ضروری	-1633
جا	-1634
▁تیزی	-1635
▁نتی	-1636
ذشتہ	-1637
یادت	-1638
فتہ	-1639
ائیکل	-1640
▁اسٹریلیا	-1641
▁اداکاری	-1642
کیل	-1643
سوس	-1644
▁رین	-1645
▁ہمیشہ	-1646
لیٹ	-1647
▁اجازت	-1648
▁تجر	-1649
ولہ	-1650
▁وزارت	-1651
دمات	-1652
▁طریق	-1653
▁چیز	-1654
▁افت	-1655
▁مداحوں	-1656
▁راست	-1657
▁برقرار	-1658
اکر	-1659
▁فائ	-1660
▁درجہ	-1661
▁مطال	-1662
▁ٹونٹی	-1663
▁ذمہ	-1664
▁فیصلے	-1665
▁سود	-1666
▁روک	-1667
▁صورتحال	-1668
▁خواہش	-1669
لیو	-1670
▁دیئے	-1671
▁شیڈول	-1672
▁گری	-1673
▁مصباح	-1674
▁سنگھ	-1675
زہ	-1676
کنگ	-1677
▁رقم	-1678
▁پالی	-1679
▁ناق	-1680
▁صلاحیت	-1681
▁سوچ	-1682
ائش	-1683
▁نمایاں	-1684
ائب	-1685
▁دکھائی	-1686
▁سیکرٹری	-1687
تری	-1688
▁قیادت	-1689
▁کورٹ	-1690
▁پیغام	-1691
▁۱۹	-1692
▁شم	-1693
ئیر	-1694
▁اختیار	-1695
حان	-1696
▁گھنٹ	-1697
گن	-1698
▁رہنے	-1699
کردگی	-1700
▁بس	-1701
▁جاوید	-1702
▁جاتے	-1703
▁فریدی	-1704
▁کری	-1705
▁میزبان	-1706
▁چاہتے	-1707
▁حفیظ	-1708
▁ہالی	-1709
▁ڈیز	-1710
▁توجہ	-1711
عقاد	-1712
▁امریکا	-1713
ادہ	-1714
ارب	-1715
▁رن	-1716
▁قابل	-1717
اہمی	-1718
▁سینئر	-1719
▁کیں	-1720
فیصد	-1721
▁انعقاد	-1722
▁گذشتہ	-1723
▁کال	-1724
▁کرکٹرز	-1725
روں	-1726
▁مشہور	-1727
▁صنعت	-1728
▁بھائی	-1729
ولپنڈی	-1730
ئٹہ	-1731
▁حیر	-1732
مح	-1733
▁بیٹس	-1734
▁۱۸	-1735
▁داخ	-1736
▁ڈھ	-1737
▁پھی	-1738
کروڑ	-1739
▁یونس	-1740
نت	-1741
▁گا۔	-1742
سط	-1743
▁۵۰	-1744
شا	-1745
▁متح	-1746
ڈا	-1747
لاکھ	-1748
یاتی	-1749
▁بنیاد	-1750
▁است	-1751
▁انع	-1752
▁کوہ	-1753
▁محبت	-1754
▁’	-1755
▁کارکردگی	-1756
▁انڈر	-1757
▁فروغ	-1758
▁منظوری	-1759
فرنس	-1760
▁ماہرین	-1761
▁سرگر	-1762
یاب	-1763
▁اظہر	-1764
▁مسلسل	-1765
شید	-1766
▁اکر	-1767
▁خز	-1768
▁احت	-1769
▁کھیلی	-1770
چین	-1771
▁سربراہ	-1772
▁اہل	-1773
پوائنٹ	-1774
▁ایچ	-1775
▁تنقید	-1776
تمام	-1777
▁اقبال	-1778
▁مصنوعات	-1779
▁اسٹاک	-1780
ویو	-1781
▁تیاری	-1782
خبروں	-1783
▁ساز	-1784
لامی	-1785
▁قریب	-1786
اند	-1787
دیق	-1788
▁رات	-1789
▁حل	-1790
▁مالیت	-1791
▁بیٹسمین	-1792
▁اگلے	-1793
▁ٹاپ	-1794
▁ڈرامہ	-1795
▁اخری	-1796
▁رکھتے	-1797
خب	-1798
▁کاررو	-1799
▁یونی	-1800
▁برمد	-1801
▁ملتان	-1802
▁چکا	-1803
▁رہن	-1804
یدر	-1805
▁رکھتی	-1806
▁ٹوئ	-1807
▁ماڈل	-1808
▁شوٹ	-1809
▁سلسلہ	-1810
▁برتری	-1811
سال	-1812
ٹنگ	-1813
▁کیمپ	-1814
شان	-1815
▁خوشی	-1816
▁زخ	-1817
▁راولپنڈی	-1818
▁محف	-1819
▁کس	-1820
▁میٹر	-1821
ریس	-1822
▁فوری	-1823
▁مہمان	-1824
▁بخ	-1825
▁خوبص	-1826
▁سفر	-1827
▁پوسٹ	-1828
▁اثر	-1829
▁پڑا	-1830
▁۱۷	-1831
▁خاتون	-1832
▁ہندو	-1833
▁کوئٹہ	-1834
بات	-1835
لش	-1836
▁سنی	-1837
▁پارٹی	-1838
ارٹ	-1839
سٹا	-1840
▁ویں	-1841
▁پالیسی	-1842
▁سکور	-1843
جمان	-1844
▁کیری	-1845
کمہ	-1846
▁بابر	-1847
سا	-1848
▁امد	-1849
▁خام	-1850
▁زمین	-1851
▁اندر	-1852
▁موجودہ	-1853
نہ	-1854
▁خبریں	-1855
▁فارم	-1856
کٹس	-1857
سب	-1858
▁ابتد	-1859
شد	-1860
کام	-1861
▁اداروں	-1862
▁شہزاد	-1863
▁پیچ	-1864
▁بہتری	-1865
▁ابتدائی	-1866
▁بنائی	-1867
گز	-1868
▁وہاں	-1869
▁منگ	-1870
▁نر	-1871
▁جائز	-1872
▁ٹرین	-1873
▁۲۲	-1874
▁کوار	-1875
▁انص	-1876
▁گھروں	-1877
▁ایڈی	-1878
▁گلی	-1879
▁بجٹ	-1880
▁کرس	-1881
▁ٹائٹ	-1882
▁انتظامیہ	-1883
▁ٹیک	-1884
راہ	-1885
بانی	-1886
▁ٹاس	-1887
▁سعید	-1888
ڑھ	-1889
▁'	-1890
▁لہ	-1891
▁پن	-1892
▁پورا	-1893
▁اکی	-1894
وق	-1895
▁خیبر	-1896
▁دہشت	-1897
▁اولمپ	-1898
کیشن	-1899
▁یہی	-1900
▁طے	-1901
▁کرکے	-1902
▁واپسی	-1903
▁کارروائی	-1904
▁سون	-1905
▁میگا	-1906
طر	-1907
▁ایشیا	-1908
▁مقصد	-1909
▁بارش	-1910
▁عبدال	-1911
▁نجی	-1912
▁بت	-1913
▁ٹوئٹر	-1914
ادلہ	-1915
▁ایئر	-1916
▁کردی	-1917
▁تیز	-1918
▁تعاون	-1919
▁اقت	-1920
▁سعودی	-1921
▁سید	-1922
عدد	-1923
▁ڈان	-1924
▁ناکام	-1925
▁الیکشن	-1926
لمی	-1927
▁بزنس	-1928
مباب	-1929
▁مثبت	-1930
لیہ	-1931
▁مقرر	-1932
▁آئی	-1933
▁برطانوی	-1934
▁سلسلے	-1935
▁بنے	-1936
طور	-1937
▁نیٹ	-1938
▁بجے	-1939
▁کوالی	-1940
▁گرفتار	-1941
▁کاشت	-1942
باز	-1943
▁مستقبل	-1944
▁چیئرمین	-1945
▁ملی	-1946
▁افری	-1947
▁وف	-1948
بوط	-1949
رن	-1950
▁خطاب	-1951
▁متعدد	-1952
▁انس	-1953
▁سماعت	-1954
▁کانفرنس	-1955
لوی	-1956
▁سروس	-1957
▁جیتنے	-1958
▁پرفارمنس	-1959
▁ئندہ	-1960
▁منتق	-1961
▁کاروں	-1962
▁انٹرویو	-1963
▁میر	-1964
▁معاشی	-1965
لائی	-1966
▁سہیل	-1967
حد	-1968
▁یقینی	-1969
مود	-1970
▁اعت	-1971
▁جارہ	-1972
صول	-1973
▁خدمات	-1974
▁قل	-1975
▁قانونی	-1976
▁ملاز	-1977
st	-1978
▁افغانستان	-1979
▁عمد	-1980
▁ہرا	-1981
ائیو	-1982
▁خزانہ	-1983
▁کوالیف	-1984
▁فائدہ	-1985
▁گانے	-1986
▁ریاض	-1987
▁حقی	-1988
▁صد	-1989
▁یونیور	-1990
▁سیاسی	-1991
ومتی	-1992
▁بطور	-1993
▁سٹری	-1994
▁کیٹ	-1995
▁زخمی	-1996
اکت	-1997
▁شعبے	-1998
▁انگلش	-1999
▁ٹائٹل	-2000
▁فیلڈ	-2001
▁برا	-2002
▁تصدیق	-2003
▁۲۳	-2004
▁ترجمان	-2005
▁رائ	-2006
▁مشک	-2007
▁کاسٹ	-2008
▁انسٹا	-2009
▁رانڈ	-2010
▁عباس	-2011
اہی	-2012
▁عمدہ	-2013
▁فض	-2014
▁خال	-2015
▁بلوچستان	-2016
▁خراب	-2017
▁گورن	-2018
▁محکمہ	-2019
▁اکرم	-2020
▁فہرست	-2021
▁عرف	-2022
▁الزام	-2023
▁فٹبال	-2024
▁ٹن	-2025
ختون	-2026
▁عرصے	-2027
▁کامرس	-2028
▁دفا	-2029
▁گیمز	-2030
ڈز	-2031
▁میاں	-2032
▁نص	-2033
▁چوتھے	-2034
▁ہوگئی	-2035
▁اسٹیٹ	-2036
بیر	-2037
▁سماجی	-2038
▁چوہ	-2039
▁تجارتی	-2040
▁تقریبا	-2041
صل	-2042
▁۲۱	-2043
▁پلان	-2044
▁سٹیڈیم	-2045
▁چیمبر	-2046
▁کرپ	-2047
▁چھوٹ	-2048
▁کررہ	-2049
▁زمباب	-2050
▁اکمل	-2051
▁معاہد	-2052
▁مطالبہ	-2053
▁برابر	-2054
▁ہا	-2055
▁ملنے	-2056
ٹے	-2057
▁محفوظ	-2058
▁صوبائی	-2059
▁گزار	-2060
▁لوٹ	-2061
▁رک	-2062
▁کیریئر	-2063
▁داری	-2064
چینج	-2065
▁اختر	-2066
▁مصروف	-2067
دھ	-2068
▁مقابلوں	-2069
مبلی	-2070
▁افسر	-2071
ئنز	-2072
▁:	-2073
▁ملز	-2074
▁بیٹی	-2075
▁سٹار	-2076
▁ایگ	-2077
▁لڑکی	-2078
▁مچ	-2079
▁محمود	-2080
▁اسمبلی	-2081
وبز	-2082
▁کوارٹر	-2083
▁نظام	-2084
▁مبارک	-2085
▁تقسیم	-2086
▁رائے	-2087
تاح	-2088
یب	-2089
ist	-2090
▁پت	-2091
▁کمیشن	-2092
ادر	-2093
▁بچے	-2094
▁منصوبہ	-2095
▁کون	-2096
▁فنڈ	-2097
انوں	-2098
▁بولی	-2099
▁۱۰۰	-2100
▁تجارت	-2101
▁سرکاری	-2102
▁پرا	-2103
istan	-2104
ویٹ	-2105
ستہ	-2106
کوں	-2107
▁ہونگ	-2108
▁سنج	-2109
▁حیدر	-2110
▁میل	-2111
▁مضبوط	-2112
▁جواب	-2113
▁باکس	-2114
▁پیر	-2115
▁جائزہ	-2116
گت	-2117
امہ	-2118
▁رابطہ	-2119
▁انھیں	-2120
▁سیزن	-2121
▁ویر	-2122
▁راج	-2123
ونس	-2124
▁مانی	-2125
▁کھیلوں	-2126
▁چیل	-2127
▁سست	-2128
▁ایکسچینج	-2129
▁کوہلی	-2130
▁شکر	-2131
▁حریف	-2132
▁مقررہ	-2133
سٹس	-2134
▁تبدیل	-2135
▁یاسر	-2136
تل	-2137
▁ہمراہ	-2138
▁تعلقات	-2139
▁ہسپ	-2140
فاظ	-2141
▁جنہوں	-2142
صادی	-2143
▁خوبصورت	-2144
▁پیٹر	-2145
▁گرام	-2146
▁دینا	-2147
ناز	-2148
▁سلط	-2149
فلم	-2150
ولیم	-2151
▁جاس	-2152
علی	-2153
▁منصوبے	-2154
▁بجا	-2155
▁لوڈ	-2156
▁نائب	-2157
▁تلا	-2158
▁علاقے	-2159
▁سزا	-2160
▁ہندوستان	-2161
شنز	-2162
بح	-2163
▁راہ	-2164
▁تعمیر	-2165
▁یونیورسٹی	-2166
▁سسٹم	-2167
۰۰	-2168
▁الیون	-2169
▁انصاف	-2170
دے	-2171
▁ہاتھوں	-2172
دری	-2173
▁متحدہ	-2174
▁زمبابوے	-2175
▁منتخب	-2176
▁تحریک	-2177
▁فخر	-2178
▁ٹیل	-2179
▁عث	-2180
▁ادائی	-2181
▁ہےاس	-2182
▁عید	-2183
سٹک	-2184
▁پہنچا	-2185
واہ	-2186
▁انسان	-2187
▁مقام	-2188
▁کیپ	-2189
▁شہباز	-2190
▁بلند	-2191
▁مشکلات	-2192
▁ایگزی	-2193
▁جے	-2194
▁توقع	-2195
▁لگتا	-2196
ورز	-2197
▁نیوی	-2198
▁میک	-2199
▁لائ	-2200
▁نتیجے	-2201
▁شرما	-2202
▁گیا۔	-2203
▁محنت	-2204
▁قتل	-2205
▁فلمیں	-2206
▁بندی	-2207
▁شوٹنگ	-2208
▁نوٹس	-2209
پوائنٹس	-2210
▁ہیرو	-2211
..	-2212
▁زلمی	-2213
▁قری	-2214
▁A	-2215
▁دلچسپ	-2216
▁صاح	-2217
▁رفت	-2218
▁نمائندگی	-2219
▁آج	-2220
▁اسد	-2221
▁برو	-2222
یدہ	-2223
▁سیکیورٹی	-2224
▁رون	-2225
▁قانون	-2226
▁امریکہ	-2227
▁ذخ	-2228
▁اقتصادی	-2229
▁بیک	-2230
▁موسی	-2231
ورٹ	-2232
▁نشانہ	-2233
▁پروڈیو	-2234
▁معاملے	-2235
▁منتقل	-2236
▁پلیئر	-2237
وٹی	-2238
مق	-2239
▁نکال	-2240
▁آباد	-2241
▁انڈین	-2242
▁توڑ	-2243
▁اچھے	-2244
▁طویل	-2245
تماد	-2246
ذا	-2247
▁شہرت	-2248
▁رکھی	-2249
▁اکان	-2250
▁پیچھے	-2251
▁شوبز	-2252
تمی	-2253
▁دکھا	-2254
▁اسٹری	-2255
▁بولنگ	-2256
▁پریس	-2257
▁مہم	-2258
▁حالات	-2259
▁پک	-2260
▁شریک	-2261
▁تیسری	-2262
▁شا	-2263
▁علاقوں	-2264
▁برامد	-2265
▁نع	-2266
▁افتتاح	-2267
▁بیٹے	-2268
▁پڑے	-2269
▁گے۔	-2270
▁بدولت	-2271
▁کہتے	-2272
ویلین	-2273
شم	-2274
▁یکم	-2275
چے	-2276
▁جدید	-2277
▁لاہوراردو	-2278
▁کین	-2279
▁چیت	-2280
▁پختون	-2281
▁اہلیہ	-2282
▁اطلا	-2283
ضہ	-2284
▁مرحلے	-2285
مز	-2286
فیق	-2287
▁عرفان	-2288
▁چیلنج	-2289
ٹین	-2290
▁موسم	-2291
▁نامی	-2292
▁مسئ	-2293
▁عثمان	-2294
▁فراہمی	-2295
▁اٹھا	-2296
فع	-2297
▁معاہدے	-2298
▁سان	-2299
▁ڈرامے	-2300
▁شعبہ	-2301
▁کمار	-2302
ارجہ	-2303
▁رہنما	-2304
▁گرا	-2305
▁جائیگا	-2306
▁سہولت	-2307
▁۲۶	-2308
▁کرنی	-2309
واضح	-2310
▁مقبول	-2311
▁حر	-2312
▁دستیاب	-2313
▁آر	-2314
▁کشمیر	-2315
▁وط	-2316
▁کیساتھ	-2317
▁لط	-2318
▁مان	-2319
▁معم	-2320
▁قوم	-2321
▁حکم	-2322
▁ٹیلی	-2323
▁جار	-2324
ارٹی	-2325
▁رح	-2326
▁انسٹاگرام	-2327
▁جاپ	-2328
▁پچ	-2329
جب	-2330
ارات	-2331
▁گرین	-2332
▁سالانہ	-2333
▁ہلا	-2334
▁درمد	-2335
▁ظفر	-2336
ثیت	-2337
▁ریاست	-2338
▁تیسرا	-2339
▁سبب	-2340
▁برائے	-2341
▁ناقابل	-2342
اتح	-2343
▁ٹریڈ	-2344
▁صاحب	-2345
▁اعتماد	-2346
بین	-2347
ss	-2348
▁مری	-2349
▁تجربہ	-2350
▁سلطان	-2351
▁فکس	-2352
▁کروں	-2353
▁انکار	-2354
▁سائیکل	-2355
▁ذیل	-2356
▁ادائیگی	-2357
ئل	-2358
▁والد	-2359
▁مف	-2360
اہے	-2361
▁ایشین	-2362
▁ائندہ	-2363
▁ہسپتال	-2364
▁ڈب	-2365
▁دھم	-2366
▁مرد	-2367
▁لنکن	-2368
▁H	-2369
um	-2370
یثیت	-2371
لن	-2372
▁الرح	-2373
▁ائے	-2374
▁انجام	-2375
▁لفظ	-2376
▁فٹنس	-2377
▁اتھ	-2378
▁تس	-2379
جنگ	-2380
ew	-2381
▁وین	-2382
▁تلاش	-2383
▁شدہ	-2384
▁سینما	-2385
اسی	-2386
واں	-2387
جد	-2388
▁نامور	-2389
▁پول	-2390
ولیت	-2391
ews	-2392
▁بالنگ	-2393
▁اسکواڈ	-2394
▁ذہ	-2395
▁محسوس	-2396
▁کہاکہ	-2397
▁برطانیہ	-2398
▁۲۸	-2399
▁نور	-2400
▁تعلیم	-2401
▁بولر	-2402
▁نت	-2403
▁دورے	-2404
▁چاہئے	-2405
یوں	-2406
▁باقی	-2407
قا	-2408
کشاف	-2409
▁معلومات	-2410
▁پانچویں	-2411
▁خس	-2412
▁دعوی	-2413
▁وطن	-2414
▁جملے	-2415
حہ	-2416
▁Ass	-2417
uman	-2418
istant	-2419
▁Human	-2420
▁Assistant	-2421
▁خور	-2422
ڈو	-2423
▁بلی	-2424
▁چوہدری	-2425
▁گوگل	-2426
▁انکشاف	-2427
▁کیمر	-2428
▁سمی	-2429
▁مستح	-2430
▁ناز	-2431
▁بھیج	-2432
▁اعداد	-2433
پنر	-2434
▁ریس	-2435
▁حجم	-2436
▁اسپورٹس	-2437
▁انتظار	-2438
▁۲۷	-2439
▁جسٹس	-2440
▁حو	-2441
▁جونی	-2442
▁رینکنگ	-2443
▁منظور	-2444
▁نکل	-2445
▁""	-2446
▁ماضی	-2447
▁گند	-2448
▁جذ	-2449
▁مبنی	-2450
▁ڈپ	-2451
▁تے	-2452
ٹھ	-2453
چہ	-2454
برد	-2455
▁فواد	-2456
▁پائے	-2457
ہا	-2458
▁زور	-2459
▁کنگ	-2460
▁اشیا	-2461
دن	-2462
▁ہٹ	-2463
▁بیم	-2464
▁اشرف	-2465
▁صبح	-2466
▁رپورٹس	-2467
رکہ	-2468
▁قیا	-2469
ڈمی	-2470
▁زین	-2471
▁روانہ	-2472
▁رابطے	-2473
عنی	-2474
▁سکی	-2475
شر	-2476
پا	-2477
▁ہوگیا	-2478
▁ٹک	-2479
ذیر	-2480
▁گھنٹے	-2481
▁پویلین	-2482
ڈن	-2483
▁پہن	-2484
▁تنظیم	-2485
▁انتخابات	-2486
▁دا	-2487
▁جما	-2488
ہی	-2489
▁جانا	-2490
ایک	-2491
▁ریٹائر	-2492
▁ڈبل	-2493
▁سیل	-2494
▁انی	-2495
▁فیچر	-2496
▁روس	-2497
▁شوہر	-2498
▁مسلم	-2499
▁درست	-2500
▁ٹھی	-2501
▁حتمی	-2502
▁۴۰	-2503
▁کیٹگری	-2504
▁ماح	-2505
▁ممبر	-2506
▁استح	-2507
ابین	-2508
▁تولہ	-2509
▁بیس	-2510
افت	-2511
▁متو	-2512
اض	-2513
▁امن	-2514
▁غور	-2515
وکٹ	-2516
تیب	-2517
بوں	-2518
▁واٹس	-2519
اتا	-2520
▁پاور	-2521
▁ضل	-2522
▁باب	-2523
▁باس	-2524
▁ایکسپ	-2525
▁کرلیا	-2526
▁مند	-2527
طل	-2528
▁چاہتا	-2529
▁سائ	-2530
▁نرخ	-2531
▁رجحان	-2532
▁اہتمام	-2533
یرہ	-2534
▁ساتھی	-2535
▁کہہ	-2536
اقب	-2537
کھر	-2538
ہے	-2539
▁کمشن	-2540
▁دہلی	-2541
▁سل	-2542
▁امپ	-2543
اریہ	-2544
▁ٹریل	-2545
فری	-2546
▁فکسنگ	-2547
▁سینٹر	-2548
▁ملازمین	-2549
▁ہونی	-2550
▁خیا	-2551
بن	-2552
▁ہوکر	-2553
گیا	-2554
عدہ	-2555
▁وائرل	-2556
▁حوص	-2557
▁نگر	-2558
▁ئیں	-2559
نر	-2560
▁تعین	-2561
▁بازی	-2562
گریز	-2563
▁فاتح	-2564
▁سلیکٹر	-2565
▁کرپشن	-2566
▁اکیڈمی	-2567
▁ہاں	-2568
▁ریم	-2569
▁صفر	-2570
▁الیکٹر	-2571
▁ماس	-2572
میوں	-2573
مے	-2574
▁ہونگے	-2575
▁خوف	-2576
ڑوں	-2577
▁رکھے	-2578
جنسی	-2579
▁معاملات	-2580
▁چود	-2581
▁فرانس	-2582
▁الگ	-2583
▁شیر	-2584
▁فوج	-2585
▁وفد	-2586
▁معیار	-2587
نویر	-2588
▁بھا	-2589
▁خالد	-2590
حت	-2591
▁تحقیقات	-2592
▁گلوکارہ	-2593
▁سیکٹر	-2594
▁یعنی	-2595
▁انسانی	-2596
▁منظر	-2597
▁ٹریلر	-2598
▁بالکل	-2599
کٹو	-2600
سپی	-2601
▁روڈ	-2602
▁ڈیلی	-2603
▁ڈبلیو	-2604
▁منافع	-2605
▁بش	-2606
▁ایران	-2607
▁پورٹ	-2608
کپ	-2609
▁جت	-2610
▁بڑھا	-2611
▁ایا	-2612
▁افریدی	-2613
▁دیتا	-2614
▁کنگز	-2615
▁قدم	-2616
▁مابین	-2617
نٹری	-2618
▁ناص	-2619
دود	-2620
▁رانا	-2621
ائج	-2622
▁سکا	-2623
سیع	-2624
▁انتق	-2625
▁ویمن	-2626
▁تھری	-2627
رائی	-2628
ریہ	-2629
▁مندر	-2630
▁مقد	-2631
▁فائر	-2632
▁گندم	-2633
▁اسکرین	-2634
▁کہیں	-2635
▁جسم	-2636
ریا	-2637
▁۳۱	-2638
▁کرایا	-2639
حک	-2640
لوے	-2641
▁حیران	-2642
▁برمدات	-2643
وف	-2644
▁فنکاروں	-2645
▁رسائی	-2646
▁شکل	-2647
▁گیندوں	-2648
▁۲۹	-2649
زر	-2650
▁سیاست	-2651
▁مشترکہ	-2652
▁ڈیزائن	-2653
▁حیثیت	-2654
▁عالم	-2655
▁اپیل	-2656
▁لگے	-2657
▁فہ	-2658
▁خاندان	-2659
▁جر	-2660
▁کروا	-2661
▁ویرات	-2662
▁پختونخوا	-2663
▁لہذا	-2664
▁چلا	-2665
▁نیویارک	-2666
▁ڈالرز	-2667
▁سکیورٹی	-2668
▁رضا	-2669
▁پورے	-2670
ئین	-2671
▁منفی	-2672
▁براہ	-2673
ادری	-2674
▁روشن	-2675
▁بھرپور	-2676
داری	-2677
ولر	-2678
▁گرانڈ	-2679
▁یونٹ	-2680
▁امپائر	-2681
▁اداکاروں	-2682
▁تحفظ	-2683
▁زبان	-2684
▁قاب	-2685
▁سج	-2686
بردست	-2687
جمنٹ	-2688
والہ	-2689
▁زرا	-2690
▁ڈوی	-2691
▁رم	-2692
▁متعلقہ	-2693
انک	-2694
▁ہفتہ	-2695
▁خیز	-2696
دیم	-2697
▁کنٹرول	-2698
▁کیر	-2699
اہدہ	-2700
▁زمان	-2701
▁قائد	-2702
ادث	-2703
▁گاہ	-2704
▁ائیں	-2705
ینگے	-2706
▁مندی	-2707
▁گار	-2708
▁ذخائر	-2709
▁پیک	-2710
ؤں	-2711
▁شام	-2712
▁ذریعہ	-2713
▁شراکت	-2714
▁فلمی	-2715
▁کرنسی	-2716
▁خد	-2717
ونیو	-2718
▁صدی	-2719
▁بڑھانے	-2720
▁موٹر	-2721
ہبی	-2722
▁عز	-2723
▁لگانے	-2724
▁بیل	-2725
▁حالیہ	-2726
▁زبردست	-2727
▁مرزا	-2728
▁نتائج	-2729
▁بدھ	-2730
فے	-2731
▁ایگزیکٹو	-2732
▁پریکٹس	-2733
ئیے	-2734
▁کھو	-2735
▁استحکام	-2736
▁میزبانی	-2737
▁لگایا	-2738
جاج	-2739
▁موت	-2740
▁خیالات	-2741
▁رکنی	-2742
▁شاد	-2743
▁پائی	-2744
▁تھر	-2745
▁انڈیا	-2746
▁ایج	-2747
▁ڈیوڈ	-2748
▁مایو	-2749
رد	-2750
الف	-2751
▁بحالی	-2752
اول	-2753
▁جاں	-2754
قف	-2755
▁جمعرات	-2756
اط	-2757
▁میوز	-2758
▁نار	-2759
▁ٹریننگ	-2760
ائیٹڈ	-2761
▁اعلیٰ	-2762
▁بگ	-2763
▁کیسے	-2764
▁ویل	-2765
▁جماعت	-2766
▁حملے	-2767
▁خوا	-2768
▁کوالیفائی	-2769
▁کھل	-2770
▁شاہین	-2771
▁اصل	-2772
▁دلچسپی	-2773
جیح	-2774
▁ویمنز	-2775
نک	-2776
▁سپورٹ	-2777
▁جمعہ	-2778
▁ڈار	-2779
▁سیف	-2780
▁اسپی	-2781
▁حادث	-2782
رینہ	-2783
میل	-2784
▁داخل	-2785
▁پروڈیوسر	-2786
▁حکومتی	-2787
▁جوڑی	-2788
▁بدل	-2789
▁ڈیٹا	-2790
▁زراعت	-2791
▁جونیئر	-2792
اویز	-2793
▁رشید	-2794
▁ٹھیک	-2795
▁تھی۔	-2796
▁کیپر	-2797
▁چھوٹے	-2798
حکومت	-2799
▁کیا۔	-2800
▁ڈالیں	-2801
▁ہوم	-2802
تھی	-2803
▁ترجیح	-2804
▁حصول	-2805
▁لانے	-2806
▁مور	-2807
عال	-2808
▁اتھارٹی	-2809
▁ترق	-2810
▁فیم	-2811
▁تینوں	-2812
▁رد	-2813
▁منگل	-2814
▁عرصہ	-2815
جز	-2816
▁دعوت	-2817
▁اسرائی	-2818
بیت	-2819
داشت	-2820
▁محدود	-2821
▁انتقال	-2822
▁ٹائم	-2823
▁کریں۔	-2824
▁گی۔	-2825
کچر	-2826
▁افی	-2827
▁حس	-2828
▁مندرجہ	-2829
▁فونز	-2830
▁کمشنر	-2831
▁بنیا	-2832
▁بائی	-2833
شتر	-2834
لیف	-2835
▁واحد	-2836
مارٹ	-2837
یف	-2838
▁جیسی	-2839
▁یونائیٹڈ	-2840
▁پلا	-2841
وروں	-2842
▁سراہ	-2843
▁کامی	-2844
▁ائوٹ	-2845
▁ماہرہ	-2846
▁موا	-2847
▁جنی	-2848
ایتی	-2849
▁گولڈ	-2850
دیا	-2851
▁خریداری	-2852
▁اتنا	-2853
▁احتجاج	-2854
▁طال	-2855
▁مانگ	-2856
▁مہنگائی	-2857
▁وہاب	-2858
▁ٹکٹ	-2859
وتھ	-2860
شاہ	-2861
▁یوس	-2862
▁ہوئیں	-2863
▁ہوج	-2864
▁اثرات	-2865
ٹک	-2866
▁حوصلہ	-2867
ندرز	-2868
▁سلیم	-2869
▁کمر	-2870
▁درامد	-2871
▁مواقع	-2872
▁حیات	-2873
▁زرعی	-2874
▁ٹرانس	-2875
▁دیو	-2876
اداک	-2877
▁نگار	-2878
▁سرگرمیوں	-2879
مبادلہ	-2880
▁بحران	-2881
▁کیچ	-2882
ذر	-2883
▁حما	-2884
▁علم	-2885
غر	-2886
▁کلاس	-2887
جیکٹ	-2888
▁اتوار	-2889
ضان	-2890
▁اہمیت	-2891
▁حملہ	-2892
▁مزاح	-2893
▁دیا۔	-2894
ٹنے	-2895
▁امارات	-2896
▁اخراج	-2897
▁جیل	-2898
ونگ	-2899
▁ڈین	-2900
▁تھے۔	-2901
▁روش	-2902
▁شکا	-2903
▁انٹرنیٹ	-2904
▁کھول	-2905
▁شخصیات	-2906
▁دیکھتے	-2907
▁کافی	-2908
سٹائل	-2909
▁آباد	-2910
▁ترقیاتی	-2911
ارث	-2912
▁بنیادی	-2913
▁خواجہ	-2914
ایت	-2915
پیکا	-2916
میچ	-2917
▁قیام	-2918
▁نس	-2919
▁پرست	-2920
▁گزر	-2921
▁سور	-2922
▁شہریوں	-2923
▁مائی	-2924
▁اینج	-2925
▁عملی	-2926
تھر	-2927
▁اسلم	-2928
▁کارڈ	-2929
▁تعریف	-2930
▁رفتار	-2931
انت	-2932
▁چن	-2933
ہرے	-2934
▁خیر	-2935
▁مسئلہ	-2936
▁مقدمہ	-2937
▁تربیت	-2938
▁کھانے	-2939
▁وقار	-2940
ومیسٹک	-2941
▁طریقہ	-2942
▁معاہدہ	-2943
▁سینی	-2944
▁سپریم	-2945
جوہ	-2946
▁جاپان	-2947
▁گاڑیوں	-2948
▁صحافی	-2949
▁ولیم	-2950
▁ٹائی	-2951
▁وس	-2952
▁اسمارٹ	-2953
▁سکول	-2954
▁عدم	-2955
▁معاون	-2956
گرا	-2957
ارش	-2958
▁فرنچ	-2959
وث	-2960
▁منڈی	-2961
فاق	-2962
▁فیشن	-2963
▁اسم	-2964
▁عظیم	-2965
▁چیمپئنز	-2966
▁بازوں	-2967
▁بچن	-2968
جاز	-2969
▁الزامات	-2970
▁بنائیں	-2971
تیس	-2972
▁سوئ	-2973
کرا	-2974
ڈین	-2975
▁قلندرز	-2976
▁معطل	-2977
▁سٹاک	-2978
خواہ	-2979
زیز	-2980
▁حمایت	-2981
▁معمولی	-2982
▁اتنی	-2983
▁مک	-2984
▁فرق	-2985
گان	-2986
▁فیڈر	-2987
باس	-2988
▁"	-2989
▁سلیکشن	-2990
▁ناصر	-2991
▁انور	-2992
▁طریقے	-2993
▁مبارکباد	-2994
▁ہوٹل	-2995
▁دیر	-2996
▁مجھ	-2997
▁سیٹھی	-2998
▁ڈومیسٹک	-2999
سپورٹس	-3000
▁بیگ	-3001
▁بحال	-3002
▁صدارت	-3003
▁چاہتی	-3004
انکا	-3005
▁نوجوان	-3006
▁غلطی	-3007
▁متاث	-3008
▁علاج	-3009
▁اوپنر	-3010
نم	-3011
یمز	-3012
▁طی	-3013
تو	-3014
▁مسترد	-3015
عض	-3016
▁شعبوں	-3017
کیٹگری	-3018
اقت	-3019
ڑھے	-3020
چکے	-3021
والی	-3022
▁ملت	-3023
▁ہمارا	-3024
▁ڈرا	-3025
▁انجری	-3026
ھیر	-3027
▁داد	-3028
▁پیشکش	-3029
▁پہنچنے	-3030
▁قبول	-3031
▁ڈویژن	-3032
کورہ	-3033
▁روایتی	-3034
▁ادارہ	-3035
▁کلچر	-3036
▁فنکار	-3037
▁انہوںنے	-3038
▁وٹ	-3039
▁حالت	-3040
فرد	-3041
▁سیشن	-3042
افٹ	-3043
▁حقیقت	-3044
▁چوپ	-3045
▁بہن	-3046
▁دیکھی	-3047
▁مستحکم	-3048
▁منصوبوں	-3049
▁حارث	-3050
▁اکانٹ	-3051
عتی	-3052
▁الدین	-3053
▁یافتہ	-3054
▁درجوں	-3055
گرہ	-3056
▁معاملہ	-3057
فق	-3058
▁پرواز	-3059
سہ	-3060
▁شاداب	-3061
▁کنٹری	-3062
▁پروفی	-3063
▁ورزی	-3064
▁ایجنسی	-3065
▁ملزم	-3066
▁فیملی	-3067
▁تہ	-3068
▁پیپ	-3069
▁امیدو	-3070
کیٹگریز	-3071
جس	-3072
▁گانا	-3073
▁دفاع	-3074
صوص	-3075
▁وصول	-3076
▁ریلوے	-3077
▁ہدایتکار	-3078
▁کانگ	-3079
ولیات	-3080
▁لاس	-3081
▁برامدات	-3082
میٹڈ	-3083
▁سچ	-3084
پٹ	-3085
نڈا	-3086
▁بینکوں	-3087
▁اوسط	-3088
پیئن	-3089
ضم	-3090
▁مدت	-3091
▁ثق	-3092
▁دائر	-3093
▁شرٹس	-3094
▁امام	-3095
▁یوسف	-3096
▁پچھ	-3097
▁رکن	-3098
▁انائی	-3099
▁اطلاعات	-3100
▁بیماری	-3101
بور	-3102
▁نامز	-3103
▁کینی	-3104
▁ڈیل	-3105
▁سیکری	-3106
▁اڑ	-3107
▁ثنا	-3108
▁مرا	-3109
▁بائ	-3110
▁جرمنی	-3111
▁مالیاتی	-3112
▁کرسک	-3113
▁منہ	-3114
▁مریم	-3115
▁ریونیو	-3116
▁ملوث	-3117
▁شیئرز	-3118
▁بعض	-3119
▁موسیقی	-3120
▁منفرد	-3121
▁عبد	-3122
▁مینجمنٹ	-3123
▁فائرنگ	-3124
▁صلاحیتوں	-3125
شق	-3126
خیال	-3127
▁ماحول	-3128
▁شہروں	-3129
یاز	-3130
▁پہنچے	-3131
کیو	-3132
▁دف	-3133
▁انعام	-3134
▁پڑھ	-3135
News	-3136
▁وض	-3137
▁لیتے	-3138
ابھ	-3139
▁اث	-3140
▁دری	-3141
▁۳۵	-3142
ٹیف	-3143
▁زرمبادلہ	-3144
▁پرویز	-3145
اکرات	-3146
▁باکسر	-3147
▁باقا	-3148
▁ایڈیشن	-3149
▁فصل	-3150
ٹرنگ	-3151
لک	-3152
داد	-3153
▁افریقا	-3154
▁کرائی	-3155
▁ہلاک	-3156
▁پتہ	-3157
کرز	-3158
▁افسران	-3159
▁قب	-3160
▁ممکنہ	-3161
▁متوقع	-3162
ٹیل	-3163
▁میوزک	-3164
▁زون	-3165
▁الم	-3166
▁ذاتی	-3167
▁انتظامات	-3168
▁روشنی	-3169
▁نشان	-3170
شک	-3171
واش	-3172
▁براز	-3173
▁بحق	-3174
دس	-3175
▁عزت	-3176
▁سالگرہ	-3177
▁دیتی	-3178
▁بیوی	-3179
ہو	-3180
▁فورس	-3181
▁قابو	-3182
▁کیف	-3183
▁انف	-3184
چرز	-3185
▁اعجاز	-3186
▁سنبھ	-3187
▁گلیڈی	-3188
▁دبا	-3189
▁ایکسپریس	-3190
▁کھیلتے	-3191
درن	-3192
▁بیرون	-3193
ھری	-3194
▁اینڈر	-3195
▁کتاب	-3196
روز	-3197
▁نصف	-3198
▁پریشان	-3199
▁ٹیکسٹائل	-3200
▁زندہ	-3201
نڈر	-3202
▁حامل	-3203
▁شنا	-3204
مپنی	-3205
دت	-3206
▁اضافی	-3207
▁روپ	-3208
▁بھاری	-3209
ادو	-3210
▁ہین	-3211
▁رہتے	-3212
ڑک	-3213
▁جیسا	-3214
ڈنی	-3215
۲۰	-3216
▁والدہ	-3217
▁زینت	-3218
▁رانڈر	-3219
دد	-3220
▁جارح	-3221
▁طاقت	-3222
اظ	-3223
▁شاید	-3224
▁بھٹ	-3225
▁ٹیلنٹ	-3226
▁مذاکرات	-3227
▁پریمی	-3228
اگ	-3229
▁سیکھ	-3230
▁چمپ	-3231
رک	-3232
▁ووٹ	-3233
▁ٹور	-3234
▁اونس	-3235
▁سمج	-3236
▁افتتاحی	-3237
▁سودے	-3238
▁تباہ	-3239
▁پلیئرز	-3240
▁لیج	-3241
▁ماں	-3242
▁ضلع	-3243
▁۹۲	-3244
مائی	-3245
▁جنہیں	-3246
▁اتر	-3247
▁شفیق	-3248
▁واب	-3249
▁واقعہ	-3250
▁جہاز	-3251
▁نجم	-3252
▁زی	-3253
▁چینل	-3254
▁رمضان	-3255
ur	-3256
▁کولم	-3257
▁عط	-3258
▁کرلی	-3259
▁خانہ	-3260
لت	-3261
▁نیپ	-3262
▁تاجروں	-3263
کسی	-3264
▁پل	-3265
▁کرائے	-3266
▁طبی	-3267
▁جوش	-3268
پہ	-3269
انڈی	-3270
▁طل	-3271
ضمام	-3272
سٹیول	-3273
▁قرضوں	-3274
اء	-3275
ائو	-3276
▁دیدی	-3277
▁ہل	-3278
واری	-3279
▁جاسک	-3280
راض	-3281
ارق	-3282
▁پذیر	-3283
▁اکثر	-3284
نامہ	-3285
▁دعا	-3286
▁پروڈکشن	-3287
لاہور	-3288
▁انکی	-3289
سٹن	-3290
▁سرگرم	-3291
▁۶۰	-3292
▁چوپڑا	-3293
ٹرولیم	-3294
ہم	-3295
▁تحری	-3296
▁سیکریٹری	-3297
▁مثال	-3298
▁سفارش	-3299
▁پیار	-3300
▁ساڑھے	-3301
▁حیرت	-3302
▁لگائے	-3303
▁تشکیل	-3304
▁وہیں	-3305
▁مینز	-3306
▁)	-3307
اگر	-3308
▁سپی	-3309
▁مہین	-3310
▁تاجر	-3311
بار	-3312
▁امور	-3313
▁مالک	-3314
▁مذکورہ	-3315
▁سلام	-3316
▁گیل	-3317
▁خواب	-3318
▁تناز	-3319
الا	-3320
▁اجمل	-3321
وانین	-3322
فس	-3323
▁ہدایات	-3324
▁لیٹر	-3325
▁مسلمان	-3326
▁طاہر	-3327
عود	-3328
▁ڈیوٹی	-3329
لیکس	-3330
▁اینٹی	-3331
▁فیسٹیول	-3332
▁صنعتی	-3333
▁ملتوی	-3334
نگٹن	-3335
▁ورک	-3336
▁اسکول	-3337
▁لگی	-3338
▁ازیں	-3339
▁عماد	-3340
▁سکواڈ	-3341
▁چلے	-3342
▁تربی	-3343
کمپنی	-3344
مزید	-3345
▁تیر	-3346
▁چوک	-3347
ذرائع	-3348
▁مشورہ	-3349
شاریہ	-3350
▁رکھیں	-3351
▁نیچے	-3352
▁افسوس	-3353
▁اسپنر	-3354
▁اقدام	-3355
▁گیارہ	-3356
ابی	-3357
du	-3358
▁دکھانے	-3359
▁قوانین	-3360
▁عہدے	-3361
▁یک	-3362
▁پوچ	-3363
▁پریانکا	-3364
▁مختصر	-3365
▁تخ	-3366
ونٹس	-3367
▁کررہے	-3368
▁ہنگ	-3369
▁بنانا	-3370
▁رومان	-3371
▁اوٹ	-3372
▁دیکر	-3373
▁یورو	-3374
▁رضوان	-3375
▁فیلڈنگ	-3376
▁تھام	-3377
▁قریشی	-3378
▁احسان	-3379
▁بنگلا	-3380
▁چم	-3381
▁وکیل	-3382
بھارتی	-3383
▁چیک	-3384
سوخ	-3385
▁حقوق	-3386
▁امت	-3387
▁گن	-3388
▁ڈسٹر	-3389
▁وہی	-3390
▁ایٹرز	-3391
▁دیکھنا	-3392
▁مبت	-3393
گاہ	-3394
▁برادری	-3395
▁ریجن	-3396
▁یار	-3397
▁سنس	-3398
▁سہولیات	-3399
▁منیجر	-3400
▁جنید	-3401
▁ایپل	-3402
▁ملزمان	-3403
▁اسلامی	-3404
▁روب	-3405
▁مبتلا	-3406
▁دان	-3407
مانے	-3408
▁سنجے	-3409
▁پارک	-3410
▁کامران	-3411
▁ناکامی	-3412
الہ	-3413
▁پیپلز	-3414
▁ہےانہوں	-3415
▁مریض	-3416
▁دوستوں	-3417
▁گئی۔	-3418
▁اولمپک	-3419
▁اندازہ	-3420
▁عباسی	-3421
▁مطل	-3422
▁لمح	-3423
روم	-3424
▁صدیقی	-3425
▁ناٹ	-3426
▁کٹ	-3427
▁ٹوی	-3428
قومی	-3429
▁پال	-3430
▁کوچنگ	-3431
▁گورنر	-3432
▁راشد	-3433
▁فوجی	-3434
▁واش	-3435
▁اخراجات	-3436
▁مکی	-3437
▁مسعود	-3438
▁انضمام	-3439
▁اکا	-3440
▁پریمیئر	-3441
▁پانے	-3442
▁اولمپکس	-3443
▁کالج	-3444
▁ملکوں	-3445
خط	-3446
▁ٹوٹ	-3447
▁منسوخ	-3448
▁تمغ	-3449
▁محسن	-3450
پیسے	-3451
▁ڈراموں	-3452
▁تبادلہ	-3453
▁ٹریف	-3454
▁ایر	-3455
▁حصے	-3456
وبہ	-3457
▁شہریار	-3458
▁اسپتال	-3459
▁رام	-3460
▁اشیاء	-3461
▁لیجنڈ	-3462
مرا	-3463
عظم	-3464
▁قیمتیں	-3465
▁ہولڈ	-3466
▁ڈیزل	-3467
▁قمر	-3468
▁دھر	-3469
▁خارجہ	-3470
▁دلا	-3471
▁مطلب	-3472
▁لاگت	-3473
▁ڈرائی	-3474
▁پٹرولیم	-3475
▁سوئی	-3476
مانت	-3477
▁کوریا	-3478
▁وابستہ	-3479
▁خرچ	-3480
▁اُ	-3481
▁دئیے	-3482
▁کمپیو	-3483
▁عہدید	-3484
▁ریسل	-3485
▁واقعات	-3486
▁چاند	-3487
ولنگ	-3488
▁ھ	-3489
▁ارشد	-3490
لاب	-3491
▁موقف	-3492
▁۳۲	-3493
▁مشا	-3494
لر	-3495
▁لمیٹڈ	-3496
▁ایوارڈز	-3497
▁ہورہ	-3498
▁مجبور	-3499
▁رکھتا	-3500
▁ترکی	-3501
کیا	-3502
▁ملائی	-3503
▁رئی	-3504
▁چوری	-3505
▁ٹویٹ	-3506
▁چودھری	-3507
▁سالوں	-3508
▁کمرشل	-3509
ائیوں	-3510
▁ندیم	-3511
▁تھیٹر	-3512
▁سڈنی	-3513
فٹ	-3514
▁دکھایا	-3515
ندگان	-3516
▁بجائے	-3517
▁کیو	-3518
▁دپیکا	-3519
▁دش	-3520
▁پڑتا	-3521
▁کی۔	-3522
▁اعتراف	-3523
▁جام	-3524
▁بارہ	-3525
▁باقاعدہ	-3526
▁غریب	-3527
▁درکار	-3528
لیل	-3529
▁صاف	-3530
▁ہوس	-3531
▁گیت	-3532
▁چمپئن	-3533
▁فنڈز	-3534
▁وزن	-3535
▁پلے	-3536
ینگ	-3537
▁عزیز	-3538
ٹم	-3539
▁جانتے	-3540
پوری	-3541
▁شمولیت	-3542
▁برداشت	-3543
▁ھے	-3544
▁طارق	-3545
▁دوڑ	-3546
▁حفاظ	-3547
▁مناسب	-3548
▁وص	-3549
▁ماہی	-3550
▁جلو	-3551
▁ڈپٹی	-3552
▁بنک	-3553
▁فارمی	-3554
▁موصول	-3555
▁بلال	-3556
▁سیکنڈ	-3557
▁مول	-3558
▁حقیقی	-3559
▁تربیتی	-3560
▁شہید	-3561
▁مشاورت	-3562
▁اینجلس	-3563
▁اوپر	-3564
پس	-3565
▁تعاقب	-3566
▁کروانے	-3567
▁مہنگا	-3568
▁جیمز	-3569
▁پاکستانیوں	-3570
محمد	-3571
▁عبور	-3572
▁ویڈیوز	-3573
▁ذکر	-3574
▁لطیف	-3575
▁ٹاک	-3576
▁فالو	-3577
▁لینا	-3578
بالی	-3579
▁ڈسٹرکٹ	-3580
▁سنا	-3581
▁چو	-3582
▁رمی	-3583
▁فرائ	-3584
▁الیکٹرک	-3585
▁دفاعی	-3586
نگھ	-3587
▁عوامی	-3588
▁ڈیم	-3589
▁کاب	-3590
▁روم	-3591
▁داخلہ	-3592
▁بیٹھ	-3593
▁تشدد	-3594
▁سونا	-3595
بتہ	-3596
▁فرنچائز	-3597
▁صراف	-3598
۱۰	-3599
کورٹ	-3600
▁تاح	-3601
▁واقعی	-3602
تک	-3603
نٹس	-3604
▁کپاس	-3605
▁فرائض	-3606
▁رنبیر	-3607
ساس	-3608
▁کرونا	-3609
▁کامیڈی	-3610
▁چھٹی	-3611
▁مبینہ	-3612
▁تبص	-3613
▁پھیل	-3614
عمل	-3615
▁علیح	-3616
▁۳۳	-3617
▁مشین	-3618
▁عاب	-3619
میم	-3620
▁نج	-3621
▁باکسنگ	-3622
▁پید	-3623
▁کشی	-3624
▁خطرن	-3625
احت	-3626
▁گھٹ	-3627
▁مساف	-3628
▁کسٹم	-3629
▁محض	-3630
ذافی	-3631
▁خطرناک	-3632
▁میڈی	-3633
▁تنخواہ	-3634
اکے	-3635
▁پلیٹ	-3636
▁حمزہ	-3637
فہ	-3638
▁جین	-3639
▁موجودگی	-3640
▁بنی	-3641
▁میڈل	-3642
ادت	-3643
▁ضمانت	-3644
▁خسارہ	-3645
▁رکھنا	-3646
▁یوٹی	-3647
▁روکنے	-3648
▁نیک	-3649
▁...	-3650
▁واقعے	-3651
ترین	-3652
▁نامہ	-3653
▁تاریخی	-3654
▁اتار	-3655
▁وغیر	-3656
▁سنسنی	-3657
▁کترینہ	-3658
▁سٹریلوی	-3659
▁عزم	-3660
▁یونین	-3661
▁سراہا	-3662
▁۷۰	-3663
▁والدین	-3664
▁صوبے	-3665
▁الفاظ	-3666
▁۴۵	-3667
وو	-3668
▁تشوی	-3669
▁کول	-3670
▁واز	-3671
▁اگرچہ	-3672
▁لین	-3673
ائلز	-3674
▁عرو	-3675
▁کیرئیر	-3676
▁افز	-3677
کراچی	-3678
ضو	-3679
▁خا	-3680
ny	-3681
▁جارہا	-3682
مع	-3683
▁امیت	-3684
غی	-3685
▁لباس	-3686
▁ئل	-3687
وشکا	-3688
رب	-3689
▁اصلاح	-3690
▁کنٹریکٹ	-3691
گزشتہ	-3692
▁سلو	-3693
▁کسان	-3694
▁تاخ	-3695
▁مایوس	-3696
▁ٹین	-3697
الے	-3698
▁سینٹ	-3699
▁غلام	-3700
▁اسٹیج	-3701
▁ڈویل	-3702
in	-3703
▁کرینگے	-3704
پل	-3705
▁قید	-3706
▁نتیجہ	-3707
▁ڈیوائس	-3708
نگی	-3709
▁ٹرمپ	-3710
یدگی	-3711
▁شاع	-3712
چار	-3713
▁سامان	-3714
انٹ	-3715
▁گردی	-3716
▁کرداروں	-3717
مارچ	-3718
▁بولرز	-3719
▁مائیکل	-3720
▁احساس	-3721
▁رش	-3722
▁نائٹ	-3723
▁ہائیکورٹ	-3724
▁میس	-3725
▁بانڈ	-3726
مقابل	-3727
دوسری	-3728
▁محروم	-3729
▁کمز	-3730
خری	-3731
سام	-3732
▁چھوٹی	-3733
ماہ	-3734
▁دستخط	-3735
▁معین	-3736
پمنٹ	-3737
▁ریٹائرمنٹ	-3738
▁ابلا	-3739
تانی	-3740
▁لار	-3741
▁منعقدہ	-3742
شور	-3743
▁سفیر	-3744
▁مشیر	-3745
▁حکمت	-3746
ہری	-3747
بیو	-3748
▁باتیں	-3749
▁وغیرہ	-3750
ندرہ	-3751
▁عالیہ	-3752
ارٹمنٹ	-3753
▁غر	-3754
▁بڑھنے	-3755
ئرلینڈ	-3756
▁۸۰	-3757
زل	-3758
▁اشتہ	-3759
▁ہیںاس	-3760
▁الرحمان	-3761
جیل	-3762
▁دت	-3763
▁مں	-3764
▁اتفاق	-3765
ناک	-3766
▁بالرز	-3767
▁قذافی	-3768
▁مشن	-3769
▁بلیک	-3770
▁دارال	-3771
▁سمیع	-3772
▁مرکز	-3773
▁ٹوئٹ	-3774
▁تاخیر	-3775
▁ٹیبل	-3776
▁انا	-3777
▁ائیر	-3778
▁نسیم	-3779
▁بھٹو	-3780
▁ابلاغ	-3781
▁واپڈا	-3782
▁بانی	-3783
▁جج	-3784
▁انوں	-3785
▁بچانے	-3786
▁نمائندہ	-3787
▁فس	-3788
▁امین	-3789
ابطہ	-3790
▁رہتی	-3791
▁یوں	-3792
وفی	-3793
▁کمپلیکس	-3794
جبکہ	-3795
▁بازار	-3796
▁کپتانی	-3797
خار	-3798
▁ارکان	-3799
▁مارک	-3800
▁فیر	-3801
▁موضو	-3802
▁ترسی	-3803
وام	-3804
دسمبر	-3805
▁کھیلنا	-3806
اندی	-3807
ایا	-3808
▁اگے	-3809
▁مقامات	-3810
▁چر	-3811
▁فوڈ	-3812
▁ہےان	-3813
▁لسٹ	-3814
▁عارف	-3815
▁کیٹی	-3816
▁پیٹرولیم	-3817
▁باہمی	-3818
▁تکلیف	-3819
▁سیلز	-3820
▁منسل	-3821
▁جعلی	-3822
▁لاک	-3823
▁جنسی	-3824
▁انگی	-3825
برگ	-3826
ڈوک	-3827
▁وضاحت	-3828
ادیا	-3829
▁نسل	-3830
ائونڈ	-3831
▁ڈیر	-3832
▁تیاریاں	-3833
▁میٹ	-3834
نومبر	-3835
▁ڈسپ	-3836
▁خطرہ	-3837
▁چھا	-3838
▁شف	-3839
▁زیب	-3840
▁منسلک	-3841
▁ڈانس	-3842
▁ازاں	-3843
▁بلاک	-3844
▁کمپیوٹر	-3845
▁چوتھی	-3846
ترتیب	-3847
▁ایشی	-3848
کری	-3849
▁خدا	-3850
▁ریڈ	-3851
▁چلنے	-3852
▁قریبی	-3853
▁ٹریفک	-3854
▁مدمقابل	-3855
▁جیک	-3856
▁راجہ	-3857
▁اعشاریہ	-3858
▁اسٹاف	-3859
▁البتہ	-3860
کھلاڑی	-3861
▁کارکن	-3862
▁انوشکا	-3863
▁مایہ	-3864
▁وصولی	-3865
▁اچانک	-3866
قات	-3867
▁ویٹ	-3868
▁حلق	-3869
▁بوجھ	-3870
▁جرمانہ	-3871
▁دیکھیں	-3872
▁شین	-3873
▁توسیع	-3874
▁ہاس	-3875
▁ہاف	-3876
▁دارالحکومت	-3877
▁سنگلز	-3878
▁پچھلے	-3879
▁ہوں۔	-3880
حاظ	-3881
▁امیتابھ	-3882
▁وقفے	-3883
▁روہ	-3884
▁بخش	-3885
▁کابینہ	-3886
▁ہن	-3887
▁بیٹھے	-3888
اللہ	-3889
▁کہاں	-3890
▁مہنگی	-3891
▁پندرہ	-3892
▁وبا	-3893
▁قص	-3894
ڈٹ	-3895
▁حادثے	-3896
▁مخالف	-3897
▁درو	-3898
▁معاش	-3899
ڈیا	-3900
▁سنچریاں	-3901
۳۰	-3902
▁لیون	-3903
▁چیمپیئن	-3904
▁۳۴	-3905
▁متاثرہ	-3906
▁کارپوری	-3907
عام	-3908
قہ	-3909
▁دم	-3910
▁آن	-3911
ریت	-3912
▁دکان	-3913
▁پٹ	-3914
سٹریلیا	-3915
▁سارے	-3916
▁عبدالر	-3917
▁کینیڈا	-3918
▁گرینڈ	-3919
▁تما	-3920
▁مناظر	-3921
▁پبل	-3922
▁کرینہ	-3923
▁ڈیبیو	-3924
وکس	-3925
▁صرافہ	-3926
اداکارہ	-3927
نگا	-3928
▁روبوٹ	-3929
▁جارحانہ	-3930
▁پایا	-3931
▁شخصیت	-3932
اہتمام	-3933
▁مارکیٹوں	-3934
▁احسن	-3935
▁نمائند	-3936
▁ریگ	-3937
▁پچاس	-3938
▁آیا	-3939
انسی	-3940
▁کھیلیں	-3941
▁جلوہ	-3942
▁خصوص	-3943
▁بیچ	-3944
ضل	-3945
▁۳۶	-3946
▁مخصوص	-3947
▁جیو	-3948
▁اننگ	-3949
▁فیفا	-3950
▁سنٹر	-3951
▁مواد	-3952
▁مہر	-3953
بوت	-3954
میری	-3955
▁امیدوار	-3956
▁سیریل	-3957
▁طب	-3958
▁عورت	-3959
▁امداد	-3960
▁پہلو	-3961
▁طرز	-3962
زیہ	-3963
▁دفت	-3964
▁وائس	-3965
▁نبھ	-3966
▁کیسز	-3967
▁تمہ	-3968
ینئر	-3969
▁اسٹر	-3970
کشے	-3971
▁جارہی	-3972
▁افتخار	-3973
▁بیٹری	-3974
▁یورپ	-3975
▁علام	-3976
▁سول	-3977
▁کلچرل	-3978
▁دھونی	-3979
▁افزائی	-3980
▁پانڈ	-3981
▁پود	-3982
▁پڑھی	-3983
▁تسلیم	-3984
▁خاتمہ	-3985
▁انعامات	-3986
ٹیز	-3987
▁سپلائی	-3988
▁ڈیپ	-3989
ائشی	-3990
▁زیاد	-3991
▁نوازا	-3992
دل	-3993
▁لاکھوں	-3994
اکا	-3995
انو	-3996
ڈوکون	-3997
▁حرکت	-3998
▁زیراہتمام	-3999
▁مائیکرو	-4000
▁برانڈ	-4001
▁فال	-4002
▁خاطر	-4003
▁معاو	-4004
ڑیاں	-4005
▁ارادہ	-4006
▁صوبہ	-4007
جون	-4008
▁لحاظ	-4009
▁کرچکے	-4010
▁رساں	-4011
▁عابد	-4012
ائپ	-4013
▁ہال	-4014
▁۹۰	-4015
عمر	-4016
▁ایتھ	-4017
▁انفر	-4018
▁ٹویٹر	-4019
▁معیاری	-4020
▁مانچ	-4021
انڈیکس	-4022
▁بناکر	-4023
▁روزگار	-4024
▁خلا	-4025
▁اسح	-4026
▁حساب	-4027
اث	-4028
▁ڈو	-4029
▁اصف	-4030
▁لاز	-4031
▁عدن	-4032
▁تصور	-4033
▁پوچھا	-4034
▁شب	-4035
▁کوچز	-4036
پیش	-4037
▁انگیز	-4038
▁مرتب	-4039
اجی	-4040
صف	-4041
▁افس	-4042
خی	-4043
ائنڈ	-4044
▁ریلیف	-4045
▁بریف	-4046
▁ملائیشیا	-4047
مہوری	-4048
▁انو	-4049
▁یورپی	-4050
▁شائع	-4051
یابی	-4052
نڈے	-4053
▁اتح	-4054
▁حاض	-4055
▁سنبھال	-4056
▁ناقص	-4057
▁ثانیہ	-4058
▁دما	-4059
▁فلس	-4060
▁آف	-4061
▁کلا	-4062
▁اواز	-4063
بوس	-4064
▁رنویر	-4065
▁بالترتیب	-4066
خان	-4067
▁وائٹ	-4068
پاکستانی	-4069
▁جادو	-4070
▁شدت	-4071
▁تنا	-4072
▁روٹ	-4073
▁عدنان	-4074
▁بیرونی	-4075
▁سرفہرست	-4076
▁خراج	-4077
▁الحسن	-4078
▁کرانے	-4079
اپریل	-4080
▁ہزاروں	-4081
▁پیرس	-4082
▁ساری	-4083
▁لطف	-4084
راعظم	-4085
▁رہتا	-4086
▁مانچسٹر	-4087
▁آر	-4088
نٹی	-4089
▁ابوظ	-4090
▁جیتا	-4091
▁کراچیاردو	-4092
▁برازیل	-4093
مئی	-4094
▁نسبت	-4095
▁اہلکار	-4096
نام	-4097
▁لائیو	-4098
▁چاندی	-4099
▁شناخت	-4100
▁ڈویلپمنٹ	-4101
▁مالکان	-4102
وزیشن	-4103
▁خوراک	-4104
گھ	-4105
▁آئ	-4106
▁سینٹرل	-4107
▁نامزد	-4108
▁فین	-4109
▁ہانگ	-4110
▁ترتیب	-4111
▁دی۔	-4112
وکٹوں	-4113
▁جنا	-4114
▁دریافت	-4115
▁اعلامی	-4116
راء	-4117
▁قط	-4118
رڈ	-4119
▁فیڈرل	-4120
▁کاش	-4121
▁اسکر	-4122
▁بلاول	-4123
نیاں	-4124
▁معافی	-4125
ائون	-4126
کاوٹ	-4127
▁پڈوکون	-4128
کوٹ	-4129
▁آنے	-4130
▁فضل	-4131
▁پہچ	-4132
▁لاہورسپورٹس	-4133
▁ویسے	-4134
▁تاحال	-4135
دیش	-4136
▁جمہوری	-4137
▁نکھ	-4138
▁نگرانی	-4139
▁بھٹی	-4140
▁مچل	-4141
▁شارجہ	-4142
▁عکس	-4143
بھی	-4144
▁لائی	-4145
▁کمال	-4146
▁پینل	-4147
▁رشتہ	-4148
ملین	-4149
▁ماہر	-4150
کٹری	-4151
اکین	-4152
▁دہانی	-4153
ائمہ	-4154
▁امیر	-4155
ٹیفکیشن	-4156
یح	-4157
▁دھو	-4158
▁دفتر	-4159
▁خون	-4160
اسم	-4161
▁سرگرمیاں	-4162
▁گام	-4163
ڈنگ	-4164
▁استق	-4165
▁تفتی	-4166
▁نیب	-4167
▁چاول	-4168
وچ	-4169
▁غص	-4170
▁ساتویں	-4171
▁مے	-4172
▁انکے	-4173
▁روسی	-4174
▁بیرل	-4175
▁آئے	-4176
شلز	-4177
▁ثبوت	-4178
ارتھ	-4179
▁وسائل	-4180
▁شرجیل	-4181
▁پراجیکٹ	-4182
▁زرداری	-4183
▁رچر	-4184
جنوری	-4185
▁کلی	-4186
▁نرخوں	-4187
▁گھری	-4188
▁بڑھتی	-4189
▁جشن	-4190
ڈالر	-4191
وریج	-4192
▁چارج	-4193
▁اکشے	-4194
▁انجینئر	-4195
▁شکایت	-4196
ائشہ	-4197
▁کراچ	-4198
زادی	-4199
▁ہوسک	-4200
▁اسٹریلوی	-4201
▁فارمیٹ	-4202
▁سیمنٹ	-4203
▁اسپین	-4204
▁فاص	-4205
▁چھی	-4206
▁ملبوس	-4207
کمپنیوں	-4208
▁ردعمل	-4209
▁مرحلہ	-4210
▁مقب	-4211
▁لائٹ	-4212
▁سنیما	-4213
توں	-4214
ستمبر	-4215
بادل	-4216
▁سافٹ	-4217
▁پریش	-4218
کلو	-4219
▁زیادتی	-4220
▁پارلی	-4221
ساز	-4222
▁قطر	-4223
▁مطلوبہ	-4224
▁فرسٹ	-4225
بھا	-4226
▁امر	-4227
▁سروسز	-4228
▁جز	-4229
▁پبلک	-4230
▁سبز	-4231
▁سازی	-4232
▁وارنر	-4233
▁افریقی	-4234
▁راحت	-4235
▁یوم	-4236
▁کلین	-4237
▁پسندیدہ	-4238
▁گرم	-4239
▁پیداواری	-4240
▁انیس	-4241
لیمی	-4242
▁اسمتھ	-4243
▁مقبولیت	-4244
ٹنر	-4245
▁پرائی	-4246
▁یوٹیوب	-4247
فیع	-4248
▁سٹیٹ	-4249
▁ایٹ	-4250
▁ٹائیگر	-4251
▁مستقل	-4252
▁پھل	-4253
▁ریف	-4254
▁الحال	-4255
▁مدن	-4256
طی	-4257
▁سربراہی	-4258
▁ترک	-4259
▁پوچھ	-4260
▁دوستی	-4261
جولائی	-4262
▁سبزی	-4263
▁کھڑے	-4264
▁انتہا	-4265
▁خسارے	-4266
▁کریم	-4267
▁سکواش	-4268
ائندہ	-4269
فصی	-4270
گوار	-4271
▁بندھ	-4272
حص	-4273
تیں	-4274
▁نوید	-4275
▁اسپاٹ	-4276
▁انفرادی	-4277
▁دستاویز	-4278
جان	-4279
▁ذہنی	-4280
تاہم	-4281
کاٹ	-4282
▁فنانس	-4283
▁ٹان	-4284
سالہ	-4285
▁کمپنیاں	-4286
▁اٹلی	-4287
ورو	-4288
▁بیجنگ	-4289
▁خدشہ	-4290
▁بریفنگ	-4291
▁اسحاق	-4292
▁روزانہ	-4293
▁متبادل	-4294
▁۳۸	-4295
فیہ	-4296
▁ڈیجی	-4297
▁مودی	-4298
▁باڈی	-4299
▁۳۷	-4300
▁کنڈی	-4301
▁مولانا	-4302
▁ویو	-4303
▁ورژن	-4304
▁پکڑ	-4305
طفی	-4306
▁اسرائیل	-4307
▁اتنے	-4308
▁مقدار	-4309
▁سفید	-4310
▁اعتراض	-4311
▁گوشت	-4312
▁نہایت	-4313
▁گرفتاری	-4314
▁دہائی	-4315
▁ایشیائی	-4316
تاق	-4317
سٹریشن	-4318
▁خاتمے	-4319
▁قسمت	-4320
▁وسط	-4321
▁گھریلو	-4322
▁بھول	-4323
سابق	-4324
▁پٹرول	-4325
شین	-4326
▁ڈوپ	-4327
▁کھرب	-4328
▁میڈیکل	-4329
▁ورلڈکپ	-4330
▁باری	-4331
امری	-4332
▁بلڈ	-4333
▁کمزور	-4334
▁چلی	-4335
▁گھومتی	-4336
▁چھکے	-4337
▁تعینات	-4338
▁ایونٹس	-4339
▁تعلیمی	-4340
▁اراکین	-4341
▁سمندر	-4342
▁سلطانز	-4343
▁نوٹیفکیشن	-4344
▁''	-4345
▁چوتھا	-4346
▁نشر	-4347
حات	-4348
▁کینسر	-4349
▁لیس	-4350
▁گئے۔	-4351
▁شمالی	-4352
▁اٹھایا	-4353
▁فائیو	-4354
▁مقدم	-4355
▁کھا	-4356
▁دال	-4357
▁راستے	-4358
ینڈ	-4359
▁رب	-4360
وشن	-4361
▁فضائی	-4362
▁حض	-4363
▁بناتے	-4364
▁بابراعظم	-4365
▁کک	-4366
▁ممبران	-4367
▁ہیل	-4368
▁تجا	-4369
▁باغ	-4370
▁کبڈی	-4371
▁۷۵	-4372
▁چائے	-4373
▁رجسٹر	-4374
▁کلوگرام	-4375
▁تجزیہ	-4376
▁مہینے	-4377
بھارت	-4378
▁ڈیڑھ	-4379
▁مردوں	-4380
▁صحیح	-4381
▁بیشتر	-4382
▁ٹیلر	-4383
▁خلائی	-4384
▁پکس	-4385
▁اسکیم	-4386
▁جائیگی	-4387
▁باپ	-4388
▁دلی	-4389
▁سورج	-4390
▁تنویر	-4391
▁ملتا	-4392
▁جمشید	-4393
▁درپیش	-4394
▁چوکوں	-4395
فصیلات	-4396
▁۴۸	-4397
▁ٹنڈ	-4398
▁ڈبلز	-4399
▁اغ	-4400
▁پلس	-4401
▁ہیںان	-4402
▁پریشانی	-4403
▁دشمن	-4404
▁جاسکتا	-4405
▁عوض	-4406
▁میسی	-4407
▁خطرے	-4408
▁بچی	-4409
▁تحسین	-4410
▁دہشتگر	-4411
▁مفاد	-4412
جنٹ	-4413
▁ماہانہ	-4414
▁کہنے	-4415
▁عاص	-4416
▁اپوزیشن	-4417
▁ناد	-4418
الم	-4419
▁سعد	-4420
▁فہیم	-4421
ولرز	-4422
▁فرم	-4423
▁مغر	-4424
▁کوششوں	-4425
▁کروایا	-4426
▁راک	-4427
▁زاہد	-4428
نیوز	-4429
تصویر	-4430
▁بحث	-4431
▁ذوال	-4432
چکا	-4433
▁چڑھ	-4434
وریا	-4435
سرز	-4436
▁امکانات	-4437
▁کررہی	-4438
▁لگنے	-4439
▁جوڑے	-4440
جران	-4441
▁الا	-4442
▁چہرے	-4443
▁ڈھیر	-4444
▁صنعتوں	-4445
میشن	-4446
▁عائشہ	-4447
▁ڈون	-4448
ختی	-4449
بیا	-4450
▁حوالہ	-4451
▁مانیٹرنگ	-4452
▁پیدائش	-4453
▁مشتاق	-4454
وزیر	-4455
افظ	-4456
▁گھنٹوں	-4457
سٹنٹ	-4458
▁قاسم	-4459
▁نمو	-4460
ونڈر	-4461
▁کوئ	-4462
▁پڑھیے	-4463
▁ڈیجیٹل	-4464
▁رکاوٹ	-4465
▁تشویش	-4466
▁گرائونڈ	-4467
ماعی	-4468
▁چڑ	-4469
اتھا	-4470
▁رونال	-4471
▁بنیادوں	-4472
▁جولائیء	-4473
فروری	-4474
▁ہما	-4475
▁اکبر	-4476
▁ہوسکے	-4477
▁وسیع	-4478
▁لاش	-4479
▁وجوہ	-4480
وزی	-4481
چکی	-4482
▁اختلاف	-4483
▁مذاق	-4484
▁گریڈ	-4485
▁براڈ	-4486
▁ثناء	-4487
▁اسرائیلی	-4488
اگست	-4489
▁فلسط	-4490
▁اوقات	-4491
▁مراد	-4492
▁جھوٹ	-4493
▁تمغہ	-4494
▁شرم	-4495
اسلام	-4496
▁ریفری	-4497
انڈر	-4498
▁لایا	-4499
▁جوہر	-4500
▁منیر	-4501
▁ٹم	-4502
▁جیتے	-4503
▁مختص	-4504
▁دودھ	-4505
▁۴۲	-4506
▁کاشتکاروں	-4507
۱۵	-4508
اکتوبر	-4509
▁ڈالا	-4510
▁سیکو	-4511
▁پیٹرول	-4512
▁ادو	-4513
▁ضمن	-4514
▁تحریر	-4515
گئی	-4516
▁کرسکے	-4517
▁قرضے	-4518
▁قوت	-4519
▁سماء	-4520
چا	-4521
▁پھول	-4522
▁اطلاع	-4523
▁وے	-4524
اتر	-4525
▁سمجھا	-4526
اوی	-4527
بینک	-4528
▁ایمان	-4529
▁۵۵	-4530
▁پرت	-4531
الٹی	-4532
▁مئیء	-4533
▁تقر	-4534
▁کلیئر	-4535
▁تشہ	-4536
▁ایکڑ	-4537
▁اٹھانے	-4538
▁مٹی	-4539
▁اندو	-4540
▁آپ	-4541
▁مصطفی	-4542
ویسٹ	-4543
▁برسوں	-4544
نگل	-4545
▁سردار	-4546
▁چلانے	-4547
یاس	-4548
▁۲۰۰	-4549
ضے	-4550
اطف	-4551
▁اثاث	-4552
ہیر	-4553
▁ابوظہبی	-4554
علوم	-4555
▁ایرانی	-4556
▁ہیم	-4557
▁چیزیں	-4558
▁فرحان	-4559
▁اقوام	-4560
▁روح	-4561
▁سستا	-4562
▁شارٹ	-4563
وڈیو	-4564
▁قیمتی	-4565
▁مشر	-4566
▁بم	-4567
ملکت	-4568
▁تجاویز	-4569
▁گلگت	-4570
انج	-4571
▁پیمانے	-4572
▁حمی	-4573
▁کھانا	-4574
▁یادگار	-4575
▁جونء	-4576
▁سارہ	-4577
▁کوٹ	-4578
▁سٹاف	-4579
▁اون	-4580
▁آج	-4581
▁ریگولی	-4582
▁ناف	-4583
▁تل	-4584
▁زاد	-4585
▁حمل	-4586
▁سیکورٹی	-4587
▁معاشرے	-4588
▁بچا	-4589
▁ریو	-4590
بیب	-4591
▁ایپلی	-4592
▁لیکر	-4593
جرز	-4594
▁گھوم	-4595
▁دوسر	-4596
بٹ	-4597
▁ڈیرن	-4598
▁ستمبرء	-4599
عیت	-4600
▁مہوش	-4601
▁سبس	-4602
▁علیحدگی	-4603
▁بھیجا	-4604
▁چھوڑنے	-4605
▁لگائی	-4606
▁رہنا	-4607
ینڈل	-4608
کوز	-4609
▁اسٹیل	-4610
▁سدرن	-4611
▁علاقہ	-4612
▁لازمی	-4613
آمد	-4614
▁بیج	-4615
▁تکمیل	-4616
▁بلندی	-4617
▁لانچ	-4618
▁تجاوز	-4619
▁اپن	-4620
▁رائونڈ	-4621
▁بدترین	-4622
▁بیٹا	-4623
فائل	-4624
▁تردید	-4625
▁۴۱	-4626
ائرہ	-4627
▁پناہ	-4628
▁دھوم	-4629
▁اعص	-4630
▁عہد	-4631
تالیس	-4632
▁ریال	-4633
▁نگران	-4634
▁اسٹیشن	-4635
▁ہیںانہوں	-4636
ورس	-4637
▁درد	-4638
▁افواہ	-4639
ٹیم	-4640
ملکی	-4641
▁ڈائی	-4642
▁h	-4643
▁پیٹ	-4644
▁ہری	-4645
▁قدرتی	-4646
▁ولی	-4647
▁کمائی	-4648
▁سٹر	-4649
▁روی	-4650
▁لیڈر	-4651
▁۳۹	-4652
▁میٹنگ	-4653
▁ملتی	-4654
▁ٹام	-4655
دانوں	-4656
▁شرکا	-4657
▁مہارت	-4658
▁سونم	-4659
▁دیشی	-4660
▁اکٹ	-4661
▁توان	-4662
ئرز	-4663
▁پڑی	-4664
جرانوالہ	-4665
▁مون	-4666
▁چھٹے	-4667
▁بلین	-4668
▁وجوہات	-4669
وشی	-4670
▁پروفیسر	-4671
الت	-4672
▁نماز	-4673
ضابطہ	-4674
▁ڈراپ	-4675
داروں	-4676
▁کیمرے	-4677
▁!	-4678
▁محب	-4679
▁۴۴	-4680
▁اپریلء	-4681
▁اوپننگ	-4682
ائوں	-4683
▁روہت	-4684
▁ایوان	-4685
▁دھمکی	-4686
▁ارجن	-4687
▁گراونڈ	-4688
▁شماریات	-4689
▁موضوع	-4690
▁خدش	-4691
ذرت	-4692
▁نفس	-4693
ہرہ	-4694
▁اگستء	-4695
▁فاروق	-4696
▁پکسل	-4697
▁حکمر	-4698
▁جذبات	-4699
وین	-4700
▁قسط	-4701
▁پہنچی	-4702
▁چاہے	-4703
سٹھ	-4704
▁چور	-4705
▁درجن	-4706
▁چاروں	-4707
▁بھیجنے	-4708
▁شوق	-4709
نگر	-4710
▁کھاد	-4711
▁دکھائے	-4712
فتوں	-4713
▁نشری	-4714
▁الف	-4715
▁تفتیش	-4716
▁اصلاحات	-4717
لبورن	-4718
▁سوالات	-4719
▁نکا	-4720
▁صحافیوں	-4721
▁اگاہ	-4722
▁دیدیا	-4723
▁جسمانی	-4724
کوک	-4725
▁عاصم	-4726
جیب	-4727
▁میڈرڈ	-4728
نمائندہ	-4729
▁لیک	-4730
▁کوڈ	-4731
▁عروج	-4732
▁ذی	-4733
▁کروڑوں	-4734
▁رہائش	-4735
▁مقیم	-4736
▁باضابطہ	-4737
▁۶۴	-4738
ورلڈ	-4739
▁الرحمن	-4740
▁معاونت	-4741
▁معذرت	-4742
۱۹	-4743
▁ادھر	-4744
▁دفعہ	-4745
▁ملبوسات	-4746
ٹیو	-4747
لاع	-4748
▁نامعلوم	-4749
▁مملکت	-4750
▁گرل	-4751
▁اسکی	-4752
▁واشنگٹن	-4753
tt	-4754
▁امتیاز	-4755
▁کورس	-4756
ورتی	-4757
▁رتھر	-4758
ویب	-4759
▁راستہ	-4760
ئم	-4761
ظمی	-4762
بالر	-4763
صوب	-4764
▁ٹرک	-4765
ائٹس	-4766
▁اسسٹنٹ	-4767
▁گنج	-4768
▁لمب	-4769
▁کیٹیگری	-4770
▁پہا	-4771
دمت	-4772
▁جوڑ	-4773
▁زم	-4774
▁مزاحیہ	-4775
▁گردش	-4776
▁کوششیں	-4777
▁پارلیمنٹ	-4778
▁رئیس	-4779
▁دنی	-4780
▁عاد	-4781
وڑا	-4782
-%	-4783
پت	-4784
فقار	-4785
▁ہندوستانی	-4786
▁سڑ	-4787
▁تنازع	-4788
▁چائ	-4789
▁مڈل	-4790
طرف	-4791
▁ٹریک	-4792
▁مفت	-4793
▁ول	-4794
▁عمارت	-4795
سوں	-4796
▁انچ	-4797
ps	-4798
▁فیروز	-4799
▁سیال	-4800
▁پہنچایا	-4801
▁کینگ	-4802
urdu	-4803
▁یوتھ	-4804
▁ملازمت	-4805
روی	-4806
▁انکم	-4807
▁لنک	-4808
دہی	-4809
▁توانائی	-4810
▁ارجنٹ	-4811
▁وک	-4812
▁خطے	-4813
▁خفیہ	-4814
▁چھکوں	-4815
▁سیکوئل	-4816
▁News	-4817
ٹیسٹ	-4818
▁الہ	-4819
ورین	-4820
▁ونڈ	-4821
▁حج	-4822
▁امجد	-4823
▁گاڑیاں	-4824
▁میتھی	-4825
▁حفاظت	-4826
ستور	-4827
▁میلبورن	-4828
▁بلائنڈ	-4829
▁ادویات	-4830
▁ویز	-4831
▁جانی	-4832
ائنگ	-4833
▁۴۳	-4834
▁نژ	-4835
ننگ	-4836
▁بخاری	-4837
▁سستی	-4838
▁htt	-4839
//	-4840
://	-4841
▁کھڑا	-4842
▁رہائشی	-4843
▁عاطف	-4844
▁رٹ	-4845
فرت	-4846
▁فلمساز	-4847
▁نژاد	-4848
▁کشمیری	-4849
▁https	-4850
▁انکو	-4851
▁پروم	-4852
▁کولمبو	-4853
▁سائیڈ	-4854
▁نافذ	-4855
▁گرنے	-4856
کرکٹ	-4857
▁رول	-4858
▁اخر	-4859
▁الب	-4860
واز	-4861
▁طلاق	-4862
▁متناز	-4863
▁ابر	-4864
لیگ	-4865
پورٹرز	-4866
▁ضیا	-4867
▁نبی	-4868
▁انٹری	-4869
▁رجسٹریشن	-4870
متاز	-4871
▁صبا	-4872
▁سوچا	-4873
▁عشق	-4874
▁پہچان	-4875
▁ملیں	-4876
▁سیڈ	-4877
▁واہ	-4878
کتہ	-4879
▁پے	-4880
ائزر	-4881
▁سابقہ	-4882
▁رقص	-4883
غذ	-4884
ڈلز	-4885
▁جانوروں	-4886
▁گلیکسی	-4887
▁کیمرہ	-4888
▁ائل	-4889
▁اسکے	-4890
▁تکنی	-4891
ئس	-4892
▁سرچ	-4893
▁پارٹنر	-4894
▁عہدیدار	-4895
▁کمیونٹی	-4896
▁اتحاد	-4897
▁ہفتوں	-4898
▁ٹریڈنگ	-4899
▁اہلکاروں	-4900
▁دماغ	-4901
▁وائی	-4902
▁مقدمات	-4903
▁اختتامی	-4904
▁خریدنے	-4905
▁گولی	-4906
▁لیا۔	-4907
اصلاحیت	-4908
▁۴۷	-4909
▁باجوہ	-4910
▁چیزوں	-4911
▁بولڈ	-4912
▁پنجابی	-4913
▁۴۶	-4914
▁چینج	-4915
▁خوفناک	-4916
▁تسلسل	-4917
▁سپنر	-4918
دمی	-4919
لیکن	-4920
▁فرینڈ	-4921
▁استقبال	-4922
زاق	-4923
▁تیس	-4924
▁پاپ	-4925
▁لائنز	-4926
▁درمدات	-4927
۲۶	-4928
مانی	-4929
▁استاد	-4930
▁راز	-4931
▁جڑ	-4932
▁ایکسپورٹ	-4933
۱۴	-4934
▁اوگرا	-4935
▁فٹبالر	-4936
▁قبضہ	-4937
▁ہالینڈ	-4938
نوں	-4939
▁کوک	-4940
▁سمجھتے	-4941
▁ڈگری	-4942
▁ایڈو	-4943
لح	-4944
▁قسمتی	-4945
ورے	-4946
▁نان	-4947
رت	-4948
▁مریضوں	-4949
▁لڑکے	-4950
▁نشاندہی	-4951
ائٹی	-4952
▁خدمت	-4953
▁ضروریات	-4954
▁اسان	-4955
▁طیارے	-4956
▁باصلاحیت	-4957
فوٹو	-4958
▁تخلی	-4959
▁چاہی	-4960
▁ماسٹر	-4961
▁اسٹارز	-4962
▁مقابل	-4963
▁پہنچانے	-4964
▁رونالڈو	-4965
▁کپل	-4966
▁تبصرہ	-4967
▁کارپوریشن	-4968
▁پیشہ	-4969
▁اندوز	-4970
حل	-4971
وڑی	-4972
▁مصنوعی	-4973
▁حبیب	-4974
▁سرحد	-4975
▁نڈ	-4976
▁ڈرائیور	-4977
▁سنگا	-4978
▁ولیمز	-4979
▁کھلا	-4980
▁پتا	-4981
▁عملدر	-4982
▁مسئلے	-4983
طرفہ	-4984
▁اضلاع	-4985
کھلاڑیوں	-4986
ماٹر	-4987
▁ڈیٹ	-4988
▁جرمن	-4989
▁شفیع	-4990
▁۶۵	-4991
▁موثر	-4992
▁سرخ	-4993
▁بادشاہ	-4994
de	-4995
▁اطلاق	-4996
▁عا	-4997
▁خالی	-4998
ثار	-4999
ٹھی	-5000
▁اینڈرسن	-5001
▁فیسر	-5002
▁تجربے	-5003
ولکر	-5004
▁ابت	-5005
▁مدنی	-5006
انگلینڈ	-5007
▁چیٹ	-5008
▁نوائے	-5009
▁روئی	-5010
▁ٹرائلز	-5011
▁جائے۔	-5012
▁وح	-5013
▁دبنگ	-5014
▁شور	-5015
ازن	-5016
▁لیول	-5017
▁بھجو	-5018
▁ثقافت	-5019
▁ضائع	-5020
ائنہ	-5021
ورا	-5022
ترام	-5023
▁فتو	-5024
▁ہڑ	-5025
▁اینی	-5026
▁ٹکر	-5027
▁ٹوکیو	-5028
▁کاغذ	-5029
▁سکر	-5030
▁فیچرز	-5031
▁ایکٹ	-5032
کیاں	-5033
▁سڑک	-5034
▁مرحوم	-5035
▁سودوں	-5036
▁نبھا	-5037
طمہ	-5038
▁سیلاب	-5039
۱۲	-5040
▁سکیم	-5041
▁بلت	-5042
وکٹیں	-5043
▁ممبئیاردو	-5044
▁طالب	-5045
▁ساح	-5046
▁اگلی	-5047
▁تاب	-5048
▁انسٹی	-5049
▁مسٹر	-5050
▁سولہ	-5051
▁حرا	-5052
شاء	-5053
▁جمیل	-5054
▁دوسروں	-5055
▁نصب	-5056
▁سرور	-5057
▁ممتاز	-5058
▁گوجرانوالہ	-5059
▁ارجنٹائن	-5060
▁لم	-5061
▁تھائی	-5062
▁بلتستان	-5063
▁فتوحات	-5064
▁ذوالفقار	-5065
▁فرد	-5066
▁گریز	-5067
▁ریسر	-5068
▁غم	-5069
▁اقسام	-5070
▁مشکوک	-5071
▁جیسن	-5072
ارج	-5073
▁ہارون	-5074
▁اسپن	-5075
▁قی	-5076
▁خدشات	-5077
▁آس	-5078
▁چک	-5079
انداد	-5080
▁پروفیشنل	-5081
▁دھون	-5082
شیات	-5083
▁تماش	-5084
یرا	-5085
▁ڈونلڈ	-5086
▁فکر	-5087
▁تیاریوں	-5088
▁زید	-5089
▁کلک	-5090
نوکر	-5091
اے	-5092
▁طوف	-5093
اؤ	-5094
▁کروائی	-5095
قیہ	-5096
▁سیکشن	-5097
▁مغ	-5098
▁غزہ	-5099
▁بچنے	-5100
▁معاوضہ	-5101
اجد	-5102
▁نذیر	-5103
حق	-5104
ونل	-5105
▁بروقت	-5106
▁تفصیلی	-5107
بری	-5108
▁معمول	-5109
لیئرز	-5110
▁ورنہ	-5111
▁لک	-5112
▁سیاہ	-5113
▁فورسز	-5114
▁مرکوز	-5115
▁کینگروز	-5116
▁انٹی	-5117
دونوں	-5118
▁پیغامات	-5119
▁فیکٹری	-5120
▁نعیم	-5121
ستی	-5122
▁ایمر	-5123
باتی	-5124
▁لڑکیوں	-5125
▁کنگنا	-5126
▁سکھ	-5127
▁لارڈز	-5128
▁نہیں۔	-5129
▁عنا	-5130
▁رچرڈ	-5131
عالمی	-5132
▁دیوی	-5133
▁یقینا	-5134
▁ٹماٹر	-5135
▁تعالی	-5136
شمی	-5137
▁عار	-5138
▁بیڈ	-5139
▁بینڈ	-5140
▁رسول	-5141
▁دلہ	-5142
▁۴۹	-5143
عا	-5144
▁پلانٹ	-5145
▁جانتا	-5146
▁حافظ	-5147
▁مزد	-5148
عو	-5149
▁رف	-5150
▁لہر	-5151
▁عادل	-5152
▁کیویز	-5153
▁ڈیف	-5154
▁احترام	-5155
▁مصر	-5156
▁حاجی	-5157
▁نن	-5158
▁ین	-5159
زمین	-5160
▁درواز	-5161
▁کسانوں	-5162
▁ہاشم	-5163
▁ہمت	-5164
▁حرارت	-5165
▁سارا	-5166
▁نشست	-5167
اوورز	-5168
▁گئ	-5169
تفصیلات	-5170
ءمیں	-5171
▁امان	-5172
▁اسٹائل	-5173
▁ابو	-5174
▁مقص	-5175
واح	-5176
▁ڈوم	-5177
▁بیٹسمینوں	-5178
سلونا	-5179
▁آخر	-5180
▁مات	-5181
▁خرم	-5182
گزین	-5183
▁صوبوں	-5184
▁آب	-5185
▁جدو	-5186
▁فاطمہ	-5187
▁مذہبی	-5188
▁افیسر	-5189
▁بچہ	-5190
▁سلور	-5191
▁پھیلا	-5192
▁گرانٹ	-5193
▁پرچ	-5194
▁تائی	-5195
▁مذمت	-5196
▁عطا	-5197
ائزیشن	-5198
▁پروجیکٹ	-5199
ائسنس	-5200
ریزی	-5201
جری	-5202
گود	-5203
▁۵۰۰	-5204
▁دلوں	-5205
اہاہ	-5206
▁ٹنڈولکر	-5207
▁درامدات	-5208
▁وو	-5209
▁نقل	-5210
عکس	-5211
▁ہائ	-5212
▁منشیات	-5213
ہرا	-5214
مینہ	-5215
اما	-5216
▁چودہ	-5217
▁سمارٹ	-5218
▁ویژن	-5219
▁احتیا	-5220
▁رڈر	-5221
▁تنز	-5222
▁لائف	-5223
▁سیالکوٹ	-5224
لیڈ	-5225
▁گوہر	-5226
▁جھگ	-5227
▁۵۲	-5228
▁تبدیلیاں	-5229
▁شاٹ	-5230
▁دام	-5231
کامات	-5232
▁۶۲	-5233
▁گھی	-5234
▁ابتدا	-5235
▁امتح	-5236
▁مداخ	-5237
کووچ	-5238
▁مرض	-5239
▁عملے	-5240
▁ضلعی	-5241
▁احکامات	-5242
وبل	-5243
▁چھپ	-5244
▁لال	-5245
۱۷	-5246
▁بھاگ	-5247
▁مسلمانوں	-5248
۱۶	-5249
لینا	-5250
▁ائر	-5251
▁جھلک	-5252
▁اذ	-5253
▁فرار	-5254
▁پلی	-5255
گاری	-5256
▁قرضہ	-5257
▁سوار	-5258
▁مایوسی	-5259
▁اٹھائے	-5260
▁داروں	-5261
▁نیم	-5262
▁بہاول	-5263
▁درا	-5264
▁دوپ	-5265
▁۶۳	-5266
▁خوبصورتی	-5267
▁چپ	-5268
▁کریڈٹ	-5269
عل	-5270
▁مقصود	-5271
▁پریشن	-5272
▁نیت	-5273
▁تباہی	-5274
مج	-5275
▁کارنامہ	-5276
▁لائسنس	-5277
▁برسبین	-5278
▁ٹرانسپورٹ	-5279
▁نیپرا	-5280
▁عبداللہ	-5281
انسیسی	-5282
▁جتنا	-5283
▁جناح	-5284
▁مسافروں	-5285
▁نمٹنے	-5286
▁اکانٹس	-5287
▁استعفی	-5288
اپنے	-5289
▁ماد	-5290
▁سینیٹ	-5291
▁آخری	-5292
▁انسداد	-5293
▁سکرین	-5294
▁مغربی	-5295
▁نوعیت	-5296
▁مسجد	-5297
▁ڈیپارٹمنٹ	-5298
▁انعامی	-5299
▁پشت	-5300
▁چکر	-5301
شاد	-5302
▁قلت	-5303
ولا	-5304
جوکیشن	-5305
▁خاموشی	-5306
▁پھنس	-5307
الفت	-5308
فن	-5309
▁انق	-5310
▁ریز	-5311
▁وڈیو	-5312
جہد	-5313
قار	-5314
▁سدھ	-5315
▁اٹھارہ	-5316
▁ہےس	-5317
▁تاثر	-5318
▁ہےفلم	-5319
واٹ	-5320
▁سیکھنے	-5321
ارڈ	-5322
▁سجاد	-5323
▁ہیٹ	-5324
مند	-5325
▁ریڈیو	-5326
▁بھگ	-5327
▁جوائن	-5328
خانہ	-5329
▁گیر	-5330
یوال	-5331
▁سٹریلین	-5332
▁آغاز	-5333
▁شفاف	-5334
▁وعدہ	-5335
▁سیلفی	-5336
▁نارا	-5337
▁دانش	-5338
▁میانداد	-5339
جنوبی	-5340
▁دوں	-5341
▁ڈک	-5342
▁مخالفت	-5343
▁برعکس	-5344
▁تشہیر	-5345
▁ماڈلز	-5346
▁اربوں	-5347
قے	-5348
▁ظہیر	-5349
▁ہڑتال	-5350
▁فورم	-5351
▁بارسلونا	-5352
▁کہی	-5353
▁فعال	-5354
▁سڑکوں	-5355
▁تیم	-5356
▁گنا	-5357
▁ویئر	-5358
▁راونڈ	-5359
▁وارم	-5360
▁بتائی	-5361
▁نچ	-5362
▁مداخلت	-5363
▁ہیروئن	-5364
▁میشا	-5365
▁نقوی	-5366
صوبائی	-5367
▁نصی	-5368
▁بنیں	-5369
وایا	-5370
▁کتنی	-5371
▁نیپال	-5372
▁آگے	-5373
▁جدوجہد	-5374
▁بینکنگ	-5375
▁انکا	-5376
▁شوکت	-5377
▁جانیو	-5378
▁کاموں	-5379
▁سنگین	-5380
▁مہیا	-5381
▁انگریزی	-5382
۱۳	-5383
▁چا	-5384
▁سوی	-5385
▁کیمی	-5386
▁الل	-5387
▁ریسرچ	-5388
▁سازش	-5389
▁پابند	-5390
▁اصغر	-5391
▁عجیب	-5392
▁ترمیم	-5393
▁تیرہ	-5394
▁نکاح	-5395
▁ھو	-5396
▁مدعو	-5397
▁بریک	-5398
نیف	-5399
ماعیل	-5400
▁ٹران	-5401
▁خواہشات	-5402
▁توقعات	-5403
▁سپاٹ	-5404
▁تقریبات	-5405
▁مرے	-5406
▁داریاں	-5407
▁ثانی	-5408
▁ناموں	-5409
▁مووی	-5410
؟؟	-5411
انگیر	-5412
▁اینڈرائیڈ	-5413
▁مشرو	-5414
ph	-5415
▁سپین	-5416
▁انٹربینک	-5417
خو	-5418
▁عہدہ	-5419
▁ریسلنگ	-5420
▁ٹوئی	-5421
▁نڈال	-5422
▁شیڈنگ	-5423
وائی	-5424
▁جمی	-5425
▁ڈسپلے	-5426
▁بوم	-5427
▁برف	-5428
شاں	-5429
▁شوگر	-5430
▁کاشتکار	-5431
▁مصن	-5432
▁میکس	-5433
▁نویں	-5434
▁سرگود	-5435
رجی	-5436
▁رابطوں	-5437
ینٹی	-5438
▁دوپہر	-5439
▁ڈوب	-5440
▁سوا	-5441
یش	-5442
▁بچپن	-5443
کیب	-5444
▁جنس	-5445
▁گوادر	-5446
▁کسٹمز	-5447
▁نذر	-5448
▁انجن	-5449
الیس	-5450
▁جاپانی	-5451
Du	-5452
▁ملہ	-5453
▁روزنامہ	-5454
▁اشتر	-5455
▁سبزیوں	-5456
گال	-5457
▁اسماعیل	-5458
▁ایبٹ	-5459
▁چیمپین	-5460
▁شکریہ	-5461
▁واٹسن	-5462
▁دیوار	-5463
▁چڑھا	-5464
▁بریڈ	-5465
▁میسر	-5466
▁انحص	-5467
▁رویہ	-5468
ناس	-5469
▁,	-5470
▁نفسیاتی	-5471
nya	-5472
Dunya	-5473
▁رع	-5474
جسٹ	-5475
▁کاٹ	-5476
▁ڈس	-5477
▁منز	-5478
▁نکالنے	-5479
▁تیری	-5480
لابی	-5481
▁ڈرون	-5482
۱۸	-5483
میٹر	-5484
▁سروے	-5485
▁خشک	-5486
▁غیرملکی	-5487
یک	-5488
inde	-5489
▁ہیو	-5490
▁پروڈیوس	-5491
▁ویک	-5492
▁ایشوریا	-5493
▁شاپ	-5494
▁مےں	-5495
index	-5496
ٹیک	-5497
▁پرم	-5498
tv	-5499
▁پریم	-5500
▁غذ	-5501
▁اسٹوڈیو	-5502
▁نز	-5503
▁مارکیٹنگ	-5504
▁جانچ	-5505
▁ہوجائے	-5506
▁اجاگر	-5507
php	-5508
▁بدستور	-5509
duny	-5510
anews	-5511
dunyanews	-5512
▁کتنا	-5513
▁دیکھے	-5514
▁مقدمے	-5515
▁سیاح	-5516
▁تلے	-5517
▁جلدی	-5518
بوضہ	-5519
▁فنی	-5520
بنگ	-5521
▁امتحان	-5522
▁فرانسیسی	-5523
▁نعمان	-5524
▁پرائیویٹ	-5525
ڈیز	-5526
▁اسکرپٹ	-5527
▁بچت	-5528
▁مچھ	-5529
▁تھانہ	-5530
▁ارمی	-5531
▁فائٹ	-5532
ازاں	-5533
▁گوت	-5534
کرین	-5535
▁۳۰۰	-5536
▁لڑائی	-5537
▁ٹار	-5538
▁ناردرن	-5539
▁دولت	-5540
انٹر	-5541
▁ترسیلات	-5542
▁نفرت	-5543
ثی	-5544
▁زادی	-5545
▁سرا	-5546
▁ہونیوالے	-5547
▁ذہن	-5548
▁پرع	-5549
▁تحفظات	-5550
عے	-5551
▁ہوا۔	-5552
▁فاصلہ	-5553
▁سٹیج	-5554
▁تنگ	-5555
▁ڈاکو	-5556
▁بنتی	-5557
▁مارشل	-5558
▁اشتراک	-5559
▁جارج	-5560
▁فاٹا	-5561
▁ہتھی	-5562
▁صفائی	-5563
▁میم	-5564
▁سنیل	-5565
▁ئرلینڈ	-5566
ولز	-5567
طہ	-5568
ڑہ	-5569
▁تھوڑا	-5570
▁کیوی	-5571
▁نثار	-5572
اکو	-5573
▁جوہ	-5574
▁ہےم	-5575
▁گورننگ	-5576
▁نمائندوں	-5577
▁کیون	-5578
ائیاں	-5579
▁پلاٹ	-5580
۲۵	-5581
▁اپریشن	-5582
▁انڈسٹریل	-5583
▁جارہے	-5584
▁گردوں	-5585
▁۵۴	-5586
وسیم	-5587
▁کاٹن	-5588
▁بندش	-5589
▁بناس	-5590
امریکی	-5591
▁۸۵	-5592
کپتان	-5593
نیشنل	-5594
▁ابراہ	-5595
▁سینیٹر	-5596
▁آواز	-5597
▁جہانگیر	-5598
▁اوم	-5599
دارتی	-5600
سنگ	-5601
▁چاہیئے	-5602
مئن	-5603
▁گال	-5604
ثیر	-5605
ٹیکل	-5606
برو	-5607
▁ہنس	-5608
▁انحصار	-5609
▁پانچواں	-5610
▁مراحل	-5611
▁سنجیدہ	-5612
▁فول	-5613
فیس	-5614
▁بنگلادیش	-5615
▁دھماکے	-5616
▁تنزلی	-5617
▁طلبہ	-5618
نگھم	-5619
▁اینڈی	-5620
چل	-5621
▁مسافر	-5622
▁ازاد	-5623
▁فلاح	-5624
▁رحمان	-5625
▁سنائی	-5626
▁محکم	-5627
▁پیا	-5628
▁باولر	-5629
▁حلقوں	-5630
داف	-5631
▁مرتضی	-5632
▁کنڈیشنز	-5633
▁فق	-5634
▁ستاروں	-5635
▁مراک	-5636
▁ناس	-5637
▁بیش	-5638
▁شکیل	-5639
▁عکسب	-5640
پیئنز	-5641
▁خوشگوار	-5642
▁مرضی	-5643
انکہ	-5644
▁کیشن	-5645
▁مزاج	-5646
▁گلوکاری	-5647
ارہے	-5648
افہ	-5649
▁کاشف	-5650
▁مدنظر	-5651
زیب	-5652
▁برینڈ	-5653
▁میکسی	-5654
▁منصور	-5655
▁دروازے	-5656
▁ہونگی	-5657
▁فلسطینی	-5658
▁تیرے	-5659
▁بائولنگ	-5660
▁ہیلتھ	-5661
▁ریپ	-5662
▁آنکھ	-5663
▁۵۳	-5664
▁ٹائمز	-5665
▁سمری	-5666
▁پیسہ	-5667
▁اہداف	-5668
امدی	-5669
▁ویلز	-5670
▁حملوں	-5671
▁جوکووچ	-5672
▁انیل	-5673
▁ہلاکت	-5674
ڈیشن	-5675
▁شرط	-5676
کسن	-5677
▁واٹر	-5678
▁نغ	-5679
▁۰۲	-5680
پری	-5681
▁ذمے	-5682
گلنگ	-5683
▁غازی	-5684
▁بیانات	-5685
▁۵۶	-5686
▁پام	-5687
▁۵۷	-5688
▁باخبر	-5689
۱۱	-5690
▁سجل	-5691
▁ایجوکیشن	-5692
لیت	-5693
▁باسکٹ	-5694
▁فائنلز	-5695
▁ٹیوٹ	-5696
▁اداکاراں	-5697
▁دلکش	-5698
پرو	-5699
▁لائے	-5700
منگ	-5701
▁ڈھائی	-5702
▁۵۸	-5703
الب	-5704
▁بننا	-5705
▁ایشیاء	-5706
▁میڈلز	-5707
تن	-5708
▁کمرے	-5709
▁فلا	-5710
▁مطمئن	-5711
▁مقبوضہ	-5712
▁فارغ	-5713
▁سرکار	-5714
▁مہنگے	-5715
▁پیکج	-5716
▁ہیںیہ	-5717
▁ہےواضح	-5718
نجر	-5719
ابری	-5720
امید	-5721
▁صدارتی	-5722
ادم	-5723
▁ریٹائرڈ	-5724
▁عی	-5725
▁فورا	-5726
احمد	-5727
▁نجکاری	-5728
چری	-5729
▁بتائیں	-5730
▁بروز	-5731
ایف	-5732
دھا	-5733
دھی	-5734
▁سلیکٹرز	-5735
▁گرمی	-5736
▁بشیر	-5737
▁کرسکتے	-5738
▁شنو	-5739
▁زد	-5740
▁سچن	-5741
▁باولنگ	-5742
▁سمتھ	-5743
▁پینے	-5744
▁اگیا	-5745
▁اٹھانا	-5746
▁فیڈرر	-5747
▁راہد	-5748
▁رفیق	-5749
▁پریشر	-5750
▁سبسڈی	-5751
▁داغ	-5752
▁راف	-5753
▁زلز	-5754
ہین	-5755
▁فلپ	-5756
▁چالیس	-5757
▁قا	-5758
▁جاننے	-5759
▁الو	-5760
▁اثنا	-5761
▁اصول	-5762
گس	-5763
▁ہمایوں	-5764
▁پولیو	-5765
▁کھلے	-5766
▁رانی	-5767
▁رشتے	-5768
▁نیلامی	-5769
▁کھولنے	-5770
▁محتا	-5771
▁تبدیلیوں	-5772
ائنس	-5773
▁قیصر	-5774
ائط	-5775
▁منو	-5776
▁ڈاکٹرز	-5777
▁ہو۔	-5778
▁چھوٹا	-5779
▁سننے	-5780
اداکار	-5781
▁تجربات	-5782
▁تقرری	-5783
▁گامزن	-5784
▁قصور	-5785
▁اعصام	-5786
▁گھنٹہ	-5787
▁مارٹن	-5788
▁ٹائون	-5789
▁بتایاکہ	-5790
▁بھیجے	-5791
▁سہارا	-5792
منی	-5793
▁قرن	-5794
▁افضل	-5795
ساب	-5796
▁لمحات	-5797
▁پیز	-5798
▁میلہ	-5799
▁مسکر	-5800
ئٹزر	-5801
▁جع	-5802
▁ہٹا	-5803
▁مرچ	-5804
▁البم	-5805
▁منگنی	-5806
▁شرائط	-5807
▁عہدیداروں	-5808
▁سائنسدانوں	-5809
▁امدنی	-5810
▁لیاقت	-5811
▁سنٹرل	-5812
▁گوتم	-5813
▁خاموش	-5814
گئے	-5815
▁پیرز	-5816
▁خبردار	-5817
▁رجو	-5818
▁ہولی	-5819
▁ہواوے	-5820
ائیس	-5821
چیس	-5822
▁ریجنل	-5823
▁راہداری	-5824
▁خارج	-5825
▁نیازی	-5826
ٹرن	-5827
▁صوفی	-5828
▁گون	-5829
▁گورنمنٹ	-5830
▁پھلوں	-5831
▁شوز	-5832
▁جتنی	-5833
▁پھینک	-5834
▁کیم	-5835
انجام	-5836
▁پوسٹر	-5837
▁آپریشن	-5838
▁نامزدگی	-5839
▁بانڈز	-5840
▁تیمور	-5841
▁کاج	-5842
▁فرنٹ	-5843
▁سیم	-5844
▁جائ	-5845
انگی	-5846
▁ناراض	-5847
▁بولٹ	-5848
▁ہدایتکاری	-5849
▁سنگل	-5850
▁واک	-5851
سلام	-5852
اش	-5853
ائلٹ	-5854
▁گپ	-5855
▁شاعر	-5856
▁پرستاروں	-5857
▁باداردو	-5858
▁نیند	-5859
▁بوائز	-5860
▁شکیب	-5861
▁رگ	-5862
▁ابھر	-5863
▁گرلز	-5864
▁سرگودھا	-5865
▁ایڈیشنل	-5866
▁کنی	-5867
▁جائیداد	-5868
▁حنیف	-5869
▁شکایات	-5870
▁لکھے	-5871
▁تنظیموں	-5872
▁اسٹریٹ	-5873
▁ارتھر	-5874
▁ڈالی	-5875
▁سمت	-5876
▁سوس	-5877
▁عدالتی	-5878
▁صلاح	-5879
▁سرانجام	-5880
▁ایڈیلیڈ	-5881
▁منائی	-5882
▁بندر	-5883
دما	-5884
انوے	-5885
چیئر	-5886
▁اولین	-5887
▁گائے	-5888
▁ذخیرہ	-5889
▁ایان	-5890
▁لمبی	-5891
ذی	-5892
▁اعتبار	-5893
ومیہ	-5894
▁کرسٹی	-5895
▁اغوا	-5896
▁آتا	-5897
▁رہنمائی	-5898
▁زبیر	-5899
▁کہتی	-5900
▁انتخابی	-5901
▁چوکے	-5902
▁سائیکلنگ	-5903
▁ریگولیٹری	-5904
▁پیکی	-5905
▁ہورہی	-5906
▁وکلا	-5907
۳۷	-5908
گٹ	-5909
▁دھا	-5910
▁سٹریٹ	-5911
▁یونٹس	-5912
▁ڈٹ	-5913
▁حامد	-5914
▁آمین	-5915
▁وینا	-5916
▁عند	-5917
ونچر	-5918
▁بہار	-5919
▁دینی	-5920
▁عقید	-5921
▁ایوب	-5922
▁سیٹس	-5923
▁وسطی	-5924
▁حالانکہ	-5925
▁میلے	-5926
▁سفارت	-5927
▁کانٹی	-5928
▁تبصرے	-5929
▁پیرزادہ	-5930
▁جماعتوں	-5931
▁ایتھلیٹ	-5932
▁چلتا	-5933
لور	-5934
▁کیش	-5935
▁نارتھ	-5936
▁سردی	-5937
▁ہندی	-5938
▁شرکاء	-5939
▁بشری	-5940
▁مچھلی	-5941
▁مارا	-5942
▁شنواری	-5943
▁کشیدگی	-5944
▁ابراہیم	-5945
▁اچھ	-5946
▁انفرا	-5947
▁پلاسٹک	-5948
اباد	-5949
▁ملتے	-5950
پہلے	-5951
ارمیشن	-5952
▁متاثرین	-5953
فائنل	-5954
▁برم	-5955
▁فرا	-5956
▁رجسٹرڈ	-5957
▁اخلاق	-5958
▁دھن	-5959
بجے	-5960
▁بوٹ	-5961
▁حفاظتی	-5962
▁مورگن	-5963
▁کپڑے	-5964
حالی	-5965
▁کتنے	-5966
▁شاعری	-5967
▁دستاویزات	-5968
گیر	-5969
▁ہاؤ	-5970
▁مصنف	-5971
▁جگ	-5972
▁ہاشمی	-5973
ائق	-5974
▁کہتا	-5975
▁ڈائریکٹ	-5976
ریو	-5977
▁کولکتہ	-5978
▁یومیہ	-5979
▁پرعزم	-5980
▁مجرم	-5981
▁پالیسیوں	-5982
ریر	-5983
اؤن	-5984
سکو	-5985
▁سکھر	-5986
▁لیئے	-5987
▁بقیہ	-5988
▁ڈالنے	-5989
▁حامی	-5990
▁ہوگی۔	-5991
▁نوجوانوں	-5992
▁پائپ	-5993
▁بھج	-5994
▁پروٹیز	-5995
▁ڈراف	-5996
اکشی	-5997
▁ئوٹ	-5998
ایس	-5999
کون	-6000
▁چھٹ	-6001
▁عبدالرزاق	-6002
▁تحریری	-6003
▁چون	-6004
ہیں	-6005
▁چنا	-6006
رفی	-6007
▁کیپٹن	-6008
▁لیف	-6009
▁کریز	-6010
▁بڑھتے	-6011
▁اسرار	-6012
▁پیاز	-6013
ورنیا	-6014
▁خرابی	-6015
▁اختلافات	-6016
▁دلہن	-6017
▁قربانی	-6018
انھوں	-6019
▁منانے	-6020
رپورٹ	-6021
▁مینی	-6022
▁۵۱	-6023
افتی	-6024
▁چرچ	-6025
▁قدیم	-6026
ملک	-6027
▁ساجد	-6028
▁سمجھتا	-6029
▁اتے	-6030
▁گانوں	-6031
▁ایشز	-6032
عب	-6033
▁متحرک	-6034
▁عناصر	-6035
▁کراچیا	-6036
▁غصے	-6037
عامر	-6038
▁نوکری	-6039
خبری	-6040
فاقی	-6041
▁چمک	-6042
▁اعلامیے	-6043
▁کھڑی	-6044
▁آتی	-6045
▁حصوں	-6046
▁ہونیوالی	-6047
▁ڈھونڈ	-6048
▁تحفہ	-6049
▁فضا	-6050
▁نیل	-6051
▁بائیو	-6052
▁۰۳	-6053
شے	-6054
▁۶۶	-6055
▁لیتا	-6056
▁صنم	-6057
▁تھوڑی	-6058
بارک	-6059
▁فہد	-6060
▁سترہ	-6061
▁انسانوں	-6062
▁سفارشات	-6063
▁اکث	-6064
▁ویکس	-6065
▁اوپنرز	-6066
▁جونز	-6067
▁بابا	-6068
▁اسکینڈل	-6069
▁پیج	-6070
ادق	-6071
▁پچیس	-6072
▁ینگ	-6073
لیٹس	-6074
▁بور	-6075
▁الیاس	-6076
اعلی	-6077
▁..	-6078
موں	-6079
▁نہوں	-6080
▁ولیمسن	-6081
▁کانسی	-6082
▁فائی	-6083
▁جلا	-6084
▁کما	-6085
▁ہنگامی	-6086
▁ٹیکسوں	-6087
▁مچا	-6088
▁توہین	-6089
▁کےلئے	-6090
▁دستیابی	-6091
▁کرروپے	-6092
▁موہ	-6093
▁غائب	-6094
▁سلامتی	-6095
▁کاوش	-6096
▁خوشخبری	-6097
▁چاہئیں	-6098
▁غذائی	-6099
▁اسٹیشنز	-6100
▁انڈونی	-6101
▁خطرات	-6102
ٹیج	-6103
▁پرک	-6104
▁میجر	-6105
نگھائی	-6106
▁کثیر	-6107
▁اسل	-6108
▁امپائرز	-6109
اتار	-6110
▁گنجائش	-6111
▁لود	-6112
▁سادہ	-6113
▁خلیل	-6114
▁اشتہار	-6115
▁خواہشمند	-6116
چو	-6117
▁اشی	-6118
شپ	-6119
خصوص	-6120
▁کرش	-6121
▁سرزمین	-6122
▁کمیونی	-6123
وزہ	-6124
▁یارک	-6125
ماں	-6126
▁جذباتی	-6127
▁کارکنوں	-6128
ینا	-6129
زو	-6130
▁پردہ	-6131
▁پڑنے	-6132
▁بیسٹ	-6133
▁کوالیفائنگ	-6134
سرٹ	-6135
▁ہورہا	-6136
▁سنسر	-6137
صیل	-6138
▁منایا	-6139
▁تفصیل	-6140
واج	-6141
db	-6142
▁بیگم	-6143
▁کلارک	-6144
▁ایبل	-6145
▁رمیز	-6146
▁تقریباً	-6147
▁انرجی	-6148
▁سوئٹزر	-6149
▁سائٹس	-6150
زوں	-6151
▁۵۹	-6152
قدر	-6153
گریٹ	-6154
ازی	-6155
▁فص	-6156
▁ادب	-6157
▁اعوان	-6158
▁بیت	-6159
ڑھی	-6160
برا	-6161
اریکس	-6162
▁کرم	-6163
▁جمعے	-6164
▁مہینوں	-6165
▁رجوع	-6166
▁اگئی	-6167
▁بٹن	-6168
▁فیورٹ	-6169
▁موڈ	-6170
▁بارشوں	-6171
▁پریرا	-6172
▁سنگاپور	-6173
▁چئیر	-6174
وبیس	-6175
▁ارہی	-6176
▁ریٹنگ	-6177
▁ہارنے	-6178
▁اکاونٹ	-6179
▁سانس	-6180
▁انفارمیشن	-6181
▁ارسال	-6182
▁وحید	-6183
▁ممبئیبالی	-6184
▁عارضی	-6185
▁درخت	-6186
▁ڈیوائسز	-6187
▁یکس	-6188
▁بیمار	-6189
▁مینوفی	-6190
▁کاپ	-6191
▁طوفان	-6192
▁عندیہ	-6193
▁رویے	-6194
▁اسپیشل	-6195
قریب	-6196
▁اوول	-6197
▁لانا	-6198
▁ایڈونچر	-6199
▁کرائم	-6200
▁بیماریوں	-6201
▁اشارہ	-6202
▁فرن	-6203
۵۰	-6204
▁امیدواروں	-6205
▁بچھ	-6206
▁ٹیرف	-6207
▁ترسیل	-6208
▁باند	-6209
▁درخواستیں	-6210
▁ایپس	-6211
لانا	-6212
▁جانور	-6213
▁طاقتور	-6214
ھم	-6215
▁حمید	-6216
▁۶۷	-6217
▁طلباء	-6218
▁عکسبندی	-6219
▁چاہیں	-6220
ak	-6221
▁چیمہ	-6222
▁امدادی	-6223
▁استد	-6224
▁دلائی	-6225
▁۷۶	-6226
سٹار	-6227
▁دسویں	-6228
▁ارا	-6229
کارہ	-6230
جائے	-6231
▁علیہ	-6232
▁غف	-6233
▁حسنین	-6234
▁ائرلینڈ	-6235
▁سپیشل	-6236
▁غربت	-6237
▁لف	-6238
▁جرائم	-6239
ویس	-6240
▁فنچ	-6241
▁پدما	-6242
▁ڈھاکہ	-6243
▁اجے	-6244
کور	-6245
ہب	-6246
لکہ	-6247
▁۱۵۰	-6248
▁عبوری	-6249
▁بتاتے	-6250
▁فکشن	-6251
▁تار	-6252
ولین	-6253
▁المبارک	-6254
▁نگ	-6255
▁ہےپ	-6256
مائے	-6257
▁۷۲	-6258
▁چونکہ	-6259
مینان	-6260
▁صادق	-6261
▁مرغی	-6262
▁خلی	-6263
▁اکاؤ	-6264
▁واج	-6265
▁آزاد	-6266
▁ازدو	-6267
▁چاہنے	-6268
▁بکھی	-6269
مش	-6270
▁کچ	-6271
▁سجا	-6272
▁ریل	-6273
▁رنا	-6274
▁منزل	-6275
▁ہیری	-6276
▁فیشلز	-6277
▁ایگزیک	-6278
▁بہاولپور	-6279
▁اساں	-6280
▁فیشل	-6281
▁انٹرٹین	-6282
▁سیون	-6283
▁سکون	-6284
▁فوٹ	-6285
▁سانگ	-6286
▁لیتی	-6287
▁ڈیزائنر	-6288
▁جاسکے	-6289
▁سح	-6290
▁ازادی	-6291
▁۰۴	-6292
▁سرجری	-6293
▁کرنل	-6294
▁ملکہ	-6295
▁بورڈز	-6296
▁ٹیگ	-6297
ونک	-6298
میز	-6299
▁ناول	-6300
▁اسانی	-6301
▁تخلیق	-6302
▁گمب	-6303
▁دراصل	-6304
▁الود	-6305
▁روانگی	-6306
▁چھو	-6307
▁حراست	-6308
▁آگ	-6309
▁دائرہ	-6310
▁کیمرا	-6311
▁کررہا	-6312
▁پرتھ	-6313
▁انکوائری	-6314
▁چلتے	-6315
▁گلوبل	-6316
▁ایڈجسٹ	-6317
▁جڑی	-6318
▁میٹرک	-6319
▁متفق	-6320
▁کروائے	-6321
▁پیٹرسن	-6322
▁ٹیزر	-6323
▁ملنا	-6324
▁احتساب	-6325
▁واس	-6326
▁لات	-6327
▁بعدازاں	-6328
▁ہوئے۔	-6329
▁پریٹنگ	-6330
▁رومانوی	-6331
امت	-6332
▁آمد	-6333
▁تکنیکی	-6334
▁تہلکہ	-6335
۲۴	-6336
▁خانے	-6337
▁ساتھیوں	-6338
▁بڑھایا	-6339
▁میکسیکو	-6340
▁باتوں	-6341
ضحی	-6342
▁ارگن	-6343
▁ہولڈرز	-6344
▁ٹیکنی	-6345
▁دیں۔	-6346
▁گائی	-6347
▁ہیلی	-6348
▁کمانے	-6349
▁نکلنے	-6350
▁مفید	-6351
▁۷۴	-6352
▁میگزین	-6353
▁ہولڈر	-6354
لیٹی	-6355
ضحکہ	-6356
▁مجموعہ	-6357
سٹریز	-6358
▁راونڈر	-6359
▁مزاحمت	-6360
▁قادر	-6361
▁گوش	-6362
▁گزارنے	-6363
▁ڈریس	-6364
▁پودوں	-6365
▁رضوی	-6366
▁وفاق	-6367
▁گلے	-6368
▁بائولر	-6369
▁سلوک	-6370
ستانہ	-6371
زید	-6372
ڈے	-6373
▁رسی	-6374
دیپ	-6375
▁فیصلوں	-6376
▁پہنچیں	-6377
کیٹس	-6378
▁گیاس	-6379
▁نمائندے	-6380
▁تحقیقاتی	-6381
▁چھین	-6382
ھوری	-6383
▁قبر	-6384
▁پان	-6385
▁گج	-6386
▁محتاط	-6387
▁سیر	-6388
▁ناظ	-6389
▁میموری	-6390
▁۶۸	-6391
این	-6392
زانہ	-6393
▁کولن	-6394
وئی	-6395
▁شرا	-6396
گیاں	-6397
▁منتقلی	-6398
▁راجپ	-6399
▁خٹک	-6400
▁مضحکہ	-6401
▁عبدالق	-6402
▁ارٹ	-6403
اصد	-6404
▁ہےب	-6405
▁اطمینان	-6406
▁لگیں	-6407
▁منتظر	-6408
زئی	-6409
قیم	-6410
لانگ	-6411
▁دفاتر	-6412
پارٹی	-6413
▁۶۱	-6414
▁کامیابیوں	-6415
عمران	-6416
▁ہاؤس	-6417
▁دھی	-6418
▁نفا	-6419
میڈیا	-6420
▁شراب	-6421
▁پیڈ	-6422
▁کوالیفائر	-6423
▁قات	-6424
akistan	-6425
▁ذیشان	-6426
▁اعلامیہ	-6427
▁سوم	-6428
▁روکا	-6429
▁مینوفیکچر	-6430
▁گارڈ	-6431
▁چیمپیئنز	-6432
لٹن	-6433
▁معاف	-6434
▁انکھ	-6435
▁بحریہ	-6436
ؤٹ	-6437
▁نجات	-6438
▁شامی	-6439
▁جنون	-6440
▁مزہ	-6441
▁گہری	-6442
▁بلندیوں	-6443
▁معص	-6444
▁مومن	-6445
▁پرنس	-6446
▁صبر	-6447
▁فریم	-6448
ندری	-6449
▁تماشائیوں	-6450
▁رضام	-6451
▁گوئی	-6452
سٹو	-6453
▁برگ	-6454
▁جامع	-6455
▁بھائیوں	-6456
▁تد	-6457
ستھ	-6458
▁۷۷	-6459
▁ود	-6460
▁سرینا	-6461
▁اکن	-6462
▁دہشتگرد	-6463
▁کاپی	-6464
▁استدعا	-6465
▁گیٹ	-6466
▁اسکواش	-6467
▁انگلی	-6468
▁سانی	-6469
ندرا	-6470
▁پلاننگ	-6471
▁ونگ	-6472
▁سینک	-6473
ٹیفی	-6474
▁اردوپوائنٹ	-6475
▁پیکیج	-6476
واگ	-6477
▁قد	-6478
▁کالا	-6479
انسبرگ	-6480
▁انڈسٹریز	-6481
▁ہوائی	-6482
▁چانس	-6483
▁ڈائریکٹرز	-6484
▁دنیائے	-6485
کول	-6486
▁برانچ	-6487
▁کیل	-6488
گنی	-6489
اتھن	-6490
▁ماف	-6491
▁سختی	-6492
▁ئند	-6493
▁ساہ	-6494
▁گمبھیر	-6495
▁کڑی	-6496
▁جوکہ	-6497
▁چوبیس	-6498
▁شنگھائی	-6499
الح	-6500
▁رخص	-6501
▁خورد	-6502
▁ہرایا	-6503
▁ٹی۲۰	-6504
▁موسیقار	-6505
▁ثاقب	-6506
▁غالب	-6507
▁مواز	-6508
▁میگاواٹ	-6509
ناسب	-6510
▁عقیدت	-6511
▁بینچ	-6512
▁دریں	-6513
▁تھرو	-6514
▁راجر	-6515
▁جال	-6516
▁انڈونیشیا	-6517
▁رائی	-6518
▁رائیڈ	-6519
▁نری	-6520
▁اسٹریلین	-6521
▁وم	-6522
نیوزی	-6523
▁بنتا	-6524
انسر	-6525
▁متنازع	-6526
رواں	-6527
ائزنگ	-6528
▁ناظرین	-6529
▁اللّ	-6530
▁رینجرز	-6531
مانیٹرنگ	-6532
▁ارام	-6533
ئنگ	-6534
▁سرٹیف	-6535
▁غصہ	-6536
وجی	-6537
▁۰۵	-6538
▁فیول	-6539
زش	-6540
▁مکھی	-6541
بیس	-6542
▁حقائق	-6543
▁اٹھاتے	-6544
گیند	-6545
▁شمسی	-6546
امن	-6547
▁ایسٹ	-6548
▁جنم	-6549
▁بدر	-6550
▁بازاروں	-6551
▁یوا	-6552
▁ستارے	-6553
▁رافیل	-6554
▁ایگزیکٹیو	-6555
▁چھت	-6556
▁ماسک	-6557
▁لیلا	-6558
▁بائیں	-6559
▁سمجھنے	-6560
▁اسٹین	-6561
۱۰۰	-6562
▁۷۸	-6563
شورنس	-6564
▁اتا	-6565
▁شت	-6566
▁انتظامی	-6567
عدم	-6568
▁کشتی	-6569
▁اسکاٹ	-6570
▁اسٹوریج	-6571
امک	-6572
▁چئیرمین	-6573
▁محبوب	-6574
میچز	-6575
▁۰۶	-6576
▁نصر	-6577
▁آدمی	-6578
حمد	-6579
▁نائن	-6580
▁ہوئی۔	-6581
▁مراعات	-6582
▁مستحق	-6583
▁خصوصا	-6584
ؤنڈ	-6585
▁مارے	-6586
▁ٹارگٹ	-6587
▁ادائیگیوں	-6588
اکار	-6589
طینہ	-6590
▁کنٹین	-6591
▁اتی	-6592
▁راجپوت	-6593
▁پرس	-6594
▁بینر	-6595
▁ثقافتی	-6596
▁اختیارات	-6597
▁ڈیلرز	-6598
وما	-6599
▁نفاذ	-6600
▁خوشحالی	-6601
▁سکندر	-6602
▁طبیعت	-6603
▁حادثہ	-6604
▁کاغذات	-6605
▁رحمت	-6606
شانت	-6607
▁؟	-6608
▁اکثریت	-6609
▁ٹوینٹی	-6610
▁جانسن	-6611
▁۰۷	-6612
▁رئیل	-6613
▁برآمد	-6614
▁ایڈمن	-6615
حی	-6616
▁تعیناتی	-6617
ریڈ	-6618
▁اورم	-6619
▁خالص	-6620
▁عق	-6621
▁تنخواہوں	-6622
▁کیک	-6623
▁سرمائے	-6624
▁واجبات	-6625
▁رائٹر	-6626
جیئم	-6627
▁انصاری	-6628
ٰہ	-6629
▁۰۱	-6630
▁علاقائی	-6631
▁پٹیل	-6632
▁قبضے	-6633
▁برمنگھم	-6634
▁پذیرائی	-6635
نبی	-6636
▁ایمپ	-6637
▁گایا	-6638
▁پرتگال	-6639
▁استف	-6640
▁افواج	-6641
▁برینڈن	-6642
▁نصیر	-6643
▁انشورنس	-6644
▁ڈاکٹروں	-6645
▁مظفر	-6646
اہل	-6647
▁مارنے	-6648
▁موڑ	-6649
▁اندازی	-6650
▁الحمرا	-6651
ڈیٹ	-6652
▁ظلم	-6653
▁جائینگے	-6654
اپنی	-6655
▁سنچریوں	-6656
کاسی	-6657
▁۹۵	-6658
▁ٹے	-6659
▁بڑھے	-6660
▁عبدالرح	-6661
۲۲	-6662
▁فت	-6663
اکارا	-6664
▁سنہا	-6665
لاد	-6666
ظاہر	-6667
▁ڈیوس	-6668
▁تقریر	-6669
▁ہٹانے	-6670
▁کانگریس	-6671
▁لیور	-6672
پاک	-6673
ٹلر	-6674
▁۹۹	-6675
ندوں	-6676
▁اترے	-6677
▁ہیںفلم	-6678
▁مشرقی	-6679
▁مختار	-6680
▁چال	-6681
▁جوان	-6682
▁ٹکٹوں	-6683
ٹیکس	-6684
لیں	-6685
▁چینلز	-6686
▁ویکسین	-6687
▁سائبر	-6688
▁مقاصد	-6689
▁شفقت	-6690
زیر	-6691
▁سینکڑوں	-6692
ظمین	-6693
▁افر	-6694
▁۴۰۰	-6695
▁علامہ	-6696
▁اشتہارات	-6697
▁جرمانے	-6698
▁بغ	-6699
▁دہشتگردی	-6700
▁کرائ	-6701
▁پرچم	-6702
وتی	-6703
▁واٹ	-6704
▁گلوکاروں	-6705
▁یوکرین	-6706
▁انجم	-6707
▁ٹیکسی	-6708
برط	-6709
▁پشن	-6710
▁حساس	-6711
▁سوناکشی	-6712
▁جوہانسبرگ	-6713
▁مغل	-6714
▁قائمہ	-6715
چیف	-6716
▁عاشق	-6717
▁کوالٹی	-6718
▁حکومتوں	-6719
▁ویلیو	-6720
▁رجب	-6721
ذہ	-6722
▁اسٹوری	-6723
لاقی	-6724
▁اسٹیو	-6725
▁انٹیلی	-6726
▁اسپیڈ	-6727
▁صفح	-6728
▁مم	-6729
ھو	-6730
▁خصوصیات	-6731
▁۰۸	-6732
▁پائیں	-6733
▁کوشاں	-6734
▁دارانہ	-6735
شاہد	-6736
▁قرنطینہ	-6737
▁رونمائی	-6738
وشمار	-6739
▁حدود	-6740
نیپ	-6741
▁جوڈی	-6742
▁دہی	-6743
▁اشیائے	-6744
▁امراض	-6745
حقی	-6746
▁مذہب	-6747
▁تحصیل	-6748
▁حضرت	-6749
▁ذہانت	-6750
▁آتے	-6751
▁فوائد	-6752
▁کرنٹ	-6753
▁نعرے	-6754
۲۳	-6755
▁عادت	-6756
جیت	-6757
▁ریسٹ	-6758
▁نواب	-6759
▁پہلوان	-6760
▁تھااس	-6761
▁افیشلز	-6762
ڈرز	-6763
▁نہی	-6764
ٹینا	-6765
▁مشینری	-6766
یاسی	-6767
▁طالبان	-6768
▁عملہ	-6769
▁ہمد	-6770
▁انجمن	-6771
پورہ	-6772
▁امریکن	-6773
▁بنگلور	-6774
یرے	-6775
▁علیم	-6776
▁حلف	-6777
▁غرض	-6778
قدرت	-6779
▁بالخصوص	-6780
▁پودے	-6781
▁بیورو	-6782
▁کردے	-6783
▁لگاتار	-6784
عفی	-6785
مایا	-6786
▁گواہ	-6787
سمی	-6788
▁دباو	-6789
▁نظم	-6790
▁آسان	-6791
▁ٹیوب	-6792
▁انٹرٹینمنٹ	-6793
▁مدثر	-6794
▁ژ	-6795
الدین	-6796
▁پیپر	-6797
▁اسلحہ	-6798
▁تنازعات	-6799
▁سینا	-6800
▁لمحہ	-6801
ائزہ	-6802
▁لگتی	-6803
▁مسلح	-6804
▁نشریات	-6805
پختون	-6806
▁تمہیں	-6807
▁سمندری	-6808
▁بق	-6809
▁پرنٹ	-6810
▁وش	-6811
ڈیلی	-6812
ولیاتی	-6813
▁مصروفیات	-6814
جہتی	-6815
وارے	-6816
▁رائل	-6817
▁عکاسی	-6818
▁ہاوس	-6819
ندو	-6820
▁پولو	-6821
کھرب	-6822
▁سیاحت	-6823
وفاقی	-6824
▁براج	-6825
▁زہر	-6826
▁آرمی	-6827
▁اقتدار	-6828
▁کالی	-6829
▁حب	-6830
کوچ	-6831
▁برہ	-6832
▁پرکشش	-6833
▁تعمیراتی	-6834
▁ویلیئرز	-6835
▁گود	-6836
▁توڑنے	-6837
▁رحیم	-6838
▁زمانہ	-6839
▁یکساں	-6840
ولیس	-6841
▁لگائیں	-6842
▁گولز	-6843
▁ہینڈ	-6844
▁ریکارڈنگ	-6845
▁مارش	-6846
▁آل	-6847
۲۸	-6848
▁ارڈر	-6849
▁ڈیرہ	-6850
▁واں	-6851
▁توازن	-6852
▁جولی	-6853
▁میرٹ	-6854
▁موزوں	-6855
▁براجمان	-6856
▁وفات	-6857
گول	-6858
▁بارڈر	-6859
▁علیحدہ	-6860
اضافہ	-6861
▁جلس	-6862
▁نائی	-6863
▁رشی	-6864
▁ئر	-6865
▁بھری	-6866
تانا	-6867
▁عتی	-6868
چک	-6869
▁سوسائٹی	-6870
▁حیدرباد	-6871
▁وقاص	-6872
▁ٹاسک	-6873
▁بندھن	-6874
▁پراپر	-6875
اہٹ	-6876
ابلہ	-6877
▁ہراس	-6878
▁ایکسائز	-6879
▁فیض	-6880
▁۰۹	-6881
▁اجت	-6882
▁گہرے	-6883
▁مہدی	-6884
▁کامیڈین	-6885
فریدی	-6886
▁استفادہ	-6887
▁نقصانات	-6888
▁۸۴	-6889
▁تشخی	-6890
▁راہول	-6891
▁ڈھانچ	-6892
▁طورپر	-6893
▁رگن	-6894
وط	-6895
▁بقا	-6896
▁شئیر	-6897
▁سیمین	-6898
کٹرز	-6899
▁ٹھویں	-6900
ستے	-6901
لیسی	-6902
▁اسٹور	-6903
▁کنسرٹ	-6904
▁نکلے	-6905
۲۷	-6906
▁برسی	-6907
▁انہی	-6908
▁۷۳	-6909
▁دوچار	-6910
▁اندھی	-6911
▁باسانی	-6912
▁ڈری	-6913
ونز	-6914
▁۶۹	-6915
▁معصوم	-6916
باب	-6917
▁شائر	-6918
ٹیشن	-6919
▁طریقوں	-6920
▁ریسلر	-6921
لنگ	-6922
▁منڈیوں	-6923
▁فیو	-6924
▁جوز	-6925
ٰی	-6926
▁سہواگ	-6927
ھھ	-6928
▁طالبات	-6929
▁بوائے	-6930
اہو	-6931
▁سٹیشن	-6932
▁کالعدم	-6933
▁مارجن	-6934
▁پتھر	-6935
▁جیکسن	-6936
راق	-6937
▁کتے	-6938
▁گالف	-6939
▁ایجنٹ	-6940
▁فح	-6941
▁چٹ	-6942
▁سکاٹ	-6943
▁تھرلر	-6944
زنی	-6945
▁رنگوں	-6946
▁کلیم	-6947
▁گولڈن	-6948
لاگ	-6949
▁فلور	-6950
▁کیمیکل	-6951
▁بوری	-6952
ندے	-6953
▁چاہیے۔	-6954
▁انڈرائیڈ	-6955
▁زدہ	-6956
▁ڈیلیٹ	-6957
▁نال	-6958
▁وائ	-6959
وریہ	-6960
▁غزل	-6961
▁چھلانگ	-6962
▁پیسر	-6963
▁کریگی	-6964
دیک	-6965
▁میتھیوز	-6966
▁رابر	-6967
▁پرائس	-6968
وات	-6969
▁ذکا	-6970
▁پیپلزپارٹی	-6971
▁ہارر	-6972
▁گجرات	-6973
▁مستعفی	-6974
▁ایڈم	-6975
▁پابندیوں	-6976
▁اورنگ	-6977
ریعہ	-6978
▁اپنایا	-6979
ھن	-6980
▁دیوگن	-6981
▁منتظمین	-6982
۲۱	-6983
▁۸۸	-6984
▁الط	-6985
▁گیلانی	-6986
▁خل	-6987
▁سگریٹ	-6988
▁مطالبات	-6989
َّ	-6990
ستا	-6991
▁حماد	-6992
▁تھیں۔	-6993
▁اٹیک	-6994
ڈان	-6995
▁مجوزہ	-6996
▁بہادر	-6997
▁دعویٰ	-6998
دوس	-6999
▁لیپ	-7000
▁آبادی	-7001
▁بسٹر	-7002
▁سرد	-7003
▁رابی	-7004
▁جذبہ	-7005
▁اِ	-7006
▁نگری	-7007
کڑ	-7008
▁سز	-7009
یوم	-7010
▁ریک	-7011
مرز	-7012
▁وان	-7013
▁طرفہ	-7014
▁گزرنے	-7015
ھاھا	-7016
▁ماحولیاتی	-7017
▁بالا	-7018
▁گھڑی	-7019
گلو	-7020
دوسرے	-7021
▁الصوبائی	-7022
▁کرت	-7023
▁مافیا	-7024
▁کلام	-7025
کاروب	-7026
پنجاب	-7027
▁نیلم	-7028
▁بیلجیئم	-7029
▁مشرق	-7030
▁سستے	-7031
▁بنالی	-7032
da	-7033
اہرہ	-7034
▁انسپ	-7035
▁پسندوں	-7036
▁شناختی	-7037
جہاں	-7038
▁جنت	-7039
▁سائز	-7040
▁کہاہے	-7041
▁اندرونی	-7042
▁نصیب	-7043
▁ایکسپو	-7044
▁انسانیت	-7045
▁رنگا	-7046
▁کنندگان	-7047
ولپمنٹ	-7048
▁فرین	-7049
سیریز	-7050
▁وارد	-7051
▁طبقے	-7052
▁ویزا	-7053
صباح	-7054
▁رہائی	-7055
▁۸۶	-7056
▁اوہ	-7057
▁ریفرنس	-7058
▁ماسکو	-7059
▁ریسکیو	-7060
▁زمانے	-7061
▁وزیراعلی	-7062
▁مکان	-7063
▁تشخیص	-7064
نڈز	-7065
▁رونما	-7066
▁کرسکیں	-7067
وڑے	-7068
▁پائلٹ	-7069
▁فوکس	-7070
▁فوٹوفائل	-7071
▁پیس	-7072
▁دلانے	-7073
▁جمہوریت	-7074
ودہ	-7075
▁کیلی	-7076
▁اسکو	-7077
▁گینگ	-7078
▁گےاس	-7079
▁مشروط	-7080
جیکٹس	-7081
▁موازنہ	-7082
▁ماڈلنگ	-7083
▁ویلتھ	-7084
▁انڈے	-7085
▁جمال	-7086
▁اپری	-7087
▁جلسے	-7088
▁طیارہ	-7089
▁ندا	-7090
▁الع	-7091
▁بائیکاٹ	-7092
▁آصف	-7093
▁اکیس	-7094
▁کرائیں	-7095
▁کھوکھر	-7096
▁جوڈو	-7097
منٹن	-7098
کھے	-7099
▁اڑا	-7100
▁بلایا	-7101
خزانہ	-7102
▁سحر	-7103
▁بھلا	-7104
▁حنا	-7105
▁لوک	-7106
▁رپورٹرنمائندہ	-7107
▁چیلنجز	-7108
▁مکس	-7109
▁دنگل	-7110
▁بلد	-7111
▁اعدادوشمار	-7112
▁روابط	-7113
▁زیدی	-7114
▁یوان	-7115
▁فریال	-7116
ائف	-7117
▁اکٹھے	-7118
▁سرکل	-7119
کھیل	-7120
شو	-7121
خوش	-7122
قر	-7123
ھاڑ	-7124
▁۷۱	-7125
▁جایا	-7126
▁شاہی	-7127
ہائی	-7128
▁ویزے	-7129
▁اخبارئی	-7130
▁معد	-7131
اریوں	-7132
▁ماری	-7133
▁ایشون	-7134
▁خاور	-7135
▁برٹ	-7136
▁بکی	-7137
اکھ	-7138
▁نکالا	-7139
▁ٹیکنیکل	-7140
یاض	-7141
▁سوئٹزرلینڈ	-7142
▁چوٹ	-7143
▁دانوں	-7144
▁مرو	-7145
▁زیرو	-7146
▁خاک	-7147
،،	-7148
▁ٹا	-7149
▁مفادات	-7150
▁مسی	-7151
▁سنوکر	-7152
▁مظہر	-7153
روش	-7154
▁کلاسی	-7155
▁شرٹ	-7156
▁آئین	-7157
▁ہےذرائع	-7158
▁اگلا	-7159
▁اشفاق	-7160
▁شبیر	-7161
رہی	-7162
▁سوات	-7163
▁ڈول	-7164
▁ملائ	-7165
بردار	-7166
رفراز	-7167
▁ہےیہ	-7168
▁گروہ	-7169
▁بتانا	-7170
▁فریقین	-7171
▁روایت	-7172
▁درجنوں	-7173
▁ہیںس	-7174
اتذہ	-7175
▁لڑکوں	-7176
▁واچ	-7177
▁میسج	-7178
▁اطراف	-7179
▁بالوں	-7180
▁ٹاکر	-7181
▁دکھائیں	-7182
▁حاضر	-7183
▁زیور	-7184
▁پراپرٹی	-7185
▁عن	-7186
کرنے	-7187
▁ہائوس	-7188
▁کرنیوالے	-7189
▁پڑھنے	-7190
کامرس	-7191
▁کشمیریوں	-7192
▁نشریاتی	-7193
▁آئندہ	-7194
▁بھال	-7195
▁رقوم	-7196
▁کامن	-7197
▁دہندگان	-7198
▁بنتے	-7199
بیونل	-7200
▁ٹکرا	-7201
▁لکھی	-7202
گیندوں	-7203
▁خیبرپختون	-7204
ختہ	-7205
▁سگن	-7206
▁بلڈنگ	-7207
▁اگئے	-7208
▁۸۳	-7209
ابھی	-7210
▁ارد	-7211
▁صاحبزاد	-7212
▁کمانڈ	-7213
▁ناسا	-7214
▁لوئس	-7215
▁بنو	-7216
▁طلعت	-7217
▁براوو	-7218
▁کرائسٹ	-7219
▁نوش	-7220
▁جری	-7221
رہا	-7222
▁دراز	-7223
▁ماور	-7224
▁ڈسپلن	-7225
▁کالونی	-7226
▁ہوسکتا	-7227
ینک	-7228
▁ذرا	-7229
▁نیشن	-7230
▁کوال	-7231
▁چہرہ	-7232
▁گھٹنے	-7233
▁نگاہ	-7234
▁کھینچ	-7235
راور	-7236
▁نوکیا	-7237
▁اخلاقی	-7238
حقیقت	-7239
▁یکجہتی	-7240
▁فراز	-7241
▁افواہیں	-7242
▁حسینہ	-7243
▁فاریکس	-7244
▁شاپنگ	-7245
واعد	-7246
▁گناہ	-7247
▁اموات	-7248
▁انشاء	-7249
▁پڑتی	-7250
▁کھلی	-7251
لیمانی	-7252
مرہ	-7253
▁عظمی	-7254
▁میون	-7255
غرل	-7256
ابیر	-7257
▁سینچری	-7258
▁الطاف	-7259
بلڈن	-7260
▁بھرو	-7261
▁ڈسٹری	-7262
جل	-7263
▁ججز	-7264
ایم	-7265
▁جنھوں	-7266
▁السلام	-7267
▁کمپنیز	-7268
▁تمیم	-7269
بعد	-7270
▁ورزش	-7271
▁مہمانوں	-7272
▁فاصلے	-7273
▁ہموار	-7274
▁اکنامک	-7275
▁کاروائی	-7276
▁جنگل	-7277
تین	-7278
▁سنجیدگی	-7279
▁افیشل	-7280
▁دوطرفہ	-7281
▁گنگ	-7282
▁کرایہ	-7283
▁کراٹے	-7284
▁کوم	-7285
▁سند	-7286
▁کاجول	-7287
▁ہول	-7288
چارج	-7289
▁نریندر	-7290
▁۸۷	-7291
▁سنبھالنے	-7292
یری	-7293
▁لوٹے	-7294
▁سنگاکارا	-7295
▁سیمینار	-7296
Pakistan	-7297
▁عبدالح	-7298
▁ناممکن	-7299
▁لانڈر	-7300
▁لگاتے	-7301
انہیں	-7302
▁آرمی	-7303
▁برج	-7304
▁عش	-7305
▁قاتل	-7306
▁آتے	-7307
▁جموں	-7308
▁تقاض	-7309
▁لیب	-7310
▁برائن	-7311
▁صنعتکاروں	-7312
▁ہیںپاکستان	-7313
روس	-7314
▁چہ	-7315
▁ڈینی	-7316
سوسن	-7317
▁ایجاد	-7318
▁حیدراباد	-7319
▁ٹوئیٹ	-7320
سٹل	-7321
▁معاہدوں	-7322
اتوں	-7323
▁ڈینگی	-7324
▁منے	-7325
▁ازدواج	-7326
▁اسٹوکس	-7327
▁رہنماؤں	-7328
▁الر	-7329
▁اکھ	-7330
▁بظاہر	-7331
راط	-7332
▁کنس	-7333
▁دھمکیاں	-7334
▁تدابیر	-7335
سوسناک	-7336
▁لانڈرنگ	-7337
▁لائیں	-7338
▁لکھنے	-7339
تھک	-7340
ٹرا	-7341
دایت	-7342
▁قرعہ	-7343
نٹن	-7344
▁ابی	-7345
▁رخصت	-7346
▁بھیجی	-7347
▁مراکز	-7348
▁میوزی	-7349
▁خامی	-7350
▁کرون	-7351
▁اساتذہ	-7352
مپٹن	-7353
▁سائی	-7354
▁کامیابیاں	-7355
▁اسٹیون	-7356
جاجی	-7357
پیٹ	-7358
▁جوڈیشل	-7359
▁آف	-7360
▁پرستار	-7361
▁فف	-7362
▁پروگرامز	-7363
▁جیتنا	-7364
بود	-7365
▁درہم	-7366
اکس	-7367
شعیب	-7368
▁میرپور	-7369
▁۷۹	-7370
▁درمدی	-7371
درہ	-7372
▁تباد	-7373
▁قواعد	-7374
▁ساحل	-7375
▁آہ	-7376
▁مائیک	-7377
▁رٹس	-7378
انیے	-7379
▁آئیں	-7380
▁بدن	-7381
منٹس	-7382
▁حاضری	-7383
▁ے	-7384
▁اسکا	-7385
▁سکس	-7386
▁پرامید	-7387
▁نائ	-7388
▁پرستی	-7389
کنار	-7390
▁سبق	-7391
▁روٹی	-7392
▁قاضی	-7393
▁صدیق	-7394
▁جناب	-7395
▁بذ	-7396
بط	-7397
▁۹۶	-7398
▁مشق	-7399
▁ٹرائل	-7400
▁انقلاب	-7401
لوس	-7402
▁سوئنگ	-7403
▁سراہتے	-7404
▁اکائ	-7405
یوز	-7406
▁ناظم	-7407
▁سار	-7408
▁جاندار	-7409
▁بندرگاہ	-7410
▁ضیاء	-7411
▁لڑنے	-7412
▁ایکسپورٹرز	-7413
▁بیڈمنٹن	-7414
▁ٹھوس	-7415
پشاور	-7416
▁افسوسناک	-7417
شیک	-7418
▁ساٹھ	-7419
▁مددگار	-7420
ئیرز	-7421
▁خوبرو	-7422
ذب	-7423
بنگلہ	-7424
▁کروز	-7425
▁ڈھاکا	-7426
▁ہےمزید	-7427
کمی	-7428
▁بحیثیت	-7429
▁گیاہے	-7430
شناک	-7431
لیفورنیا	-7432
▁سٹیل	-7433
▁تناسب	-7434
پھ	-7435
▁ماریہ	-7436
طلی	-7437
▁نامے	-7438
▁مارکیٹس	-7439
▁بدلے	-7440
▁عہدیداران	-7441
▁قون	-7442
▁شیئرنگ	-7443
▁کارپٹ	-7444
▁اولڈ	-7445
▁اجراء	-7446
▁شہادت	-7447
▁ورکرز	-7448
▁لیجنڈری	-7449
▁جھٹ	-7450
▁کیاگیا	-7451
▁فلی	-7452
اقان	-7453
▁انجینئرنگ	-7454
▁فرید	-7455
▁مخلو	-7456
▁روپیہ	-7457
▁وائٹس	-7458
▁جسٹن	-7459
نسٹی	-7460
دانی	-7461
▁مظاہرین	-7462
▁ہائے	-7463
▁ملازم	-7464
▁بص	-7465
▁فلمز	-7466
▁فیاض	-7467
▁مانگی	-7468
▁زلزلے	-7469
▁کائن	-7470
ینز	-7471
▁ڈیولپمنٹ	-7472
▁اپس	-7473
▁معائنہ	-7474
▁احتجاجی	-7475
▁ٹائیگرز	-7476
▁ٹورنامنٹس	-7477
▁ہاتھا	-7478
۲۹	-7479
▁ریمپ	-7480
▁چائنا	-7481
▁تعزی	-7482
▁بپا	-7483
نڈرڈ	-7484
▁راضی	-7485
▁دھواں	-7486
▁سبقت	-7487
▁شواہد	-7488
▁ہیروز	-7489
▁پروسی	-7490
▁میسنجر	-7491
▁ہیںواضح	-7492
▁ترام	-7493
▁“	-7494
ارہی	-7495
▁اکاؤنٹ	-7496
پال	-7497
▁خواہاں	-7498
▁گرما	-7499
▁پھیلانے	-7500
▁بندہ	-7501
▁پہنے	-7502
▁ڈالے	-7503
▁پروموشن	-7504
▁خاصی	-7505
▁دائیں	-7506
ومن	-7507
▁سپن	-7508
▁دہائیوں	-7509
▁ہوجائیں	-7510
▁ایشنز	-7511
▁مشورے	-7512
▁”	-7513
قیمت	-7514
▁عتیق	-7515
▁بیرسٹر	-7516
▁کارپوریٹ	-7517
▁ہےپی	-7518
▁میوزیکل	-7519
▁گوشوارے	-7520
▁۹۴	-7521
▁اویس	-7522
▁‘	-7523
▁سمر	-7524
انڈیشن	-7525
▁گڑھ	-7526
▁کیمروں	-7527
▁گڑ	-7528
▁آزادی	-7529
▁شری	-7530
بنا	-7531
▁عد	-7532
ندھن	-7533
▁بٹلر	-7534
▁بھرتی	-7535
▁ویلنگٹن	-7536
▁تشویشناک	-7537
▁شاہراہ	-7538
نہیں	-7539
▁پنج	-7540
▁قربان	-7541
▁ڈاون	-7542
▁میان	-7543
▁صلی	-7544
▁بحری	-7545
▁خاقان	-7546
فون	-7547
▁جمہوریہ	-7548
▁رائونڈر	-7549
ڈاک	-7550
▁بلاگ	-7551
▁شہدا	-7552
▁شیو	-7553
ولس	-7554
▁سلوا	-7555
▁وارن	-7556
▁واقف	-7557
er	-7558
▁اسٹورز	-7559
▁ثقلین	-7560
▁اترنے	-7561
▁لمبے	-7562
▁ایندھن	-7563
▁گیری	-7564
▁بکھیر	-7565
▁بتانے	-7566
▁ہےای	-7567
▁باندھ	-7568
▁دعائیں	-7569
▁سپرد	-7570
ئیس	-7571
▁الفطر	-7572
▁رعایت	-7573
▁میمن	-7574
▁ڈور	-7575
بائی	-7576
▁کہن	-7577
▁فصلوں	-7578
▁ایوی	-7579
▁لگتے	-7580
▁ایرون	-7581
▁کانٹے	-7582
یرو	-7583
▁بشکر	-7584
▁ہوچکی	-7585
▁بائیس	-7586
▁پکچرز	-7587
اسک	-7588
▁ہےہ	-7589
▁تمہارے	-7590
▁دعوے	-7591
▁فانڈیشن	-7592
▁کنو	-7593
▁بلوں	-7594
▁خزانے	-7595
▁معطلی	-7596
▁ماننا	-7597
▁شہزادہ	-7598
▁بولنے	-7599
▁رقبہ	-7600
▁تناظر	-7601
▁ڈرافٹ	-7602
رساں	-7603
▁ہمکنار	-7604
معروف	-7605
▁تھیم	-7606
▁سمیٹ	-7607
▁بادی	-7608
ماہرین	-7609
▁دلایا	-7610
▁ہڈی	-7611
▁کینٹ	-7612
▁۸۹	-7613
سافٹ	-7614
▁پہننے	-7615
▁پرسن	-7616
ائڈ	-7617
▁سنہ	-7618
▁اُس	-7619
▁بزدار	-7620
▁سانحہ	-7621
▁عسک	-7622
▁سولر	-7623
▁جذبے	-7624
▁ایاز	-7625
ٓمد	-7626
▁پرفی	-7627
▁بناتا	-7628
▁۹۸	-7629
ساتھ	-7630
▁ٹرینٹ	-7631
▁ہیک	-7632
▁وادی	-7633
دیگر	-7634
▁معنی	-7635
▁ڈپارٹمنٹ	-7636
اویزی	-7637
▁جنگی	-7638
▁دھند	-7639
▁لگانا	-7640
سوشل	-7641
▁کٹو	-7642
▁ایڈجسٹمنٹ	-7643
▁ڈیڈ	-7644
گھنٹ	-7645
▁تھیا	-7646
▁اظہرعلی	-7647
ٹیننٹ	-7648
▁تیرا	-7649
پولیس	-7650
▁ہتھیار	-7651
▁پاسپورٹ	-7652
▁برے	-7653
▁تاز	-7654
▁تھرڈ	-7655
▁پلانٹس	-7656
▁الت	-7657
دوم	-7658
عید	-7659
▁ایریا	-7660
ظوظ	-7661
▁سیب	-7662
▁چیر	-7663
▁ترامیم	-7664
▁ڈاٹ	-7665
▁ارہے	-7666
▁بوٹی	-7667
جانے	-7668
▁ومبلڈن	-7669
▁ہےخیال	-7670
▁افواہوں	-7671
▁پیشرفت	-7672
▁محی	-7673
▁دستبردار	-7674
▁جاسکتی	-7675
▁رے	-7676
▁لاحق	-7677
▁بازو	-7678
▁صفحۂ	-7679
▁ورون	-7680
▁رائیڈرز	-7681
ستانی	-7682
▁حریم	-7683
▁احتیاط	-7684
وابط	-7685
▁نرگس	-7686
طغرل	-7687
▁فاف	-7688
▁ملاقاتیں	-7689
▁سہی	-7690
▁سپیکر	-7691
ڈس	-7692
▁جوڑا	-7693
حسن	-7694
▁سائرہ	-7695
▁ساہیوال	-7696
▁ہنر	-7697
▁ٹاون	-7698
▁ٹانگ	-7699
▁مجاہد	-7700
▁لوہا	-7701
▁نین	-7702
علا	-7703
انشل	-7704
یادہ	-7705
▁کیلیفورنیا	-7706
▁بلیو	-7707
▁اُن	-7708
▁گپٹل	-7709
▁کارگو	-7710
شمول	-7711
▁ٹیکسز	-7712
▁تلخ	-7713
▁موضوعات	-7714
گرو	-7715
▁اسٹارک	-7716
▁کلیئرنس	-7717
ڈنٹ	-7718
▁ایمنسٹی	-7719
دنیا	-7720
▁یکطرفہ	-7721
▁راب	-7722
▁وول	-7723
اسن	-7724
▁فلائٹ	-7725
▁اٹھائیں	-7726
▁کائنات	-7727
▁الق	-7728
▁پارلیمانی	-7729
▁براد	-7730
▁پونے	-7731
بز	-7732
▁ایمرجنسی	-7733
▁اللّٰہ	-7734
▁۹۳	-7735
▁تخمینہ	-7736
▁ہےدوسری	-7737
▁رکی	-7738
▁دوری	-7739
▁نقد	-7740
قسم	-7741
▁چھکا	-7742
▁گلاس	-7743
▁علوی	-7744
▁جیم	-7745
▁چیمپئین	-7746
▁باجی	-7747
▁کاپٹر	-7748
▁جلسہ	-7749
▁نادیہ	-7750
▁حکمران	-7751
▁ایلی	-7752
▁منور	-7753
▁دوا	-7754
▁پرائز	-7755
▁اری	-7756
ابہ	-7757
اتھی	-7758
▁آئ	-7759
▁گہر	-7760
▁چائنہ	-7761
جائز	-7762
▁تاجران	-7763
ققین	-7764
▁طنز	-7765
▁شہزادی	-7766
▁۱۲۰	-7767
چن	-7768
▁ہےیاد	-7769
▁ورث	-7770
▁بوت	-7771
یمپ	-7772
▁آؤٹ	-7773
▁سینٹی	-7774
▁دیول	-7775
▁ہیںم	-7776
▁احتیاطی	-7777
▁مینجر	-7778
▁بان	-7779
▁سکے۔	-7780
▁کینیڈین	-7781
▁میئر	-7782
▁محظوظ	-7783
گنا	-7784
▁ٹرینڈ	-7785
بند	-7786
▁نبھانے	-7787
سٹول	-7788
▁محفل	-7789
▁جوی	-7790
▁امپورٹ	-7791
▁پروڈیوسرز	-7792
▁فلک	-7793
▁اورنگزیب	-7794
پرنگ	-7795
▁گروپس	-7796
▁دوستانہ	-7797
▁عطیہ	-7798
▁ہرادیا	-7799
▁شیخو	-7800
▁جنازہ	-7801
▁طیب	-7802
▁سیکھا	-7803
▁کمیونیکیشن	-7804
▁فلیگ	-7805
نیز	-7806
▁مریخ	-7807
▁سائوتھ	-7808
▁بیا	-7809
▁۸۲	-7810
▁دستاویزی	-7811
▁ایون	-7812
تھم	-7813
▁ڈزنی	-7814
▁ہنسی	-7815
▁پڑوسی	-7816
▁نصرت	-7817
▁دلو	-7818
▁ولا	-7819
یتی	-7820
▁چیمبرز	-7821
▁ریاستی	-7822
▁کینو	-7823
▁کمب	-7824
▁۹۷	-7825
اجلاس	-7826
▁اسپیکر	-7827
▁اکٹھا	-7828
▁پمپ	-7829
▁دلیپ	-7830
▁مجید	-7831
نسالی	-7832
▁کورنگی	-7833
▁کوا	-7834
▁پروف	-7835
▁گراف	-7836
وریٹ	-7837
▁مزدور	-7838
▁عملدرمد	-7839
▁بھجوا	-7840
▁امیدیں	-7841
▁دھار	-7842
▁طلائی	-7843
▁موسمیات	-7844
▁کیلے	-7845
▁دریا	-7846
▁میڈیم	-7847
▁ہائیڈ	-7848
▁میدانوں	-7849
ہیب	-7850
▁دھڑ	-7851
▁یاب	-7852
▁اسمگلنگ	-7853
لائن	-7854
▁بھگت	-7855
▁کیپشن	-7856
▁اتھلیٹ	-7857
▁جریدے	-7858
▁میموریل	-7859
▁تری	-7860
▁شیٹھی	-7861
▁میوزیم	-7862
۳۱	-7863
▁مینو	-7864
▁نظری	-7865
▁آئینی	-7866
▁مولا	-7867
▁گھا	-7868
▁عیسی	-7869
▁لانگ	-7870
▁نوم	-7871
▁ہوگئیں	-7872
▁وارننگ	-7873
▁ہوگئے۔	-7874
▁سعود	-7875
▁ایتھلیٹس	-7876
▁نزدیک	-7877
▁جرن	-7878
▁کھاتے	-7879
زے	-7880
▁پتی	-7881
▁نمک	-7882
▁پاگل	-7883
وٹا	-7884
▁ترا	-7885
▁مجموعے	-7886
▁رہوں	-7887
▁شروعات	-7888
▁فزی	-7889
▁ﷺ	-7890
▁گروپوں	-7891
▁نازی	-7892
▁فرمائے	-7893
▁ئین	-7894
▁رسل	-7895
▁ولن	-7896
▁رناوت	-7897
▁اسنیپ	-7898
▁جہان	-7899
ٹرل	-7900
▁امپائرنگ	-7901
ولے	-7902
▁گلین	-7903
or	-7904
▁ساد	-7905
▁دیسی	-7906
▁مؤ	-7907
▁معذ	-7908
یس	-7909
▁۸۱	-7910
▁دھچکا	-7911
▁ضبط	-7912
▁مسابق	-7913
▁برقی	-7914
▁فیئر	-7915
▁ٹرسٹ	-7916
مجھے	-7917
▁عظم	-7918
▁پہاڑ	-7919
▁تمغے	-7920
▁لیفٹیننٹ	-7921
ہروں	-7922
▁اتریں	-7923
گرد	-7924
▁بھنسالی	-7925
▁ودیا	-7926
▁پڑیں	-7927
▁اداکارائیں	-7928
▁لڑکا	-7929
▁ڈوپلیسی	-7930
▁فروش	-7931
▁افراط	-7932
متی	-7933
▁بشمول	-7934
وزیراعظم	-7935
▁دکھاتے	-7936
▁ضابطہ	-7937
▁مردان	-7938
▁ڈریسنگ	-7939
▁فائز	-7940
▁جرا	-7941
▁ہانیہ	-7942
▁گرہ	-7943
▁ہنڈ	-7944
▁سمجھتی	-7945
▁ایگری	-7946
▁ہوش	-7947
▁کیبل	-7948
▁متن	-7949
▁شہریت	-7950
▁جگا	-7951
انز	-7952
▁ذات	-7953
▁اثناء	-7954
▁غلطیوں	-7955
▁جوئے	-7956
قیل	-7957
▁اجزا	-7958
▁فرنی	-7959
▁خبررساں	-7960
▁ستارہ	-7961
▁سلنڈر	-7962
▁کمایا	-7963
▁ارو	-7964
▁سوئپ	-7965
ائنز	-7966
▁سرٹیفکیٹ	-7967
ww	-7968
▁نکلا	-7969
▁سٹارز	-7970
▁سٹائل	-7971
▁ورکنگ	-7972
▁ستر	-7973
پتہ	-7974
▁ریان	-7975
اوت	-7976
▁گنے	-7977
▁نامکمل	-7978
ویڈ	-7979
▁وقفہ	-7980
لاک	-7981
▁ڈیس	-7982
▁ڈکی	-7983
▁ایڈن	-7984
▁دلائل	-7985
▁ڈیفنس	-7986
▁بینکاری	-7987
ریوں	-7988
▁مرنے	-7989
▁محکموں	-7990
تھا	-7991
▁خیبرپختونخوا	-7992
▁ایسو	-7993
▁اسپنرز	-7994
▁بتائے	-7995
▁اراضی	-7996
▁گنوا	-7997
▁چنائی	-7998
▁اگاہی	-7999
▁لع	-8000
ھار	-8001
▁زارا	-8002
رگ	-8003
▁وجود	-8004
سرت	-8005
فل	-8006
ندا	-8007
▁سوئس	-8008
▁پشتو	-8009
▁کیمرون	-8010
▁ڈائیلاگ	-8011
▁ناجائز	-8012
قبل	-8013
ڑیوں	-8014
▁حضرات	-8015
▁رضامندی	-8016
▁ہوپ	-8017
والا	-8018
▁پہنا	-8019
▁جیا	-8020
بلی	-8021
▁لیڈی	-8022
▁نبھایا	-8023
▁منج	-8024
▁نرم	-8025
▁دورانیہ	-8026
▁وسلم	-8027
ریج	-8028
اطب	-8029
▁سمیٹی	-8030
▁مخدوم	-8031
▁خورشید	-8032
▁بیلٹ	-8033
▁کمانڈر	-8034
▁نظیر	-8035
▁مہندرا	-8036
▁فخ	-8037
دائی	-8038
▁ارطغرل	-8039
▁قوی	-8040
▁بھرا	-8041
▁سیٹل	-8042
▁نقاب	-8043
▁بنگال	-8044
▁بنائیں۔	-8045
▁لاگو	-8046
▁لیبر	-8047
ھیل	-8048
▁دیپ	-8049
▁میزائل	-8050
▁نشستوں	-8051
▁یں	-8052
▁نیدر	-8053
محکمہ	-8054
▁حلقہ	-8055
▁کردیں	-8056
▁رگبی	-8057
▁دینگے	-8058
▁زبانوں	-8059
▁تنہا	-8060
▁زکر	-8061
▁پوچھے	-8062
▁منع	-8063
زدہ	-8064
وسک	-8065
▁کلر	-8066
▁جانیوالے	-8067
▁کریک	-8068
▁مناس	-8069
▁شرمن	-8070
▁بدلنے	-8071
▁اسنوکر	-8072
uj	-8073
▁رحم	-8074
ٹرک	-8075
▁انوی	-8076
▁اٹھویں	-8077
▁کنارے	-8078
ثنی	-8079
▁ٹرمین	-8080
▁وکی	-8081
▁جھوٹی	-8082
▁مایا	-8083
یوا	-8084
▁متحد	-8085
سٹرکچر	-8086
پڑ	-8087
▁ونڈوز	-8088
▁کمپوز	-8089
اشی	-8090
▁مونگ	-8091
▁گالی	-8092
▁کرسٹیانو	-8093
▁ریسٹور	-8094
برن	-8095
▁کوری	-8096
▁کےلیے	-8097
▁موسمیاتی	-8098
▁محصو	-8099
▁شردھا	-8100
▁اورقیمت	-8101
▁وعد	-8102
▁متنازعہ	-8103
▁حوصلے	-8104
پنے	-8105
▁بنچ	-8106
▁محل	-8107
▁صفدر	-8108
▁کروشیا	-8109
▁پنالٹی	-8110
▁اندرون	-8111
نواز	-8112
▁شیکھر	-8113
▁رائٹ	-8114
▁بذریعہ	-8115
▁کنارہ	-8116
ارکس	-8117
▁شیخوپورہ	-8118
موعی	-8119
کب	-8120
▁مخاطب	-8121
▁پولینڈ	-8122
▁لیگی	-8123
▁وباء	-8124
▁غذا	-8125
▁ہرارے	-8126
خلا	-8127
▁میا	-8128
▁فرنچائزز	-8129
ڈیننس	-8130
▁روئے	-8131
▁الات	-8132
▁کیاس	-8133
کارا	-8134
▁لوگو	-8135
▁کرسکتا	-8136
▁فنانشل	-8137
ویت	-8138
▁مفاہم	-8139
▁درخواستوں	-8140
رہے	-8141
▁بلدیاتی	-8142
▁کمنٹس	-8143
▁ضمنی	-8144
▁گاہی	-8145
▁سمجھے	-8146
▁ہں	-8147
کشاپ	-8148
▁مردہ	-8149
▁مکئی	-8150
▁گان	-8151
▁اورس	-8152
فار	-8153
▁اثاثوں	-8154
▁سکینڈل	-8155
میگا	-8156
▁ڈاؤن	-8157
▁ہولڈنگ	-8158
▁ڈیری	-8159
▁غلطیاں	-8160
▁رونق	-8161
▁بیوٹی	-8162
جوش	-8163
▁بیو	-8164
▁شہرہ	-8165
کچھ	-8166
نیتی	-8167
▁بخوبی	-8168
▁جرنل	-8169
▁مناسبت	-8170
▁جویریہ	-8171
▁قلندر	-8172
▁گنڈا	-8173
▁اجناس	-8174
ائمنڈ	-8175
▁طیاروں	-8176
▁جتنے	-8177
▁انگوٹ	-8178
▁گڈ	-8179
▁جانتی	-8180
کیلئے	-8181
کستان	-8182
▁بناء	-8183
▁بھرے	-8184
▁کولمبیا	-8185
▁طلبا	-8186
رزمان	-8187
▁دیہی	-8188
▁اخبا	-8189
▁فلاحی	-8190
▁چاک	-8191
▁رائٹرز	-8192
▁جاسوس	-8193
▁بناسکی	-8194
وبھی	-8195
▁ہنگامہ	-8196
▁اثاثہ	-8197
▁سربیا	-8198
ومیں	-8199
▁ائند	-8200
▁بینوں	-8201
▁ونس	-8202
▁سیاحوں	-8203
▁فرنیچر	-8204
▁ازم	-8205
▁انجو	-8206
▁جوائنٹ	-8207
▁پینٹ	-8208
▁اکس	-8209
مس	-8210
▁سکو	-8211
▁لب	-8212
طابق	-8213
▁لیگز	-8214
▁کوئلے	-8215
▁گرے	-8216
▁اوز	-8217
▁کووڈ	-8218
▁دنیش	-8219
▁خریدا	-8220
▁چارجنگ	-8221
▁مادھوری	-8222
▁خوفزدہ	-8223
▁کویت	-8224
▁ایڈوو	-8225
▁لڑکیاں	-8226
نگے	-8227
▁عبدالقادر	-8228
▁انفراسٹرکچر	-8229
▁چھپا	-8230
▁محصولات	-8231
▁غنی	-8232
لینڈر	-8233
▁ذیلی	-8234
▁صائمہ	-8235
میک	-8236
▁داس	-8237
واک	-8238
▁غا	-8239
▁ایلن	-8240
▁بنوں	-8241
▁بڑھتا	-8242
▁ضوابط	-8243
▁لپیٹ	-8244
▁عقیل	-8245
▁مشرف	-8246
کوئی	-8247
▁نوب	-8248
۹۲	-8249
ٹرو	-8250
▁جیولرز	-8251
▁سوئمنگ	-8252
پیر	-8253
کانے	-8254
▁فلسطین	-8255
▁کرسکی	-8256
▁اسلئے	-8257
▁سکولوں	-8258
▁سوان	-8259
▁کروڈ	-8260
عدالت	-8261
▁گےانہوں	-8262
سمس	-8263
▁جٹ	-8264
▁کسٹ	-8265
▁پسندی	-8266
▁اشت	-8267
▁اصلی	-8268
▁لاہورنمائندہ	-8269
▁منرو	-8270
رکے	-8271
▁نواح	-8272
▁ننھے	-8273
برطانوی	-8274
▁ریکارڈز	-8275
▁منح	-8276
▁عدالتوں	-8277
▁ٹھاکر	-8278
▁نکھوں	-8279
▁پھیلنے	-8280
▁سیارے	-8281
َل	-8282
▁دورانیے	-8283
ئیا	-8284
▁پرانے	-8285
▁ہلکی	-8286
▁وں	-8287
▁ڈیٹس	-8288
▁اباداردو	-8289
ڈاکٹر	-8290
▁کلیدی	-8291
۵۲	-8292
▁شرمناک	-8293
▁رابرٹ	-8294
۴۰	-8295
▁درمیانی	-8296
▁روا	-8297
▁جگہوں	-8298
▁مُ	-8299
▁جواز	-8300
▁پنڈی	-8301
▁قلم	-8302
▁پہر	-8303
▁آغاز	-8304
گوئی	-8305
فید	-8306
▁جیکولین	-8307
یلا	-8308
▁پائیدار	-8309
▁ایلس	-8310
▁پھولوں	-8311
وند	-8312
▁کنسل	-8313
▁منصب	-8314
▁آنے	-8315
▁ابادی	-8316
▁تمنا	-8317
▁ٹریب	-8318
▁تنصی	-8319
▁کیام	-8320
ائلی	-8321
▁سکوں	-8322
▁برازی	-8323
▁چھوڑا	-8324
▁قونصل	-8325
▁قوالی	-8326
▁مدار	-8327
▁شق	-8328
on	-8329
▁گوری	-8330
▁الرحیم	-8331
▁تبادلے	-8332
▁خاندانوں	-8333
میچوں	-8334
▁ظہبی	-8335
▁ایڈووکیٹ	-8336
ءکے	-8337
▁ورکشاپ	-8338
▁فرح	-8339
▁ہسپانوی	-8340
▁پروین	-8341
اتاہم	-8342
▁کیفیت	-8343
▁مرمت	-8344
▁ممنو	-8345
▁ارم	-8346
قط	-8347
▁پردے	-8348
▁وینس	-8349
بیہ	-8350
▁صہیب	-8351
▁بتد	-8352
▁گئیں۔	-8353
▁جلوے	-8354
▁ملکر	-8355
▁ہیلز	-8356
▁کالے	-8357
▁بدنام	-8358
▁فروختروپے	-8359
الز	-8360
▁سرپر	-8361
▁بیٹھا	-8362
▁دیکھو	-8363
▁سہولتیں	-8364
▁فینز	-8365
فیئر	-8366
▁انڈس	-8367
▁وزیرخزانہ	-8368
▁ساکھ	-8369
امین	-8370
▁ففٹی	-8371
▁تمہاری	-8372
▁ویلی	-8373
▁پٹو	-8374
▁اوبر	-8375
آن	-8376
▁پروازوں	-8377
▁بخار	-8378
▁ڈائون	-8379
طے	-8380
▁ریشم	-8381
▁آصف	-8382
▁چاہئے۔	-8383
کلچر	-8384
اسٹر	-8385
پسند	-8386
▁کپتانوں	-8387
▁خاں	-8388
▁رنر	-8389
▁ملٹی	-8390
▁لاپتہ	-8391
▁ں	-8392
▁کوئین	-8393
▁جھگڑا	-8394
▁عراق	-8395
▁علامت	-8396
▁کاکہ	-8397
▁جدی	-8398
▁حقدار	-8399
▁درامدی	-8400
▁وزیرِ	-8401
عدگی	-8402
▁بزرگ	-8403
▁فراڈ	-8404
▁ماسٹرز	-8405
▁الیکٹرانک	-8406
▁سگنل	-8407
▁نازیبا	-8408
▁کیسا	-8409
▁ہوسکتی	-8410
▁ٹھہر	-8411
▁بڑھانا	-8412
▁فردوس	-8413
▁ملکیت	-8414
▁خوشیاں	-8415
▁بریگی	-8416
▁منظم	-8417
▁دھوپ	-8418
▁کوارٹرفائنل	-8419
▁ایز	-8420
▁پیسوں	-8421
فیصل	-8422
▁بالن	-8423
▁بروئے	-8424
▁الہی	-8425
▁ڈائمنڈ	-8426
ویلا	-8427
▁مچانے	-8428
▁اینگ	-8429
▁سراج	-8430
▁نظریں	-8431
▁نایاب	-8432
▁کینیا	-8433
▁اوب	-8434
ونڈیشن	-8435
▁ششم	-8436
▁چاہت	-8437
▁ملہوت	-8438
▁اہلخانہ	-8439
▁ساوتھ	-8440
▁یادداشت	-8441
سٹریلوی	-8442
▁کنکشن	-8443
▁مڈ	-8444
▁لٹر	-8445
▁مٹ	-8446
▁جانیوالی	-8447
▁بمق	-8448
▁سازگار	-8449
جاری	-8450
▁اتحادی	-8451
سٹاف	-8452
واحقین	-8453
▁عاقب	-8454
▁رہے۔	-8455
فرو	-8456
▁رومانٹک	-8457
▁گور	-8458
▁’’	-8459
▁چلائی	-8460
▁ریٹیل	-8461
پانچ	-8462
▁ناصرف	-8463
▁انجوائے	-8464
▁مائیکروسافٹ	-8465
نیا	-8466
▁فلیٹ	-8467
بہت	-8468
▁نقطہ	-8469
▁پنک	-8470
گون	-8471
▁لمحے	-8472
▁نامناسب	-8473
▁گنو	-8474
▁ریمانڈ	-8475
▁عامہ	-8476
▁مانیٹری	-8477
۴۱	-8478
افراد	-8479
▁فیوچر	-8480
▁لوں	-8481
▁بچایا	-8482
▁وژن	-8483
▁ذاکر	-8484
▁جسکے	-8485
▁ایلیٹ	-8486
▁عبید	-8487
میرا	-8488
▁تسلی	-8489
▁اٹک	-8490
▁ریٹرن	-8491
▁فلاور	-8492
▁احد	-8493
▁صدف	-8494
عم	-8495
▁فالوورز	-8496
▁نقش	-8497
▁صو	-8498
خن	-8499
▁کیسی	-8500
▁خوشبو	-8501
ٹیٹ	-8502
▁ورڈ	-8503
▁گراس	-8504
▁عین	-8505
▁کریگ	-8506
ریاں	-8507
▁رہو	-8508
▁کھیت	-8509
▁چھڑ	-8510
▁ہےپاکستان	-8511
سز	-8512
▁چلتی	-8513
▁اجرا	-8514
▁لواحقین	-8515
▁تامل	-8516
صال	-8517
▁کاوشوں	-8518
▁انسپکٹر	-8519
پیگ	-8520
شار	-8521
ڈیل	-8522
ھرا	-8523
▁جمیکا	-8524
بج	-8525
▁لیوک	-8526
▁رت	-8527
▁کروائیں	-8528
▁ہوچکا	-8529
▁افریقن	-8530
▁بانو	-8531
▁تھرل	-8532
▁دیکھتا	-8533
▁بتدریج	-8534
بئی	-8535
▁ووکس	-8536
▁داموں	-8537
▁فالورز	-8538
▁ٹربیونل	-8539
▁فحش	-8540
▁ششماہی	-8541
▁پولنگ	-8542
▁تفریحی	-8543
▁سواری	-8544
▁میتھیو	-8545
▁ابھیشیک	-8546
▁وکلاء	-8547
وتھی	-8548
بع	-8549
▁کبیر	-8550
▁مقت	-8551
▁داستان	-8552
▁ارجنٹینا	-8553
▁شل	-8554
▁نچلی	-8555
▁کٹوتی	-8556
▁کورین	-8557
سٹاک	-8558
▁کھپت	-8559
▁نوشی	-8560
▁چکن	-8561
▁دلبر	-8562
▁دماغی	-8563
قان	-8564
رام	-8565
وگ	-8566
▁بولا	-8567
▁راجا	-8568
▁لالی	-8569
▁رچرڈسن	-8570
لیکشن	-8571
▁کمائے	-8572
▁یوریا	-8573
ارتنے	-8574
▁کونس	-8575
▁ئس	-8576
▁ریکوری	-8577
▁عمیر	-8578
▁خیرباد	-8579
▁فرض	-8580
▁ٹکٹس	-8581
مراہ	-8582
▁کنز	-8583
▁نیر	-8584
▁ایلکس	-8585
▁فنگر	-8586
▁فیسٹول	-8587
▁سنہری	-8588
▁لیفٹ	-8589
▁انٹ	-8590
▁فہمی	-8591
غب	-8592
▁کپڑوں	-8593
جمع	-8594
▁مخلوق	-8595
دیہ	-8596
▁نمی	-8597
▁زوال	-8598
▁فرام	-8599
▁تصویریں	-8600
خواتین	-8601
▁پرائم	-8602
▁فضائیہ	-8603
▁ریما	-8604
▁مزدوروں	-8605
▁وصولیوں	-8606
▁تجدید	-8607
▁چوہان	-8608
▁زونز	-8609
▁جملہ	-8610
مخت	-8611
▁آسانی	-8612
▁ہز	-8613
▁اصولوں	-8614
رکنی	-8615
شائر	-8616
▁۹۱	-8617
▁درحقیقت	-8618
شام	-8619
▁شوقین	-8620
▁لیونل	-8621
▁ائیرپورٹ	-8622
▁پنڈ	-8623
▁قدرے	-8624
▁علامات	-8625
▁چلو	-8626
▁فزیکل	-8627
▁جیتی	-8628
▁سد	-8629
▁جنگلات	-8630
وزارت	-8631
▁ایجنڈے	-8632
▁جھگڑے	-8633
▁پروگراموں	-8634
▁جنھیں	-8635
▁چارہ	-8636
▁سلیمان	-8637
▁ڈوپنگ	-8638
▁عدلیہ	-8639
▁شاہینوں	-8640
▁سیاستدان	-8641
▁پنشن	-8642
▁جوئی	-8643
بس	-8644
▁پولی	-8645
▁پابندیاں	-8646
▁آیا	-8647
▁جوتے	-8648
▁ٹیکساس	-8649
▁ریاستوں	-8650
▁التوا	-8651
‘‘	-8652
▁ءمیں	-8653
▁آپریشن	-8654
▁باش	-8655
سلان	-8656
▁فام	-8657
▁ملہوترا	-8658
▁چرا	-8659
▁جواد	-8660
▁پڑھا	-8661
▁سینئرز	-8662
▁یش	-8663
▁اسٹیٹس	-8664
▁ایمرجنگ	-8665
▁ئٹم	-8666
▁بدلہ	-8667
▁لیڈز	-8668
▁اسپیس	-8669
▁بشریٰ	-8670
▁ریمارکس	-8671
ستح	-8672
▁ہیکرز	-8673
▁عسکری	-8674
▁۲۵۰	-8675
▁کیپٹل	-8676
گھر	-8677
▁ملر	-8678
▁جینی	-8679
▁گلابی	-8680
▁موخر	-8681
▁کند	-8682
▁روزگاری	-8683
کرتے	-8684
▁خالق	-8685
▁یادیں	-8686
▁دیپیکا	-8687
فیڈ	-8688
انٹرنیشنل	-8689
▁جدت	-8690
▁کیئے	-8691
▁انویسٹ	-8692
▁ایمی	-8693
ایونٹ	-8694
ویہ	-8695
▁امنے	-8696
▁ڈیک	-8697
▁بلز	-8698
▁سبزیاں	-8699
▁ماورا	-8700
افر	-8701
برس	-8702
▁بائولرز	-8703
▁کرین	-8704
علم	-8705
کہا	-8706
▁لبن	-8707
▁مزے	-8708
المپور	-8709
▁اٹو	-8710
▁صدا	-8711
▁سکرپٹ	-8712
▁راغب	-8713
▁اوراس	-8714
صرف	-8715
ویک	-8716
▁خریدروپے	-8717
▁گاں	-8718
▁۸۰۰	-8719
▁کہان	-8720
سوب	-8721
▁ابرار	-8722
▁دبائو	-8723
▁وارنٹ	-8724
صب	-8725
▁جڑواں	-8726
▁ٹول	-8727
▁پیچیدہ	-8728
عین	-8729
▁اسلامک	-8730
▁مسکراہٹ	-8731
▁آنکھوں	-8732
▁الجھ	-8733
▁بناتی	-8734
▁برٹش	-8735
▁چہروں	-8736
▁محققین	-8737
▁سٹین	-8738
▁جہلم	-8739
▁برائی	-8740
سلے	-8741
▁دیہ	-8742
▁دھوکہ	-8743
لوار	-8744
▁ہائیڈرو	-8745
▁اوری	-8746
▁دکھانا	-8747
ھیرا	-8748
▁ڈپریشن	-8749
پول	-8750
▁بناسکے	-8751
▁جاؤ	-8752
▁عظمت	-8753
▁ناقدین	-8754
▁سارک	-8755
▁یواے	-8756
▁یاسین	-8757
▁آسٹریلیا	-8758
▁گایہ	-8759
▁دریائے	-8760
حم	-8761
▁راکٹ	-8762
▁۶۰۰	-8763
▁مظاہر	-8764
وانی	-8765
▁خریداروں	-8766
▁ارٹس	-8767
▁کالز	-8768
▁کھولے	-8769
▁عہدوں	-8770
▁چوروں	-8771
▁منڈ	-8772
▁رنج	-8773
▁کیوب	-8774
▁مفتی	-8775
▁پاں	-8776
فیص	-8777
▁ڈائریکشن	-8778
جک	-8779
▁بلکل	-8780
▁عل	-8781
الین	-8782
▁تحقیقی	-8783
▁پروفائل	-8784
بارٹری	-8785
▁زبردستی	-8786
کات	-8787
▁سوزو	-8788
▁بھروسہ	-8789
▁قیاس	-8790
ٹیڈ	-8791
▁ارشاد	-8792
▁پہاڑی	-8793
رینا	-8794
▁برابری	-8795
▁اسٹرائی	-8796
کاز	-8797
فورڈ	-8798
▁کااضافہ	-8799
▁اغا	-8800
▁رٹسٹ	-8801
▁نوٹوں	-8802
سیف	-8803
▁ٹوٹل	-8804
▁اسکورر	-8805
▁روکنا	-8806
▁لیام	-8807
▁طبقہ	-8808
▁ہارٹ	-8809
▁ماجد	-8810
▁چنئی	-8811
▁کیج	-8812
▁خریدار	-8813
▁فرنس	-8814
کشی	-8815
▁عموما	-8816
▁یادیو	-8817
▁لیلی	-8818
▁کمنٹری	-8819
▁دیوانے	-8820
▁سلم	-8821
▁حماس	-8822
▁مہربانی	-8823
▁سونی	-8824
▁کرسمس	-8825
▁مام	-8826
▁کریگا	-8827
▁گجر	-8828
ینوں	-8829
▁لعنت	-8830
▁کنڈ	-8831
▁پینٹس	-8832
▁پٹھ	-8833
ڑنے	-8834
▁ران	-8835
▁کارٹ	-8836
▁بکنگ	-8837
▁اکیلے	-8838
▁لیاری	-8839
آ	-8840
▁متفقہ	-8841
▁اسامہ	-8842
▁معرکے	-8843
▁نکھار	-8844
▁فخرزمان	-8845
▁زو	-8846
▁سانپ	-8847
▁ڈھانچے	-8848
خال	-8849
▁ملیر	-8850
▁کیانی	-8851
▁کٹی	-8852
▁کابل	-8853
ائرز	-8854
▁رومانس	-8855
▁مارخ	-8856
ائین	-8857
▁گزارا	-8858
▁ویلفیئر	-8859
▁کےم	-8860
۵۱	-8861
فو	-8862
▁ورانہ	-8863
▁بوڑ	-8864
▁شبہ	-8865
▁عائزہ	-8866
تقریب	-8867
▁بست	-8868
▁فرحت	-8869
▁مظاہرے	-8870
▁داخلے	-8871
▁سبحان	-8872
▁اڑان	-8873
▁کرچکی	-8874
▁سعدیہ	-8875
▁متوازن	-8876
▁مکھر	-8877
▁نیاز	-8878
▁انجلینا	-8879
▁بادل	-8880
▁سوزوکی	-8881
▁بسمہ	-8882
▁ترجیحی	-8883
▁وفود	-8884
▁امدن	-8885
▁معاوضے	-8886
▁موی	-8887
▁پارکنگ	-8888
موجود	-8889
▁اثاثے	-8890
لٹی	-8891
▁ایڈوانس	-8892
شکر	-8893
گوگل	-8894
ولیشن	-8895
▁مشکور	-8896
▁تصادم	-8897
▁وزیرستان	-8898
▁جعفر	-8899
▁پروازیں	-8900
▁فیل	-8901
▁سنجو	-8902
▁ڈائن	-8903
دیل	-8904
▁کیپی	-8905
▁رولز	-8906
▁مومنہ	-8907
▁پولارڈ	-8908
▁عملدرامد	-8909
▁کمنٹ	-8910
▁حکمرانی	-8911
▁لیبارٹری	-8912
▁ہوچکے	-8913
▁کہے	-8914
▁ناروے	-8915
▁لگن	-8916
الوی	-8917
at	-8918
▁رائٹس	-8919
▁گلزار	-8920
▁سپیڈ	-8921
▁گئیا	-8922
▁پیشگوئی	-8923
▁ہےا	-8924
سیٹ	-8925
ژری	-8926
▁ہراساں	-8927
▁نمائشی	-8928
▁ٹریبونل	-8929
▁بہبود	-8930
ستھان	-8931
▁پونٹ	-8932
▁واری	-8933
▁کمنز	-8934
ائیڈن	-8935
وقی	-8936
بولی	-8937
▁ریٹویٹ	-8938
چینی	-8939
▁سدھارتھ	-8940
▁فز	-8941
ترجمان	-8942
▁دمی	-8943
عقوب	-8944
▁برمدی	-8945
▁۹۲نیوز	-8946
▁جہازوں	-8947
▁کہوں	-8948
▁صابر	-8949
ڑو	-8950
سلمان	-8951
۳رنز	-8952
مارکیٹ	-8953
▁خامیوں	-8954
▁چیخ	-8955
▁بحرین	-8956
کلوگرام	-8957
▁تقرر	-8958
▁وچ	-8959
▁سشانت	-8960
▁چوٹی	-8961
▁سازوں	-8962
▁لیڈ	-8963
▁لفٹنگ	-8964
▁خاندانی	-8965
ہالی	-8966
▁مینیجر	-8967
▁لندناردو	-8968
▁بدع	-8969
▁لائحہ	-8970
یندر	-8971
▁چارجز	-8972
▁ارسلان	-8973
▁رحجان	-8974
▁اعزازی	-8975
ٹنٹ	-8976
▁قائل	-8977
▁مینڈس	-8978
چاہ	-8979
▁شعور	-8980
▁فریق	-8981
▁چیرمین	-8982
▁ڈائریکٹوریٹ	-8983
▁برلن	-8984
▁کیٹگریز	-8985
ٹیبل	-8986
▁کھنہ	-8987
▁ہنی	-8988
▁کارروائیوں	-8989
ٹیلٹی	-8990
▁مہیش	-8991
▁دھرنا	-8992
▁ملالہ	-8993
▁سائیکلسٹ	-8994
▁سٹور	-8995
▁ڈکیتی	-8996
درے	-8997
▁چلیں	-8998
ندیل	-8999
▁نغمہ	-9000
▁کاربن	-9001
▁نوے	-9002
ردی	-9003
▁سٹیو	-9004
▁سائنسی	-9005
کاش	-9006
ائلر	-9007
▁پراڈ	-9008
▁ہےبھارتی	-9009
▁ہیش	-9010
▁ٹائپ	-9011
▁اداکارا	-9012
▁پنی	-9013
گالی	-9014
▁سرگرمی	-9015
▁ٹرانسفر	-9016
▁ہےگزشتہ	-9017
نمارک	-9018
▁کمنٹی	-9019
▁ریفائن	-9020
▁لی۔	-9021
▁پڑتال	-9022
▁مواص	-9023
ائریکٹر	-9024
▁کوالالمپور	-9025
▁تعارف	-9026
▁تائیکو	-9027
▁لاتے	-9028
▁حریفوں	-9029
▁مثلا	-9030
چوئل	-9031
▁چرچے	-9032
شوبز	-9033
▁بوس	-9034
▁سینسر	-9035
تاہے	-9036
▁زمینی	-9037
▁وج	-9038
▁نوں	-9039
▁پاشا	-9040
▁ٹرپل	-9041
▁نیتھن	-9042
▁قدمی	-9043
▁برامدی	-9044
گیس	-9045
▁وجے	-9046
▁گیان	-9047
▁انوکھا	-9048
▁ھیں	-9049
▁آٹھ	-9050
▁وزراء	-9051
مقامی	-9052
وکری	-9053
▁ڈنمارک	-9054
▁انویسٹمنٹ	-9055
▁سفری	-9056
▁استعداد	-9057
▁لاہورپاکستان	-9058
ادیت	-9059
اسانی	-9060
▁نیز	-9061
▁کموڈ	-9062
ڈم	-9063
▁تعزیت	-9064
▁کرگیا	-9065
▁کرلیں	-9066
▁اسٹیک	-9067
زب	-9068
▁ذائ	-9069
▁شاخ	-9070
▁امانت	-9071
▁لکی	-9072
▁زینب	-9073
▁نادر	-9074
▁اتھلیٹکس	-9075
طان	-9076
▁نارائن	-9077
▁ریٹس	-9078
▁منسوب	-9079
▁ٹرانزی	-9080
▁یعقوب	-9081
سندھ	-9082
▁دباؤ	-9083
▁الائنس	-9084
▁بوٹیوں	-9085
▁سمگلنگ	-9086
▁بدقسم	-9087
▁پکڑنے	-9088
▁اینڈریو	-9089
▁پرنسپل	-9090
▁سپرے	-9091
▁چانسلر	-9092
▁پردیش	-9093
▁چلایا	-9094
▁آئے	-9095
جور	-9096
▁مرغ	-9097
لٹ	-9098
▁مکھ	-9099
▁چھاپہ	-9100
▁واجد	-9101
▁قیمتروپے	-9102
ویسی	-9103
▁"""	-9104
▁ہیراتھ	-9105
▁سیکنڈز	-9106
▁دانت	-9107
▁صابری	-9108
▁ایموجی	-9109
پرز	-9110
▁مویشی	-9111
▁ارہا	-9112
ٹیوٹ	-9113
▁حید	-9114
▁شیلڈ	-9115
ڑپ	-9116
▁تکنیک	-9117
▁چھاپے	-9118
▁نرمی	-9119
▁خودکار	-9120
نان	-9121
▁سیز	-9122
▁رفتاری	-9123
▁زخمیوں	-9124
اپریلء	-9125
▁ایکٹر	-9126
عزیز	-9127
لیاں	-9128
▁ریزرو	-9129
▁گائیکی	-9130
▁پشاوراردو	-9131
پھر	-9132
▁جنوب	-9133
▁میٹڈ	-9134
▁لہسن	-9135
▁مزار	-9136
▁سائنسدان	-9137
بادلہ	-9138
▁پرانی	-9139
▁پرومو	-9140
▁ریحان	-9141
▁رہا۔	-9142
▁بیری	-9143
نوانی	-9144
▁ٹرانزیکشن	-9145
▁جیول	-9146
▁دہر	-9147
▁خریدی	-9148
▁ایئرلائن	-9149
تج	-9150
▁تہوار	-9151
▁اجتماعی	-9152
▁کیرو	-9153
▁معاشر	-9154
گاس	-9155
▁اوس	-9156
▁ڈرائیونگ	-9157
الیا	-9158
▁۱۲۸	-9159
▁پرور	-9160
▁مہلت	-9161
▁خیل	-9162
▁ایور	-9163
▁جڑے	-9164
▁ویزہ	-9165
▁سنایا	-9166
▁چش	-9167
▁ہسپتالوں	-9168
▁کیمپس	-9169
▁تھیاس	-9170
▁کردیئے	-9171
تہ	-9172
وئ	-9173
گذشتہ	-9174
▁وئیر	-9175
ونے	-9176
▁کمزوری	-9177
تھے	-9178
پین	-9179
▁ترجیحات	-9180
▁مرتکب	-9181
حدی	-9182
▁باسط	-9183
▁پاتے	-9184
▁گرتی	-9185
▁ملائشیا	-9186
▁چٹا	-9187
▁فنڈنگ	-9188
ڑھائی	-9189
▁اینکر	-9190
▁کبری	-9191
▁کلم	-9192
▁تاحیات	-9193
▁ٹچ	-9194
▁شمع	-9195
▁سونپی	-9196
▁یونان	-9197
لیوں	-9198
▁ہمدردی	-9199
▁ایمب	-9200
▁برطرف	-9201
▁کراچیم	-9202
▁ٹریڈرز	-9203
▁الاس	-9204
▁چھبیس	-9205
▁دیرینہ	-9206
▁اٹھائیس	-9207
▁میکسویل	-9208
▁ای۱۰۰	-9209
▁اپشن	-9210
▁راستوں	-9211
▁جسکی	-9212
▁بالز	-9213
▁خانیوال	-9214
وانے	-9215
سس	-9216
▁کھیلتا	-9217
▁گولیاں	-9218
▁وضع	-9219
کوئٹہ	-9220
▁اکائونٹ	-9221
▁کھر	-9222
۲رنز	-9223
نیٹ	-9224
▁تعمیرات	-9225
▁سینیئر	-9226
▁کروانا	-9227
▁راس	-9228
▁ہینڈل	-9229
▁پولٹری	-9230
وای	-9231
▁پونٹنگ	-9232
▁ادکارہ	-9233
الفطر	-9234
▁رحمن	-9235
▁وسعت	-9236
▁ریلویز	-9237
▁لیسکو	-9238
▁سوتی	-9239
▁وَ	-9240
صغیر	-9241
▁مصد	-9242
▁اندازے	-9243
▁آگاہ	-9244
▁اوپی	-9245
▁یاہو	-9246
▁کرے۔	-9247
▁گریم	-9248
▁گہرائی	-9249
▁میٹرو	-9250
▁عادی	-9251
▁اہلیت	-9252
ادوسری	-9253
▁دھرنے	-9254
▁یامین	-9255
▁۱۱۰	-9256
کرم	-9257
گرافر	-9258
سٹرز	-9259
▁ورن	-9260
▁باولرز	-9261
▁لارا	-9262
▁ویڈنگ	-9263
▁پانڈے	-9264
▁اوکا	-9265
ڑن	-9266
▁نون	-9267
▁فوجیوں	-9268
▁فیکٹریوں	-9269
▁اطالوی	-9270
▁ممب	-9271
▁ربڑ	-9272
▁شروف	-9273
مری	-9274
▁دشم	-9275
▁چائلڈ	-9276
▁۷۰۰	-9277
رای	-9278
▁تعطل	-9279
▁ارباز	-9280
▁گرڈ	-9281
▁زہری	-9282
▁بااسانی	-9283
▁راجستھان	-9284
▁بھوک	-9285
ساط	-9286
om	-9287
▁پرچی	-9288
▁ڈیمانڈ	-9289
▁ہوٹ	-9290
▁مقدس	-9291
▁ہارڈ	-9292
▁منیجمنٹ	-9293
▁لوکل	-9294
بتھ	-9295
▁مسیح	-9296
▁پدماوتی	-9297
لیز	-9298
ارہا	-9299
▁مربع	-9300
▁مانا	-9301
▁رسم	-9302
ٹورنامنٹ	-9303
۵رنز	-9304
▁مبشر	-9305
▁ڈراما	-9306
▁انعم	-9307
گزار	-9308
▁تجھے	-9309
▁عمرہ	-9310
▁ابراہم	-9311
▁نوواک	-9312
▁پاونڈ	-9313
▁میلبرن	-9314
▁اونچی	-9315
۴رنز	-9316
▁ویگن	-9317
▁میگ	-9318
▁انٹروی	-9319
▁فلپائن	-9320
▁ٹاور	-9321
▁الحمد	-9322
▁ناگز	-9323
▁شار	-9324
al	-9325
▁امیج	-9326
یندرا	-9327
▁کیپس	-9328
▁گیندیں	-9329
مایہ	-9330
▁نبھائیں	-9331
نئے	-9332
▁ڈا	-9333
▁ٹرمینل	-9334
▁انسٹ	-9335
▁سوٹ	-9336
▁اذان	-9337
▁پکڑے	-9338
لانے	-9339
▁دشواری	-9340
▁لیو	-9341
▁دشمنی	-9342
▁پرجوش	-9343
▁فاروقی	-9344
ic	-9345
▁معت	-9346
▁بیٹھی	-9347
▁دھماکہ	-9348
▁سرے	-9349
▁کلینڈ	-9350
جیریا	-9351
▁سٹوکس	-9352
▁غفلت	-9353
▁سنگر	-9354
▁فارورڈ	-9355
▁ٹرانسمیشن	-9356
▁باقاعدگی	-9357
▁ہورہے	-9358
مید	-9359
▁پست	-9360
▁برن	-9361
▁سفارتی	-9362
▁اڈٹ	-9363
▁اکتیس	-9364
▁جاگ	-9365
▁صدور	-9366
▁پھٹ	-9367
▁کانز	-9368
▁مستفید	-9369
▁مخالفین	-9370
▁گھرانے	-9371
▁فنانسنگ	-9372
▁جیب	-9373
▁جعفری	-9374
ضر	-9375
جین	-9376
▁حرام	-9377
▁آرام	-9378
برٹ	-9379
سیز	-9380
▁تنو	-9381
ٰہی	-9382
▁بڑھی	-9383
▁معذور	-9384
▁پُ	-9385
▁حاضرین	-9386
▁بیٹھنے	-9387
▁مانگنے	-9388
▁زخم	-9389
▁پیرو	-9390
صہ	-9391
▁پش	-9392
▁راول	-9393
▁کلاسک	-9394
▁بہنوں	-9395
گلی	-9396
▁ورتھ	-9397
ارنی	-9398
▁محت	-9399
en	-9400
ایسوسی	-9401
▁کراتے	-9402
▁بھائو	-9403
▁انسٹیٹیوٹ	-9404
▁مرلی	-9405
▁شرمندہ	-9406
▁فش	-9407
▁معاشرتی	-9408
بہترین	-9409
امیچ	-9410
▁پکڑا	-9411
▁ہاہاہ	-9412
عودی	-9413
▁چھٹیاں	-9414
▁ریڈی	-9415
▁کریئر	-9416
▁کھلانے	-9417
▁فرٹیل	-9418
▁قندیل	-9419
پورٹر	-9420
▁برانڈز	-9421
▁ناگزیر	-9422
ؤ	-9423
▁قیدیوں	-9424
▁کرپٹ	-9425
▁ہیزل	-9426
▁تحفے	-9427
فاسٹ	-9428
ندوستان	-9429
▁کیڑوں	-9430
▁ایدھی	-9431
▁پروٹو	-9432
▁عوامل	-9433
سکون	-9434
▁چمن	-9435
▁عدیل	-9436
وتہ	-9437
▁لکڑی	-9438
اڑی	-9439
▁خریدے	-9440
▁صلاحیتیں	-9441
زز	-9442
▁یر	-9443
▁نکولس	-9444
▁بون	-9445
گھنٹے	-9446
▁دکانوں	-9447
▁فارن	-9448
▁نشے	-9449
▁مجسٹری	-9450
▁نیدرلینڈ	-9451
انڈیکسپوائنٹس	-9452
علاوہ	-9453
▁اسپر	-9454
▁بمقابلہ	-9455
▁ہنڈریڈ	-9456
▁ٹیمپرنگ	-9457
▁انخلا	-9458
▁مثالی	-9459
جہانی	-9460
▁پائونڈ	-9461
▁ادائیگیاں	-9462
ڑکانہ	-9463
▁جھنڈے	-9464
کین	-9465
▁مینوفیکچررز	-9466
۰۱	-9467
▁ادریس	-9468
▁دیوان	-9469
▁یوٹیلٹی	-9470
▁مہاج	-9471
▁مبادلہ	-9472
▁انوراگ	-9473
▁گانٹ	-9474
▁رومن	-9475
▁تنازعہ	-9476
▁ٹاؤن	-9477
▁ناخوش	-9478
▁فلائی	-9479
▁ترج	-9480
▁چتر	-9481
▁اندراج	-9482
▁گارڈن	-9483
۹۲نیوز	-9484
▁سویڈن	-9485
▁الیس	-9486
ائزڈ	-9487
▁کاٹنے	-9488
▁ہیںاور	-9489
دھے	-9490
▁عورتوں	-9491
▁پیارے	-9492
▁مادہ	-9493
▁تھےاس	-9494
▁یوز	-9495
▁اولاد	-9496
▁وومن	-9497
قیر	-9498
۱رنز	-9499
▁حکمرانوں	-9500
▁دکانداروں	-9501
▁وعدے	-9502
▁دروازہ	-9503
ومین	-9504
▁ورچوئل	-9505
▁سیٹلائٹ	-9506
▁ٹرانز	-9507
▁عمارتوں	-9508
نڈنگ	-9509
والوں	-9510
▁صالح	-9511
▁ٹینک	-9512
▁برہمی	-9513
▁دہشتگردوں	-9514
گور	-9515
فیلڈ	-9516
...	-9517
سلا	-9518
▁درآمد	-9519
he	-9520
شیر	-9521
۶رنز	-9522
▁نیمار	-9523
▁کلومیٹر	-9524
سکتے	-9525
▁گھبر	-9526
▁کالجز	-9527
▁تسی	-9528
▁اڈ	-9529
اہوں	-9530
▁اجزاء	-9531
▁ماریا	-9532
▁زیورات	-9533
▁رپورٹرپاکستان	-9534
▁آفس	-9535
ئیل	-9536
▁غیرت	-9537
ویڈیو	-9538
▁جامعہ	-9539
خل	-9540
▁پیم	-9541
اصر	-9542
▁ستائیس	-9543
▁الہٰی	-9544
▁سکتا۔	-9545
▁بنال	-9546
پہلی	-9547
سٹیٹ	-9548
▁کارکنان	-9549
▁دستے	-9550
▁چنے	-9551
▁زوم	-9552
▁عیدالفطر	-9553
▁مدینہ	-9554
▁ویت	-9555
دنی	-9556
▁زمبابوین	-9557
ونوش	-9558
▁جیکی	-9559
▁خطوط	-9560
کنندگان	-9561
▁بمب	-9562
▁پانڈیا	-9563
▁کنیریا	-9564
۹رنز	-9565
▁عبر	-9566
گروپ	-9567
▁عروہ	-9568
▁قبائلی	-9569
▁ٹرینر	-9570
▁فراموش	-9571
▁کرر	-9572
▁ہےج	-9573
▁۱۲۵	-9574
▁کیڑے	-9575
▁کرایوں	-9576
▁ریئل	-9577
▁وائلڈ	-9578
▁ترینئی	-9579
▁ستا	-9580
▁گیشن	-9581
▁مانگا	-9582
▁ڈوئل	-9583
حسین	-9584
▁اقرا	-9585
۸رنز	-9586
▁چارلس	-9587
▁پراجیکٹس	-9588
▁منیجنگ	-9589
▁اسپینش	-9590
▁مطالعہ	-9591
اظہر	-9592
▁تمب	-9593
سیب	-9594
▁ریت	-9595
▁کارڈز	-9596
▁ہیںتاہم	-9597
▁بھرنے	-9598
ھایا	-9599
▁سینے	-9600
▁لودھی	-9601
ذیب	-9602
▁ٹکڑے	-9603
▁مضر	-9604
▁کرسکتی	-9605
ٹیاں	-9606
بادا	-9607
▁لیوا	-9608
۷رنز	-9609
▁ناہ	-9610
شرو	-9611
▁اینا	-9612
شری	-9613
▁عطاء	-9614
▁لیکس	-9615
▁ایئرپورٹ	-9616
▁حمیرا	-9617
▁حزب	-9618
▁چھٹیوں	-9619
▁متھیرا	-9620
▁قبرستان	-9621
▁انوار	-9622
▁لان	-9623
میرے	-9624
▁بیروز	-9625
▁بہو	-9626
▁شہن	-9627
اذ	-9628
▁کارنر	-9629
▁کارروائیاں	-9630
▁ھی	-9631
▁ہج	-9632
▁اولم	-9633
▁فلوری	-9634
▁کراچیکامرس	-9635
▁زائ	-9636
▁نواحی	-9637
▁کہانیاں	-9638
▁عمان	-9639
▁پزیر	-9640
ءپاکستان	-9641
رائے	-9642
▁جرسی	-9643
▁سبھی	-9644
اا	-9645
▁جنگلی	-9646
▁داریوں	-9647
▁ڈویژنل	-9648
▁کنسلٹنٹ	-9649
▁ایمن	-9650
سرفراز	-9651
▁مارخورز	-9652
▁سرحدی	-9653
!!	-9654
گرین	-9655
▁جائیں۔	-9656
▁کود	-9657
▁فارمز	-9658
▁منصف	-9659
ائزرز	-9660
جاوید	-9661
▁گراں	-9662
▁پنچ	-9663
▁گین	-9664
▁سوچنے	-9665
▁ہوجاتی	-9666
بیئن	-9667
▁مطلع	-9668
▁شیٹ	-9669
▁مارننگ	-9670
▁سنبھالا	-9671
▁پوسٹس	-9672
▁سونیا	-9673
کوار	-9674
▁اوکاڑہ	-9675
▁اکرام	-9676
▁بدتمی	-9677
گوں	-9678
▁سوچنا	-9679
▁برآمد	-9680
▁چیلسی	-9681
▁تعالیٰ	-9682
▁توثی	-9683
▁کروم	-9684
▁کیاج	-9685
▁▁	-9686
ادھر	-9687
▁شے	-9688
▁تجاوزات	-9689
▁ٹیب	-9690
▁پٹی	-9691
▁روبی	-9692
▁محیط	-9693
▁پچھلی	-9694
▁دھڑکن	-9695
زبان	-9696
▁فرمایا	-9697
گراں	-9698
▁لیگل	-9699
▁روایات	-9700
▁نیویار	-9701
▁کنول	-9702
▁ہیںیاد	-9703
خصو	-9704
▁سونو	-9705
▁ایپلیکیشن	-9706
▁ذہین	-9707
▁ظالم	-9708
▁ٹیسٹنگ	-9709
▁اسکین	-9710
▁بڑھائی	-9711
۶۰	-9712
▁سمان	-9713
▁حادثات	-9714
کیوں	-9715
▁ہیںمزید	-9716
فیل	-9717
▁میلان	-9718
انگلش	-9719
▁توثیق	-9720
▁پیروی	-9721
▁سبسکر	-9722
▁پرواہ	-9723
▁منظرعام	-9724
افغان	-9725
اہا	-9726
▁چمپیئن	-9727
▁واردات	-9728
▁لمبا	-9729
▁کیاہے	-9730
▁نمٹ	-9731
▁نادہ	-9732
▁سٹرائی	-9733
▁مکال	-9734
▁بردار	-9735
▁ملوں	-9736
▁ہیںایک	-9737
ar	-9738
▁تھانے	-9739
ٹز	-9740
▁انتھ	-9741
▁راتوں	-9742
▁مکر	-9743
▁ہوجاتا	-9744
▁افط	-9745
▁اشد	-9746
▁ہیںب	-9747
ڈوس	-9748
انڈو	-9749
▁رہنماں	-9750
▁نیلام	-9751
▁تذ	-9752
▁ادبی	-9753
▁سلامت	-9754
▁موسمی	-9755
▁کرلئے	-9756
کورونا	-9757
کاروباری	-9758
▁میپ	-9759
▁سمجھوتہ	-9760
▁ریویو	-9761
▁ریسٹورنٹ	-9762
ہران	-9763
▁لاڑکانہ	-9764
▁ہملٹن	-9765
▁یوٹیلیٹی	-9766
▁ذکاء	-9767
▁اینیمیٹڈ	-9768
▁گریج	-9769
▁ووٹنگ	-9770
▁سویپ	-9771
▁ناتھ	-9772
نٹا	-9773
▁تخلیقی	-9774
▁شفافیت	-9775
▁عبدالحفیظ	-9776
▁کنٹینرز	-9777
▁۱۶۰	-9778
▁تمباکو	-9779
▁فوڈز	-9780
▁ضروریہ	-9781
یما	-9782
ٹیفیکیشن	-9783
▁مینوفیکچرنگ	-9784
میا	-9785
▁فولڈ	-9786
▁سہولتوں	-9787
▁ہیڈکوچ	-9788
▁مربوط	-9789
▁چارٹر	-9790
▁گہرا	-9791
▁رشوت	-9792
▁عمری	-9793
▁۱۳۰	-9794
▁تارڑ	-9795
▁جھیل	-9796
▁شنی	-9797
مجموعی	-9798
▁بدعنوانی	-9799
▁پرن	-9800
▁بولے	-9801
▁محرم	-9802
▁نشتر	-9803
▁پرب	-9804
▁میکر	-9805
پرا	-9806
کوم	-9807
▁انقلابی	-9808
▁جونس	-9809
▁جمخانہ	-9810
▁موٹروے	-9811
▁برپا	-9812
الحق	-9813
▁انڈو	-9814
▁سےپوائنٹس	-9815
▁شکن	-9816
▁کنٹینر	-9817
▁گم	-9818
▁ارٹسٹ	-9819
رادف	-9820
▁سمجھنا	-9821
ائرس	-9822
▁نوٹسز	-9823
▁فرخ	-9824
▁ریح	-9825
▁قلب	-9826
▁مسرت	-9827
▁کزن	-9828
▁حلال	-9829
▁خادم	-9830
▁ائین	-9831
▁لینڈرز	-9832
▁مدر	-9833
▁کیپیٹل	-9834
جمعرات	-9835
▁گالا	-9836
خصوصی	-9837
▁رومانیہ	-9838
▁فاتحانہ	-9839
▁جدہ	-9840
▁الٰہی	-9841
▁گید	-9842
▁فروٹ	-9843
▁ممنوعہ	-9844
▁میل۔	-9845
▁اورک	-9846
▁بغاوت	-9847
▁اٹھے	-9848
ٹرافی	-9849
▁قطار	-9850
▁مکھرجی	-9851
ومنٹ	-9852
▁یورپین	-9853
▁معمر	-9854
▁ہےانھوں	-9855
▁رسمی	-9856
▁کوی	-9857
▁تشہیری	-9858
▁ہارے	-9859
▁پریمئر	-9860
▁تائیوان	-9861
▁الرٹ	-9862
▁تھپڑ	-9863
درا	-9864
▁آپکو	-9865
▁معال	-9866
▁ڈومینی	-9867
▁پختونخواہ	-9868
▁کشش	-9869
▁قرآن	-9870
▁ترجمہ	-9871
املہ	-9872
طیلات	-9873
▁امیدوں	-9874
▁زندگیوں	-9875
▁منحصر	-9876
عرف	-9877
▁مترادف	-9878
▁جگر	-9879
▁خاصا	-9880
▁نادرن	-9881
▁کارلوس	-9882
▁۱۰۵	-9883
▁دلشان	-9884
▁ربی	-9885
▁نعمت	-9886
▁باسمتی	-9887
حصص	-9888
▁گلا	-9889
▁مشعل	-9890
▁کھجور	-9891
▁رسوم	-9892
▁احاط	-9893
▁بیوق	-9894
▁t	-9895
▁راوی	-9896
▁پھین	-9897
▁اٹارنی	-9898
شامل	-9899
▁عبرت	-9900
لیک	-9901
▁بیٹیوں	-9902
ملوں	-9903
▁لبنان	-9904
▁آنا	-9905
▁اسٹرکچر	-9906
یمن	-9907
گرافی	-9908
▁چھٹا	-9909
▁ہنری	-9910
میمی	-9911
▁سعادت	-9912
▁مغرب	-9913
▁بھٹہ	-9914
▁حلقے	-9915
▁الاضحی	-9916
▁سٹوڈیو	-9917
ائیہ	-9918
▁پتوں	-9919
▁کارخ	-9920
▁مزمل	-9921
▁سوہ	-9922
▁جزوی	-9923
ٹرنز	-9924
▁قیوم	-9925
▁سیمو	-9926
▁برادرز	-9927
مبابوے	-9928
▁دشمنوں	-9929
▁جائزے	-9930
▁تعطیلات	-9931
ہارا	-9932
امان	-9933
تش	-9934
▁گاؤں	-9935
▁اداکر	-9936
▁تماشائی	-9937
▁شہروز	-9938
▁دادا	-9939
▁نانی	-9940
▁دوہزار	-9941
یاسر	-9942
▁کھڑ	-9943
چیمپ	-9944
▁ریمیک	-9945
▁مہارا	-9946
▁چنائے	-9947
▁سوالیہ	-9948
▁شمال	-9949
▁گیتوں	-9950
▁رکنیت	-9951
۳۵	-9952
▁مظالم	-9953
▁ہوسکا	-9954
طرح	-9955
▁ٹھکانے	-9956
▁فتاب	-9957
▁مشتبہ	-9958
▁کلیکشن	-9959
خاص	-9960
پریت	-9961
▁جور	-9962
▁اڑے	-9963
ڈیالہ	-9964
▁ضابط	-9965
▁منسٹر	-9966
▁ہیز	-9967
اندھی	-9968
▁گزرے	-9969
▁آفریدی	-9970
پشن	-9971
▁بائیک	-9972
▁لینس	-9973
▁سٹارک	-9974
▁اولی	-9975
▁نازک	-9976
▁توں	-9977
ِل	-9978
▁جدا	-9979
جیم	-9980
▁پیاری	-9981
▁ریفریز	-9982
اعت	-9983
▁تُ	-9984
گانگ	-9985
▁کیوئ	-9986
▁کیٹیگریز	-9987
▁۱۴۰	-9988
▁شہد	-9989
انص	-9990
▁نبیل	-9991
شروع	-9992
▁برائلر	-9993
▁عبدالرحمان	-9994
یفہ	-9995
▁سوری	-9996
▁ہوب	-9997
▁ٹیپ	-9998
▁شہنشاہ	-9999
▁ایمپائر	-10000
▁رسید	-10001
▁اعصاب	-10002
▁تدار	-10003
▁بھارتیوں	-10004
▁ڈیزائنرز	-10005
▁ازب	-10006
▁نشو	-10007
ضع	-10008
▁اورب	-10009
▁کتابوں	-10010
▁افزا	-10011
▁تلف	-10012
▁ٹریکٹر	-10013
▁کرسی	-10014
▁کاظمی	-10015
▁برصغیر	-10016
▁انجی	-10017
▁باغی	-10018
▁نمونے	-10019
▁افسردہ	-10020
▁لوکیشن	-10021
▁ڈارک	-10022
▁زکربرگ	-10023
▁کارڈف	-10024
ڈیسک	-10025
▁انکلو	-10026
▁ریسلرز	-10027
▁مچادی	-10028
ویسے	-10029
▁لیں۔	-10030
▁چیمپینز	-10031
▁بیئر	-10032
▁تال	-10033
▁ماشاء	-10034
▁وینیو	-10035
▁فارمولا	-10036
▁منوہر	-10037
▁طلحہ	-10038
▁فوٹیج	-10039
ماجی	-10040
▁مانے	-10041
▁گنگولی	-10042
▁سوریا	-10043
فیڈریشن	-10044
▁کوویڈ	-10045
▁کراچیاسٹاف	-10046
▁ٹریفورڈ	-10047
▁ائس	-10048
▁منجمد	-10049
پہلا	-10050
▁بقول	-10051
▁ہیملٹن	-10052
▁فائد	-10053
▁معرکہ	-10054
▁ثمر	-10055
عبدال	-10056
▁جیف	-10057
▁طالبہ	-10058
▁ٹھنڈا	-10059
مقدم	-10060
▁فلمسٹار	-10061
سمہ	-10062
▁ویڈ	-10063
▁پیما	-10064
ورڈن	-10065
▁ہیوی	-10066
اکارہ	-10067
نسن	-10068
سپل	-10069
▁سیشنز	-10070
▁چندی	-10071
▁ماش	-10072
▁کوس	-10073
▁گےیہ	-10074
▁انسٹال	-10075
▁جنیرو	-10076
▁اکاونٹس	-10077
نٹائل	-10078
صارف	-10079
▁بڑھیں	-10080
▁دوروں	-10081
ائدا	-10082
▁باج	-10083
▁ظہور	-10084
▁گراوٹ	-10085
▁کوب	-10086
▁راہی	-10087
▁اشتہاری	-10088
▁بگٹی	-10089
▁کرلے	-10090
ارو	-10091
ماڈل	-10092
▁گیٹس	-10093
راپ	-10094
وہیب	-10095
▁دیوانہ	-10096
▁اڈیالہ	-10097
▁لاگ	-10098
▁سوچتے	-10099
▁جلال	-10100
▁لوکی	-10101
▁شمیم	-10102
▁جاننا	-10103
فیسر	-10104
▁لیٹ	-10105
▁کوسٹ	-10106
▁جھوٹے	-10107
▁ثال	-10108
▁سیلف	-10109
▁مہران	-10110
زت	-10111
▁سسر	-10112
▁فرٹیلائزر	-10113
لندن	-10114
▁سربراہان	-10115
▁دبئیاردو	-10116
ستحکم	-10117
▁سپاہی	-10118
▁ٹرن	-10119
▁گرہن	-10120
▁ہائر	-10121
▁واجب	-10122
▁لیکچر	-10123
▁کاکڑ	-10124
▁کُ	-10125
▁نظریہ	-10126
▁قیامت	-10127
▁مراکش	-10128
▁کندھے	-10129
▁پرینیتی	-10130
سمین	-10131
سکتا	-10132
▁بلدیہ	-10133
▁ٹاکرا	-10134
▁عبادت	-10135
▁سونپ	-10136
پاشی	-10137
▁تہہ	-10138
دھر	-10139
▁مائ	-10140
▁ناں	-10141
▁بیلنس	-10142
ہہ	-10143
▁کنڈیشن	-10144
اندلی	-10145
▁مہندی	-10146
▁چھیا	-10147
▁نٹ	-10148
▁فورڈ	-10149
▁عینی	-10150
▁سیکڑوں	-10151
▁پھٹی	-10152
▁نغمے	-10153
▁سندھی	-10154
چیئرمین	-10155
▁قابلیت	-10156
یمل	-10157
▁کرک	-10158
▁غدار	-10159
▁برینٹ	-10160
▁ابھرتے	-10161
▁انٹرمی	-10162
جارا	-10163
▁نعش	-10164
▁کوریج	-10165
▁پیاف	-10166
▁سٹیون	-10167
▁پٹھان	-10168
خود	-10169
▁ہےاسی	-10170
صدر	-10171
▁افاق	-10172
▁سٹے	-10173
▁لائٹس	-10174
▁توشہ	-10175
ho	-10176
▁شکوہ	-10177
▁وافر	-10178
▁دستگیر	-10179
▁مرکنٹائل	-10180
▁میتھ	-10181
▁تعبیر	-10182
▁استحصال	-10183
▁سٹریلی	-10184
▁واہگہ	-10185
▁سونگ	-10186
▁فلوریڈا	-10187
ترمہ	-10188
▁صلح	-10189
▁پون	-10190
▁مصال	-10191
الاضحی	-10192
▁کوہاٹ	-10193
▁کرنسیوں	-10194
راولپنڈی	-10195
▁شہداء	-10196
کرن	-10197
ودگی	-10198
▁جمالی	-10199
▁علالت	-10200
▁میسجز	-10201
▁اپنانے	-10202
▁شاہکار	-10203
▁وہیل	-10204
▁جزیرے	-10205
▁وردھ	-10206
امریکا	-10207
▁وارڈ	-10208
▁رکشہ	-10209
▁انڈوں	-10210
▁بچھڑے	-10211
▁چالان	-10212
▁ٹیچر	-10213
▁بیور	-10214
▁چت	-10215
▁تنصیب	-10216
▁پروپیگ	-10217
▁کرسکا	-10218
▁طو	-10219
لنے	-10220
▁کلپ	-10221
▁پلیئنگ	-10222
▁کارٹون	-10223
▁سیاستدانوں	-10224
خیر	-10225
یواضح	-10226
▁گلشن	-10227
فیکشن	-10228
▁بخیر	-10229
▁کوریو	-10230
▁انتیس	-10231
▁کلبوں	-10232
▁ڈرگ	-10233
▁ازالہ	-10234
▁ٹیوٹا	-10235
صن	-10236
▁ائٹم	-10237
فورس	-10238
▁بہادری	-10239
اثر	-10240
▁بریتھ	-10241
▁کپء	-10242
▁ٹرانزٹ	-10243
ستار	-10244
▁تھایہ	-10245
مالی	-10246
▁کھوس	-10247
▁نوٹی	-10248
▁برازیلین	-10249
▁مساوی	-10250
نتخب	-10251
▁لیز	-10252
شیئرز	-10253
قل	-10254
▁علیکم	-10255
▁نرس	-10256
▁بوبی	-10257
▁شن	-10258
▁ہیںای	-10259
شریف	-10260
▁ہےک	-10261
▁سدرہ	-10262
▁گییہ	-10263
گوئے	-10264
▁ننھی	-10265
▁بلانے	-10266
▁بڑوں	-10267
▁صداقت	-10268
▁ٹیکسٹ	-10269
▁چھپانے	-10270
اعشاریہ	-10271
▁سنو	-10272
▁بندے	-10273
▁نااہ	-10274
▁شرمین	-10275
▁جھانوی	-10276
▁جیولری	-10277
▁۱۴۴	-10278
▁رسومات	-10279
عثمان	-10280
ائداعظم	-10281
▁ناپسند	-10282
▁کھانوں	-10283
عروف	-10284
▁برباد	-10285
بلین	-10286
▁ککس	-10287
ملتان	-10288
ینے	-10289
▁ہرن	-10290
سنچ	-10291
▁مرشد	-10292
▁ونڈو	-10293
▁برداری	-10294
▁پیمرا	-10295
▁لمبائی	-10296
▁ہتھیاروں	-10297
ھھھھ	-10298
▁زار	-10299
▁اعتراضات	-10300
▁کراچیپاکستان	-10301
▁دھرم	-10302
▁شعر	-10303
▁گردن	-10304
▁کردیے	-10305
▁بھتی	-10306
▁ہےرپورٹ	-10307
▁چلنا	-10308
▁نگراں	-10309
▁خانم	-10310
▁چترال	-10311
بھجن	-10312
▁اقلی	-10313
▁تان	-10314
▁مجسم	-10315
▁لٹ	-10316
▁تنخواہیں	-10317
▁خوشیوں	-10318
▁ہوبارٹ	-10319
نٹو	-10320
▁لوٹنے	-10321
▁اداس	-10322
▁موٹرز	-10323
▁ڈیانا	-10324
▁رکاوٹوں	-10325
دبئی	-10326
امیں	-10327
▁قاف	-10328
▁ایما	-10329
▁ہیئر	-10330
▁سیلی	-10331
▁کےمطابق	-10332
شمنٹ	-10333
▁اوسطا	-10334
▁روزمرہ	-10335
▁صاحبزادے	-10336
امے	-10337
▁مضبوطی	-10338
▁فیضان	-10339
▁ناکامیوں	-10340
▁باریک	-10341
▁مصری	-10342
▁طلال	-10343
▁پروٹی	-10344
▁گروتھ	-10345
▁شیشے	-10346
▁شوکاز	-10347
▁بیوقوف	-10348
گھن	-10349
▁۲۳۱	-10350
اسے	-10351
انڈین	-10352
▁سیفٹی	-10353
▁گارنٹی	-10354
▁سیری	-10355
▁ڈھول	-10356
▁گائیڈ	-10357
▁باکسرز	-10358
▁پینتیس	-10359
▁لنگ	-10360
▁چنی	-10361
▁۱۸۰	-10362
▁مطا	-10363
▁حجاب	-10364
▁عنصر	-10365
▁ورکس	-10366
▁انکشافات	-10367
▁گردشی	-10368
▁اینگرو	-10369
▁نمون	-10370
▁کیتھ	-10371
▁محترمہ	-10372
▁جیپ	-10373
▁شاز	-10374
▁کسے	-10375
▁فارمیٹس	-10376
ضوں	-10377
▁فقدان	-10378
▁موٹا	-10379
▁اوران	-10380
▁پیٹرن	-10381
سیا	-10382
▁ڈریم	-10383
▁اسکولوں	-10384
▁نارمل	-10385
▁ربادا	-10386
▁سرکلر	-10387
▁توقیر	-10388
بجلی	-10389
▁افرادی	-10390
▁پیشی	-10391
اخر	-10392
▁تھامس	-10393
▁دالوں	-10394
▁گزرتے	-10395
▁مورال	-10396
ِی	-10397
▁سکیں۔	-10398
▁تمہارا	-10399
▁قاصر	-10400
بنم	-10401
▁کمنٹیٹر	-10402
▁ایٹمی	-10403
▁ستار	-10404
▁چھائے	-10405
چوک	-10406
▁ٹائ	-10407
▁چشم	-10408
▁کشیدہ	-10409
▁رفیع	-10410
دیر	-10411
▁۱۹۰	-10412
▁ترمیمی	-10413
باری	-10414
▁اقدار	-10415
ائٹیڈ	-10416
▁عقل	-10417
▁فاق	-10418
▁ناگ	-10419
نسیاں	-10420
▁بھڑک	-10421
▁دکانیں	-10422
روت	-10423
مپل	-10424
▁اڑھائی	-10425
سٹریلین	-10426
▁گٹ	-10427
▁صاب	-10428
▁منصفانہ	-10429
شانک	-10430
▁سنچورین	-10431
▁فلاپ	-10432
نور	-10433
▁جیٹ	-10434
باڈوس	-10435
▁شکستوں	-10436
▁ہیلم	-10437
حیل	-10438
▁نادرا	-10439
▁برڈ	-10440
▁تقاضوں	-10441
▁یوراج	-10442
▁پیری	-10443
▁ہندسہ	-10444
گزینڈر	-10445
▁مواصلات	-10446
غور	-10447
نیل	-10448
ریعے	-10449
▁لیتھم	-10450
▁آزاد	-10451
شبہ	-10452
▁ہلاکتوں	-10453
▁ملاح	-10454
۷۰	-10455
▁فزیو	-10456
▁نیہا	-10457
▁گےان	-10458
▁گچھ	-10459
ینیشن	-10460
▁پرائیویسی	-10461
▁خوردنی	-10462
▁رونا	-10463
▁زیڈ	-10464
▁ٹائر	-10465
ورتھ	-10466
▁مدی	-10467
ڈائریکٹر	-10468
▁اسپانسر	-10469
▁رچرڈز	-10470
دایتکار	-10471
▁کتابیں	-10472
▁اینجلو	-10473
▁یابی	-10474
▁بقایا	-10475
▁قوال	-10476
▁چڑیا	-10477
▁کوت	-10478
▁بیبر	-10479
▁کھیر	-10480
▁پوجا	-10481
▁پارٹنرشپ	-10482
▁فیز	-10483
▁استثنی	-10484
▁انشا	-10485
▁حاملہ	-10486
▁بحر	-10487
▁کالم	-10488
گلوکار	-10489
▁سیکرٹریٹ	-10490
▁پٹواری	-10491
▁ڈرائیو	-10492
ظیر	-10493
▁امنہ	-10494
▁نمود	-10495
▁عیدالاضحی	-10496
▁جک	-10497
▁فقیر	-10498
گئیں	-10499
▁اقراء	-10500
▁گاب	-10501
▁نگہ	-10502
▁کتوں	-10503
▁پیشگی	-10504
▁توبہ	-10505
▁دُ	-10506
▁رسک	-10507
▁چھونے	-10508
▁کھیتوں	-10509
▁ٹوئیٹر	-10510
▁تفتیشی	-10511
بلا	-10512
▁مہلک	-10513
▁واقعتا	-10514
▁ہنڈرڈ	-10515
▁تہران	-10516
▁خودکشی	-10517
وٹن	-10518
▁بیحد	-10519
▁ذائقہ	-10520
▁ثمینہ	-10521
▁گاندھی	-10522
زادہ	-10523
▁مقف	-10524
▁سچی	-10525
▁ستائش	-10526
▁کرگئی	-10527
نجی	-10528
▁ٹرائی	-10529
▁فلسطینیوں	-10530
ئیڈ	-10531
افل	-10532
▁نکی	-10533
▁نااہل	-10534
▁محاذ	-10535
▁نازیہ	-10536
▁لکس	-10537
▁نسب	-10538
▁مجسمہ	-10539
▁مجسٹریٹ	-10540
▁کنون	-10541
▁ڈھی	-10542
▁منٹو	-10543
▁پھانسی	-10544
مک	-10545
▁کتا	-10546
▁آہستہ	-10547
▁گھیرا	-10548
▁پھنسے	-10549
▁سجے	-10550
▁فلڈ	-10551
▁ہتک	-10552
▁اقساط	-10553
فرا	-10554
▁بھو	-10555
▁ہیرا	-10556
▁پلٹ	-10557
▁رینج	-10558
▁چاہوں	-10559
▁صنعتیں	-10560
▁مہاراش	-10561
روٹ	-10562
ریدی	-10563
بلو	-10564
▁جھنگ	-10565
انتظ	-10566
▁جھلکیاں	-10567
▁۱۰۴	-10568
ویلی	-10569
▁نعرہ	-10570
▁ہجوم	-10571
▁جدیجا	-10572
▁محکمے	-10573
▁ٹوم	-10574
▁بھجوائے	-10575
▁مسک	-10576
▁ایشوریہ	-10577
▁انٹرمیڈیٹ	-10578
است	-10579
نڈنٹ	-10580
▁ماننے	-10581
▁اطہر	-10582
▁کامل	-10583
▁انکھوں	-10584
▁پاناما	-10585
▁اسمگل	-10586
▁نااہلی	-10587
خیبر	-10588
▁گران	-10589
▁زلزلہ	-10590
یوزی	-10591
عرفان	-10592
▁کھلنے	-10593
ha	-10594
▁نیوٹرل	-10595
فور	-10596
▁سرکٹ	-10597
▁باؤ	-10598
ذیڈنٹ	-10599
ایل	-10600
▁املہ	-10601
▁تھوک	-10602
▁شلپا	-10603
▁ایڈمنسٹری	-10604
▁ہاتھی	-10605
رر	-10606
▁ورد	-10607
ئٹر	-10608
▁خوانی	-10609
نامے	-10610
▁اینٹ	-10611
لافی	-10612
▁چھے	-10613
▁قائداعظم	-10614
مرت	-10615
کلچرل	-10616
▁نکھیں	-10617
▁عالمگیر	-10618
▁ہلکا	-10619
▁گاک	-10620
▁خوبی	-10621
▁پونڈ	-10622
▁نند	-10623
▁ریورس	-10624
▁ڈکلیئر	-10625
▁پھوٹ	-10626
صورت	-10627
▁سدھو	-10628
▁نانا	-10629
▁ایری	-10630
▁بیچنے	-10631
▁میونسپل	-10632
▁ادھ	-10633
▁گھڑ	-10634
▁بھجوایا	-10635
▁بدقسمتی	-10636
میلا	-10637
▁حائل	-10638
▁کمبی	-10639
▁تقویت	-10640
داشتہ	-10641
▁جونئیر	-10642
▁عذ	-10643
com	-10644
اتہ	-10645
▁فلو	-10646
▁ریفنڈ	-10647
▁پسمان	-10648
▁فکیشن	-10649
پینڈ	-10650
▁انوکھی	-10651
▁بھجوانے	-10652
▁تھک	-10653
جواب	-10654
▁ناچ	-10655
▁خروش	-10656
▁صاحبزادہ	-10657
تیسرے	-10658
▁تاریخوں	-10659
▁برانز	-10660
▁اوپیک	-10661
▁سٹورز	-10662
▁ہراکر	-10663
▁بدتمیزی	-10664
▁انڈیکسپوائنٹس	-10665
▁ہیلپ	-10666
ادونوں	-10667
▁تاثرات	-10668
▁دھوکا	-10669
جمعہ	-10670
▁اوائل	-10671
▁ڈالتے	-10672
▁سادگی	-10673
▁پرسوں	-10674
▁سکورر	-10675
▁اوباما	-10676
▁صنعتکار	-10677
ویر	-10678
▁ڈبلن	-10679
▁اومان	-10680
جیو	-10681
▁سجایا	-10682
▁دھمکیوں	-10683
▁تز	-10684
ائزری	-10685
▁ہیرس	-10686
شائ	-10687
▁ہوشی	-10688
▁عدد	-10689
▁فرنین	-10690
▁نومنتخب	-10691
▁منیب	-10692
▁الج	-10693
▁ہوسکتے	-10694
▁تدارک	-10695
▁ہلکے	-10696
▁جاسوسی	-10697
▁کیلا	-10698
▁بنالیے	-10699
▁غریبوں	-10700
▁سیکٹرز	-10701
▁آپکی	-10702
▁گھس	-10703
ریری	-10704
▁دلادی	-10705
▁ہور	-10706
▁متوجہ	-10707
▁ڈیوائن	-10708
▁ٹراف	-10709
▁فائدے	-10710
قطع	-10711
ولو	-10712
ٹھہ	-10713
▁قلعہ	-10714
▁چے	-10715
ورتھم	-10716
۸۰	-10717
شیم	-10718
نسو	-10719
▁پینٹنگ	-10720
▁سوپر	-10721
مئیء	-10722
پرسن	-10723
▁بیلز	-10724
کھنے	-10725
جنرل	-10726
▁دنگ	-10727
▁تعصب	-10728
▁جمعیت	-10729
▁ششانک	-10730
▁بروس	-10731
▁ہیڈن	-10732
▁ہیںدوسری	-10733
۳۳	-10734
▁ملٹری	-10735
▁وقو	-10736
▁آسمان	-10737
▁پہنچنا	-10738
▁گےپاکستان	-10739
▁پالیس	-10740
▁دھاندلی	-10741
▁پچز	-10742
وریس	-10743
نل	-10744
اکوں	-10745
انداز	-10746
▁گاف	-10747
سپانس	-10748
▁لائک	-10749
▁ابتداء	-10750
▁بچیوں	-10751
▁چٹاگانگ	-10752
▁ٹرانسپورٹرز	-10753
میٹ	-10754
ولڈنگ	-10755
▁روحیل	-10756
حمت	-10757
▁شبنم	-10758
نبول	-10759
▁ایمانداری	-10760
▁بسوں	-10761
▁شکنی	-10762
▁اینڈرو	-10763
ینیٹر	-10764
زاج	-10765
▁بنالئے	-10766
▁عمومی	-10767
▁نکلیں	-10768
▁انچارج	-10769
ٹائی	-10770
▁پڑتے	-10771
▁غض	-10772
▁قدرت	-10773
▁مطلوب	-10774
پار	-10775
▁نہں	-10776
▁نوٹیفیکیشن	-10777
چوکوں	-10778
ریٹ	-10779
▁شاٹس	-10780
▁گھنٹی	-10781
▁شرمندگی	-10782
ہان	-10783
حید	-10784
▁اسٹیبل	-10785
▁اپریٹنگ	-10786
ائیڈر	-10787
▁آنکھیں	-10788
▁اولمپئن	-10789
ئہ	-10790
▁الیکس	-10791
▁گرمیوں	-10792
▁الاسلام	-10793
▁مساو	-10794
اختیار	-10795
▁رکاوٹیں	-10796
▁چمچ	-10797
▁شاکر	-10798
▁لیموں	-10799
▁اعادہ	-10800
▁رائلز	-10801
طس	-10802
▁مروت	-10803
▁سناتے	-10804
▁مارٹم	-10805
▁ویگاس	-10806
ائرن	-10807
▁گزارے	-10808
▁سردیوں	-10809
▁تئیس	-10810
▁کوشل	-10811
▁چھتیس	-10812
ثیم	-10813
▁درختوں	-10814
▁الحمراء	-10815
▁انفیکشن	-10816
▁ملح	-10817
انڈسٹری	-10818
کاروبار	-10819
▁کرنیوالی	-10820
▁بھاو	-10821
اننگز	-10822
صلہ	-10823
▁ہربھجن	-10824
▁اصرار	-10825
▁ٹھہرا	-10826
واس	-10827
▁پلو	-10828
▁ڈاکوؤں	-10829
▁الیکٹران	-10830
▁جھوٹا	-10831
▁فلینڈر	-10832
▁کہناتھا	-10833
▁اراد	-10834
▁بالخر	-10835
نئی	-10836
▁افتاب	-10837
▁منقطع	-10838
▁پروڈکٹ	-10839
وراج	-10840
▁رسد	-10841
▁میونخ	-10842
▁راہیں	-10843
▁معزز	-10844
جیے	-10845
▁بارباڈوس	-10846
گریشن	-10847
▁مستحسن	-10848
▁دیکھتی	-10849
ودے	-10850
▁گڈز	-10851
▁خوابوں	-10852
▁رقبے	-10853
▁مطالبے	-10854
▁طر	-10855
▁کاؤ	-10856
▁پدماوت	-10857
▁برت	-10858
▁روحانی	-10859
▁لیوی	-10860
▁اتارنے	-10861
▁نتا	-10862
▁راو	-10863
▁فیگر	-10864
▁جھوم	-10865
یتر	-10866
▁انہو	-10867
▁کانس	-10868
▁ڈالرکی	-10869
الٹ	-10870
▁نعت	-10871
▁مہینہ	-10872
▁ہےکہ	-10873
▁برہم	-10874
تحقی	-10875
▁کھال	-10876
▁کوارٹرز	-10877
▁زند	-10878
زمبابوے	-10879
تیش	-10880
▁سپانسر	-10881
▁ڈینیئل	-10882
▁یاسمین	-10883
▁ماحولیات	-10884
▁وزرا	-10885
▁کونے	-10886
▁بیوشن	-10887
es	-10888
▁فرینک	-10889
▁لکھیں	-10890
▁ہنٹ	-10891
خہ	-10892
یران	-10893
▁ہزارہ	-10894
▁ازبکستان	-10895
کشنسٹ	-10896
▁نیتن	-10897
▁پروان	-10898
▁کیرن	-10899
▁چیکنگ	-10900
▁اکانومی	-10901
▁نیلسن	-10902
ادا	-10903
▁تنہائی	-10904
▁سنڈی	-10905
▁پرسکون	-10906
▁گلاب	-10907
ٹیکر	-10908
لگ	-10909
▁بگا	-10910
▁کٹس	-10911
▁ادیب	-10912
▁خیرمقدم	-10913
اہت	-10914
▁جاب	-10915
▁اشارے	-10916
▁رہی۔	-10917
▁مفاہمت	-10918
▁پھیر	-10919
پینڈنٹ	-10920
▁مدتی	-10921
ایکس	-10922
▁کھری	-10923
▁تحویل	-10924
افے	-10925
▁اسٹورٹ	-10926
▁بلاشبہ	-10927
▁خوشحال	-10928
▁بھنگ	-10929
▁سنتے	-10930
▁ٹکٹیں	-10931
▁الیگزینڈر	-10932
▁مشابہ	-10933
▁میانوالی	-10934
▁روسو	-10935
▁طوفانی	-10936
▁ہیںخیال	-10937
غیب	-10938
▁بوپ	-10939
▁فرز	-10940
▁چلانا	-10941
کرس	-10942
▁اسیسر	-10943
▁بیوٹرز	-10944
وبدل	-10945
▁والٹ	-10946
▁کرشمہ	-10947
▁S	-10948
بنائے	-10949
▁پراچہ	-10950
▁دخل	-10951
▁زمائش	-10952
▁کھولا	-10953
صارفین	-10954
▁سینٹرز	-10955
▁ٹیکسیشن	-10956
▁امتزاج	-10957
ونو	-10958
▁سُ	-10959
▁شہاب	-10960
▁انکلوژ	-10961
▁نسلی	-10962
کرہ	-10963
▁پراسی	-10964
▁سیکھنا	-10965
▁مساوات	-10966
▁باق	-10967
▁اذلان	-10968
▁۱۰۲	-10969
گورن	-10970
▁غفور	-10971
▁تہذیب	-10972
▁ہیںہ	-10973
▁منط	-10974
▁اکھا	-10975
انصافی	-10976
▁الگورتھم	-10977
▁اولمپیئن	-10978
سید	-10979
شکل	-10980
▁پکی	-10981
پنگ	-10982
▁سیکرٹ	-10983
▁روف	-10984
▁ابھیشک	-10985
▁ماتح	-10986
▁راحیل	-10987
▁بولتا	-10988
عوام	-10989
▁بینظیر	-10990
▁فرانسسکو	-10991
باہ	-10992
▁بہا	-10993
کاس	-10994
▁ڈائ	-10995
▁میں۔	-10996
▁مصالحہ	-10997
▁بوتل	-10998
▁میسجنگ	-10999
وڈنٹ	-11000
لص	-11001
▁اصولی	-11002
▁اجتما	-11003
▁مشاہدہ	-11004
▁ہوتیں	-11005
▁جانیں	-11006
▁افسروں	-11007
▁استنبول	-11008
▁سمیر	-11009
▁سیدھا	-11010
▁نواسن	-11011
▁کٹائی	-11012
دوں	-11013
بورڈ	-11014
▁پانچوں	-11015
▁استفس	-11016
▁تحلیل	-11017
▁اوورسیز	-11018
▁ردوبدل	-11019
▁عبدالرحمن	-11020
▁ہڈ	-11021
ئیفا	-11022
▁ڈوڈ	-11023
▁جراثیم	-11024
news	-11025
▁کڑ	-11026
انہوںنے	-11027
چوں	-11028
▁گاواضح	-11029
▁شجا	-11030
مائوں	-11031
▁ایجنڈا	-11032
▁کرینگی	-11033
▁جبر	-11034
▁سکوائش	-11035
▁فلمایا	-11036
▁اسما	-11037
▁کانت	-11038
▁مورکل	-11039
▁جسپریت	-11040
راں	-11041
)،	-11042
▁اونٹ	-11043
▁آئندہ	-11044
▁اسٹوڈیوز	-11045
▁کیلس	-11046
▁زائرین	-11047
ڈرل	-11048
▁آمد	-11049
▁ترغیب	-11050
▁حیدری	-11051
▁درانی	-11052
▁گست	-11053
▁ریفنڈز	-11054
سائی	-11055
▁شبانہ	-11056
▁فاس	-11057
▁شج	-11058
▁بجر	-11059
شیڈنگ	-11060
▁فاضل	-11061
▁ثالثی	-11062
▁پوپ	-11063
▁عربی	-11064
▁کھوج	-11065
دور	-11066
▁خاصے	-11067
▁تحائف	-11068
جولائیء	-11069
▁نمائندگان	-11070
▁ڈچ	-11071
▁سلطنت	-11072
▁۳۵۰	-11073
▁رنزبنا	-11074
▁بیلی	-11075
▁استوار	-11076
▁کاونٹی	-11077
▁پالیسیاں	-11078
▁اڑانے	-11079
▁ہیرانی	-11080
▁برادر	-11081
▁کسٹمر	-11082
▁پریمیر	-11083
▁سنیئر	-11084
▁لیونی	-11085
▁۱۰۶	-11086
▁رائس	-11087
▁لچک	-11088
[]	-11089
▁ہیلمٹ	-11090
ؤف	-11091
▁ساون	-11092
▁جزاک	-11093
▁ہےلیکن	-11094
▁ساس	-11095
▁لازوال	-11096
▁کہانیوں	-11097
▁یکے	-11098
▁پیسٹ	-11099
▁گالیاں	-11100
▁ہنگری	-11101
وسٹر	-11102
▁دستہ	-11103
▁پاکستا	-11104
▁سلیکٹ	-11105
▁جارحیت	-11106
اگرچہ	-11107
▁اروڑا	-11108
▁بگڑ	-11109
▁خلاء	-11110
▁دھان	-11111
▁براستہ	-11112
▁ادبکا	-11113
۴۵	-11114
یونس	-11115
▁طالبعلم	-11116
پیئر	-11117
▁رینز	-11118
▁اسٹینڈ	-11119
▁سرمد	-11120
▁پروٹین	-11121
ویشن	-11122
▁ولسن	-11123
▁ہونٹ	-11124
▁ناانصافی	-11125
▁توفیق	-11126
▁انوکھے	-11127
▁حی	-11128
▁ہےتفصیلات	-11129
▁کےخلاف	-11130
▁استفسار	-11131
سایہ	-11132
▁بالائی	-11133
▁بستر	-11134
▁وائرلیس	-11135
▁یادوں	-11136
▁درمیانے	-11137
▁صوفیہ	-11138
▁ماتحت	-11139
▁مہاجرین	-11140
▁رنگت	-11141
▁سیاحتی	-11142
▁مما	-11143
▁باسو	-11144
▁دھکیل	-11145
▁گودام	-11146
▁اسٹیفن	-11147
▁پکار	-11148
کووا	-11149
▁حتی	-11150
▁لالہ	-11151
شکست	-11152
▁زئی	-11153
▁خصوصیت	-11154
▁مسابقتی	-11155
▁ابات	-11156
▁مہک	-11157
▁آرٹ	-11158
نکانہ	-11159
▁سینڈ	-11160
▁سیکی	-11161
▁ڈرافٹنگ	-11162
▁مستانی	-11163
▁ڈوگر	-11164
ونما	-11165
▁ایتھلیٹکس	-11166
مبا	-11167
وقت	-11168
جونء	-11169
▁دولہ	-11170
▁کیپنگ	-11171
کشٹ	-11172
▁بڑھنا	-11173
▁نمبرز	-11174
▁گذ	-11175
▁شنیرا	-11176
▁ادرک	-11177
▁سکولز	-11178
▁سامعین	-11179
▁جنریشن	-11180
▁کموڈٹی	-11181
مول	-11182
▁پہاڑوں	-11183
کریہ	-11184
▁ڈربی	-11185
▁وآ	-11186
▁مدیحہ	-11187
▁کھائی	-11188
▁لور	-11189
▁ہون	-11190
▁جینیفر	-11191
▁ہےفوٹو	-11192
▁اورج	-11193
▁نئیں	-11194
▁فارما	-11195
▁کنونشن	-11196
▁گلہ	-11197
نوجو	-11198
▁دتہ	-11199
▁پیچھا	-11200
▁بھان	-11201
▁نجیب	-11202
▁کیچز	-11203
▁گمراہ	-11204
ہتر	-11205
شہری	-11206
▁نمبرون	-11207
▁کھاتہ	-11208
▁گیفلم	-11209
▁صاحبزادی	-11210
نیات	-11211
قانونی	-11212
▁منوایا	-11213
▁خرچہ	-11214
▁آخری	-11215
▁ریڑھ	-11216
قص	-11217
▁ہرجانے	-11218
▁رائنا	-11219
▁زریعے	-11220
▁تجھ	-11221
▁جادوئی	-11222
▁ودہ	-11223
▁انگوٹھی	-11224
ازق	-11225
چسپ	-11226
▁لازم	-11227
▁کرافٹ	-11228
▁ہستہ	-11229
▁اسیکیو	-11230
▁روبوٹس	-11231
▁یونائٹیڈ	-11232
▁پارٹ	-11233
▁بکیز	-11234
▁حرم	-11235
▁برازر	-11236
یابیطس	-11237
▁مشاور	-11238
▁موشن	-11239
▁الزبتھ	-11240
سرمایہ	-11241
▁ہےقومی	-11242
▁بروک	-11243
▁گوبھی	-11244
▁وارث	-11245
▁گرافر	-11246
▁سکیموں	-11247
▁جاکر	-11248
▁صوابی	-11249
ینڈس	-11250
ویارک	-11251
▁باغات	-11252
▁شجاعت	-11253
▁پڑھے	-11254
▁مشرفی	-11255
▁ٹویٹس	-11256
▁پریمئیر	-11257
▁ہےاداکارہ	-11258
▁نب	-11259
غا	-11260
سیک	-11261
ومز	-11262
▁فائٹر	-11263
▁گورنرز	-11264
▁توڑا	-11265
▁وہاڑی	-11266
سارا	-11267
▁راکھی	-11268
▁لاشاری	-11269
▁شماری	-11270
▁ہےر	-11271
▁سائم	-11272
▁سیارہ	-11273
▁ہیڈکوار	-11274
▁ڈکشٹ	-11275
▁اکلینڈ	-11276
ظہ	-11277
▁کیمیائی	-11278
ٹنگھم	-11279
▁ہےکمپنی	-11280
▁ایڈوائزری	-11281
روال	-11282
▁مجاز	-11283
▁مسودہ	-11284
▁جانوں	-11285
▁منائیں	-11286
▁دھیان	-11287
▁پروجیکٹس	-11288
▁ہاک	-11289
فیو	-11290
حاصل	-11291
▁گونج	-11292
ائیے	-11293
▁بائیڈن	-11294
▁ارے	-11295
▁سنبھالیں	-11296
▁پرورش	-11297
▁مہربان	-11298
اریونس	-11299
▁پالتو	-11300
▁بصورت	-11301
ینٹ	-11302
▁فہم	-11303
▁بلیوز	-11304
▁پورہ	-11305
▁مشفیق	-11306
▁پرکاش	-11307
▁امتحانات	-11308
▁ساخت	-11309
▁خامیاں	-11310
▁رجنی	-11311
▁کیئر	-11312
▁ممبرز	-11313
▁ہیںذرائع	-11314
▁استعفیٰ	-11315
▁رؤف	-11316
ایشیا	-11317
▁گانٹھوں	-11318
▁گااس	-11319
▁پتے	-11320
▁مورس	-11321
▁الادا	-11322
▁کیریب	-11323
▁گےواضح	-11324
▁ونر	-11325
▁بتیس	-11326
▁ہمس	-11327
▁ترانہ	-11328
▁دہلیاردو	-11329
یرن	-11330
▁ایجنسیوں	-11331
▁لائب	-11332
▁گزارش	-11333
▁بریانی	-11334
▁اچک	-11335
▁تالی	-11336
▁ڈربن	-11337
▁ٹائٹلز	-11338
ئیاں	-11339
▁نوشہرہ	-11340
▁ڈیکلیئر	-11341
وٹس	-11342
▁ہےجی	-11343
▁بیٹوں	-11344
▁رکھوں	-11345
ٹمور	-11346
▁گھٹیا	-11347
▁سہرا	-11348
▁ھم	-11349
▁کمیٹیوں	-11350
▁مجلس	-11351
تیہ	-11352
▁جملوں	-11353
▁نسبتا	-11354
▁ڈانسر	-11355
▁تھار	-11356
▁ٹرافیاں	-11357
▁اعزازات	-11358
ڑھا	-11359
www	-11360
شیخ	-11361
▁بسم	-11362
▁بپاشی	-11363
▁قیدی	-11364
ٹور	-11365
▁لاہو	-11366
▁مونی	-11367
▁اردن	-11368
▁دعاں	-11369
▁اسطرح	-11370
▁وٹامن	-11371
آئی	-11372
▁فرمان	-11373
▁چھیڑ	-11374
▁موڈیز	-11375
▁ٹریلین	-11376
شہر	-11377
روب	-11378
اگستء	-11379
▁منگیتر	-11380
ڈیئر	-11381
▁ہیںوہ	-11382
▁سبزواری	-11383
▁زمر	-11384
▁لوڈشیڈنگ	-11385
۳۶	-11386
نڈو	-11387
ٹاپ	-11388
زرمبادلہ	-11389
▁نیول	-11390
▁ریہر	-11391
▁تھاکہ	-11392
▁بنکوں	-11393
▁جوس	-11394
▁وقف	-11395
شتوں	-11396
▁ہاری	-11397
▁بینکس	-11398
▁ملکیوں	-11399
▁گیانا	-11400
▁سکتیں	-11401
رمیں	-11402
▁تارک	-11403
▁اکھٹے	-11404
▁کھادوں	-11405
▁چھائی	-11406
▁کارہ	-11407
▁ڈرائیورز	-11408
▁بریگیڈ	-11409
▁دانیال	-11410
کرے	-11411
▁زادہ	-11412
اٹھ	-11413
▁شیف	-11414
فروخت	-11415
آپ	-11416
▁چھوڑتے	-11417
▁آفریدی	-11418
یوان	-11419
▁راشن	-11420
▁کرام	-11421
▁مشروبات	-11422
دوش	-11423
پٹی	-11424
▁ادمی	-11425
عباس	-11426
▁۹۰۰	-11427
▁ننکانہ	-11428
▁پریذیڈنٹ	-11429
ضا	-11430
▁سریز	-11431
اسکر	-11432
۹۰	-11433
▁بسے	-11434
▁یتی	-11435
▁ڈینس	-11436
روزہ	-11437
▁قابض	-11438
▁سپرہ	-11439
▁ہوئ	-11440
▁نکلی	-11441
▁کاریں	-11442
▁مالا	-11443
▁ہیںپی	-11444
بلے	-11445
▁سنت	-11446
▁میراتھن	-11447
۳۴	-11448
▁اردوزبان	-11449
▁ساتھمپٹن	-11450
▁صوف	-11451
▁کےا	-11452
▁فروشوں	-11453
▁بخود	-11454
▁فریقی	-11455
کال	-11456
▁ساحلی	-11457
▁فاش	-11458
▁کارا	-11459
▁سمجھی	-11460
▁ڈیویل	-11461
▁ملاقاتوں	-11462
▁سوائے	-11463
▁لکیر	-11464
▁حسب	-11465
▁ارباب	-11466
▁اپارٹمنٹ	-11467
▁مالدیپ	-11468
▁ذیابیطس	-11469
گلوکارہ	-11470
▁عبدالستار	-11471
▁ہاسنگ	-11472
▁سزائیں	-11473
▁افطار	-11474
▁علماء	-11475
▁ساختہ	-11476
▁کلامی	-11477
▁سوچتا	-11478
▁ہمسایہ	-11479
فارم	-11480
▁سریش	-11481
بالیہ	-11482
▁نکالی	-11483
▁بُ	-11484
▁بجرنگی	-11485
▁ہریتھک	-11486
▁تمھ	-11487
▁شالی	-11488
▁شہناز	-11489
▁ٹوٹنے	-11490
▁دلبرداشتہ	-11491
▁باون	-11492
▁شجاع	-11493
▁انڈینز	-11494
▁وردھنے	-11495
▁لیوس	-11496
▁وزرائے	-11497
▁نظارہ	-11498
▁انڈر۱۹	-11499
▁شفٹ	-11500
▁کیشنز	-11501
DB	-11502
▁ملنگا	-11503
kho	-11504
▁کنزیو	-11505
▁فرما	-11506
▁فاونڈیشن	-11507
▁تلوار	-11508
▁خوشدل	-11509
▁شیل	-11510
▁تماشا	-11511
ویژن	-11512
▁ہوے	-11513
▁گزاروں	-11514
▁رونے	-11515
▁جاؤں	-11516
کشمیر	-11517
▁مسز	-11518
▁انفو	-11519
▁اپلیکشن	-11520
hauj	-11521
ویٹی	-11522
▁لکھتے	-11523
عزت	-11524
▁قادری	-11525
▁اٹھنے	-11526
▁لاء	-11527
▁لرن	-11528
▁ٹپس	-11529
khouj	-11530
▁پوش	-11531
▁الوداع	-11532
▁موہالی	-11533
▁تھاانہوں	-11534
▁شیا	-11535
▁پینتالیس	-11536
▁ودہولڈنگ	-11537
▁رومی	-11538
▁لوہار	-11539
▁پریشنز	-11540
▁بجھ	-11541
▁اکیلا	-11542
▁سمجھو	-11543
▁منسوخی	-11544
ثوم	-11545
▁بدلتے	-11546
▁مسور	-11547
▁پکچر	-11548
▁دکاندار	-11549
▁بسیں	-11550
ئرا	-11551
▁پنجہ	-11552
▁ترانے	-11553
▁چھان	-11554
▁مہیلا	-11555
▁رئیلٹی	-11556
▁ایگز	-11557
▁تلفی	-11558
▁۱۰۸	-11559
▁مقتول	-11560
▁پنلٹی	-11561
اچ	-11562
▁چچا	-11563
▁سبھا	-11564
▁اخبارات	-11565
▁کانوں	-11566
▁شکرگزار	-11567
گیٹ	-11568
▁نسو	-11569
▁آگئی	-11570
▁مینوں	-11571
▁سےروپے	-11572
▁نشہ	-11573
▁اذیت	-11574
▁جھٹکا	-11575
▁فانی	-11576
قرن	-11577
▁لاشیں	-11578
▁پرمستحکم	-11579
مصباح	-11580
▁علموں	-11581
▁پلیز	-11582
▁کاہ	-11583
نڈہ	-11584
▁لٹک	-11585
▁بااثر	-11586
▁گروور	-11587
▁C	-11588
▁لاسٹ	-11589
▁آرڈر	-11590
▁جھڑپ	-11591
▁نکالے	-11592
▁ضمیر	-11593
مرتبہ	-11594
▁بٹھ	-11595
ممالک	-11596
▁خلیجی	-11597
▁چھٹکارا	-11598
▁اسٹیبلشمنٹ	-11599
▁ہرانے	-11600
▁پریڈ	-11601
▁الٹرا	-11602
▁ارون	-11603
▁عص	-11604
▁وفاد	-11605
▁صفحات	-11606
▁ئن	-11607
▁جول	-11608
▁وصولیاں	-11609
▁ریج	-11610
▁بڑھاتے	-11611
▁ملزموں	-11612
تاب	-11613
وبائل	-11614
▁ترنم	-11615
▁لفظوں	-11616
▁یرغ	-11617
▁شیراز	-11618
▁استعفے	-11619
▁سزائے	-11620
سمیت	-11621
▁مجسمے	-11622
▁جیر	-11623
▁وننگ	-11624
▁ماروی	-11625
ندیپ	-11626
▁آگ	-11627
▁ڈھال	-11628
جنی	-11629
▁ٹرینوں	-11630
▁مکسڈ	-11631
▁لون	-11632
▁گریڈیشن	-11633
▁۱۱۵	-11634
▁پکا	-11635
▁لق	-11636
▁جینا	-11637
▁زوہیب	-11638
▁حذ	-11639
▁لغ	-11640
▁چندیمل	-11641
▁یونیورس	-11642
وپم	-11643
نڈوں	-11644
▁پائ	-11645
▁مخلص	-11646
▁جنگجو	-11647
▁گستاخ	-11648
▁اشع	-11649
۵۶	-11650
▁گیارہویں	-11651
▁دئے	-11652
▁فطر	-11653
▁بالغ	-11654
▁صلہ	-11655
برڈ	-11656
▁حمد	-11657
واردو	-11658
▁ابپاشی	-11659
▁ارائیں	-11660
▁فورنیا	-11661
▁کراچیاسپورٹس	-11662
ونیوز	-11663
یور	-11664
حیدر	-11665
▁پرندوں	-11666
۳۸	-11667
▁ہیوز	-11668
▁اشتعال	-11669
▁وآلہ	-11670
▁ہےں	-11671
▁حسیب	-11672
▁مانیٹر	-11673
▁ہلچل	-11674
▁لیڈیز	-11675
ملز	-11676
▁گنتی	-11677
▁وریندر	-11678
وریز	-11679
▁چیلنجرز	-11680
▁وزنی	-11681
▁اسکریننگ	-11682
▁سمٹ	-11683
▁بدلا	-11684
▁دیگرے	-11685
▁یوئیفا	-11686
حفیظ	-11687
یاگو	-11688
▁میڈیسن	-11689
▁تمغوں	-11690
ٸی	-11691
ازم	-11692
▁بورڈپی	-11693
▁استقبالیہ	-11694
وہاب	-11695
▁مٹھ	-11696
▁دائ	-11697
▁کوائن	-11698
▁جوناتھن	-11699
اوپن	-11700
▁بام	-11701
ستگی	-11702
▁ہنستے	-11703
▁ادھوری	-11704
▁کلاسیکل	-11705
▁ویران	-11706
▁سلا	-11707
▁مسابقت	-11708
▁کنگسٹن	-11709
▁جیری	-11710
▁اعظمی	-11711
▁گنڈاپور	-11712
▁کوئنز	-11713
▁تلافی	-11714
▁داخلی	-11715
▁جھٹکے	-11716
▁پروٹوکول	-11717
▁۱۰۱	-11718
▁زیت	-11719
روح	-11720
▁چراغ	-11721
▁ڈنک	-11722
▁چندرن	-11723
ورسٹی	-11724
نیم	-11725
▁ڈنر	-11726
▁دوحہ	-11727
▁ریفائنری	-11728
ووا	-11729
▁مارول	-11730
▁کوئنٹن	-11731
▁باقر	-11732
پٹن	-11733
▁امتیا	-11734
▁گیپاکستان	-11735
جربہ	-11736
اتھاکہ	-11737
▁ڈریگن	-11738
▁غوری	-11739
▁دامن	-11740
▁مدید	-11741
▁خلاصہ	-11742
▁اٹے	-11743
▁پراس	-11744
▁جگایا	-11745
▁ہےایک	-11746
▁یکسر	-11747
▁فرنینڈس	-11748
▁دھول	-11749
▁اٹھائی	-11750
▁انویسٹی	-11751
▁بھیڑ	-11752
▁ایکسی	-11753
▁تھاان	-11754
▁ڈالنا	-11755
▁نوا	-11756
وائرس	-11757
▁الیسٹر	-11758
▁جوتوں	-11759
▁پرپ	-11760
▁نیچر	-11761
▁چھوڑنا	-11762
▁اجنبی	-11763
▁بمباری	-11764
▁شمارکے	-11765
▁فائلرز	-11766
وکی	-11767
▁ہاٹ	-11768
▁گائوں	-11769
▁ویتنام	-11770
▁ٹیو	-11771
▁نیلے	-11772
▁ڈرامائی	-11773
▁تھاب	-11774
▁موقعے	-11775
▁فٹبالرز	-11776
▁گرافی	-11777
▁مشاورتی	-11778
▁پگھ	-11779
▁چاہئیے	-11780
کلز	-11781
▁اپل	-11782
▁مقدر	-11783
▁ڈسپلنری	-11784
ازون	-11785
▁ندرے	-11786
فیض	-11787
▁جائلز	-11788
▁کبریٰ	-11789
▁یہودی	-11790
درخواست	-11791
▁کوپ	-11792
فواد	-11793
▁دھڑک	-11794
▁مانگتے	-11795
▁کاٹا	-11796
شادی	-11797
▁دیپکا	-11798
▁مفتاح	-11799
▁رجسٹرار	-11800
▁مواقعوں	-11801
▁ذیادہ	-11802
▁پارٹس	-11803
اعی	-11804
▁سجی	-11805
▁ٹیکن	-11806
▁عظمیٰ	-11807
▁ملاحظہ	-11808
▁مصدق	-11809
▁باربی	-11810
▁نظروں	-11811
▁جیون	-11812
▁سٹیک	-11813
▁نفری	-11814
▁فیکچر	-11815
▁سائنسز	-11816
▁ناٹنگھم	-11817
▁چیئرپرسن	-11818
▁رنگین	-11819
▁وٹس	-11820
▁کسر	-11821
▁چکوال	-11822
نتی	-11823
▁فرش	-11824
▁دھماکوں	-11825
▁یوسین	-11826
کاردو	-11827
▁فائبر	-11828
▁معنوں	-11829
▁چونتیس	-11830
▁کمرہ	-11831
▁کونسی	-11832
▁کیوئسٹ	-11833
▁لڑتے	-11834
▁یکجا	-11835
▁لانچنگ	-11836
▁کستان	-11837
▁صبری	-11838
▁ماشاءاللہ	-11839
▁ضیاع	-11840
گاں	-11841
▁تڑ	-11842
▁لند	-11843
▁دلیل	-11844
▁کورسز	-11845
▁تینتیس	-11846
۳۲	-11847
▁بندوق	-11848
▁کھوسہ	-11849
▁لینڈنگ	-11850
▁بپاشا	-11851
▁اسٹون	-11852
▁اسکیموں	-11853
▁زونگ	-11854
▁ہےدونوں	-11855
▁ڑے	-11856
گیسو	-11857
▁شمس	-11858
▁ترکیہ	-11859
یون	-11860
▁سائیٹ	-11861
▁ہیںپ	-11862
جٹ	-11863
▁یل	-11864
زیادہ	-11865
▁مداف	-11866
▁مکعب	-11867
▁بھوت	-11868
▁کہکش	-11869
ونیشور	-11870
▁رزل	-11871
▁خودکش	-11872
▁جد	-11873
▁کورے	-11874
▁شالیمار	-11875
▁مرید	-11876
▁کیان	-11877
▁ڈھانچہ	-11878
▁نکات	-11879
▁بہانے	-11880
▁تفضل	-11881
▁گھاس	-11882
پہنچ	-11883
چوت	-11884
▁ادھی	-11885
▁کارگر	-11886
ٹوئٹر	-11887
▁فیلڈر	-11888
▁کیلنڈر	-11889
▁پرفیکشنسٹ	-11890
▁چھپی	-11891
ائیں۔	-11892
اتفصیلات	-11893
▁کائل	-11894
▁انجریز	-11895
▁سرٹیفی	-11896
▁مطابقت	-11897
▁کنزیومر	-11898
سنل	-11899
▁الحرام	-11900
ستمبرء	-11901
▁گےفلم	-11902
افغانستان	-11903
▁ایجنٹس	-11904
▁بلغ	-11905
▁چشمہ	-11906
▁ترین۰	-11907
▁پاؤنڈ	-11908
▁نوازالدین	-11909
▁رناوٹ	-11910
▁مہمند	-11911
▁بااختیار	-11912
▁صائم	-11913
▁کرگئے	-11914
▁کارت	-11915
▁ملائیشین	-11916
▁کولا	-11917
▁سیونگ	-11918
▁کلاسیکی	-11919
▁سمگل	-11920
▁پرفیکٹ	-11921
دیں	-11922
▁لہجے	-11923
▁ہیپی	-11924
▁ہےئی	-11925
▁کٹیگری	-11926
▁بچانا	-11927
▁ہیومن	-11928
▁پروٹیکشن	-11929
▁بھجوائی	-11930
جرم	-11931
▁لینی	-11932
▁حکومتیں	-11933
▁معدنیات	-11934
▁سندھو	-11935
▁ہینگ	-11936
▁رویندرا	-11937
راس	-11938
▁سکت	-11939
لوڈ	-11940
▁ایڈورڈ	-11941
▁خوری	-11942
▁دہانے	-11943
▁ڈگ	-11944
بیٹنگ	-11945
▁گارڈز	-11946
▁کائی	-11947
▁ریکھا	-11948
▁رسپانس	-11949
▁سراغ	-11950
ٹینم	-11951
▁ضرب	-11952
سعودی	-11953
▁سپنرز	-11954
▁چھوڑے	-11955
طیل	-11956
سینئر	-11957
▁چمڑے	-11958
▁بھابھی	-11959
▁دھرن	-11960
▁رابعہ	-11961
▁زیتون	-11962
▁اچکزئی	-11963
ضاد	-11964
▁تیزاب	-11965
▁اغواء	-11966
▁کمپوزٹ	-11967
دھم	-11968
قول	-11969
▁ہوجاتے	-11970
ذکورہ	-11971
▁ارت	-11972
قابلہ	-11973
▁بینی	-11974
سکر	-11975
▁کچن	-11976
برداری	-11977
▁لرننگ	-11978
شائقین	-11979
جات	-11980
▁اسمان	-11981
▁سمجھیں	-11982
▁تبو	-11983
▁کات	-11984
▁خوردونوش	-11985
▁چنگ	-11986
اراتی	-11987
▁نقشہ	-11988
ہوری	-11989
▁بیالیس	-11990
▁جادوگر	-11991
▁سائیکلوں	-11992
▁ایجنسیاں	-11993
▁تذکرہ	-11994
▁نمبروں	-11995
▁پھوڑ	-11996
▁بیٹیاں	-11997
مگر	-11998
▁فلیش	-11999
▁کھوسٹ	-12000
▁امیگریشن	-12001
ٹمنٹ	-12002
▁موٹی	-12003
▁سمال	-12004
▁پچھاڑ	-12005
سکور	-12006
شیئر	-12007
▁الے	-12008
▁خلع	-12009
▁شبر	-12010
▁وارانہ	-12011
▁بنکاک	-12012
▁فریکچر	-12013
▁بارہویں	-12014
▁برنٹ	-12015
▁نیدرلینڈز	-12016
پلس	-12017
گھروں	-12018
▁سوالوں	-12019
▁امپورٹرز	-12020
پاٹ	-12021
▁پیئر	-12022
▁باغبان	-12023
زنگ	-12024
▁دیس	-12025
حکام	-12026
▁بشکریہ	-12027
▁کانسٹیبل	-12028
▁کوٹہ	-12029
▁گریٹ	-12030
▁انٹرویوز	-12031
انسرز	-12032
▁سندر	-12033
▁گالفر	-12034
▁انشاءاللہ	-12035
▁چلاتے	-12036
▁فرمائش	-12037
▁ٹونی	-12038
▁پیلے	-12039
صیبت	-12040
▁الٹ	-12041
▁مینگل	-12042
▁یحی	-12043
▁ہیںبھارتی	-12044
وائے	-12045
▁کائ	-12046
زین	-12047
▁زمینوں	-12048
▁قہ	-12049
گیاہے	-12050
▁اینڈرائڈ	-12051
ٹریلر	-12052
▁سلان	-12053
▁گزرا	-12054
▁موہن	-12055
▁اسٹنٹ	-12056
▁ریستور	-12057
▁اسٹریمنگ	-12058
بادی	-12059
▁سوانح	-12060
▁کیااس	-12061
▁تارکین	-12062
▁کاکہنا	-12063
▁اینڈروئیڈ	-12064
▁لیزر	-12065
▁کھایا	-12066
▁ایڈیٹر	-12067
▁محم	-12068
لانیہ	-12069
▁رکنے	-12070
▁مارلن	-12071
▁اسلامیہ	-12072
▁۱۷۰	-12073
▁دوگنا	-12074
▁قربانیاں	-12075
والیس	-12076
▁خطیر	-12077
اکاروب	-12078
▁ٹیکنالوجیز	-12079
لاتی	-12080
۵۹	-12081
▁ہنڈا	-12082
▁تزئین	-12083
▁نمبرپر	-12084
▁کاک	-12085
▁اکیڈمیز	-12086
▁مصروفیت	-12087
واٹس	-12088
▁ہچک	-12089
▁پریز	-12090
عاد	-12091
▁ہجر	-12092
▁کھلایا	-12093
▁بخت	-12094
ولینس	-12095
▁شکاگو	-12096
▁جذب	-12097
▁راکی	-12098
▁سیڈڈ	-12099
▁سڑکیں	-12100
▁کیاجائے	-12101
بوری	-12102
فیٹ	-12103
▁ابن	-12104
▁ملحقہ	-12105
▁کونسا	-12106
▁اداکاراوں	-12107
یومنٹ	-12108
▁پتلی	-12109
تاجر	-12110
▁اڑتالیس	-12111
کروں	-12112
▁بنگالی	-12113
اوے	-12114
▁نمٹا	-12115
▁عروسی	-12116
▁عذاب	-12117
▁شرافت	-12118
▁مانتے	-12119
باسط	-12120
▁فوٹوگرافر	-12121
▁بنادی	-12122
▁افادیت	-12123
تایا	-12124
▁انڈکس	-12125
▁کنڈکٹ	-12126
▁وزارتوں	-12127
▁ابوظبی	-12128
▁ہتھ	-12129
▁ریہرسل	-12130
▁کیمیکلز	-12131
▁گارمنٹس	-12132
▁دائرے	-12133
▁ارگنائزر	-12134
▁وبائی	-12135
▁پورٹس	-12136
▁ملائکہ	-12137
▁موج	-12138
▁الوداعی	-12139
▁ہد	-12140
▁پائل	-12141
▁زخموں	-12142
تحقیق	-12143
▁قازق	-12144
▁ایلسٹر	-12145
▁ڈش	-12146
▁سطحی	-12147
▁انند	-12148
▁مکہ	-12149
▁پشتون	-12150
کیوسک	-12151
▁یہیں	-12152
▁موومنٹ	-12153
پووا	-12154
ڈیوڈ	-12155
▁باتھ	-12156
نبیین	-12157
it	-12158
▁انجینئرز	-12159
▁ملازمتوں	-12160
▁ریگولر	-12161
وڈز	-12162
▁مصیبت	-12163
▁جرات	-12164
▁ماخو	-12165
برطانیہ	-12166
کریں	-12167
▁نوری	-12168
▁فریمز	-12169
▁مڑ	-12170
▁آم	-12171
ڈون	-12172
وبست	-12173
▁دستی	-12174
قرار	-12175
ماعت	-12176
▁مرہ	-12177
▁کٹھ	-12178
▁دھونے	-12179
▁اوروہ	-12180
▁مشینوں	-12181
▁کینبرا	-12182
▁کرانا	-12183
▁مثر	-12184
▁احاطہ	-12185
▁شیطان	-12186
▁سیکنڈری	-12187
▁وکٹوریہ	-12188
▁تاریک	-12189
▁اپناتے	-12190
▁منیش	-12191
▁گراؤنڈ	-12192
▁مینشن	-12193
▁۱۰۷	-12194
▁خیریت	-12195
▁چول	-12196
▁کلبز	-12197
▁مضامین	-12198
▁۱۱۸	-12199
▁بختیار	-12200
▁والہ	-12201
▁سوشانت	-12202
ادیں	-12203
▁ساحر	-12204
▁پریتی	-12205
▁سچائی	-12206
▁گزارنا	-12207
▁گپتا	-12208
▁شازیہ	-12209
ڈک	-12210
▁رتن	-12211
▁سچے	-12212
▁روبن	-12213
▁ڈھونڈنے	-12214
ستہائے	-12215
▁صدیوں	-12216
▁جماعتیں	-12217
▁۱۲۴	-12218
▁سکین	-12219
▁کاح	-12220
▁روکے	-12221
▁مظلوم	-12222
▁ارگنائزیشن	-12223
▁رائزنگ	-12224
▁بالاتر	-12225
▁وارز	-12226
▁کاکہن	-12227
ریکارڈ	-12228
▁بالاخر	-12229
▁اسپتالوں	-12230
ناصر	-12231
▁مزا	-12232
میزبان	-12233
▁دشوار	-12234
▁کمشنرز	-12235
▁ایڈمنسٹریشن	-12236
▁وڑ	-12237
▁پی۰	-12238
▁بلاگنگ	-12239
▁ٹورنٹو	-12240
▁کرواتے	-12241
▁جوا	-12242
▁چھپن	-12243
▁وقوف	-12244
▁پیدل	-12245
▁سپرلیگ	-12246
؟؟؟	-12247
یوس	-12248
ماضی	-12249
▁وقاریونس	-12250
▁خار	-12251
▁نشوونما	-12252
▁الیکٹرانکس	-12253
قرنین	-12254
▁پروری	-12255
▁ڈائر	-12256
▁الوقت	-12257
▁گیواضح	-12258
▁بوائی	-12259
▁رونقیں	-12260
▁بلوم	-12261
▁ڈراز	-12262
▁کھیلنی	-12263
بیک	-12264
▁میکرز	-12265
▁ٹوڈ	-12266
▁کھاتوں	-12267
▁ابا	-12268
اعلان	-12269
▁سوچیں	-12270
▁ماخوذ	-12271
▁لٹل	-12272
▁چلائے	-12273
▁گئیاس	-12274
▁ونود	-12275
▁وامان	-12276
ائنی	-12277
▁بونی	-12278
▁حاوی	-12279
▁مشتعل	-12280
▁ٹریول	-12281
َی	-12282
۳۹	-12283
▁جہنم	-12284
قینی	-12285
▁سیپ	-12286
▁شیری	-12287
▁فاکس	-12288
▁قصبے	-12289
▁جیکب	-12290
میگاواٹ	-12291
▁نہر	-12292
▁کرتیں	-12293
▁بندوبست	-12294
▁عج	-12295
▁دیاس	-12296
تجارت	-12297
▁سرنگ	-12298
سرکاری	-12299
▁T	-12300
▁چندر	-12301
▁بروکرز	-12302
▁ریاستہائے	-12303
▁زاوی	-12304
▁فطرت	-12305
▁گمش	-12306
▁استغ	-12307
▁پیدو	-12308
▁ساتواں	-12309
▁مستند	-12310
▁ہونڈا	-12311
▁یمن	-12312
▁یاسرشاہ	-12313
▁ہوسکی	-12314
▁لہٰ	-12315
▁ملزمہ	-12316
ِن	-12317
▁ناطے	-12318
▁ٹف	-12319
▁رینی	-12320
▁لیہ	-12321
▁بھیجیں	-12322
▁آسٹریلیا	-12323
ینو	-12324
▁آگیا	-12325
▁لکھنا	-12326
▁کورٹس	-12327
▁درس	-12328
▁مانس	-12329
▁لگژری	-12330
▁وائیڈ	-12331
▁شگ	-12332
▁اڈے	-12333
▁بہانہ	-12334
▁فلیکس	-12335
دیشی	-12336
▁علیزے	-12337
▁کالنگ	-12338
▁پسماندہ	-12339
▁موم	-12340
▁کاٹی	-12341
▁رضاکار	-12342
دفین	-12343
▁ہینری	-12344
▁ہوشیار	-12345
۷۵	-12346
▁مجیب	-12347
▁متعین	-12348
▁دھماکا	-12349
عشق	-12350
▁مشفق	-12351
▁انتقام	-12352
▁ٹرانسپ	-12353
▁سپرنٹ	-12354
کیے	-12355
سائیکل	-12356
▁چاولہ	-12357
▁آیا۔	-12358
تاج	-12359
▁ہےجو	-12360
رایا	-12361
▁مماث	-12362
▁لائیک	-12363
▁افزائش	-12364
▁کچہ	-12365
▁اتارچ	-12366
▁حرکات	-12367
▁پھیپھ	-12368
▁ہیںک	-12369
▁فنکشن	-12370
▁رکھو	-12371
▁رانڈرز	-12372
▁بولتے	-12373
▁لورین	-12374
▁محافظ	-12375
▁قربانیوں	-12376
جنل	-12377
سکتی	-12378
▁مالنگا	-12379
▁عزیر	-12380
▁نمونہ	-12381
▁دستبرداری	-12382
▁ذر	-12383
▁ڈن	-12384
جیسے	-12385
رحال	-12386
▁کیوسک	-12387
▁حضور	-12388
▁پوویلین	-12389
ماہرہ	-12390
اروس	-12391
▁سیدھے	-12392
▁داران	-12393
▁امتیازی	-12394
▁۱۰۰انڈیکس	-12395
▁رہیں۔	-12396
▁عامرخان	-12397
ثانی	-12398
▁میامی	-12399
▁خاتمال	-12400
▁پارلیمان	-12401
▁اورا	-12402
▁پورٹل	-12403
▁پڑگیا	-12404
▁برکت	-12405
▁قطرے	-12406
▁برسات	-12407
▁رہاہے	-12408
▁یوسفزئی	-12409
▁جوزف	-12410
▁لتا	-12411
ٹیموں	-12412
▁گلیوں	-12413
▁سنے	-12414
▁۱۰۳	-12415
▁دفن	-12416
▁چیپ	-12417
▁پڑھائی	-12418
▁پروڈکٹس	-12419
سیمی	-12420
▁رائو	-12421
▁صحتیاب	-12422
ثنا	-12423
▁آن	-12424
▁انٹرا	-12425
▁بڑھائیں	-12426
▁لارنس	-12427
▁چڑھاو	-12428
▁سسپ	-12429
ابھارتی	-12430
▁ساونت	-12431
عبہ	-12432
ٹیلی	-12433
▁پُر	-12434
▁سروں	-12435
▁پتھ	-12436
▁گنی	-12437
▁پھینکنے	-12438
▁سلانوالی	-12439
▁ویلکم	-12440
▁ابھرتی	-12441
▁دلہنیا	-12442
جاپ	-12443
رون	-12444
بابر	-12445
▁چھوڑی	-12446
▁اوپو	-12447
ارتہ	-12448
انچہ	-12449
▁اڑتیس	-12450
▁پجارا	-12451
▁بڈ	-12452
▁پسندیدگی	-12453
فک	-12454
▁قصہ	-12455
▁جیتیں	-12456
▁سوپ	-12457
▁جوشی	-12458
خوب	-12459
بیان	-12460
▁چھپے	-12461
▁اپریشنز	-12462
▁ڈومنی	-12463
▁دیوالیہ	-12464
▁وائن	-12465
مختلف	-12466
▁غیرم	-12467
▁تھم	-12468
▁انوپم	-12469
فرٹ	-12470
▁موذی	-12471
بدھ	-12472
▁غیرمع	-12473
▁لاہورویب	-12474
▁کومل	-12475
رنگ	-12476
▁چارس	-12477
فیڈرل	-12478
وہی	-12479
▁پریا	-12480
▁وجاہت	-12481
▁مؤقف	-12482
▁سیدھی	-12483
▁محفلس	-12484
▁تہائی	-12485
▁گرانے	-12486
▁مائع	-12487
▁وارثی	-12488
وخ	-12489
▁سنز	-12490
▁آئینی	-12491
▁عبدالغ	-12492
▁بستی	-12493
▁لفٹ	-12494
اریب	-12495
▁کیجئے	-12496
▁بانڈری	-12497
▁لہٰذا	-12498
▁الودگی	-12499
▁مظاہروں	-12500
▁کدو	-12501
▁کاسام	-12502
ستم	-12503
▁کنندہ	-12504
▁بڑھائے	-12505
▁نائیجیریا	-12506
▁تدفین	-12507
▁مارکس	-12508
ہن	-12509
▁ہٹایا	-12510
▁شیم	-12511
▁اورنج	-12512
▁ٹوئٹس	-12513
چند	-12514
▁کاا	-12515
▁جہانزیب	-12516
ڈول	-12517
وسط	-12518
▁چلڈ	-12519
▁کوش	-12520
▁تھاک	-12521
▁فائنلسٹ	-12522
▁مفاہمتی	-12523
▁سٹورٹ	-12524
▁فیملیز	-12525
▁شراپووا	-12526
ائیکی	-12527
▁ہوشر	-12528
▁مجرموں	-12529
▁محفلسخن	-12530
▁قازقستان	-12531
طینی	-12532
▁آمدنی	-12533
▁عنایت	-12534
▁فوربز	-12535
▁میگھن	-12536
▁یادگاری	-12537
▁۱۱۲	-12538
▁کیے۔	-12539
be	-12540
خالد	-12541
▁لائبریری	-12542
▁رونی	-12543
▁ہیںجبکہ	-12544
۴۸	-12545
▁فائن	-12546
▁AI	-12547
▁جوفرا	-12548
▁ہیںاداکارہ	-12549
▁ہلال	-12550
▁قدرمیں	-12551
▁کرٹ	-12552
▁موٹو	-12553
▁ناراضگی	-12554
ھیا	-12555
▁فخری	-12556
▁منشا	-12557
le	-12558
ربا	-12559
▁اونچ	-12560
▁تگ	-12561
▁چھوڑیں	-12562
ٹریٹ	-12563
▁اٹالین	-12564
ناد	-12565
▁سوگوار	-12566
ویا	-12567
لیفہ	-12568
ویری	-12569
▁کمروں	-12570
▁پاسداری	-12571
▁یے	-12572
▁جمنا	-12573
▁روتے	-12574
▁سرخرو	-12575
▁شجر	-12576
▁اکاؤنٹس	-12577
یاق	-12578
▁حفظ	-12579
▁ریفر	-12580
▁قلیل	-12581
▁گوٹ	-12582
▁کھلنا	-12583
▁نفیس	-12584
▁چارجر	-12585
▁اہستہ	-12586
▁ٹھنڈے	-12587
یکم	-12588
کنر	-12589
▁۱۱۶	-12590
▁ادر	-12591
▁آنسو	-12592
▁جوہی	-12593
▁آلودگی	-12594
کٹریٹ	-12595
▁بینگ	-12596
▁میانمار	-12597
▁جسامت	-12598
▁شادیوں	-12599
▁کرنیکا	-12600
▁وائے	-12601
▁دیاہے	-12602
▁کبھار	-12603
ارکیٹ	-12604
▁لبر	-12605
▁ڈسک	-12606
▁پاؤں	-12607
▁جنرز	-12608
▁سائے	-12609
▁ماربل	-12610
▁سینٹنر	-12611
▁واٹمور	-12612
▁جگم	-12613
▁میڈم	-12614
▁معتبر	-12615
▁اسکائپ	-12616
▁اماراتی	-12617
▁لکمل	-12618
▁کوپر	-12619
▁جورڈن	-12620
▁سویا	-12621
▁چاکلیٹ	-12622
▁گورننس	-12623
▁مشرا	-12624
▁وقتی	-12625
▁ملانے	-12626
▁نسلوں	-12627
▁کےساتھ	-12628
▁آپکے	-12629
▁تجزی	-12630
▁مجروح	-12631
▁امتنا	-12632
▁جاز	-12633
▁چھل	-12634
▁انار	-12635
▁میزان	-12636
▁الیکٹرون	-12637
سٹرن	-12638
▁یووراج	-12639
▁حروف	-12640
▁لاجو	-12641
▁سائفر	-12642
▁ہیںجس	-12643
▁ہےسابق	-12644
▁پڑا۔	-12645
دورہ	-12646
کھیلے	-12647
▁رزاق	-12648
▁راجیو	-12649
▁فلٹر	-12650
▁کااظ	-12651
▁خطہ	-12652
▁کمبلے	-12653
▁فے	-12654
نما	-12655
شیدہ	-12656
اعتماد	-12657
لانٹ	-12658
▁۱۳۵	-12659
▁خلیج	-12660
▁جیس	-12661
دلچسپ	-12662
یتا	-12663
▁ہوںگے	-12664
▁چوالیس	-12665
▁بیروزگاری	-12666
▁کلف	-12667
▁صحرا	-12668
▁فرینڈز	-12669
▁نشستیں	-12670
▁مانگے	-12671
▁رند	-12672
▁یونیورسل	-12673
▁لینگ	-12674
جانب	-12675
▁چلائیں	-12676
▁روشنیوں	-12677
▁ڈیموکری	-12678
رود	-12679
لون	-12680
▁باور	-12681
▁ئیکون	-12682
▁انڈپینڈنٹ	-12683
کاسٹ	-12684
▁مساجد	-12685
▁پھٹنے	-12686
▁سالی	-12687
زرعی	-12688
▁سپرہٹ	-12689
▁سلمی	-12690
▁ناکارہ	-12691
▁دکن	-12692
سانی	-12693
▁کیاب	-12694
▁لیدر	-12695
▁پاکر	-12696
▁وشمار	-12697
▁مگ	-12698
▁جاۓ	-12699
▁کہو	-12700
▁رزلٹ	-12701
▁پہنچتے	-12702
▁کیں۔	-12703
▁۱۱۹	-12704
▁ونٹر	-12705
طنی	-12706
ارنگ	-12707
▁زیبا	-12708
▁مزاری	-12709
▁خریدنا	-12710
▁نات	-12711
▁ہوشربا	-12712
▁اندھیرے	-12713
▁اکتالیس	-12714
نوئی	-12715
▁ربیع	-12716
▁کوئلہ	-12717
وج	-12718
▁پرانا	-12719
▁مچھر	-12720
▁ہےجس	-12721
▁منوانے	-12722
▁نظریات	-12723
▁چارٹرڈ	-12724
قابل	-12725
▁رضامند	-12726
▁ویٹوری	-12727
▁سنبھل	-12728
▁بائرن	-12729
▁زائرہ	-12730
▁ریلے	-12731
▁ازمائش	-12732
▁بھیجنا	-12733
▁فائونڈیشن	-12734
▁سوراخ	-12735
▁پلاٹینم	-12736
پید	-12737
کنی	-12738
البتہ	-12739
▁نکلتے	-12740
اصف	-12741
▁جوار	-12742
▁فساد	-12743
▁ایشو	-12744
▁پیزا	-12745
▁گاگا	-12746
▁برتن	-12747
▁ذوالقرنین	-12748
ڈرن	-12749
▁یتیم	-12750
▁سوئفٹ	-12751
▁نیسلے	-12752
▁لاہورمانیٹرنگ	-12753
▁دوم	-12754
▁موٹاپے	-12755
▁المی	-12756
▁کیفے	-12757
▁جوں	-12758
▁جوڑوں	-12759
▁ہیںانھوں	-12760
ریٹس	-12761
▁فحاشی	-12762
▁پیروں	-12763
پک	-12764
رآ	-12765
▁جانبدار	-12766
▁مائل	-12767
▁دورئہ	-12768
▁ایمازون	-12769
نجے	-12770
▁تھنڈر	-12771
▁شہزادے	-12772
▁کنال	-12773
پائی	-12774
▁ویجی	-12775
▁کف	-12776
▁نچلے	-12777
▁پسین	-12778
سکی	-12779
▁لکش	-12780
یونٹ	-12781
▁پگ	-12782
▁سبی	-12783
▁لائق	-12784
▁احباب	-12785
▁قربت	-12786
▁فرنینڈو	-12787
▁ڈلی	-12788
▁آرہا	-12789
▁لالچ	-12790
▁ڈیئر	-12791
▁ارمان	-12792
▁کھویا	-12793
انڈا	-12794
وایو	-12795
▁روزے	-12796
▁جونسن	-12797
ac	-12798
َا	-12799
ہاردو	-12800
▁حلی	-12801
▁طاری	-12802
▁ایڈمنسٹریٹر	-12803
اؤ	-12804
▁کلکٹر	-12805
▁بیکٹی	-12806
▁ڈراگون	-12807
▁رگنائزیشن	-12808
ستری	-12809
▁پمپس	-12810
▁مغفرت	-12811
▁احمق	-12812
▁چوائس	-12813
▁جھک	-12814
▁خاتمالنبیین	-12815
اوند	-12816
▁تھروبال	-12817
مینا	-12818
▁سنبھا	-12819
▁مردم	-12820
▁ویدر	-12821
▁گلبرگ	-12822
▁۱۳۲	-12823
▁دربار	-12824
اکمل	-12825
▁خم	-12826
ونگا	-12827
▁جبار	-12828
▁حکیم	-12829
▁بلاس	-12830
▁پہنچانا	-12831
مولی	-12832
▁انتباہ	-12833
▁لیورپول	-12834
▁ایماندار	-12835
ئلز	-12836
▁گھومنے	-12837
▁سماج	-12838
صروں	-12839
▁عری	-12840
▁پراڈکٹ	-12841
▁زائل	-12842
▁یحیی	-12843
▁آرٹیکل	-12844
▁باشندوں	-12845
ٹریل	-12846
▁ہوتا۔	-12847
▁مندانہ	-12848
▁رہنمائوں	-12849
ڈور	-12850
▁مشاہد	-12851
▁پرائمری	-12852
مرک	-12853
▁اَ	-12854
▁تعطیل	-12855
▁نیویارکاردو	-12856
۴۲	-12857
▁مشغ	-12858
سینی	-12859
▁ہےف	-12860
▁حیرانی	-12861
▁کشم	-12862
▁سینگ	-12863
ئز	-12864
▁دیان	-12865
▁زرین	-12866
▁مکیش	-12867
چیم	-12868
▁جکارتہ	-12869
محمدﷺ	-12870
▁شفا	-12871
▁حا	-12872
▁سڑی	-12873
▁بمرا	-12874
انوالہ	-12875
▁تلاشی	-12876
▁نکالنا	-12877
▁دادی	-12878
نیویارک	-12879
▁پینلٹی	-12880
واقع	-12881
اسٹیٹ	-12882
▁رز	-12883
▁۱۱۷	-12884
▁اندی	-12885
▁سایہ	-12886
▁سکتے۔	-12887
▁ٹینکرز	-12888
▁پوشیدہ	-12889
▁سپرو	-12890
▁ڈینیل	-12891
▁بریٹ	-12892
▁اسٹمپ	-12893
ایج	-12894
سہیل	-12895
▁جمپ	-12896
▁نہاد	-12897
▁ذہنوں	-12898
▁عملدرآمد	-12899
▁ایمبولینس	-12900
صبح	-12901
▁بلیئر	-12902
▁ستم	-12903
▁تمناں	-12904
واور	-12905
▁بہرحال	-12906
▁گھاٹ	-12907
▁شئیرز	-12908
▁انتالیس	-12909
انیوز	-12910
سرور	-12911
چوکے	-12912
▁تھرمل	-12913
پرٹ	-12914
▁واریئرز	-12915
کردیا	-12916
▁سرحدوں	-12917
▁کیریبیئن	-12918
صفر	-12919
چستان	-12920
▁ایشا	-12921
▁پیوٹن	-12922
ورل	-12923
ولم	-12924
▁وینز	-12925
▁جودھ	-12926
▁کوٹس	-12927
▁سائمن	-12928
▁گریگ	-12929
▁ایمبی	-12930
▁جسارت	-12931
ڈونا	-12932
▁تھیلے	-12933
▁اسٹرائیکر	-12934
▁نصاب	-12935
▁نبرد	-12936
▁گایاد	-12937
۵۵	-12938
احث	-12939
کیونکہ	-12940
▁عبدالعزیز	-12941
▁آل	-12942
▁فلمسازوں	-12943
▁صفحہ	-12944
▁چیپل	-12945
▁اڑایا	-12946
▁حسان	-12947
▁نکلو	-12948
▁کلدیپ	-12949
▁چھاپ	-12950
▁خاوند	-12951
سلو	-12952
▁ہمدرد	-12953
▁کھیپ	-12954
▁عمار	-12955
▁معاشرہ	-12956
▁بلاسٹ	-12957
▁فریحہ	-12958
▁پینا	-12959
▁الفلاح	-12960
▁نشانات	-12961
▁بازیاب	-12962
▁معینہ	-12963
▁کہکشاں	-12964
▁پڑھتے	-12965
۴۷	-12966
عماد	-12967
▁فضول	-12968
▁گینگسٹر	-12969
▁آلات	-12970
▁بونڈ	-12971
▁شائد	-12972
پریس	-12973
▁جلیل	-12974
▁دواں	-12975
▁گھوڑے	-12976
جیک	-12977
▁دوہرا	-12978
▁ڈریوڈ	-12979
▁بریگیڈیئر	-12980
▁ڈیویلپمنٹ	-12981
کنز	-12982
▁عموماً	-12983
▁اڑنے	-12984
▁نروس	-12985
▁لطیفہ	-12986
▁کشائی	-12987
▁ٹال	-12988
▁میں۲	-12989
▁نوازی	-12990
et	-12991
▁شبلی	-12992
▁انٹرپر	-12993
▁نوبل	-12994
▁غیرقانونی	-12995
▁پوچھنے	-12996
▁رعایتی	-12997
▁لاہورنیوز	-12998
▁مٹر	-12999
▁اشتیاق	-13000
سار	-13001
▁انتشار	-13002
▁کیرولین	-13003
▁راد	-13004
▁عاش	-13005
بنانے	-13006
▁کلثوم	-13007
▁بکھیرے	-13008
▁نمودار	-13009
▁تجرباتی	-13010
▁موتی	-13011
▁ہیلو	-13012
▁گیایہ	-13013
▁معقول	-13014
▁دانتوں	-13015
▁بدری	-13016
اسپورٹس	-13017
▁جولین	-13018
▁ایشیئن	-13019
▁آرہی	-13020
▁دفعات	-13021
▁طاہرہ	-13022
▁محاصل	-13023
▁ٹینڈر	-13024
▁چلڈرن	-13025
▁بنوائیں	-13026
▁کرونارتنے	-13027
▁ٹکڑا	-13028
▁اخبارتاز	-13029
شنگ	-13030
نیو	-13031
عالم	-13032
▁نیٹو	-13033
▁چادر	-13034
▁ھاھا	-13035
▁شرارت	-13036
▁بٹھا	-13037
▁لوہے	-13038
▁انڈور	-13039
▁معاشق	-13040
شمیتا	-13041
▁۱۲۲	-13042
پنی	-13043
▁الٹی	-13044
▁سراسر	-13045
▁نفسیات	-13046
▁ایفی	-13047
▁نیمل	-13048
▁پچپن	-13049
/%	-13050
▁کھڑکی	-13051
▁مینڈیٹ	-13052
▁بعداز	-13053
اسٹرکچر	-13054
ولیو	-13055
▁بھونیشور	-13056
وقار	-13057
▁معائ	-13058
▁شیریں	-13059
گین	-13060
▁کیاک	-13061
▁برتا	-13062
روہ	-13063
کردہ	-13064
▁نشی	-13065
وڑوں	-13066
▁۱۵۵	-13067
▁ٹوپی	-13068
▁اسکائی	-13069
▁کیریبین	-13070
▁ٹرکوں	-13071
▁شائستہ	-13072
▁پوٹا	-13073
▁فعل	-13074
▁ترجم	-13075
▁نشانے	-13076
سکیں	-13077
▁ہیںگزشتہ	-13078
▁ٹویوٹا	-13079
▁روپوں	-13080
▁نوعمر	-13081
▁کینڈی	-13082
▁پہیہ	-13083
سکین	-13084
▁آور	-13085
▁حوال	-13086
▁دیوالی	-13087
▁دارو	-13088
▁سموگ	-13089
▁یوگا	-13090
ہیڈ	-13091
ٹلنگ	-13092
▁انگل	-13093
▁سماں	-13094
▁اکائونٹس	-13095
▁رضی	-13096
▁گیپ	-13097
▁بیلا	-13098
ازٹس	-13099
▁مزاجی	-13100
▁جاسکتے	-13101
▁تلی	-13102
سینٹ	-13103
سٹمنٹ	-13104
نڈیشن	-13105
بنگلا	-13106
▁شاہدہ	-13107
مانستان	-13108
▁بھرمار	-13109
▁روبینہ	-13110
▁میلز	-13111
▁بتاتا	-13112
▁ایلون	-13113
▁مناتے	-13114
ٹکس	-13115
▁حسد	-13116
▁۱۲۶	-13117
▁دیدار	-13118
▁زبانی	-13119
سلہ	-13120
▁ہوٹلز	-13121
▁داڑھی	-13122
▁جلے	-13123
▁زرائع	-13124
▁جتو	-13125
▁بھائ	-13126
▁کاسٹنگ	-13127
شوٹ	-13128
▁چارلی	-13129
▁کلے	-13130
▁دارل	-13131
شاداب	-13132
▁چھیالیس	-13133
▁نگم	-13134
۰روپے	-13135
▁پروسیسنگ	-13136
▁تائید	-13137
▁رونکی	-13138
▁شمشاد	-13139
▁لیسٹر	-13140
۴۳	-13141
منگل	-13142
▁عیسیٰ	-13143
▁یادو	-13144
▁مباحث	-13145
▁بھینس	-13146
▁ایڈریس	-13147
▁کرپائے	-13148
▁گٹار	-13149
▁پروموٹ	-13150
▁۱۴۵	-13151
▁علمی	-13152
▁ہیرے	-13153
اتو	-13154
گانے	-13155
▁میت	-13156
صیف	-13157
▁زمرے	-13158
سیل	-13159
مپکس	-13160
کمیٹی	-13161
▁گرانڈز	-13162
▁پرائیوٹ	-13163
▁باہو	-13164
ارپورٹ	-13165
▁صحافت	-13166
▁کوارڈ	-13167
توڑ	-13168
▁اصط	-13169
▁۱۳۸	-13170
▁اجرت	-13171
▁جیکٹ	-13172
▁ندھی	-13173
▁جیوری	-13174
▁میگھا	-13175
▁کھلیں	-13176
▁بیٹھیں	-13177
▁مستثنی	-13178
▁وردنے	-13179
▁رائیگاں	-13180
▁گرج	-13181
ُو	-13182
▁اِس	-13183
سٹوفر	-13184
لاعات	-13185
▁ٹربل	-13186
کیم	-13187
▁کرشنا	-13188
وتر	-13189
▁بکس	-13190
▁کڈ	-13191
۴۹	-13192
ناٹ	-13193
▁قطعی	-13194
▁ڈیفالٹ	-13195
▁آئین	-13196
▁جانچنے	-13197
▁چیری	-13198
ارڈو	-13199
▁سومیا	-13200
▁قائدین	-13201
▁ٹھنڈی	-13202
▁چارسدہ	-13203
َم	-13204
▁ٹوبی	-13205
▁ارگنائزنگ	-13206
▁۱۲۳	-13207
▁رگنائزر	-13208
چھکوں	-13209
▁کیرون	-13210
▁سنبھالی	-13211
▁سویٹ	-13212
▁چوکا	-13213
▁پرندے	-13214
▁صاحبہ	-13215
▁ازدواجی	-13216
▁سیکیورٹیز	-13217
منت	-13218
پوا	-13219
ئرنگ	-13220
▁عزائم	-13221
مہمان	-13222
▁مہذب	-13223
سوئی	-13224
▁۱۱۱	-13225
▁کارو	-13226
▁اقربا	-13227
▁گاخیال	-13228
▁انڈسڑی	-13229
جوت	-13230
▁الخ	-13231
▁بہاولنگر	-13232
اسٹریلیا	-13233
▁معیارات	-13234
▁کریتی	-13235
▁لاتعداد	-13236
▁مدارس	-13237
▁گواسکر	-13238
▁ووٹرز	-13239
▁مؤثر	-13240
▁رہنماء	-13241
▁بولروں	-13242
▁ڈیسکپاکستان	-13243
▁تناؤ	-13244
چوتھے	-13245
▁ہیںلیکن	-13246
نفر	-13247
وکا	-13248
▁دولہا	-13249
▁لائنوں	-13250
دیقہ	-13251
▁کچے	-13252
پریانکا	-13253
▁آزم	-13254
▁لوکیش	-13255
▁تبصروں	-13256
▁ولد	-13257
▁یونیورسٹیوں	-13258
▁دیہات	-13259
کرائن	-13260
▁شکوک	-13261
▁وعلی	-13262
▁برہنہ	-13263
کمار	-13264
▁زنٹا	-13265
▁ایکٹنگ	-13266
▁کرادیا	-13267
▁ووٹوں	-13268
▁پڑھنا	-13269
▁کیمسٹری	-13270
▁کازرمبادلہ	-13271
▁شای	-13272
▁اسناد	-13273
▁روبرو	-13274
▁گزرنا	-13275
▁اسٹارٹ	-13276
▁فیڈریشنز	-13277
▁اندرے	-13278
▁چہل	-13279
▁سنڈ	-13280
▁صوفیا	-13281
رض	-13282
وتری	-13283
▁تحا	-13284
▁وتر	-13285
▁بھاگنے	-13286
▁کمپیوٹرز	-13287
یہاں	-13288
▁رواج	-13289
▁میڈونا	-13290
▁۱۱۴	-13291
▁طفیل	-13292
گوئیاں	-13293
▁امدید	-13294
▁المعروف	-13295
دمے	-13296
▁سہہ	-13297
▁ہائبرڈ	-13298
▁پہلوانوں	-13299
آئی	-13300
یعنی	-13301
▁دکھی	-13302
▁سیار	-13303
▁الانس	-13304
▁اوردس	-13305
▁ارچری	-13306
▁لاج	-13307
▁چیس	-13308
▁کرلیے	-13309
▁دیوانی	-13310
▁دیواروں	-13311
▁مولی	-13312
▁اسٹوریز	-13313
دہے	-13314
ہوئے	-13315
▁بھیا	-13316
▁ہینڈر	-13317
▁اسکوائر	-13318
▁کیاپاکستان	-13319
اسد	-13320
▁بران	-13321
▁۱۱۳	-13322
▁اللّہ	-13323
▁محمڈن	-13324
▁کلنٹن	-13325
▁گندگی	-13326
ہمارے	-13327
بالا	-13328
▁نیئر	-13329
▁جاچکا	-13330
▁انفرااسٹرکچر	-13331
▁ہیٹرک	-13332
ہندوستان	-13333
▁پارٹیوں	-13334
▁پسندانہ	-13335
▁گیو	-13336
▁مونٹی	-13337
▁عنقریب	-13338
▁اکتوبراردو	-13339
وبکر	-13340
▁گھیر	-13341
حارث	-13342
▁الٹا	-13343
▁ناکا	-13344
▁بولنا	-13345
▁ویسٹرن	-13346
▁صابن	-13347
▁صباح	-13348
▁موبی	-13349
▁غز	-13350
▁پریٹ	-13351
▁رچ	-13352
▁تیلگو	-13353
▁سکسرز	-13354
رانی	-13355
▁خوروں	-13356
▁پارکر	-13357
▁دارلحکومت	-13358
▁قطری	-13359
▁عبرتناک	-13360
▁بسر	-13361
▁حرف	-13362
▁مشابہت	-13363
▁سکیورٹیز	-13364
▁سنائے	-13365
جیکل	-13366
▁گےیاد	-13367
▁۱۳۹	-13368
▁بنگش	-13369
▁پنگ	-13370
▁بوڑھے	-13371
▁جوبلی	-13372
▁دوسال	-13373
▁مولوی	-13374
▁ٹریوس	-13375
▁بونس	-13376
▁بیٹر	-13377
▁دیدہ	-13378
▁منوا	-13379
▁خریدو	-13380
▁میں۵	-13381
▁باقیات	-13382
▁رسہ	-13383
▁فضاء	-13384
▁ایلگر	-13385
▁پزیرائی	-13386
▁ءپاکستان	-13387
▁زکو	-13388
▁ایڈوائزر	-13389
ئں	-13390
عدنان	-13391
▁بھتیجے	-13392
▁کسٹمرز	-13393
▁پالک	-13394
ولوشن	-13395
▁ناتھن	-13396
▁برتھ	-13397
▁نبھاتے	-13398
موجودہ	-13399
▁یوتھی	-13400
▁سٹیشنز	-13401
▁لاہورکامرس	-13402
▁[	-13403
▁لت	-13404
▁۱۲۷	-13405
علیم	-13406
▁ایشلے	-13407
▁سیلابی	-13408
▁اقرار	-13409
▁شاب	-13410
▁صنف	-13411
▁لنچ	-13412
▁ارتھ	-13413
▁ہےمیڈیا	-13414
▁پریشانیوں	-13415
ٰن	-13416
▁قمی	-13417
ویرات	-13418
▁جلوس	-13419
▁ہوام	-13420
قتا	-13421
▁بدنامی	-13422
▁لاہوری	-13423
یلی	-13424
▁دگنی	-13425
فرانس	-13426
▁سکری	-13427
▁کینز	-13428
▁مارکو	-13429
▁مستفیض	-13430
▁میڈلسٹ	-13431
مبیر	-13432
▁گولہ	-13433
▁مینیا	-13434
سات	-13435
▁زری	-13436
▁منٹس	-13437
▁سرپرستی	-13438
▁لوٹا	-13439
شکار	-13440
▁حلیمہ	-13441
۴۴	-13442
▁دودو	-13443
▁سپیل	-13444
▁پھیلی	-13445
▁پرمو	-13446
▁طبقات	-13447
▁مماثلت	-13448
▁آپس	-13449
▁الفور	-13450
▁روزی	-13451
▁میکا	-13452
▁سینتیس	-13453
▁نادہندگان	-13454
▁ہسی	-13455
▁چاہا	-13456
▁بلڈرز	-13457
▁خض	-13458
▁منٹن	-13459
▁ٹسٹ	-13460
▁بتاتی	-13461
یوالے	-13462
▁آؤٹ	-13463
▁جلتا	-13464
▁کرادی	-13465
زندگی	-13466
▁لوئر	-13467
براز	-13468
▁ازمائی	-13469
▁مجبوری	-13470
▁سرمایا	-13471
▁ٹھہرایا	-13472
▁ند	-13473
▁پلن	-13474
ہوں	-13475
▁موری	-13476
▁اجارہ	-13477
ion	-13478
▁وظ	-13479
▁فونک	-13480
▁فک	-13481
▁اصطلاح	-13482
▁وینیوز	-13483
▁ہوںانہوں	-13484
▁سٹریا	-13485
▁بیدار	-13486
ڈرامہ	-13487
▁ٹومی	-13488
▁ویسا	-13489
▁قبی	-13490
▁درستگی	-13491
▁وابستگی	-13492
▁آکر	-13493
یاتھا	-13494
▁کچرا	-13495
▁اسٹال	-13496
▁برفباری	-13497
▁پکو	-13498
▁پودا	-13499
▁ویوین	-13500
نڈرز	-13501
▁پیو	-13502
▁خانز	-13503
▁واضع	-13504
صح	-13505
▁کلینک	-13506
▁طاقتوں	-13507
▁آتش	-13508
▁برسٹل	-13509
▁ناہیدہ	-13510
گیوں	-13511
▁۱۰۹	-13512
کرٹری	-13513
یوارڈ	-13514
▁بیکٹیریا	-13515
▁ترکمانستان	-13516
▁کوپا	-13517
▁مکانات	-13518
▁سمن	-13519
▁ٹریژری	-13520
▁کاؤنٹی	-13521
▁ہوسکیں	-13522
تعلق	-13523
▁بارات	-13524
▁لائیوسٹاک	-13525
▁بھتہ	-13526
▁سیوریج	-13527
اہری	-13528
▁۱۲۱	-13529
▁بلٹ	-13530
▁نفع	-13531
▁غداری	-13532
▁آگے	-13533
▁سودا	-13534
▁فلکس	-13535
▁ڈیلر	-13536
▁فارمرز	-13537
▁ہےماہرین	-13538
▁سکوک	-13539
▁فوک	-13540
▁پاتا	-13541
▁مسکراتے	-13542
▁محلہ	-13543
▁سیکیور	-13544
▁یونانی	-13545
▁تھوڑے	-13546
▁پراڈکٹس	-13547
ائتی	-13548
▁چارے	-13549
▁بورنگ	-13550
▁جاسکا	-13551
▁سیٹنگز	-13552
ad	-13553
▁ضم	-13554
▁انتھک	-13555
▁سیکس	-13556
▁سنگیتا	-13557
▁پوزیشنز	-13558
ویئر	-13559
▁فیک	-13560
▁لیبل	-13561
▁ہےاور	-13562
▁مختاری	-13563
▁تلاوت	-13564
جلد	-13565
▁سدا	-13566
ارکیا	-13567
▁وقوعہ	-13568
▁کیوبک	-13569
ذول	-13570
▁جارجیا	-13571
▁ناگپور	-13572
▁احساسات	-13573
▁حیا	-13574
▁الوطنی	-13575
DA	-13576
واب	-13577
امام	-13578
▁چوڑ	-13579
▁ہمہ	-13580
▁کااظہار	-13581
▁سڈل	-13582
ووال	-13583
▁جینے	-13584
▁رپورٹنگ	-13585
ائچ	-13586
▁کوئن	-13587
▁ساڑھی	-13588
▁عبدالباسط	-13589
طری	-13590
▁لوپ	-13591
▁اسکار	-13592
▁جوروٹ	-13593
▁کوالیفائرز	-13594
دست	-13595
یاث	-13596
▁پہچانے	-13597
فنز	-13598
فایت	-13599
▁نصیحت	-13600
▁رنگارنگ	-13601
▁پہنی	-13602
▁لیاس	-13603
▁توصیف	-13604
▁احتشام	-13605
▁سکھانے	-13606
یز	-13607
بلیو	-13608
▁پرے	-13609
▁خدشے	-13610
▁انگور	-13611
▁پرفار	-13612
▁کھاتا	-13613
عون	-13614
▁اپر	-13615
▁کاس	-13616
▁اتارا	-13617
▁گنیز	-13618
▁لاشوں	-13619
▁انکھیں	-13620
▁سونالی	-13621
▁ناخوشگوار	-13622
▁اضا	-13623
▁مثالیں	-13624
af	-13625
▁معائنے	-13626
▁کوتاہی	-13627
▁گھمبیر	-13628
یمنز	-13629
▁لنڈ	-13630
▁نیتی	-13631
▁پختہ	-13632
▁والٹن	-13633
▁کرچکا	-13634
▁ہےن	-13635
ہوم	-13636
▁تلک	-13637
▁ریحام	-13638
▁ستاون	-13639
▁ہےتاہم	-13640
▁بیشک	-13641
▁قوتوں	-13642
▁نگہداشت	-13643
شنا	-13644
ینس	-13645
▁بھون	-13646
▁دلوانے	-13647
▁پوز	-13648
▁مزین	-13649
▁اعلانیہ	-13650
▁سارو	-13651
▁شپنگ	-13652
▁گیلی	-13653
دنیانیوز	-13654
غانی	-13655
ri	-13656
نسی	-13657
▁اسپیل	-13658
▁عابدہ	-13659
▁سیکریٹ	-13660
۴۶	-13661
لوگوں	-13662
▁مراسلہ	-13663
▁پاٹیکر	-13664
▁لاہورڈیلی	-13665
صنعت	-13666
▁لہروں	-13667
▁کاکردگی	-13668
▁روپی	-13669
▁سنانے	-13670
کئی	-13671
▁رشتوں	-13672
چوہ	-13673
گھنٹوں	-13674
▁سپورٹنگ	-13675
▁شائی	-13676
▁بھنڈی	-13677
▁فیٹ	-13678
▁دیوانوں	-13679
▁صدمے	-13680
▁ٹوبہ	-13681
▁لودگی	-13682
▁رنگیلا	-13683
▁تھاپاکستان	-13684
▁اٹھی	-13685
▁پھلی	-13686
▁کائونٹی	-13687
نکیا	-13688
▁حدیں	-13689
▁کارمد	-13690
▁بنادیا	-13691
▁بانٹ	-13692
▁یوایس	-13693
نصف	-13694
▁ہچکچ	-13695
▁ہیںاب	-13696
▁ہیںفوٹو	-13697
تیل	-13698
▁طلبی	-13699
▁p	-13700
ٹسمین	-13701
▁پینتھر	-13702
▁اظفر	-13703
▁ادھورا	-13704
▁اتش	-13705
▁ببل	-13706
▁ساہی	-13707
امریکہ	-13708
▁ہسٹری	-13709
▁چاٹ	-13710
▁بیونس	-13711
▁انٹرپرائز	-13712
▁خیم	-13713
▁لعل	-13714
▁ہتھک	-13715
▁ادھار	-13716
▁ٹوک	-13717
سٹرنگ	-13718
▁ویرے	-13719
▁بمشکل	-13720
▁ایمپل	-13721
▁گیلری	-13722
ٹوں	-13723
بائیجان	-13724
▁کہناہے	-13725
ٹما	-13726
▁مبذول	-13727
▁تھےانہوں	-13728
▁تنازعے	-13729
راچی	-13730
▁برین	-13731
کامران	-13732
▁فلکیات	-13733
▁پہننا	-13734
▁ابوبکر	-13735
▁ذرات	-13736
▁دھاگے	-13737
▁مارکل	-13738
شرت	-13739
▁اوک	-13740
شہریار	-13741
▁پخت	-13742
▁مانند	-13743
▁ٹوائلٹ	-13744
▁صل	-13745
▁پیشے	-13746
یدی	-13747
▁یم	-13748
▁ممبئیا	-13749
▁ایمبیسی	-13750
ریفی	-13751
▁سلہ	-13752
▁خبرکو	-13753
شکریہ	-13754
▁پھیپھڑوں	-13755
▁پیپاکستان	-13756
▁جاے	-13757
▁ادکار	-13758
▁تصویروں	-13759
▁شاہراہوں	-13760
▁سے۔	-13761
▁ولادی	-13762
▁دیکھیے	-13763
▁پشنز	-13764
▁ترکیب	-13765
▁شمعون	-13766
▁ہضم	-13767
▁ایکٹو	-13768
▁ملان	-13769
▁مہار	-13770
▁ڈھاک	-13771
▁پٹیشن	-13772
▁رکے	-13773
▁توسی	-13774
▁تھاپ	-13775
▁عرفات	-13776
▁فکسڈ	-13777
▁تائیکوانڈو	-13778
▁جانو	-13779
▁پرافٹ	-13780
ونیا	-13781
▁جیمی	-13782
▁گاجر	-13783
وٹکس	-13784
▁ارض	-13785
▁۱۷۵	-13786
▁پانا	-13787
▁اونچائی	-13788
▁ورزیوں	-13789
▁اوا	-13790
▁۱۵۱	-13791
▁تقاریب	-13792
گڑھ	-13793
▁پٹائی	-13794
▁سپرنٹنڈنٹ	-13795
▁رکھیں۔	-13796
▁خلیات	-13797
▁نائٹرو	-13798
انڈیا	-13799
▁کیجیے	-13800
جبسٹن	-13801
▁مکالمہ	-13802
▁شادیاں	-13803
▁پیٹرک	-13804
▁کوکنگ	-13805
▁چنانچہ	-13806
▁کرونگا	-13807
شاع	-13808
▁سہانا	-13809
▁P	-13810
▁لاستھ	-13811
▁مثلاً	-13812
▁پیپرز	-13813
▁لیجنڈز	-13814
▁ترکش	-13815
▁دیار	-13816
▁اترتے	-13817
▁سسپنس	-13818
فخر	-13819
▁دے۔	-13820
▁مخر	-13821
▁سوہا	-13822
▁ہارس	-13823
▁سومرو	-13824
▁صحتیابی	-13825
وجہ	-13826
▁سمبا	-13827
رافٹ	-13828
▁چائنیز	-13829
▁اقلیتوں	-13830
▁بیگز	-13831
▁سپرا	-13832
▁غذائیت	-13833
▁لپ	-13834
▁اوکے	-13835
▁رفعت	-13836
▁ٹوٹا	-13837
▁تنبیہ	-13838
▁پہنچتا	-13839
▁ڈیلیوری	-13840
کریج	-13841
۲۰۰	-13842
مص	-13843
▁s	-13844
▁زب	-13845
گوسن	-13846
معاشی	-13847
▁برون	-13848
▁ایام	-13849
▁گویا	-13850
▁اجتماع	-13851
▁سیاروں	-13852
▁زیارت	-13853
▁سلپ	-13854
▁ہےع	-13855
▁بیکار	-13856
▁رجحانات	-13857
سٹین	-13858
▁رہنماوں	-13859
▁لڑیں	-13860
ولیا	-13861
▁سواروں	-13862
▁زمائی	-13863
فروی	-13864
▁کاز	-13865
▁گاوں	-13866
▁کارخانوں	-13867
وندا	-13868
▁کھٹ	-13869
▁صدمہ	-13870
▁تھییہ	-13871
▁بیلاروس	-13872
خیز	-13873
▁۱۶۵	-13874
واروں	-13875
▁کمسن	-13876
▁سرپرست	-13877
▁سیڑھی	-13878
▁معیشتوں	-13879
▁تنوشری	-13880
▁قطاریں	-13881
▁جلانے	-13882
▁۲۲۵	-13883
▁گواہی	-13884
▁ہےمحمد	-13885
▁سٹرکچر	-13886
▁اوڈ	-13887
▁۱۳۷	-13888
▁تندر	-13889
کئے	-13890
سونے	-13891
▁ڈیرے	-13892
▁اسٹروک	-13893
▁موٹرسائیکل	-13894
▁ساج	-13895
▁فگر	-13896
▁نکلنا	-13897
▁وینٹی	-13898
▁روشناس	-13899
▁۱۵۶	-13900
▁منال	-13901
▁شاستری	-13902
ٹیکنالوجی	-13903
یاداکارہ	-13904
▁بنگلادیشی	-13905
سعید	-13906
▁شارک	-13907
▁تھامزید	-13908
▁جاو	-13909
ابھارت	-13910
▁ٹوئنکل	-13911
▁شائق	-13912
▁ملنی	-13913
▁ٹیکر	-13914
▁پستول	-13915
غہ	-13916
▁۱۳۱	-13917
الرح	-13918
▁سدھار	-13919
▁کیایہ	-13920
▁مکالمے	-13921
عبد	-13922
انسہ	-13923
ائیگا	-13924
▁برگر	-13925
▁محلے	-13926
▁بیسن	-13927
ثرت	-13928
▁محترم	-13929
▁پتنگ	-13930
▁گاتے	-13931
▁ڈویلیئرز	-13932
ُم	-13933
▁سٹون	-13934
▁بوئنگ	-13935
▁رکھنی	-13936
▁کوبھی	-13937
▁ڈونی	-13938
▁تھامے	-13939
▁پتھروں	-13940
پتن	-13941
▁۴۵۰	-13942
▁شانہ	-13943
▁فالج	-13944
▁سوگ	-13945
▁بیوہ	-13946
▁راجی	-13947
▁موڈی	-13948
▁کینال	-13949
▁نبھائے	-13950
▁نمائشوں	-13951
▁۱۳۶	-13952
▁تعزیتی	-13953
▁میں۶	-13954
▁کرئے	-13955
دفریدی	-13956
▁ہجرت	-13957
▁نابین	-13958
▁۱۳۳	-13959
▁خزاں	-13960
▁آٹا	-13961
▁نوویک	-13962
▁افیئرز	-13963
▁بارودی	-13964
طرنج	-13965
▁جھلس	-13966
▁وردی	-13967
▁تسکین	-13968
▁ممبئیبھارتی	-13969
ئوف	-13970
▁عمرے	-13971
▁اتری	-13972
▁اورہ	-13973
▁سشمیتا	-13974
▁بیجوں	-13975
▁رٹیکل	-13976
ڈیوسر	-13977
▁ڈھان	-13978
▁گرتے	-13979
▁دیکھا۔	-13980
▁پروپیگنڈا	-13981
▁میں۳	-13982
▁سینٹس	-13983
▁جنتا	-13984
▁روبوٹک	-13985
▁دیکھیں۔	-13986
▁اشاعت	-13987
▁ورسٹائل	-13988
▁اینگل	-13989
▁مرحومہ	-13990
▁مصطفیٰ	-13991
▁نگاروں	-13992
پرنٹ	-13993
ڈرامے	-13994
▁اسیکیوٹر	-13995
ing	-13996
جھے	-13997
▁سرفرازاحمد	-13998
▁ریجنز	-13999
▁گاڈ	-14000
▁بولوں	-14001
▁تعلیمات	-14002
▁وانگ	-14003
غل	-14004
ازمین	-14005
▁سٹوریج	-14006
کھلا	-14007
▁حدیقہ	-14008
▁تھےان	-14009
▁سرپلس	-14010
▁کمیٹیاں	-14011
زدگی	-14012
▁نائیک	-14013
شہباز	-14014
▁بنوانے	-14015
▁کرتب	-14016
▁کورڈ	-14017
▁ایشانت	-14018
▁گلف	-14019
▁قاہرہ	-14020
▁ہیںاگر	-14021
▁نیکسٹ	-14022
▁ہوائیں	-14023
▁پروسیسر	-14024
▁شنکر	-14025
غرا	-14026
▁پوٹر	-14027
▁اکھٹا	-14028
▁طول	-14029
▁متوسط	-14030
▁اینڈری	-14031
▁فرگوسن	-14032
▁تاجکستان	-14033
▁تربیلا	-14034
فرڈ	-14035
▁جلی	-14036
ئوں	-14037
ہیم	-14038
▁ستھر	-14039
▁بروکریج	-14040
تب	-14041
کلی	-14042
▁اورپ	-14043
▁گاپی	-14044
op	-14045
مرکزی	-14046
کلیئر	-14047
▁براعظم	-14048
▁مذید	-14049
امور	-14050
▁ہرش	-14051
▁مطالعے	-14052
▁ہوٹلوں	-14053
▁مائنڈ	-14054
مداح	-14055
▁ہواہے	-14056
▁پیمائش	-14057
▁زندگیاں	-14058
▁ٹل	-14059
▁املاک	-14060
▁کرنا۔	-14061
▁کلونی	-14062
ورفت	-14063
▁جھنڈا	-14064
علاج	-14065
▁جست	-14066
لائنز	-14067
▁ھوں	-14068
▁وکرم	-14069
▁رنگنا	-14070
▁ٹیکنگ	-14071
▁تقدیر	-14072
▁عطیات	-14073
▁کرسٹوفر	-14074
▁برنز	-14075
▁جلتی	-14076
▁حلیم	-14077
▁سکینہ	-14078
▁شلوار	-14079
تیک	-14080
▁اوریہ	-14081
▁اجنکیا	-14082
▁مارکیٹیں	-14083
دیجہ	-14084
▁ایشیاکپ	-14085
▁چوکی	-14086
▁پلوامہ	-14087
▁مانسہرہ	-14088
انیا	-14089
▁کویتی	-14090
کتاہے	-14091
▁فطری	-14092
▁گیاپاکستان	-14093
▁خانوں	-14094
ریان	-14095
▁سکار	-14096
▁فینٹ	-14097
▁کماد	-14098
▁گاانہوں	-14099
▁بارشیں	-14100
▁دروازوں	-14101
▁کنفیڈریشن	-14102
▁لگاتا	-14103
▁ائرپورٹ	-14104
▁سبک	-14105
▁سسرال	-14106
لّ	-14107
▁رہیا	-14108
▁زویا	-14109
▁سٹوری	-14110
▁فریضہ	-14111
▁قدیمہ	-14112
▁تخمین	-14113
چھکے	-14114
▁ٹنل	-14115
شاہین	-14116
▁سنیپ	-14117
▁راکیش	-14118
▁فنون	-14119
▁قافلے	-14120
me	-14121
▁آؤ	-14122
▁بچنا	-14123
▁نواں	-14124
▁کارڈی	-14125
▁ریاضی	-14126
▁۲۵۶	-14127
▁آفیسر	-14128
▁بہنیں	-14129
بیل	-14130
▁فروشی	-14131
▁ہوت	-14132
یابین	-14133
▁آئیں	-14134
▁لکھاری	-14135
▁یونیفارم	-14136
▁لمحوں	-14137
▁موسلا	-14138
▁بسی	-14139
▁ازسر	-14140
▁وڑائچ	-14141
▁خلل	-14142
▁آپری	-14143
▁میٹنگز	-14144
▁بتادیا	-14145
▁برائیڈل	-14146
▁کروادیا	-14147
▁ڈومینک	-14148
▁یوروکی	-14149
▁جائےگا	-14150
▁جیونیوز	-14151
▁دید	-14152
▁پرچون	-14153
ائت	-14154
▁ہرج	-14155
▁ورکر	-14156
▁کعبہ	-14157
▁سیریلز	-14158
قائد	-14159
▁کربر	-14160
▁کردا	-14161
عالمین	-14162
▁ٹرم	-14163
▁مکین	-14164
ادوسرے	-14165
▁تینتالیس	-14166
▁مشہ	-14167
▁بولان	-14168
▁رونماء	-14169
▁حمائمہ	-14170
▁سیکھیں	-14171
▁لئی	-14172
ایسا	-14173
▁ازما	-14174
▁سننا	-14175
▁نواک	-14176
▁امبانی	-14177
کاشت	-14178
▁روٹس	-14179
▁اجائے	-14180
▁نابینا	-14181
▁ہیںاسی	-14182
امیہ	-14183
▁الن	-14184
▁جرح	-14185
▁پکانے	-14186
▁مرتضیٰ	-14187
▁شیشہ	-14188
▁دھمال	-14189
▁سربین	-14190
▁موقعہ	-14191
▁رڈیننس	-14192
▁رونالڈین	-14193
▁نیلی	-14194
َر	-14195
▁وارداتوں	-14196
▁تقاضا	-14197
یرت	-14198
▁پنو	-14199
▁کچرے	-14200
▁جنری	-14201
▁زحمت	-14202
▁ونڈر	-14203
سیوں	-14204
▁اسجد	-14205
مٹ	-14206
ےں	-14207
▁جوب	-14208
▁زما	-14209
شیائی	-14210
کلب	-14211
▁۱۴۲	-14212
▁بابو	-14213
▁مشینیں	-14214
▁منیجرز	-14215
▁پیلس	-14216
▁ہیںر	-14217
▁ھے۔	-14218
▁بسنے	-14219
▁رنگٹ	-14220
▁میلا	-14221
▁ایگزیکٹ	-14222
▁بازیابی	-14223
▁ملازمتیں	-14224
رویز	-14225
تبی	-14226
▁اٹا	-14227
▁تاپ	-14228
▁نوجوت	-14229
▁سوئیڈن	-14230
▁چیمپئینز	-14231
ثق	-14232
دپیکا	-14233
▁اگروال	-14234
▁لاطینی	-14235
▁ریزولوشن	-14236
انٹس	-14237
▁قیر	-14238
▁اردگرد	-14239
بوز	-14240
سٹرکٹ	-14241
▁ریتک	-14242
▁گردے	-14243
▁کلائی	-14244
▁سبسکرائب	-14245
▁ورما	-14246
▁ایکسٹر	-14247
▁باہم	-14248
▁رتنے	-14249
▁غیاث	-14250
▁ہارم	-14251
re	-14252
▁شش	-14253
وبیا	-14254
▁ٹوٹے	-14255
ائدہ	-14256
▁قران	-14257
▁کراس	-14258
▁حویلی	-14259
کیس	-14260
▁سینتالیس	-14261
مدار	-14262
▁ولید	-14263
▁بھاشا	-14264
▁ٹیبلٹ	-14265
▁خودمخت	-14266
تناب	-14267
▁رپ	-14268
▁ہےفیس	-14269
▁ناش	-14270
▁ریٹر	-14271
جھا	-14272
ہام	-14273
▁توڑتے	-14274
▁پاکپتن	-14275
بد	-14276
▁تھما	-14277
اگلے	-14278
▁جوابی	-14279
▁پلیسی	-14280
is	-14281
منا	-14282
ہدف	-14283
▁بکو	-14284
▁گوٹھ	-14285
▁دوکان	-14286
صحت	-14287
ئندہ	-14288
▁تھرونز	-14289
▁پیاروں	-14290
▁بدتر	-14291
▁ریمبو	-14292
▁پہلوں	-14293
فقت	-14294
وسری	-14295
▁ائیرل	-14296
▁مادے	-14297
▁صدقے	-14298
▁دلاور	-14299
فرم	-14300
▁مستی	-14301
▁امسال	-14302
▁مشقیں	-14303
مارا	-14304
▁ویگنر	-14305
▁سیلفیاں	-14306
▁سپورٹسسپورٹس	-14307
▁وزٹ	-14308
▁ویری	-14309
▁سلطانہ	-14310
▁ایجبسٹن	-14311
▁بکھر	-14312
یان	-14313
▁طیفا	-14314
▁نگاری	-14315
▁اجتناب	-14316
زخ	-14317
▁پیمنٹ	-14318
▁ہائیر	-14319
▁انکل	-14320
▁نجہانی	-14321
ایسے	-14322
▁سکینڈ	-14323
موم	-14324
کھوں	-14325
▁الجز	-14326
▁جائیگ	-14327
▁پرسنل	-14328
سنچریاں	-14329
▁میراڈونا	-14330
▁جیلانی	-14331
ونم	-14332
شاہی	-14333
▁پرین	-14334
▁ہرگز	-14335
▁داماد	-14336
▁کاسامنا	-14337
▁لاہورائی	-14338
▁لینتھ	-14339
▁اندیشہ	-14340
▁فلپس	-14341
▁چٹان	-14342
▁بڑھوتری	-14343
ھائی	-14344
▁لاڈ	-14345
▁ڈوڈل	-14346
ریمانے	-14347
▁c	-14348
▁ٹس	-14349
حف	-14350
ہیرو	-14351
ارڈز	-14352
صوبے	-14353
▁شطرنج	-14354
▁کروادی	-14355
▁پارہ	-14356
▁انگریز	-14357
▁باسٹھ	-14358
ابتدائی	-14359
▁پوچھتے	-14360
▁کرگئیں	-14361
▁بانس	-14362
▁طع	-14363
▁کاغاز	-14364
ایشین	-14365
▁زادانہ	-14366
میاں	-14367
▁تکافل	-14368
▁مسکرا	-14369
کرپشن	-14370
▁ایوش	-14371
▁نقی	-14372
▁ردھم	-14373
▁ہےسری	-14374
▁افق	-14375
▁بیز	-14376
▁ٹھان	-14377
▁گلیمر	-14378
وٹے	-14379
▁اورء	-14380
شہزاد	-14381
ابلے	-14382
▁جلتے	-14383
▁گےپی	-14384
▁کمارا	-14385
▁قو	-14386
▁۱۲۹	-14387
دوسرا	-14388
▁دھاک	-14389
▁گواہان	-14390
▁معاوضوں	-14391
▁نکتہ	-14392
▁تھرنگا	-14393
▁پینسٹھ	-14394
▁زنج	-14395
▁پھیلائی	-14396
۵۰۰	-14397
ناطی	-14398
▁فرنٹی	-14399
اسکتے	-14400
▁اقتص	-14401
▁فینٹسی	-14402
▁اسٹرائیک	-14403
پتا	-14404
▁دعو	-14405
▁عرض	-14406
▁ریپبل	-14407
ٹھا	-14408
▁سانڈ	-14409
▁ڈیپارٹمنٹل	-14410
بیٹسمین	-14411
▁۱۵۸	-14412
▁خلجی	-14413
سنر	-14414
▁اِن	-14415
ذربائیجان	-14416
امکس	-14417
امیت	-14418
▁ریموٹ	-14419
▁مزیدار	-14420
▁گزارتے	-14421
▁انوسٹمنٹ	-14422
یفے	-14423
▁پیٹا	-14424
▁جیلوں	-14425
▁لیویز	-14426
▁ہٹائے	-14427
▁آزادی	-14428
▁سینماں	-14429
▁گزاریں	-14430
▁ای۱۰۰انڈیکس	-14431
فتح	-14432
▁سنیں	-14433
▁غضنفر	-14434
▁انجہانی	-14435
▁ارن	-14436
▁رستم	-14437
▁تجزیے	-14438
▁پلڑا	-14439
▁ہنسنے	-14440
▁مدافعت	-14441
▁جڈی	-14442
▁شاء	-14443
▁کارنامے	-14444
▁الام	-14445
▁گاہک	-14446
▁ادیتی	-14447
▁قیراط	-14448
▁کریںگے	-14449
▁گیااس	-14450
▁کھدائی	-14451
▁۱۵۳	-14452
▁پردی	-14453
▁کندھ	-14454
▁۱۷۱	-14455
▁صباء	-14456
▁رگنائزنگ	-14457
▁مہاراشٹر	-14458
ld	-14459
مینٹ	-14460
▁نمرہ	-14461
ڈپٹی	-14462
▁علمائے	-14463
معین	-14464
کوبھی	-14465
▁ایٹم	-14466
▁پالے	-14467
▁فلیچر	-14468
▁اسٹریا	-14469
▁پہنچائی	-14470
وکر	-14471
▁سوچی	-14472
▁محنتی	-14473
▁اسکالر	-14474
▁واٹلنگ	-14475
▁کھائیں	-14476
▁توا	-14477
اشرف	-14478
▁ابائی	-14479
▁ٹورنا	-14480
▁افغانی	-14481
▁سیدہ	-14482
▁نقدی	-14483
▁منشور	-14484
لفی	-14485
▁کچل	-14486
▁ہیںج	-14487
چنگ	-14488
▁تاو	-14489
▁۲۴۰	-14490
▁بھکر	-14491
گیشن	-14492
▁بوٹیاں	-14493
وحید	-14494
▁بھونک	-14495
▁اسٹینڈرڈ	-14496
خات	-14497
▁غیرمعمولی	-14498
قیس	-14499
▁ٹکڑوں	-14500
فیشل	-14501
▁چنیوٹ	-14502
▁کرسٹن	-14503
▁ٹریبیونل	-14504
وڈا	-14505
اکشے	-14506
▁ہاروی	-14507
▁لر	-14508
▁ملاوٹ	-14509
وبا	-14510
▁نمونوں	-14511
▁ہےعالمی	-14512
▁جدیجہ	-14513
▁وعلیکم	-14514
فف	-14515
ھڑ	-14516
▁نوک	-14517
▁کران	-14518
▁ہدایتکارہ	-14519
ختم	-14520
سیکرٹری	-14521
۵۷	-14522
▁لاپرو	-14523
▁پھیلاؤ	-14524
اپاکستان	-14525
اتوار	-14526
▁تفریق	-14527
تحدہ	-14528
سازی	-14529
▁پوچھیں	-14530
فرق	-14531
▁ثروت	-14532
▁مائن	-14533
▁دلاتے	-14534
ائبر	-14535
▁اورع	-14536
▁کبوتر	-14537
▁کہنی	-14538
▁تیونس	-14539
▁گیمنگ	-14540
▁زوردار	-14541
▁کیرئر	-14542
ِّ	-14543
▁۱۷۲	-14544
▁نومبراردو	-14545
صوبہ	-14546
▁ماموں	-14547
▁ہیںجن	-14548
▁سٹینڈ	-14549
▁دکھاتا	-14550
▁مینٹور	-14551
▁فارمولے	-14552
▁مچھلیوں	-14553
۰۰۰	-14554
▁۱۶۴	-14555
▁جینز	-14556
▁خلیفہ	-14557
▁لغاری	-14558
pakistan	-14559
▁عازمین	-14560
▁بھومی	-14561
▁ٹیوشنز	-14562
▁پرنٹنگ	-14563
us	-14564
▁غب	-14565
▁ویٹرن	-14566
▁اسپائیڈر	-14567
▁برقع	-14568
▁مشی	-14569
▁چڑھائو	-14570
▁سکہ	-14571
▁ورثہ	-14572
▁شوبزڈیسک	-14573
▁جنجو	-14574
▁کومب	-14575
▁پرج	-14576
جسارت	-14577
▁ملبہ	-14578
▁ڈیوی	-14579
▁ربانی	-14580
▁آٹے	-14581
▁باال	-14582
▁تحمل	-14583
ارشد	-14584
عیاری	-14585
▁پاول	-14586
▁گےذرائع	-14587
▁راجن	-14588
▁کارتک	-14589
▁کنسٹر	-14590
▁فہمیدہ	-14591
▁ہےاپنے	-14592
▁اورن	-14593
▁میتھڈ	-14594
▁برفانی	-14595
فاظت	-14596
▁ثم	-14597
وریم	-14598
▁اےن	-14599
▁۱۵۷	-14600
▁میرین	-14601
▁کاسمی	-14602
▁نظریاتی	-14603
لوص	-14604
▁زا	-14605
▁یز	-14606
▁ارش	-14607
▁محرو	-14608
▁گاذرائع	-14609
ہونے	-14610
▁اورر	-14611
▁سندیپ	-14612
▁پب	-14613
▁ایرک	-14614
نڈل	-14615
▁اندھا	-14616
▁پیدوار	-14617
▁پیارا	-14618
پیز	-14619
▁وقتا	-14620
▁لوشیا	-14621
▁بیانیہ	-14622
منہ	-14623
کرنا	-14624
▁آگاہ	-14625
▁پکڑی	-14626
▁اپٹما	-14627
▁زیورخ	-14628
▁ایو	-14629
▁بجکر	-14630
▁ڈپلو	-14631
▁جمایا	-14632
▁فورتھ	-14633
ہفتے	-14634
▁تنصیبات	-14635
▁وینزویلا	-14636
▁پٹواریوں	-14637
▁ایٹر	-14638
▁تابڑ	-14639
▁لانڈ	-14640
سٹریلی	-14641
▁انمول	-14642
▁نرسری	-14643
▁ئرن	-14644
▁دلاتا	-14645
▁نیوالی	-14646
لال	-14647
▁جننگ	-14648
▁ڈلیوری	-14649
▁زہرہ	-14650
للہ	-14651
انٹربینک	-14652
▁اکہ	-14653
۰۵	-14654
▁رکا	-14655
فٹبال	-14656
▁مذاکر	-14657
▁مسودے	-14658
▁موسیق	-14659
▁جاوں	-14660
▁پلازہ	-14661
▁بھرمیں	-14662
▁کرنیوالوں	-14663
▁کرنیکی	-14664
اسکور	-14665
▁کھود	-14666
▁انگلیاں	-14667
▁کریش	-14668
▁حرکتوں	-14669
▁آفت	-14670
▁۱۴۱	-14671
▁لیزا	-14672
▁جنجوعہ	-14673
▁ہےکراچی	-14674
منون	-14675
▁غیری	-14676
▁میلو	-14677
▁جمانے	-14678
▁دوبئی	-14679
▁نکلتا	-14680
▁کوڑے	-14681
▁نارووال	-14682
▁ٹرانسفار	-14683
▁رضاکارانہ	-14684
▁نوکریاں	-14685
▁ڈبے	-14686
▁لڑکھ	-14687
▁سرطان	-14688
▁رائیڈر	-14689
▁عمراکمل	-14690
▁چڑی	-14691
▁ظہر	-14692
▁نوچ	-14693
▁ٹھکرا	-14694
▁سمیٹنے	-14695
ائمز	-14696
▁رابن	-14697
گورنر	-14698
▁شاباش	-14699
ٹیمیں	-14700
▁جوانی	-14701
چیمپئن	-14702
▁کھولی	-14703
▁ہوئیا	-14704
▁سکھایا	-14705
▁گاد	-14706
▁کرتار	-14707
مینی	-14708
▁ائن	-14709
▁ایمز	-14710
▁بیزل	-14711
▁۱۳۴	-14712
▁جوڑنے	-14713
"""	-14714
▁باجوڑ	-14715
▁رائزرز	-14716
فان	-14717
▁کتب	-14718
▁قراردیا	-14719
▁یوکرائن	-14720
▁پوا	-14721
میٹیڈ	-14722
▁بشانہ	-14723
▁پیکنگ	-14724
▁کہا۔	-14725
▁کرفیو	-14726
▁رانج	-14727
▁فریز	-14728
افتتاح	-14729
▁ترن	-14730
▁بحیرہ	-14731
▁میٹھی	-14732
اطلاعات	-14733
ستقبل	-14734
▁علیل	-14735
▁خرا	-14736
▁غیریقینی	-14737
ent	-14738
▁ہیڈکوارٹر	-14739
▁کپا	-14740
نکس	-14741
سلیم	-14742
▁گےا	-14743
وڈنٹس	-14744
▁دلیر	-14745
▁دگنا	-14746
▁بالاد	-14747
جموعی	-14748
▁گلوب	-14749
▁ڈاسن	-14750
ایجنسی	-14751
▁عاشقی	-14752
▁ریسورس	-14753
▁f	-14754
▁میوچ	-14755
▁تھیلا	-14756
▁ولادت	-14757
▁کیوجہ	-14758
▁کافیصلہ	-14759
سود	-14760
▁رائج	-14761
▁شعاع	-14762
▁گوار	-14763
▁بریکنگ	-14764
فنی	-14765
گولڈ	-14766
▁کٹنگ	-14767
▁ناگوار	-14768
▁مجرمانہ	-14769
▁اوے	-14770
▁ڈیتھ	-14771
ہوا	-14772
▁قمیض	-14773
▁گھیا	-14774
سپر	-14775
▁بہہ	-14776
▁کولی	-14777
▁ہونٹوں	-14778
▁موٹے	-14779
▁ڈرتے	-14780
▁میںکی	-14781
▁نکاسی	-14782
بڑھ	-14783
▁ونی	-14784
▁ہریتک	-14785
▁بیلجیم	-14786
▁ڈھل	-14787
▁فاتحہ	-14788
▁مہندر	-14789
▁انگلیوں	-14790
سینا	-14791
▁سویابین	-14792
▁برسا	-14793
غت	-14794
▁گرگیا	-14795
▁رسیدہ	-14796
▁ودیگر	-14797
▁داع	-14798
▁عیادت	-14799
▁اوساکا	-14800
▁گیانہوں	-14801
▁امریکیوں	-14802
▁لاہوراردوپوائنٹ	-14803
▁مندوب	-14804
▁دیکھوں	-14805
▁کاشکار	-14806
چھے	-14807
ڈری	-14808
▁جھا	-14809
▁کواٹر	-14810
▁استعما	-14811
فیفا	-14812
▁ہیما	-14813
▁جزو	-14814
▁باجود	-14815
▁رویوں	-14816
▁منٹوں	-14817
▁نیوالے	-14818
لوک	-14819
بلال	-14820
▁تشریح	-14821
▁کفایت	-14822
▁۱۴۷	-14823
▁بیسڈ	-14824
▁کولڈ	-14825
کردار	-14826
▁انتھونی	-14827
ختت	-14828
▁خدیجہ	-14829
▁عارضے	-14830
▁مارنا	-14831
▁مسیحی	-14832
▁یاداشت	-14833
▁ممبئیویب	-14834
اہب	-14835
▁فیکٹ	-14836
▁نامزدگیوں	-14837
▁حش	-14838
▁محبوبہ	-14839
▁الک	-14840
▁سوک	-14841
فاریکس	-14842
▁گےخیال	-14843
▁فیکٹریاں	-14844
▁وویمن	-14845
▁صنفی	-14846
▁عالی	-14847
▁گھوش	-14848
دران	-14849
ارہوا	-14850
دوران	-14851
▁لنگر	-14852
▁نشانی	-14853
▁التواء	-14854
تار	-14855
▁بخشی	-14856
▁کوالکوم	-14857
▁تیا	-14858
▁بچاؤ	-14859
▁پلنکٹ	-14860
▁نوازشریف	-14861
▁ھا	-14862
▁تجسس	-14863
▁مصحف	-14864
نگرانی	-14865
فیشن	-14866
▁قطع	-14867
تیزی	-14868
▁دالیں	-14869
▁کھائے	-14870
▁پاوں	-14871
▁ایمبیس	-14872
▁اچھال	-14873
▁ٹینکر	-14874
▁کیبلز	-14875
▁کھیلتی	-14876
▁ٹون	-14877
▁خیالی	-14878
▁ہےانہوںنے	-14879
اسکے	-14880
تیوں	-14881
▁پارکس	-14882
▁بلغاریہ	-14883
▁مسلط	-14884
▁اسپرٹ	-14885
▁بیماریاں	-14886
عمال	-14887
▁شٹر	-14888
▁بلنگ	-14889
▁عشرت	-14890
رہو	-14891
▁اٹلس	-14892
▁وشال	-14893
▁نکاتی	-14894
▁لاہورکلچرل	-14895
ہمیں	-14896
▁روانی	-14897
▁ارمینا	-14898
احسن	-14899
▁تاپسی	-14900
▁ٹریکنگ	-14901
▁ہاسز	-14902
▁سسٹمز	-14903
راپی	-14904
▁اڑی	-14905
▁چاق	-14906
▁اسٹروکس	-14907
▁چیمپئنزٹرافی	-14908
آخر	-14909
▁رہام	-14910
▁سیمونا	-14911
▁چھپائی	-14912
ثانیہ	-14913
▁سمجھدار	-14914
ائنٹس	-14915
▁پانامہ	-14916
بلوچستان	-14917
صور	-14918
▁اورز	-14919
▁اوریجنل	-14920
ولوجی	-14921
▁ماڈرن	-14922
▁میکولم	-14923
▁ویٹرنز	-14924
▁اخلاقیات	-14925
▁ٹھاک	-14926
▁لونگ	-14927
▁کپڑا	-14928
▁العین	-14929
▁بارود	-14930
▁مقررین	-14931
بنٹ	-14932
مرل	-14933
▁فنکارہ	-14934
▁ایرو	-14935
▁مصالح	-14936
▁گوس	-14937
▁صبور	-14938
چوہدری	-14939
▁انگرام	-14940
▁لیونارڈو	-14941
گلہ	-14942
▁لارڈ	-14943
▁کردئیے	-14944
لائے	-14945
▁یانگ	-14946
شکا	-14947
تاری	-14948
▁یارن	-14949
▁تصویری	-14950
ونیم	-14951
▁مینا	-14952
▁گواہوں	-14953
بیلا	-14954
▁ٹوٹی	-14955
▁کثرت	-14956
▁تعریفوں	-14957
▁تھاواضح	-14958
▁اشنا	-14959
▁کمان	-14960
ابد	-14961
سانہ	-14962
▁ڈوبنے	-14963
▁ثواب	-14964
▁چےئر	-14965
▁ناہید	-14966
▁۱۶۱	-14967
▁داعش	-14968
▁سوفٹ	-14969
▁پاتی	-14970
▁زنجیر	-14971
کوہ	-14972
▁میو	-14973
▁بجانے	-14974
یام	-14975
▁عصمت	-14976
▁سواتی	-14977
امیڈی	-14978
▁مٹھی	-14979
▁کچہری	-14980
۰۷	-14981
ائیٹ	-14982
▁نندی	-14983
الڈ	-14984
▁عابدی	-14985
▁متنبہ	-14986
ندوستانی	-14987
ختر	-14988
▁نوبال	-14989
▁ریفارم	-14990
حا	-14991
رہیں	-14992
▁شیامی	-14993
▁دلوائی	-14994
▁بیوروکری	-14995
▁آدھے	-14996
▁سوچے	-14997
▁the	-14998
▁وبر	-14999
▁عکسبند	-15000
▁انٹرن	-15001
▁ولیمہ	-15002
بم	-15003
۵۸	-15004
ھراں	-15005
▁چپل	-15006
▁منوج	-15007
▁رولنگ	-15008
▁گئیجس	-15009
▁دیے۔	-15010
▁ہارا	-15011
▁انجرڈ	-15012
▁ہیڈنگ	-15013
بیٹ	-15014
▁سیونگز	-15015
▁آہو	-15016
▁ببر	-15017
▁تلق	-15018
حکومتی	-15019
▁محتسب	-15020
▁شیٹی	-15021
▁رانچی	-15022
▁مصدقہ	-15023
▁ڈویڑن	-15024
▁سٹاکس	-15025
▁سرچارج	-15026
▁جونیئرز	-15027
▁تخت	-15028
▁بلور	-15029
▁چشتی	-15030
▁پورٹر	-15031
▁اقتصاد	-15032
▁ایمریٹس	-15033
▁ایموجیز	-15034
▁برادران	-15035
جنید	-15036
▁آئل	-15037
▁رچی	-15038
▁آڈیو	-15039
▁متھن	-15040
▁کیمبر	-15041
▁اورمحمد	-15042
▁سہگل	-15043
▁معمو	-15044
▁ورثاء	-15045
▁سرخیوں	-15046
▁ضد	-15047
▁نارک	-15048
کامیابی	-15049
▁خانزادہ	-15050
▁کراچیکراچی	-15051
نگار	-15052
▁ہالز	-15053
▁ریٹرنز	-15054
▁ید	-15055
ینکا	-15056
▁آئے۔	-15057
▁دائود	-15058
▁کلاسز	-15059
▁فیکچررز	-15060
▁مگوئیاں	-15061
▁پہنچائے	-15062
▁چیلنجنگ	-15063
▁اتحادیوں	-15064
▁مگسی	-15065
▁سیٹوں	-15066
سپریم	-15067
▁ملبے	-15068
▁پورن	-15069
▁مفر	-15070
▁آئس	-15071
▁جھاڑ	-15072
▁ٹرنر	-15073
▁تھریمانے	-15074
▁اداکاراؤں	-15075
▁جھی	-15076
▁ڈویلپرز	-15077
دیث	-15078
▁رکو	-15079
احسان	-15080
▁ہےبھارت	-15081
▁ہائیڈروجن	-15082
▁آگئی	-15083
▁فصلات	-15084
▁ریئلٹی	-15085
ونیورسٹی	-15086
▁ہےامریکی	-15087
▁ہےانگلینڈ	-15088
▁برفی	-15089
▁پنکھے	-15090
رٹ	-15091
▁نفی	-15092
▁گھل	-15093
ڈزا	-15094
▁اسمو	-15095
▁بھوپ	-15096
قلندرز	-15097
▁کیپرز	-15098
۵روپے	-15099
ِک	-15100
محمود	-15101
ڈونلڈ	-15102
▁بینرز	-15103
▁پوچھنا	-15104
▁کمپیوٹرائزڈ	-15105
▁بنانی	-15106
▁ممنون	-15107
▁اسف	-15108
▁ہوجانے	-15109
نڈم	-15110
▁راؤنڈ	-15111
▁بلام	-15112
▁اونچا	-15113
▁رخصتی	-15114
▁فیلڈرز	-15115
▁لاہورئی	-15116
▁خبرکوبھی	-15117
▁کنسٹرکشن	-15118
▁جبری	-15119
▁پرتع	-15120
▁نیچرل	-15121
▁یان	-15122
▁کفالت	-15123
شرجیل	-15124
▁منافی	-15125
▁اپنانا	-15126
▁گامزید	-15127
▁نادہندہ	-15128
▁پیکٹ	-15129
▁میوچل	-15130
▁ایورسٹ	-15131
▁گیب	-15132
▁جغرا	-15133
▁کہلا	-15134
▁بالادستی	-15135
▁اعدادوشمارکے	-15136
بریت	-15137
روض	-15138
▁عینک	-15139
▁جنیوا	-15140
▁کنوین	-15141
▁ارڈیننس	-15142
▁ہےڈ	-15143
سبز	-15144
▁لفظی	-15145
شاندار	-15146
▁بدین	-15147
▁قاری	-15148
مبولا	-15149
کرکٹر	-15150
▁گووندا	-15151
▁آپکا	-15152
▁جاسکیں	-15153
ےے	-15154
▁سرتوڑ	-15155
▁تنظیمیں	-15156
رویج	-15157
▁انکلوژر	-15158
▁نکھارنے	-15159
▁پہل	-15160
▁دلہا	-15161
▁تلقین	-15162
اہور	-15163
▁اٹھاون	-15164
▁۲۲۰	-15165
▁ٹکرائیں	-15166
▁جراسک	-15167
▁سیموئلز	-15168
غار	-15169
▁ندی	-15170
▁۱۴۶	-15171
▁پھاڑ	-15172
▁انٹلیک	-15173
▁حادثاتی	-15174
▁مویشیوں	-15175
▁جگانے	-15176
▁ووسٹر	-15177
▁کیوری	-15178
▁کیتھرین	-15179
▁ہیںا	-15180
▁تھکاوٹ	-15181
کریا	-15182
▁باڑی	-15183
▁الحاق	-15184
ترا	-15185
نیس	-15186
ٹرکک	-15187
▁میوہ	-15188
▁میٹھا	-15189
▁کنفرم	-15190
▁گزاری	-15191
▁راہانے	-15192
چور	-15193
▁جرگہ	-15194
▁العالمین	-15195
▁رفا	-15196
▁مکا	-15197
▁سوزا	-15198
ہاکی	-15199
▁سنٹرز	-15200
▁مجتبی	-15201
▁رومز	-15202
▁نہال	-15203
▁وسطیٰ	-15204
▁بھگتنا	-15205
ابیل	-15206
▁عاج	-15207
▁نگل	-15208
▁سلہٹ	-15209
▁مہرین	-15210
▁فنگرپرنٹ	-15211
فیصلہ	-15212
▁مسمار	-15213
▁واسطی	-15214
▁پروقار	-15215
▁نارکوٹکس	-15216
ءسے	-15217
▁ایریاز	-15218
▁دیم	-15219
▁ثمرات	-15220
▁بھڑ	-15221
▁۱۵۴	-15222
▁تراشی	-15223
فلموں	-15224
▁دسمبراردو	-15225
▁ٹرانزیکشنز	-15226
نجو	-15227
لیمنٹ	-15228
▁تالیاں	-15229
▁تعریفیں	-15230
۵۳	-15231
نجم	-15232
▁شاگرد	-15233
▁منطقی	-15234
▁کولمب	-15235
ریئر	-15236
▁جزیرہ	-15237
▁ادویہ	-15238
▁کااعلان	-15239
▁ہوئیں۔	-15240
راقی	-15241
▁کھلو	-15242
اقتصادی	-15243
▁شیط	-15244
شیڈول	-15245
▁اُسے	-15246
▁عصر	-15247
▁کربلا	-15248
▁۱۴۳	-15249
▁فوراً	-15250
▁عیسائی	-15251
لوجی	-15252
▁اخذ	-15253
قانون	-15254
▁امیجز	-15255
▁پختونخو	-15256
ذبذب	-15257
▁مادام	-15258
▁دیکھئے	-15259
▁واشنگ	-15260
▁بنایا۔	-15261
▁خریدیں	-15262
▁گنگا	-15263
▁قدموں	-15264
▁دھات	-15265
▁کیاانہوں	-15266
▁ہائوسنگ	-15267
▁گد	-15268
▁میں۱۰	-15269
عیہ	-15270
▁منتظم	-15271
سٹاگرام	-15272
حصہ	-15273
▁بگاڑ	-15274
▁شملہ	-15275
▁پاپا	-15276
▁سنادی	-15277
▁عشائیہ	-15278
▁ہراسانی	-15279
as	-15280
▁غل	-15281
▁پیجز	-15282
▁پیچیدگی	-15283
▁پاؤ	-15284
▁عاصمہ	-15285
دمیں	-15286
▁آکسی	-15287
▁ٹانگوں	-15288
▁ہےرواں	-15289
ونواح	-15290
▁ذلیل	-15291
▁مصور	-15292
▁ہوسٹ	-15293
▁خوردہ	-15294
▁کرارا	-15295
وئے	-15296
واسطہ	-15297
▁نیکی	-15298
▁پلیس	-15299
▁دبانے	-15300
▁مانگیں	-15301
▁زیرنگرانی	-15302
اہرین	-15303
▁مقناطی	-15304
▁اسٹوڈنٹ	-15305
بڑ	-15306
▁بدلنا	-15307
▁پھیلے	-15308
▁یقیناً	-15309
وہا	-15310
▁سجنے	-15311
▁بدلتی	-15312
▁بیئرسٹو	-15313
▁ہیںدونوں	-15314
▁!!!	-15315
▁سٹیٹس	-15316
▁فارسی	-15317
▁۱۵۲	-15318
▁امبر	-15319
▁ویوو	-15320
▁بندھے	-15321
▁تھیان	-15322
انیٹرنگ	-15323
▁ایڈیٹنگ	-15324
▁صفحے	-15325
▁محرک	-15326
میسی	-15327
▁رڈرز	-15328
▁کافر	-15329
▁میکال	-15330
▁گزرتا	-15331
▁بینائی	-15332
▁کومیلا	-15333
▁چاکلیٹی	-15334
ژنز	-15335
▁سکھا	-15336
▁ٹولز	-15337
▁بکھیرنے	-15338
▁بلک	-15339
▁کاظم	-15340
▁فوٹوز	-15341
▁اوردیگر	-15342
▁ٹخ	-15343
▁خضدار	-15344
▁ئنٹ	-15345
▁عون	-15346
▁ئینی	-15347
▁کنسائ	-15348
میان	-15349
▁گلب	-15350
▁برانچز	-15351
▁لاہور۹۲نیوز	-15352
▁ویزوں	-15353
▁فیوچرز	-15354
ھھھھھھھھ	-15355
▁اونچے	-15356
▁مینار	-15357
لیج	-15358
▁بتی	-15359
▁جواں	-15360
▁ہےائی	-15361
▁ٹرینیں	-15362
aa	-15363
نمبر	-15364
▁روبیل	-15365
▁؟؟	-15366
▁تاک	-15367
▁ایڈمرل	-15368
▁سنچریز	-15369
▁آپشن	-15370
▁فرضی	-15371
ٹریڈنگ	-15372
▁ترویج	-15373
▁کشمکش	-15374
▁شیروانی	-15375
روٹنی	-15376
▁جوکر	-15377
▁میں۷	-15378
▁پائن	-15379
گند	-15380
▁فقط	-15381
▁رومین	-15382
▁ریٹرننگ	-15383
▁ہےورلڈ	-15384
▁ہاہاہاہاہ	-15385
تمادی	-15386
▁بٹور	-15387
▁تاوان	-15388
وسم	-15389
▁جہاد	-15390
▁شراپوا	-15391
▁الیکٹرونکس	-15392
یمی	-15393
▁مدھو	-15394
▁بمراہ	-15395
▁نئ	-15396
▁گمان	-15397
▁ہندسے	-15398
▁گندی	-15399
▁مذاکراتی	-15400
مٰن	-15401
جاتا	-15402
▁دھج	-15403
روا	-15404
▁گندے	-15405
▁زہریلی	-15406
▁بلاٹر	-15407
لوگ	-15408
▁ڈیول	-15409
ٹرنیشنل	-15410
▁تھیتاہم	-15411
اوور	-15412
بیون	-15413
پائر	-15414
▁شقوں	-15415
▁فوقتا	-15416
▁مصنفہ	-15417
اثہ	-15418
قیان	-15419
▁ہےسی	-15420
▁آپریشنز	-15421
▁ناتجربہ	-15422
▁ایمبیسڈر	-15423
▁یوزر	-15424
▁اکٹھی	-15425
▁اسٹریٹجک	-15426
▁پرل	-15427
▁ڈاگ	-15428
▁امیز	-15429
▁میٹھے	-15430
▁ٹھیکی	-15431
▁پرغور	-15432
فیر	-15433
▁بسکٹ	-15434
▁سینچ	-15435
▁فائلر	-15436
▁پکارا	-15437
▁اٹی	-15438
▁ناشتہ	-15439
▁پرائیڈ	-15440
▁چوس	-15441
▁نظرثانی	-15442
املک	-15443
▁سولو	-15444
▁اورای	-15445
▁نپی	-15446
▁جبران	-15447
▁خیرپور	-15448
▁ریسنگ	-15449
▁فائزہ	-15450
داور	-15451
شاعری	-15452
▁سکا۔	-15453
▁کرپٹو	-15454
▁اترنا	-15455
▁افیئر	-15456
▁اڑاتے	-15457
▁آسٹریلین	-15458
▁روہن	-15459
▁والو	-15460
▁محتاج	-15461
▁ٹیسلا	-15462
▁بندھنے	-15463
▁اعلانات	-15464
بیح	-15465
لوہ	-15466
راپسٹ	-15467
▁حالی	-15468
▁عکاس	-15469
▁ٹھنڈ	-15470
▁ہیڈنگلے	-15471
لرز	-15472
▁عمید	-15473
▁نسخہ	-15474
▁بھیانک	-15475
انیس	-15476
▁تبلی	-15477
ائیڈنگ	-15478
▁مکانی	-15479
جیمز	-15480
▁حصار	-15481
▁ہینڈز	-15482
▁ہیمسٹرنگ	-15483
وسٹ	-15484
ائیا	-15485
▁کرسٹین	-15486
َب	-15487
▁لودھراں	-15488
▁پراعتماد	-15489
▁سوتے	-15490
▁سپل	-15491
▁کواپ	-15492
▁پوانٹس	-15493
سیفک	-15494
▁اسپورٹ	-15495
▁نصیبوں	-15496
▁قریبا	-15497
▁مفرور	-15498
ؤن	-15499
▁سرعام	-15500
▁گاہوں	-15501
▁ہوتاہے	-15502
▁اسٹیڈیمز	-15503
ولن	-15504
▁لنڈا	-15505
▁آرڈیننس	-15506
اردوپوائنٹ	-15507
▁لیے۔	-15508
▁قائدانہ	-15509
▁ہلاکتیں	-15510
▁اسحق	-15511
▁کلئے	-15512
▁کوکی	-15513
▁رانجھا	-15514
▁تھیپاکستان	-15515
▁ٹھگ	-15516
▁ماڑی	-15517
▁میںم	-15518
▁کیرولینا	-15519
▁سرز	-15520
وٹیکل	-15521
▁معظم	-15522
▁پنیری	-15523
سنی	-15524
▁ودھ	-15525
▁للی	-15526
ارٹریز	-15527
▁مالنی	-15528
حط	-15529
ٹینس	-15530
ہماری	-15531
▁خنجر	-15532
▁لڑنا	-15533
▁گوڈی	-15534
▁دوائی	-15535
▁پرخ	-15536
▁نشاط	-15537
▁بلائے	-15538
▁ایوریج	-15539
صرین	-15540
▁بایو	-15541
▁سوچتی	-15542
▁چوہوں	-15543
▁اسٹیورٹ	-15544
▁نامیاتی	-15545
وزا	-15546
▁ریچل	-15547
▁پریت	-15548
▁احمر	-15549
▁ہمیش	-15550
▁سرٹیفیکیٹ	-15551
▁فدا	-15552
حالیہ	-15553
▁الائیڈ	-15554
▁پرچیزنگ	-15555
▁اظہ	-15556
▁تذبذب	-15557
▁چنائو	-15558
نٹائن	-15559
▁کلکتہ	-15560
ئٹرز	-15561
۶۷	-15562
▁ٹھر	-15563
▁مساج	-15564
▁کوٹے	-15565
▁سخ	-15566
▁مائرہ	-15567
▁سنبھالے	-15568
▁سلک	-15569
جائیں	-15570
▁دھرنوں	-15571
ضاء	-15572
▁صغیر	-15573
ضحیک	-15574
▁سنتھ	-15575
▁چینجر	-15576
▁شرارتی	-15577
▁کاتناسب	-15578
▁لوم	-15579
▁معش	-15580
▁سکالر	-15581
▁کوشکست	-15582
▁حدید	-15583
▁مریدکے	-15584
▁پھینکا	-15585
▁میں۸	-15586
▁الجھن	-15587
▁پڈ	-15588
▁باہ	-15589
▁گریب	-15590
▁تاروں	-15591
▁احتجاجا	-15592
and	-15593
ختلف	-15594
▁ڈیاگو	-15595
▁گولیوں	-15596
▁ہےلاہور	-15597
▁گاڑ	-15598
▁ایکو	-15599
▁کریو	-15600
▁ہنرم	-15601
▁میکرو	-15602
▁ہمسفر	-15603
▁ہرجانہ	-15604
▁آکس	-15605
▁تھان	-15606
▁بچائو	-15607
▁پیسرز	-15608
▁نیور	-15609
▁جاناں	-15610
▁ہندوں	-15611
▁گاہکوں	-15612
▁عاف	-15613
▁کوپری	-15614
▁پربندہ	-15615
▁خودمختار	-15616
۰۳	-15617
▁خطر	-15618
▁مسقط	-15619
▁نقشے	-15620
▁زدران	-15621
▁گائیک	-15622
ولود	-15623
▁سٹال	-15624
▁لاسز	-15625
▁کلاڈ	-15626
▁منیشا	-15627
▁خلوص	-15628
▁تضحیک	-15629
▁فلائنگ	-15630
▁قلمبند	-15631
دک	-15632
▁افسان	-15633
▁سمندروں	-15634
▁ثار	-15635
▁انسٹھ	-15636
▁۱۶۶	-15637
▁۱۸۵	-15638
▁فولو	-15639
▁اووروں	-15640
▁تنظیمسازی	-15641
ئول	-15642
▁گہ	-15643
▁سچا	-15644
▁اگین	-15645
▁شکلا	-15646
▁دھوکے	-15647
▁ترس	-15648
▁۱۵۹	-15649
ڑھیاں	-15650
▁کمپل	-15651
ادگی	-15652
▁کچی	-15653
ملی	-15654
نیکا	-15655
▁تند	-15656
▁چرس	-15657
▁واسا	-15658
▁جیفری	-15659
▁سگنلز	-15660
▁ڈرونز	-15661
▁سعودیہ	-15662
▁ازادانہ	-15663
▁رڈ	-15664
▁اسیس	-15665
▁جستجو	-15666
▁جولیا	-15667
▁I	-15668
▁الاٹ	-15669
▁عشرے	-15670
وڈو	-15671
▁in	-15672
▁ایکتا	-15673
▁کارلو	-15674
▁تیراکی	-15675
▁ایڈڈ	-15676
▁شینن	-15677
▁لسٹڈ	-15678
▁گییاد	-15679
▁میٹریل	-15680
▁چُ	-15681
سنگھ	-15682
▁کارل	-15683
▁یمنی	-15684
▁دہلیز	-15685
▁اندوزی	-15686
▁لیبارٹریز	-15687
خم	-15688
▁کوکا	-15689
کھیلنے	-15690
▁انڈیزکے	-15691
▁دیاپاکستان	-15692
امنی	-15693
▁رکش	-15694
▁لیسنر	-15695
▁کےبعد	-15696
غلط	-15697
مور	-15698
▁اورف	-15699
▁گڑیا	-15700
▁ہڈیوں	-15701
▁ارادے	-15702
▁جانبر	-15703
▁ادراک	-15704
▁فرنٹیئر	-15705
ائیل	-15706
▁بربریت	-15707
▁پاد	-15708
▁گیگا	-15709
▁روائتی	-15710
▁اوون	-15711
▁سوموار	-15712
ینیو	-15713
▁امرت	-15714
▁شالا	-15715
▁خلاباز	-15716
▁تیو	-15717
▁ہےحکومت	-15718
▁کھلانا	-15719
▁ایگریکلچر	-15720
▁....	-15721
▁برآمدات	-15722
▁نوٹنگھم	-15723
▁گفتگوکرتے	-15724
حمزہ	-15725
▁خاصیت	-15726
ate	-15727
▁بشل	-15728
دلی	-15729
▁گفٹ	-15730
▁پوسٹرز	-15731
▁حکو	-15732
▁شاہدرہ	-15733
مبو	-15734
▁آلہ	-15735
کرینی	-15736
▁اڑتا	-15737
▁کارگردگی	-15738
رینج	-15739
▁بہنوئی	-15740
پشائر	-15741
▁ججوں	-15742
▁رہاس	-15743
▁بریسٹ	-15744
▁توسیعی	-15745
▁ہیںسابق	-15746
▁ستان	-15747
▁درجات	-15748
ہٹ	-15749
▁سہا	-15750
▁سہل	-15751
▁شٹل	-15752
▁پولین	-15753
▁انٹرفیس	-15754
▁۲۱۰	-15755
▁اومی	-15756
ڈسٹرکٹ	-15757
لحے	-15758
جانی	-15759
▁لٹن	-15760
▁بریت	-15761
▁فیرر	-15762
▁اسٹاپ	-15763
▁تھور	-15764
▁ٹنڈن	-15765
▁برطرفی	-15766
▁دوبالا	-15767
▁انٹلیکچ	-15768
منڈ	-15769
▁ئرش	-15770
▁لہو	-15771
▁جمناسٹک	-15772
▁میں۴	-15773
▁فرانز	-15774
▁ہرسال	-15775
▁افسانہ	-15776
▁ڈیوٹیز	-15777
▁توری	-15778
کٹی	-15779
▁بھگو	-15780
▁مہاراج	-15781
وینٹس	-15782
▁عراقی	-15783
▁ڈسچارج	-15784
▁تقاضے	-15785
امیتابھ	-15786
▁بلیئرڈ	-15787
▁دوربین	-15788
▁اچیومنٹ	-15789
الک	-15790
▁میرج	-15791
▁شاخوں	-15792
بلز	-15793
▁کرشنگ	-15794
▁واسطہ	-15795
زما	-15796
▁نڈر	-15797
جداری	-15798
▁اہنگ	-15799
▁دھارے	-15800
▁امریتا	-15801
▁سیکھتے	-15802
طارق	-15803
▁غوث	-15804
▁رائفل	-15805
▁پربند	-15806
شنر	-15807
قصان	-15808
▁دھوپیا	-15809
ریلیز	-15810
▁ٹھٹھہ	-15811
▁موسیقاروں	-15812
وہن	-15813
▁منچ	-15814
▁منگلا	-15815
▁نعروں	-15816
ظفر	-15817
▁وخ	-15818
▁احوال	-15819
▁انجنی	-15820
▁کارٹر	-15821
▁زمائشی	-15822
▁مراٹھی	-15823
▁اسمبلیوں	-15824
▁فریج	-15825
۶۴	-15826
▁جارڈن	-15827
▁سٹالز	-15828
▁اقصی	-15829
▁سبکدوش	-15830
▁سوز	-15831
▁ٹیمز	-15832
▁چپس	-15833
▁کاکا	-15834
▁رابرٹس	-15835
▁جوبائیڈن	-15836
شورو	-15837
▁تربت	-15838
▁ساک	-15839
▁۱۴۸	-15840
▁۳۶۰	-15841
▁داتا	-15842
▁ہاسن	-15843
▁متحمل	-15844
▁پائوں	-15845
▁شید	-15846
▁گھن	-15847
▁چربی	-15848
ادے	-15849
▁گیار	-15850
وڈی	-15851
▁کیلو	-15852
▁بشارت	-15853
▁محموداللہ	-15854
▁پازی	-15855
▁بجائی	-15856
▁مندوں	-15857
▁مکینوں	-15858
▁یوکرینی	-15859
▁مبین	-15860
▁مومی	-15861
▁دیاگیا	-15862
مداحوں	-15863
▁مانتا	-15864
▁میٹرز	-15865
▁ہیکٹر	-15866
▁ڈسٹ	-15867
▁لٹری	-15868
▁جلسوں	-15869
▁یوفون	-15870
▁کرسٹینا	-15871
اریے	-15872
▁لانس	-15873
▁اسلحے	-15874
▁کوارڈینیٹر	-15875
▁تپ	-15876
▁ربا	-15877
▁اورٹی	-15878
▁طنزیہ	-15879
تمند	-15880
نگلہ	-15881
▁انٹلیکچولز	-15882
شیل	-15883
وہیکل	-15884
▁املا	-15885
▁تڑکا	-15886
▁ویلا	-15887
▁برسلز	-15888
▁بچائے	-15889
▁مانگتا	-15890
▁عمارتیں	-15891
▁اےک	-15892
▁عجب	-15893
▁قطاروں	-15894
▁جکڑ	-15895
▁بوتھ	-15896
▁فوکل	-15897
▁پرکے	-15898
▁پارٹن	-15899
▁سڈنیاردو	-15900
الیں	-15901
▁جاد	-15902
▁پلہ	-15903
▁تبسم	-15904
▁ووٹر	-15905
▁تریسٹھ	-15906
سنٹ	-15907
▁بزدل	-15908
▁چٹھہ	-15909
▁دستان	-15910
▁معاشیات	-15911
[...]
