<unk>	0
<s>	0
</s>	0
<0x00>	0
<0x01>	0
<0x02>	0
<0x03>	0
<0x04>	0
<0x05>	0
<0x06>	0
<0x07>	0
<0x08>	0
<0x09>	0
<0x0A>	0
<0x0B>	0
<0x0C>	0
<0x0D>	0
<0x0E>	0
<0x0F>	0
<0x10>	0
<0x11>	0
<0x12>	0
<0x13>	0
<0x14>	0
<0x15>	0
<0x16>	0
<0x17>	0
<0x18>	0
<0x19>	0
<0x1A>	0
<0x1B>	0
<0x1C>	0
<0x1D>	0
<0x1E>	0
<0x1F>	0
<0x20>	0
<0x21>	0
<0x22>	0
<0x23>	0
<0x24>	0
<0x25>	0
<0x26>	0
<0x27>	0
<0x28>	0
<0x29>	0
<0x2A>	0
<0x2B>	0
<0x2C>	0
<0x2D>	0
<0x2E>	0
<0x2F>	0
<0x30>	0
<0x31>	0
<0x32>	0
<0x33>	0
<0x34>	0
<0x35>	0
<0x36>	0
<0x37>	0
<0x38>	0
<0x39>	0
<0x3A>	0
<0x3B>	0
<0x3C>	0
<0x3D>	0
<0x3E>	0
<0x3F>	0
<0x40>	0
<0x41>	0
<0x42>	0
<0x43>	0
<0x44>	0
<0x45>	0
<0x46>	0
<0x47>	0
<0x48>	0
<0x49>	0
<0x4A>	0
<0x4B>	0
<0x4C>	0
<0x4D>	0
<0x4E>	0
<0x4F>	0
<0x50>	0
<0x51>	0
<0x52>	0
<0x53>	0
<0x54>	0
<0x55>	0
<0x56>	0
<0x57>	0
<0x58>	0
<0x59>	0
<0x5A>	0
<0x5B>	0
<0x5C>	0
<0x5D>	0
<0x5E>	0
<0x5F>	0
<0x60>	0
<0x61>	0
<0x62>	0
<0x63>	0
<0x64>	0
<0x65>	0
<0x66>	0
<0x67>	0
<0x68>	0
<0x69>	0
<0x6A>	0
<0x6B>	0
<0x6C>	0
<0x6D>	0
<0x6E>	0
<0x6F>	0
<0x70>	0
<0x71>	0
<0x72>	0
<0x73>	0
<0x74>	0
<0x75>	0
<0x76>	0
<0x77>	0
<0x78>	0
<0x79>	0
<0x7A>	0
<0x7B>	0
<0x7C>	0
<0x7D>	0
<0x7E>	0
<0x7F>	0
<0x80>	0
<0x81>	0
<0x82>	0
<0x83>	0
<0x84>	0
<0x85>	0
<0x86>	0
<0x87>	0
<0x88>	0
<0x89>	0
<0x8A>	0
<0x8B>	0
<0x8C>	0
<0x8D>	0
<0x8E>	0
<0x8F>	0
<0x90>	0
<0x91>	0
<0x92>	0
<0x93>	0
<0x94>	0
<0x95>	0
<0x96>	0
<0x97>	0
<0x98>	0
<0x99>	0
<0x9A>	0
<0x9B>	0
<0x9C>	0
<0x9D>	0
<0x9E>	0
<0x9F>	0
<0xA0>	0
<0xA1>	0
<0xA2>	0
<0xA3>	0
<0xA4>	0
<0xA5>	0
<0xA6>	0
<0xA7>	0
<0xA8>	0
<0xA9>	0
<0xAA>	0
<0xAB>	0
<0xAC>	0
<0xAD>	0
<0xAE>	0
<0xAF>	0
<0xB0>	0
<0xB1>	0
<0xB2>	0
<0xB3>	0
<0xB4>	0
<0xB5>	0
<0xB6>	0
<0xB7>	0
<0xB8>	0
<0xB9>	0
<0xBA>	0
<0xBB>	0
<0xBC>	0
<0xBD>	0
<0xBE>	0
<0xBF>	0
<0xC0>	0
<0xC1>	0
<0xC2>	0
<0xC3>	0
<0xC4>	0
<0xC5>	0
<0xC6>	0
<0xC7>	0
<0xC8>	0
<0xC9>	0
<0xCA>	0
<0xCB>	0
<0xCC>	0
<0xCD>	0
<0xCE>	0
<0xCF>	0
<0xD0>	0
<0xD1>	0
<0xD2>	0
<0xD3>	0
<0xD4>	0
<0xD5>	0
<0xD6>	0
<0xD7>	0
<0xD8>	0
<0xD9>	0
<0xDA>	0
<0xDB>	0
<0xDC>	0
<0xDD>	0
<0xDE>	0
<0xDF>	0
<0xE0>	0
<0xE1>	0
<0xE2>	0
<0xE3>	0
<0xE4>	0
<0xE5>	0
<0xE6>	0
<0xE7>	0
<0xE8>	0
<0xE9>	0
<0xEA>	0
<0xEB>	0
<0xEC>	0
<0xED>	0
<0xEE>	0
<0xEF>	0
<0xF0>	0
<0xF1>	0
<0xF2>	0
<0xF3>	0
<0xF4>	0
<0xF5>	0
<0xF6>	0
<0xF7>	0
<0xF8>	0
<0xF9>	0
<0xFA>	0
<0xFB>	0
<0xFC>	0
<0xFD>	0
<0xFE>	0
<0xFF>	0
▁ک	-0
▁ا	-1
▁▁	-2
▁م	-3
یں	-4
▁ہ	-5
▁ت	-6
▁س	-7
▁▁▁▁	-8
یا	-9
▁ب	-10
▁میں	-11
▁ن	-12
▁د	-13
▁کے	-14
▁پ	-15
ور	-16
▁ج	-17
ان	-18
ائ	-19
ار	-20
ام	-21
▁کر	-22
▁اس	-23
▁کی	-24
▁و	-25
▁آ	-26
یک	-27
▁ہے	-28
ات	-29
ال	-30
▁ل	-31
▁▁▁▁▁▁▁▁	-32
▁سے	-33
▁ص	-34
▁اور	-35
▁ہیں	-36
▁ر	-37
▁ش	-38
▁ہو	-39
ین	-40
▁ان	-41
▁ف	-42
▁کا	-43
یر	-44
یہ	-45
▁کو	-46
▁ع	-47
▁گ	-48
▁ہے۔	-49
▁پر	-50
▁خ	-51
▁آپ	-52
ری	-53
▁ح	-54
▁صف	-55
▁صفح	-56
یم	-57
▁ز	-58
وں	-59
لا	-60
ھی	-61
▁یہ	-62
ست	-63
یل	-64
سی	-65
▁ہیں۔	-66
اد	-67
ون	-68
نے	-69
یڈ	-70
تے	-71
یکی	-72
▁تر	-73
اب	-74
اہ	-75
▁پی	-76
ئی	-77
▁ایک	-78
گر	-79
▁▁▁▁▁▁▁▁▁▁▁▁▁▁▁▁	-80
▁کریں	-81
▁صفحہ	-82
▁ق	-83
▁ط	-84
▁ویکی	-85
ود	-86
ائی	-87
▁بن	-88
وب	-89
▁ال	-90
یڈیا	-91
▁مو	-92
▁نہ	-93
▁یا	-94
▁تو	-95
▁لی	-96
مر	-97
پیڈیا	-98
▁چ	-99
ند	-100
تع	-101
تی	-102
۰۲	-103
از	-104
▁اپ	-105
▁ویکیپیڈیا	-106
مال	-107
▁نے	-108
وم	-109
ید	-110
▁مع	-111
▁در	-112
▁سک	-113
▁لیے	-114
▁نام	-115
▁رہ	-116
▁بھی	-117
کھ	-118
▁اگر	-119
میم	-120
ول	-121
▁ذ	-122
▁تھ	-123
ائل	-124
▁ترمیم	-125
نی	-126
۹۱	-127
▁بر	-128
▁کہ	-129
▁لو	-130
▁مش	-131
جود	-132
▁کریں۔	-133
اک	-134
یس	-135
▁جو	-136
▁نہیں	-137
▁موجود	-138
تا	-139
مل	-140
▁جات	-141
▁استع	-142
رب	-143
▁استعمال	-144
اری	-145
▁جن	-146
▁تک	-147
ارف	-148
ے۔	-149
▁کیا	-150
▁مح	-151
▁۰	-152
▁لوڈ	-153
دہ	-154
▁کسی	-155
نا	-156
▁۱	-157
▁مض	-158
▁فائل	-159
انہ	-160
ائیں	-161
ہر	-162
اں	-163
یو	-164
لی	-165
امل	-166
چھ	-167
صو	-168
▁پیغ	-169
▁ذیل	-170
▁پیغام	-171
▁۴	-172
ا۔	-173
▁زمر	-174
▁من	-175
▁تح	-176
ائے	-177
▁اج	-178
عد	-179
وی	-180
ئے	-181
▁کل	-182
▁صفحات	-183
وع	-184
▁شامل	-185
▁شر	-186
بر	-187
۰۵	-188
غیر	-189
قت	-190
▁درج	-191
▁سکتے	-192
▁۲	-193
▁کچھ	-194
▁تب	-195
▁اجاز	-196
▁اجازت	-197
یکن	-198
▁اب	-199
▁جس	-200
زی	-201
ارہ	-202
▁دی	-203
دی	-204
خت	-205
▁۳	-206
▁ڈ	-207
▁تع	-208
▁طور	-209
▁ٹ	-210
بان	-211
صویر	-212
۹۱ء	-213
▁خانہ	-214
▁۶	-215
یت	-216
یٹ	-217
▁رہا	-218
انی	-219
▁نظ	-220
▁زبان	-221
وس	-222
▁گیا	-223
فر	-224
▁وہ	-225
▁انگ	-226
رح	-227
▁پہ	-228
را	-229
▁صارف	-230
▁انت	-231
▁براہ	-232
▁مز	-233
مون	-234
▁دکھ	-235
صل	-236
لق	-237
▁دے	-238
▁فر	-239
▁کرنے	-240
سل	-241
▁۵	-242
▁مک	-243
▁کرم	-244
ہرست	-245
۰۲ء	-246
▁مضمون	-247
▁مت	-248
▁فہرست	-249
▁مزید	-250
انچ	-251
▁وال	-252
▁ہی	-253
▁نامہ	-254
یش	-255
▁جاتا	-256
اریخ	-257
لوم	-258
یاں	-259
▁۸	-260
▁انگری	-261
▁تصویر	-262
▁زمرہ	-263
▁حال	-264
▁۷	-265
▁دوب	-266
▁وقت	-267
▁دوبارہ	-268
▁انگریزی	-269
▁اپنے	-270
▁بعد	-271
▁یہی	-272
▁ی	-273
ضا	-274
▁جان	-275
▁اپنی	-276
طہ	-277
▁کھ	-278
لاح	-279
▁کرتے	-280
می	-281
▁دکھائی	-282
یکنڈ	-283
▁سیکنڈ	-284
▁رو	-285
تر	-286
فو	-287
▁وا	-288
▁تحر	-289
▁معلوم	-290
▁پیش	-291
دیل	-292
▁تبدیل	-293
امی	-294
▁محفو	-295
▁معا	-296
ستان	-297
▁سات	-298
▁محفوظ	-299
وری	-300
▁معلومات	-301
▁اِ	-302
▁کام	-303
▁انھ	-304
▁▁▁▁▁▁	-305
▁نظر	-306
گی	-307
قی	-308
▁تحریر	-309
ائر	-310
لہ	-311
▁بھ	-312
رف	-313
قو	-314
▁متع	-315
▁اک	-316
وٹ	-317
باد	-318
▁طرح	-319
۱۲	-320
▁ہم	-321
ربی	-322
یال	-323
یات	-324
▁مل	-325
▁ار	-326
▁معاون	-327
سم	-328
▁دہ	-329
▁تھی	-330
▁جا	-331
▁مس	-332
کہ	-333
▁معاونت	-334
۲۰۲	-335
▁خیال	-336
زاد	-337
▁ہونے	-338
۱۱	-339
قہ	-340
▁کوئی	-341
▁مط	-342
▁آئی	-343
اع	-344
اخ	-345
▁۹	-346
جہ	-347
▁شدہ	-348
یز	-349
▁تھا۔	-350
امین	-351
▁چھ	-352
▁ایس	-353
▁مضامین	-354
دو	-355
▁زیر	-356
▁آزاد	-357
ظہ	-358
▁بہ	-359
▁کس	-360
▁سال	-361
▁تاریخ	-362
▁جائے	-363
▁دیا	-364
انے	-365
وش	-366
الی	-367
▁مر	-368
من	-369
▁دیگر	-370
▁اِس	-371
وال	-372
▁متعلق	-373
پر	-374
▁دن	-375
تہ	-376
▁اد	-377
اؤ	-378
▁الم	-379
لے	-380
▁بڑ	-381
ینی	-382
▁مق	-383
▁علا	-384
▁اپنا	-385
▁ض	-386
اکت	-387
▁اسے	-388
ارت	-389
▁تج	-390
عہ	-391
▁پاک	-392
▁تبدیلیاں	-393
لم	-394
▁دیک	-395
▁رہے	-396
▁حالیہ	-397
▁تھے۔	-398
کوم	-399
▁سکتا	-400
▁مکمل	-401
▁غ	-402
▁ملاح	-403
▁یہاں	-404
▁ملاحظہ	-405
▁ام	-406
▁دہائی	-407
▁امر	-408
ٹر	-409
دد	-410
نز	-411
▁سانچ	-412
کار	-413
ٹی	-414
رو	-415
مد	-416
کومت	-417
دا	-418
نگ	-419
▁زمرے	-420
▁منص	-421
▁سب	-422
کٹ	-423
۸۱	-424
▁کھات	-425
▁داخ	-426
▁ساتھ	-427
▁جب	-428
یں۔	-429
▁صارفین	-430
رم	-431
▁دست	-432
اہر	-433
یان	-434
کا	-435
▁اع	-436
▁زیا	-437
▁داخل	-438
▁رکھ	-439
ویں	-440
حت	-441
▁شراکت	-442
جی	-443
ندر	-444
▁اط	-445
▁لکھ	-446
یچ	-447
ابطہ	-448
▁زیادہ	-449
▁تف	-450
▁کم	-451
▁اش	-452
۱۲۰۵	-453
▁منصوب	-454
بی	-455
وت	-456
▁اف	-457
بل	-458
▁بنا	-459
▁سل	-460
▁تھا	-461
وٹا	-462
ونی	-463
صیل	-464
ما	-465
▁ہوئے	-466
قع	-467
ائع	-468
▁دوس	-469
▁ہند	-470
▁،	-471
یار	-472
▁سو	-473
قل	-474
اس	-475
▁جانب	-476
▁پاکستان	-477
▁اہ	-478
▁ہوتے	-479
فت	-480
لف	-481
▁کت	-482
▁گا۔	-483
ورت	-484
▁تفصیل	-485
▁سر	-486
ارتی	-487
کل	-488
▁عربی	-489
▁شع	-490
۰۰۲ء	-491
▁مطاب	-492
کر	-493
▁دیکھ	-494
▁شہر	-495
▁شم	-496
▁▁▁▁▁▁▁▁▁▁▁▁▁▁	-497
▁کلک	-498
▁کرنا	-499
بہ	-500
خر	-501
▁اردو	-502
اصل	-503
یاست	-504
صغیر	-505
ضاحت	-506
انسی	-507
▁او	-508
▁تص	-509
▁رابطہ	-510
حر	-511
▁ہوتا	-512
▁غیر	-513
▁نا	-514
▁تحت	-515
▁مخت	-516
▁تن	-517
▁بل	-518
والہ	-519
۰۵۱	-520
جم	-521
▁صرف	-522
▁کری	-523
ٹیو	-524
▁واقع	-525
ارے	-526
▁آباد	-527
▁کار	-528
▁انھیں	-529
امیم	-530
▁ترامیم	-531
انسیسی	-532
▁کرکٹ	-533
رر	-534
▁مص	-535
▁گا	-536
▁لہ	-537
▁کامنز	-538
▁دائر	-539
ئیٹیو	-540
▁کریئیٹیو	-541
▁گئی	-542
ائش	-543
تصغیر	-544
▁گئے	-545
ہور	-546
خط	-547
۰۵۱و	-548
ائیں۰۵۱و	-549
▁تصویرتصغیر	-550
ائیں۰۵۱وضاحت	-551
در	-552
▁کتاب	-553
ھر	-554
▁جی	-555
▁المع	-556
▁سانچہ	-557
▁انھوں	-558
▁۱۲	-559
▁ایڈ	-560
▁این	-561
ولین	-562
ریقہ	-563
لۂ	-564
ملہ	-565
▁عام	-566
▁دور	-567
خص	-568
▁چاہ	-569
صوص	-570
عداد	-571
▁تھے	-572
▁با	-573
حا	-574
▁ہر	-575
۰۰	-576
▁دائرۃ	-577
ذا	-578
▁حس	-579
▁خط	-580
▁عب	-581
▁شخص	-582
▁مرب	-583
▁دو	-584
▁المعارف	-585
یٹر	-586
قوق	-587
وہ	-588
نٹ	-589
یب	-590
▁مست	-591
▁رج	-592
ریس	-593
▁مث	-594
▁حاصل	-595
▁کن	-596
▁اہم	-597
▁سا	-598
▁نیا	-599
▁اص	-600
▁مشت	-601
▁حقوق	-602
▁ملک	-603
▁افر	-604
▁ث	-605
▁مشتمل	-606
▁تھی۔	-607
▁لہذا	-608
▁نم	-609
▁مطابق	-610
▁تعارف	-611
صہ	-612
جا	-613
▁موض	-614
▁مسائل	-615
▁تفصیل۔	-616
▁نس	-617
▁موضوع	-618
▁سن	-619
▁شائع	-620
▁شمار	-621
▁گیا۔	-622
▁قط	-623
▁پہلے	-624
▁جہ	-625
ائن	-626
▁فی	-627
تم	-628
▁جرم	-629
ئے۔	-630
▁رجوع	-631
▁ہوئی	-632
▁مکرر	-633
▁افراد	-634
▁کہا	-635
یکس	-636
▁خان	-637
▁دستخط	-638
▁پڑ	-639
▁ہوا	-640
▁جملہ	-641
اتی	-642
▁اسپ	-643
▁حکومت	-644
۹۲	-645
المی	-646
▁صدی	-647
▁تم	-648
مالک	-649
لاش	-650
▁مندر	-651
▁یو	-652
▁نش	-653
۰۱	-654
یشن	-655
▁دین	-656
▁اسل	-657
▁۴۲۰۲	-658
▁ممالک	-659
▁خود	-660
▁سکتی	-661
▁خلا	-662
▁اطال	-663
▁جرمنی	-664
▁ریاست	-665
▁والی	-666
فی	-667
سٹ	-668
زیر	-669
طی	-670
▁نیز	-671
▁مغ	-672
تاریخ	-673
▁ضر	-674
▁تلاش	-675
▁امریک	-676
▁بنیا	-677
وان	-678
▁ہوتی	-679
▁نوش	-680
▁مشور	-681
▁جاتی	-682
▁اطالوی	-683
▁الح	-684
▁را	-685
۹۹۱	-686
▁قبل	-687
▁ڈی	-688
▁جنوب	-689
▁سام	-690
▁تباد	-691
▁والے	-692
وا	-693
▁مختلف	-694
چہ	-695
▁نگ	-696
▁مدد	-697
▁تعلق	-698
وط	-699
▁ظ	-700
▁کھاتہ	-701
▁تق	-702
فرانسیسی	-703
▁بات	-704
▁باب	-705
▁اصل	-706
▁منصوبے	-707
▁کیا۔	-708
ی۔	-709
▁جم	-710
▁تخ	-711
▁دار	-712
▁۶۶	-713
۳۹	-714
▁مخ	-715
▁نوشتہ	-716
▁نقل	-717
▁درکار	-718
۱۰۲ء	-719
▁مشر	-720
▁کھی	-721
ظیم	-722
▁دنیا	-723
▁جہاں	-724
▁۰۴	-725
انا	-726
▁سم	-727
▁ہوگی	-728
▁اسپر	-729
▁سی	-730
▁بین	-731
▁عرب	-732
▁انتو	-733
▁شروع	-734
▁ترین	-735
ائط	-736
▁اسپینی	-737
ہولین	-738
ہولیندی	-739
▁کیے	-740
▁شرائط	-741
ویز	-742
▁مشہور	-743
▁اللہ	-744
▁عل	-745
▁اند	-746
▁الا	-747
اعت	-748
▁ذری	-749
▁لیکن	-750
اص	-751
▁بہت	-752
▁چھوٹا	-753
▁شمال	-754
▁جنوری	-755
▁علاق	-756
▁فلم	-757
ریب	-758
ڑی	-759
▁آغ	-760
طان	-761
ئر	-762
▁اعداد	-763
روف	-764
کن	-765
لیم	-766
▁زند	-767
۰۱۱	-768
▁چاہتے	-769
▁ایسے	-770
▁تجارتی	-771
ثر	-772
نت	-773
▁نو	-774
نچ	-775
ینڈ	-776
▁نسخ	-777
▁تبادلۂ	-778
▁لا	-779
▁ذیلی	-780
▁مشکل	-781
▁مار	-782
▁آغاز	-783
ویکی	-784
▁کی۔	-785
▁صورت	-786
▁بجا	-787
▁نگار	-788
لیق	-789
▁مربوط	-790
کی	-791
▁گے۔	-792
دار	-793
▁کئی	-794
گو	-795
یکساں	-796
▁بنایا	-797
ائٹ	-798
▁ای	-799
▁وجہ	-800
▁سامنے	-801
فہ	-802
▁صفحے	-803
▁پہنچ	-804
۴۲۰۲	-805
ساب	-806
▁▁▁▁▁▁▁▁▁▁	-807
▁بول	-808
سلم	-809
ورپ	-810
▁اخت	-811
۹۲۴	-812
▁عالمی	-813
اہم	-814
▁نسخہ	-815
▁تخلیق	-816
▁۱۲۰۵	-817
۹۹۱۳۹	-818
۹۹۱۳۹۰۱۱	-819
▁۶۶۹۹۱۳۹۰۱۱	-820
مین	-821
▁انتساب	-822
▁فرم	-823
▁دیں	-824
▁غل	-825
▁پیدا	-826
جات	-827
▁از	-828
▁بنائیں	-829
۸۱ء	-830
سال	-831
▁آتی	-832
▁فل	-833
▁عن	-834
ٹھ	-835
▁قان	-836
فات	-837
▁آبادی	-838
▁محمد	-839
▁ہندو	-840
یشیا	-841
▁خاص	-842
کت	-843
یسٹ	-844
▁منت	-845
▁خوب	-846
▁گی۔	-847
ریل	-848
▁تصور	-849
▁اُ	-850
▁پیر	-851
▁علی	-852
▁۰۲	-853
▁بح	-854
▁شہ	-855
▁نیچ	-856
▁نیچے	-857
فق	-858
▁بہتر	-859
▁انع	-860
۸۲	-861
▁بنانے	-862
▁بنائی	-863
▁۰۱	-864
▁دیو	-865
▁میڈیا	-866
ونکہ	-867
▁ظاہر	-868
سمبر	-869
▁بع	-870
▁جیس	-871
▁ستم	-872
▁کرتا	-873
▁قسم	-874
▁انس	-875
▁مخصوص	-876
▁لگ	-877
قا	-878
▁فرمائیں	-879
▁بھارت	-880
▁اسی	-881
ابط	-882
▁بڑا	-883
▁ستمبر	-884
۳۲	-885
دان	-886
▁تمام	-887
▁پہلی	-888
▁ساتھی	-889
گان	-890
شن	-891
▁لوگ	-892
▁بیان	-893
تام	-894
▁۔	-895
یث	-896
▁عنوان	-897
ومی	-898
▁مستع	-899
▁انعام	-900
▁۴۲	-901
▁دوسر	-902
اؤنٹ	-903
▁موجودہ	-904
▁دیکھنے	-905
▁قطعہ	-906
▁پھر	-907
مرہ	-908
▁پانچ	-909
▁فضا	-910
ارڈ	-911
▁مہ	-912
▁سلط	-913
▁فخر	-914
▁مسود	-915
ھوں	-916
▁دسمبر	-917
▁سخ	-918
حوالہ	-919
ابل	-920
▁بعض	-921
▁دینے	-922
▁اکاؤنٹ	-923
لاگ	-924
لو	-925
خانہ	-926
▁میچ	-927
توب	-928
▁مثلا	-929
تصویر	-930
عے	-931
۶۱	-932
▁مسوداتی	-933
▁متعلقہ	-934
مت	-935
▁تاریخچہ	-936
ندگان	-937
▁میڈیاویکی	-938
کاری	-939
▁متفق	-940
خب	-941
فظ	-942
▁انتسابیکساں	-943
۳۰	-944
لات	-945
▁متصل	-946
زمرہ	-947
▁طرف	-948
▁مد	-949
▁تبدیلی	-950
▁جسے	-951
▁مستعمل	-952
▁ہوگی۔	-953
ٹن	-954
▁فار	-955
▁اکتوب	-956
▁سلطنت	-957
اتہ	-958
اخت	-959
۷۱	-960
▁ایڈریس	-961
فا	-962
▁حوالہ	-963
▁نامہائے	-964
▁بنالی	-965
▁آپکا	-966
طہیر	-967
▁تطہیر	-968
کھاتہ	-969
▁نگارخانہ	-970
▁بنالیتے	-971
چھوٹا	-972
اختتام	-973
▁نقلغیر	-974
▁میںکھاتہ	-975
▁نوشتہلاگ	-976
چھوٹااختتام	-977
▁تصویرتصغیرب	-978
▁تصویرتصغیرد	-979
▁طریقہ	-980
▁نامے	-981
▁برطان	-982
سے	-983
▁رس	-984
▁مثلاً	-985
▁پاب	-986
▁جنگ	-987
▁مسلم	-988
▁مج	-989
▁اکتوبر	-990
خری	-991
ھا	-992
ادی	-993
▁شاہ	-994
▁بیر	-995
▁ہوں	-996
قوامی	-997
▁سند	-998
▁قر	-999
▁جیسے	-1000
یرہ	-1001
▁آخر	-1002
▁ذریعے	-1003
▁۳۲	-1004
▁الاقوامی	-1005
لب	-1006
صر	-1007
▁مندرجہ	-1008
▁افریقہ	-1009
▁پابند	-1010
حاظ	-1011
▁درم	-1012
▁ہوا۔	-1013
▁ات	-1014
▁الحکومت	-1015
▁ٹیم	-1016
یثیت	-1017
▁معامل	-1018
▁عبد	-1019
▁بحر	-1020
▁ایشیا	-1021
▁خلاف	-1022
ائد	-1023
▁تعلیم	-1024
وبل	-1025
▁اشاعت	-1026
▁آئ	-1027
▁ابن	-1028
▁۹۱	-1029
▁متح	-1030
ظم	-1031
نڈ	-1032
▁حیثیت	-1033
▁بارے	-1034
▁شعب	-1035
▁دان	-1036
▁شعبہ	-1037
▁وی	-1038
▁روابط	-1039
اً	-1040
▁حک	-1041
▁تاہم	-1042
ستانی	-1043
▁مالی	-1044
▁صدر	-1045
▁عمل	-1046
▁یون	-1047
ائم	-1048
▁ناموں	-1049
▁بنیادی	-1050
ازہ	-1051
▁درمیان	-1052
▁میٹر	-1053
▁شخصیت	-1054
▁نوبل	-1055
▁انڈ	-1056
▁پید	-1057
▁قد	-1058
▁تنظیم	-1059
▁حصہ	-1060
▁مرح	-1061
۴۱	-1062
۳۱	-1063
▁اگ	-1064
▁بلکہ	-1065
▁انتظ	-1066
▁ہوئی۔	-1067
شی	-1068
▁ہوئے۔	-1069
▁کون	-1070
▁ٹیسٹ	-1071
وار	-1072
▁مصن	-1073
▁علاقہ	-1074
▁عمر	-1075
▁پیدائش	-1076
▁زندہ	-1077
▁امریکہ	-1078
▁۰۵	-1079
▁بنانا	-1080
▁بیٹ	-1081
▁مغربی	-1082
رہ	-1083
▁پار	-1084
زر	-1085
▁متحدہ	-1086
▁جائیں	-1087
▁جانے	-1088
▁محس	-1089
▁گری	-1090
ومبر	-1091
وک	-1092
▁اق	-1093
▁۴۱	-1094
▁اح	-1095
▁شا	-1096
ترمیم	-1097
▁قابل	-1098
▁جبکہ	-1099
▁اول	-1100
▁کھلا	-1101
▁شاع	-1102
ورس	-1103
▁جنھوں	-1104
▁کھیل	-1105
▁رب	-1106
▁فروری	-1107
▁وس	-1108
▁ملا	-1109
▁مرحلہ	-1110
▁محسوس	-1111
آر	-1112
خذ	-1113
▁فوت	-1114
▁عم	-1115
▁طبی	-1116
▁ور	-1117
▁مارچ	-1118
▁لفظ	-1119
۰۰۲	-1120
▁وج	-1121
اج	-1122
▁بیرونی	-1123
▁آف	-1124
▁واپ	-1125
▁یورپ	-1126
▁پک	-1127
▁مواد	-1128
▁کھلاڑی	-1129
▁اسلام	-1130
▁دیوان	-1131
▁ماہر	-1132
▁چار	-1133
▁بی	-1134
▁اوپر	-1135
▁مشتر	-1136
▁فو	-1137
▁اندرا	-1138
یاب	-1139
کان	-1140
▁۶۱	-1141
ذہ	-1142
▁دائیں	-1143
▁ایو	-1144
▁تین	-1145
ریف	-1146
▁گفت	-1147
▁رہی	-1148
▁یع	-1149
پیش	-1150
▁میل	-1151
▁مشورے	-1152
▁آخری	-1153
▁جول	-1154
▁نظام	-1155
▁درپیش	-1156
▁نہیں۔	-1157
▁کمپ	-1158
۹۹۱ء	-1159
▁ہو۔	-1160
▁نق	-1161
زار	-1162
دین	-1163
▁۰۰۲	-1164
حی	-1165
▁مرک	-1166
▁ہدا	-1167
منام	-1168
▁نئے	-1169
▁حسب	-1170
▁ایسا	-1171
▁مشورہ	-1172
▁گمنام	-1173
▁۵۱	-1174
▁دیے	-1175
میر	-1176
▁علم	-1177
صد	-1178
▁بھارتی	-1179
یدہ	-1180
▁کھاتا	-1181
▁اقت	-1182
▁خیالات	-1183
▁مقام	-1184
▁جزیر	-1185
▁ساحر	-1186
▁گفتگو	-1187
▁مجم	-1188
▁آر	-1189
▁۲۱	-1190
▁ابو	-1191
۸۹۱ء	-1192
▁روز	-1193
▁محض	-1194
▁وجوہ	-1195
عت	-1196
▁دریا	-1197
۵۱	-1198
▁وجوہات	-1199
کھی	-1200
▁خصوص	-1201
▁بال	-1202
غیرہ	-1203
طینی	-1204
▁اسک	-1205
▁اسلامی	-1206
سپ	-1207
قات	-1208
▁تقریب	-1209
▁جنوبی	-1210
شر	-1211
▁کرتی	-1212
▁قدیم	-1213
▁مصنف	-1214
طلاح	-1215
نج	-1216
▁مشرق	-1217
▁ربط	-1218
▁سیا	-1219
▁کپ	-1220
▁بڑے	-1221
▁تازہ	-1222
▁۱۱	-1223
▁لحاظ	-1224
۷۹۱ء	-1225
▁انج	-1226
▁قب	-1227
▁حجم	-1228
۲۱	-1229
▁خانے	-1230
▁بار	-1231
▁گر	-1232
▁خاندان	-1233
▁بو	-1234
اح	-1235
▁تیار	-1236
▁وغیرہ	-1237
دم	-1238
▁سانچے	-1239
▁مجموع	-1240
▁الع	-1241
▁افری	-1242
▁لیا	-1243
▁نشر	-1244
▁چن	-1245
▁ذخ	-1246
انس	-1247
▁ضرورت	-1248
▁گئے۔	-1249
▁اصطلاح	-1250
او	-1251
▁آلات	-1252
▁۸۱	-1253
▁شمالی	-1254
▁ویب	-1255
▁وفات	-1256
▁مسی	-1257
▁جولائی	-1258
▁مثال	-1259
▁نومبر	-1260
▁چند	-1261
▁حروف	-1262
▁درست	-1263
ضی	-1264
▁یعنی	-1265
▁آج	-1266
▁امریکا	-1267
▁اگست	-1268
▁کیسی	-1269
▁واض	-1270
▁نک	-1271
▁اُس	-1272
▁وقتتاریخ	-1273
▁پکسل	-1274
جد	-1275
▁قائم	-1276
واں	-1277
▁پس	-1278
▁۲۲	-1279
▁ابھی	-1280
▁دف	-1281
▁واضح	-1282
▁علاقے	-1283
▁ابت	-1284
▁قومی	-1285
▁راست	-1286
شاہ	-1287
کے	-1288
۵۲	-1289
▁بحیرہ	-1290
▁۳۱	-1291
تیب	-1292
▁بنیاد	-1293
▁جون	-1294
▁دوران	-1295
▁دیکھی	-1296
▁علاوہ	-1297
رت	-1298
▁زبانوں	-1299
▁ذخائر	-1300
▁تجویز	-1301
سلک	-1302
▁۸۲	-1303
کین	-1304
▁دوسری	-1305
حل	-1306
▁امید	-1307
▁منتخب	-1308
امیٹر	-1309
فتہ	-1310
▁مرا	-1311
▁بولی	-1312
▁مشرقی	-1313
▁امریکی	-1314
▁سط	-1315
▁نمائش	-1316
یاء	-1317
▁نمائ	-1318
ایا	-1319
یائی	-1320
▁منسلک	-1321
اکہ	-1322
▁ایڈیشن	-1323
▁پیرامیٹر	-1324
▁زم	-1325
دید	-1326
▁پرو	-1327
▁نمائند	-1328
▁یونی	-1329
▁اختیار	-1330
▁جاتے	-1331
لع	-1332
▁فرمائیں۔	-1333
▁دوسرا	-1334
▁سین	-1335
▁عیس	-1336
▁منصوبوں	-1337
۴۹۱ء	-1338
▁مئی	-1339
▁آگ	-1340
▁مکررات	-1341
▁قانون	-1342
▁دکھائیں	-1343
انچہ	-1344
▁ضروری	-1345
▁دوسرے	-1346
▁صوب	-1347
▁سفر	-1348
تباد	-1349
▁نما	-1350
▁زائد	-1351
▁کوش	-1352
قویم	-1353
▁پیم	-1354
▁جل	-1355
▁کہتے	-1356
▁غلطی	-1357
▁حالت	-1358
▁باز	-1359
▁فارسی	-1360
▁ایوارڈ	-1361
▁خبر	-1362
▁کیونکہ	-1363
ائیک	-1364
تبادلۂ	-1365
۸۲۱۲	-1366
▁بنگ	-1367
▁شخصیات	-1368
▁انتظامی	-1369
▁کنندگان	-1370
زا	-1371
▁۷۲	-1372
▁کیمر	-1373
▁رق	-1374
▁برائے	-1375
▁کاری	-1376
مہ	-1377
مو	-1378
▁ترتیب	-1379
▁اداک	-1380
ورسٹی	-1381
▁شاید	-1382
اویز	-1383
▁پور	-1384
▁۵۲	-1385
▁بڑھ	-1386
▁ہندوستان	-1387
▁ویکیوں	-1388
▁جزیرہ	-1389
وے	-1390
▁لائن	-1391
▁وزیر	-1392
یلی	-1393
▁یونیورسٹی	-1394
تال	-1395
۴۵	-1396
۸۶	-1397
تھ	-1398
▁مال	-1399
▁عدد	-1400
▁وز	-1401
▁رہن	-1402
▁تقویم	-1403
▁رکھتا	-1404
رض	-1405
▁ضلع	-1406
▁۰۳	-1407
▁دیں۔	-1408
▁ادب	-1409
▁الک	-1410
▁سمج	-1411
▁کوشش	-1412
▁ہے۔۱	-1413
▁۷۱	-1414
خاب	-1415
▁مم	-1416
▁کال	-1417
دوین	-1418
▁انتخاب	-1419
▁دستیاب	-1420
▁تش	-1421
▁گھ	-1422
▁مصر	-1423
▁بتاریخ	-1424
▁والا	-1425
▁نمائندگی	-1426
▁پائیں	-1427
ائے۔	-1428
▁چنانچہ	-1429
▁عکا	-1430
▁آمد	-1431
▁بٹن	-1432
▁رکن	-1433
▁گرو	-1434
▁مطلب	-1435
یٹل	-1436
▁یافتہ	-1437
▁عہ	-1438
▁فع	-1439
▁محد	-1440
▁۱سال	-1441
▁مربع	-1442
▁بیک	-1443
▁عکاسی	-1444
قید	-1445
۴۲	-1446
▁کمپنی	-1447
▁تاکہ	-1448
زائر	-1449
▁مذہ	-1450
▁۰۰	-1451
▁تعریف	-1452
۷۶	-1453
ضافی	-1454
▁اے	-1455
▁کیمرے	-1456
▁احا	-1457
▁میر	-1458
▁بلا	-1459
ورن	-1460
▁تعداد	-1461
▁ایر	-1462
▁خوش	-1463
▁کرے	-1464
▁مشار	-1465
▁وسطی	-1466
▁روم	-1467
▁رائے	-1468
▁مغرب	-1469
قال	-1470
▁احاطہ	-1471
نٹی	-1472
▁اصلاح	-1473
جیٹل	-1474
▁اندراجات	-1475
سر	-1476
اش	-1477
▁ڈیجیٹل	-1478
▁مندرجات	-1479
▁مسلمان	-1480
▁سائن	-1481
مول	-1482
▁دیا۔	-1483
▁جمہور	-1484
▁اسٹ	-1485
▁اخذ	-1486
▁سیاسی	-1487
▁لے	-1488
▁الدین	-1489
▁اپریل	-1490
▁عیسوی	-1491
▁ہدایات	-1492
▁ذر	-1493
▁انٹر	-1494
▁عط	-1495
▁شکل	-1496
ودی	-1497
کینر	-1498
▁اِضافی	-1499
▁اِسکینر	-1500
▁بط	-1501
سام	-1502
▁خودکار	-1503
▁علام	-1504
▁مشارکت	-1505
۴۳	-1506
▁ترقی	-1507
▁تدوین	-1508
▁بد	-1509
۶۹۱ء	-1510
▁خو	-1511
▁آیا	-1512
▁خصوصی	-1513
▁آئے	-1514
▁مراک	-1515
▁لکھا	-1516
▁فرانسیسی	-1517
▁شی	-1518
▁ادارے	-1519
▁علیہ	-1520
▁۰۰۱	-1521
▁ساب	-1522
▁تہ	-1523
▁گے	-1524
▁قانونی	-1525
▁عو	-1526
▁معیار	-1527
▁بائیں	-1528
▁رہنما	-1529
▁کیم	-1530
▁آن	-1531
▁نیو	-1532
▁ذرائع	-1533
▁ٹک	-1534
▁بیش	-1535
▁دیکھا	-1536
▁عظیم	-1537
▁موسی	-1538
▁ہزار	-1539
▁اعظم	-1540
▁انگل	-1541
فاظ	-1542
▁حص	-1543
▁عبارت	-1544
▁باد	-1545
▁گن	-1546
▁براؤ	-1547
▁وزارت	-1548
بادل	-1549
سیم	-1550
▁اتح	-1551
▁متبادل	-1552
▁معاملات	-1553
ونوں	-1554
▁فلس	-1555
▁برطانوی	-1556
▁ایم	-1557
دائی	-1558
▁سرکاری	-1559
▁۶۲	-1560
▁تیس	-1561
▁براؤزر	-1562
▁کلو	-1563
▁سوال	-1564
▁والد	-1565
▁موضوعات	-1566
▁انتقال	-1567
▁پہلا	-1568
▁عد	-1569
▁بولا	-1570
چی	-1571
لاس	-1572
اہدہ	-1573
▁زبانیں	-1574
ئین	-1575
▁پہنچے	-1576
▁سکے۔	-1577
قیہ	-1578
▁تنقید	-1579
قسم	-1580
▁اکثر	-1581
یام	-1582
۸۸	-1583
فٹ	-1584
لس	-1585
▁جگ	-1586
▁واپسی	-1587
▁ثقا	-1588
▁تعلقات	-1589
▁آگے	-1590
▁شاعر	-1591
▁متعدد	-1592
یاتی	-1593
▁لینڈ	-1594
▁احمد	-1595
▁پیغامات	-1596
یدر	-1597
کو	-1598
▁بڑی	-1599
▁بیشتر	-1600
▁تقسیم	-1601
▁لیں	-1602
▁منس	-1603
▁شنا	-1604
▁دونوں	-1605
▁بھر	-1606
▁گیارہ	-1607
وڑ	-1608
▁مسیح	-1609
▁بطور	-1610
▁چونکہ	-1611
میں	-1612
▁آس	-1613
▁پسند	-1614
دگی	-1615
▁ٹی	-1616
▁معروف	-1617
▁تقریباً	-1618
ہائی	-1619
▁محدود	-1620
سٹریل	-1621
▁المغ	-1622
▁لوگوں	-1623
۳۹۱ء	-1624
۵۹۱ء	-1625
▁فن	-1626
ذکر	-1627
اویر	-1628
▁رکھا	-1629
▁اضا	-1630
▁مجموعی	-1631
حال	-1632
▁سلسل	-1633
باس	-1634
خلا	-1635
▁است	-1636
▁گئی۔	-1637
▁تبدیلیوں	-1638
ازی	-1639
▁تصاویر	-1640
اپ	-1641
▁فعال	-1642
▁ڈال	-1643
ادہ	-1644
قبل	-1645
▁۹۲	-1646
انیہ	-1647
▁آسٹریل	-1648
نجاب	-1649
▁شناخت	-1650
▁سائنس	-1651
▁انتہائی	-1652
وبائٹ	-1653
▁کلوبائٹ	-1654
▁عہد	-1655
اہل	-1656
▁شماریات	-1657
▁انٹرنی	-1658
▁اشیاء	-1659
▁اقسام	-1660
مب	-1661
سن	-1662
▁ابتدائی	-1663
▁طق	-1664
▁الفاظ	-1665
▁ارسال	-1666
لان	-1667
▁فرانس	-1668
ندی	-1669
▁سائٹ	-1670
▁زندگی	-1671
جر	-1672
▁تذکر	-1673
▁مستقبل	-1674
ٹا	-1675
▁کان	-1676
▁توجہ	-1677
▁اتحاد	-1678
▁حض	-1679
▁مگر	-1680
▁وکٹ	-1681
▁برطانیہ	-1682
▁اعز	-1683
۶۵	-1684
ینہ	-1685
▁المغرب	-1686
▁جگہ	-1687
▁لیگ	-1688
▁جمہوریہ	-1689
▁جاری	-1690
▁تذکرہ	-1691
▁بادشاہ	-1692
▁الج	-1693
▁تجاویز	-1694
مینان	-1695
▁فائلیں	-1696
▁دل	-1697
▁اطمینان	-1698
▁پنجاب	-1699
وئ	-1700
حالیہ	-1701
▁شعبوں	-1702
▁کیسے	-1703
▁پاس	-1704
▁بغ	-1705
▁رہے۔	-1706
کس	-1707
▁غرض	-1708
▁منسوب	-1709
▁سیاست	-1710
▁اضافہ	-1711
▁قطع	-1712
▁الکاہل	-1713
▁لاگ	-1714
▁روزہ	-1715
▁سطح	-1716
▁روا	-1717
ٹور	-1718
▁بیس	-1719
▁قار	-1720
▁شعبے	-1721
▁روپ	-1722
▁فیصد	-1723
▁آمدید	-1724
▁سع	-1725
▁مشکلات	-1726
اف	-1727
▁سیک	-1728
▁مطابقت	-1729
▁کیوں	-1730
▁ہج	-1731
▁آپس	-1732
کیل	-1733
▁کش	-1734
▁قارئین	-1735
▁طب	-1736
▁تعمیر	-1737
▁گھر	-1738
▁ہمیں	-1739
▁تھیں۔	-1740
اہمی	-1741
▁نشانہ	-1742
▁دینا	-1743
▁ترکی	-1744
▁حسین	-1745
▁تکن	-1746
▁پاکستانی	-1747
▁علاقوں	-1748
▁خطر	-1749
جے	-1750
▁مراحل	-1751
▁رود	-1752
▁تحقی	-1753
یورپ	-1754
▁ریل	-1755
▁گریز	-1756
▁ذریعہ	-1757
▁چوت	-1758
▁ایل	-1759
کیر	-1760
▁مب	-1761
▁۰۰۰	-1762
▁پھ	-1763
دمات	-1764
▁جدید	-1765
▁۴۲۰۲ء	-1766
▁امام	-1767
▁پابندیاں	-1768
▁درجہ	-1769
▁حق	-1770
لاغ	-1771
▁آرا	-1772
▁حیدر	-1773
▁بچ	-1774
▁منا	-1775
▁بخ	-1776
بیر	-1777
▁پڑتال	-1778
▁اہل	-1779
▁سمندر	-1780
▁اصطلاحات	-1781
۸۹	-1782
▁شراکتیں	-1783
▁ہات	-1784
بادی	-1785
یاری	-1786
▁جاننے	-1787
▁کردہ	-1788
▁ابلاغ	-1789
سلام	-1790
▁تکنیکی	-1791
▁باہمی	-1792
ارا	-1793
▁دوسروں	-1794
▁ممن	-1795
▁اولین	-1796
▁مراکش	-1797
▁مجاز	-1798
لاطینی	-1799
▁خلی	-1800
نقل	-1801
▁بے	-1802
▁خدمات	-1803
▁حکمر	-1804
▁مشترک	-1805
▁جائے۔	-1806
الم	-1807
▁باقی	-1808
▁ہسپ	-1809
شراکت	-1810
▁اجزا	-1811
سیع	-1812
▁انجام	-1813
▁رکھتے	-1814
▁۱۳	-1815
لڈ	-1816
▁اقتباس	-1817
▁ڈر	-1818
▁اشتہ	-1819
▁بہترین	-1820
▁متفر	-1821
▁بقیہ	-1822
▁آزادی	-1823
▁۴۳۲	-1824
▁بھول	-1825
▁مشترکہ	-1826
▁روٹ	-1827
▁فہرستیں	-1828
▁زمین	-1829
▁عطیہ	-1830
ختار	-1831
▁معاملے	-1832
▁بڑھنے	-1833
▁ڈیٹ	-1834
▁نظامی	-1835
▁رنگ	-1836
▁دیکھیے۔	-1837
▁سنہ	-1838
▁تصویریں	-1839
▁مشاہدہ	-1840
▁پتا	-1841
▁ما	-1842
▁خلاصہ	-1843
▁نکات	-1844
▁اشتہار	-1845
▁اعزاز	-1846
▁کھاتے	-1847
پور	-1848
▁آمو	-1849
▁ممنون	-1850
عالمی	-1851
▁سول	-1852
اکی	-1853
▁متفرقات	-1854
▁ملاپ	-1855
وکیٹ	-1856
▁راج	-1857
▁کیجی	-1858
لاع	-1859
▁قرار	-1860
▁تمغ	-1861
۰۳	-1862
▁بھولیں۔	-1863
▁رساں	-1864
ٹریس	-1865
ثم	-1866
▁حرف	-1867
▁پیمائی	-1868
یبین	-1869
▁تکلف	-1870
▁افریقی	-1871
▁فری	-1872
▁ماخ	-1873
بن	-1874
▁بنائیے	-1875
▁دہندگان	-1876
▁آرایس	-1877
کیریبین	-1878
▁آموختار	-1879
▁امریکہکیریبین	-1880
▁رقبہ	-1881
جیول	-1882
▁کین	-1883
▁مسائل۔	-1884
▁استعمالنقل	-1885
▁سکتی۔	-1886
▁ہمکاری	-1887
▁اختلا	-1888
جیولوکیٹ	-1889
▁لائیں	-1890
▁خوبیاں	-1891
ادیں	-1892
اط	-1893
۴۵۸۱	-1894
▁قریب	-1895
▁ممکن	-1896
▁ہندوستانی	-1897
▁گو	-1898
▁مبادی	-1899
▁آموختار۔	-1900
▁اعلان	-1901
▁رودادیں	-1902
لاد	-1903
۷۲	-1904
▁روسی	-1905
تیس	-1906
▁ایران	-1907
▁جانا	-1908
▁کیجیے۔	-1909
یپ	-1910
▁رنز	-1911
ئیں۔	-1912
▁کالج	-1913
▁غلط	-1914
▁۲۰۰۲ء	-1915
ضابطہ	-1916
▁دس	-1917
▁علامت	-1918
تح	-1919
▁ترک	-1920
▁جر	-1921
▁باضابطہ	-1922
▁آئیں	-1923
وز	-1924
▁مرت	-1925
▁ہے۔۲	-1926
▁سرب	-1927
ارات	-1928
▁کرا	-1929
▁پھی	-1930
▁لین	-1931
▁خات	-1932
۰۷	-1933
▁ساز	-1934
▁فوجی	-1935
▁عثم	-1936
▁آٹھ	-1937
▁شہید	-1938
یٹی	-1939
جن	-1940
۳۶	-1941
یشنل	-1942
▁سرح	-1943
۹۶	-1944
چر	-1945
▁جام	-1946
▁آسٹریلیا	-1947
راف	-1948
▁لاہ	-1949
▁صوبہ	-1950
تل	-1951
▁مرکزی	-1952
▁نتی	-1953
نام	-1954
اند	-1955
▁نواز	-1956
▁کونسل	-1957
▁حضرت	-1958
راق	-1959
▁الب	-1960
▁تا	-1961
▁سنگ	-1962
▁دھ	-1963
اتین	-1964
▁سافٹ	-1965
▁تشکیل	-1966
▁سرخ	-1967
▁سلسلہ	-1968
▁ھ	-1969
▁لاہور	-1970
▁ویئر	-1971
▁رکھتی	-1972
شت	-1973
▁نیشنل	-1974
▁اقو	-1975
▁الام	-1976
ریق	-1977
▁کتابوں	-1978
▁اعلی	-1979
▁بھائی	-1980
▁کردار	-1981
▁پوش	-1982
▁مرکز	-1983
▁ادارہ	-1984
▁کب	-1985
ائز	-1986
▁دفعہ	-1987
راہ	-1988
▁ریا	-1989
▁یوم	-1990
▁موسیقی	-1991
▁منظ	-1992
▁ڈیٹا	-1993
▁کراچی	-1994
▁فیصل	-1995
▁رکھنے	-1996
▁مذہبی	-1997
▁▁▁	-1998
▁عر	-1999
ورڈ	-2000
ائج	-2001
▁سہ	-2002
▁جماعت	-2003
▁ٹوئ	-2004
▁انسائیک	-2005
▁انسائیکلو	-2006
▁مین	-2007
▁کلاس	-2008
▁خواتین	-2009
۸۹۱	-2010
▁انہ	-2011
▁یونین	-2012
▁امن	-2013
▁ڈرام	-2014
اروں	-2015
▁چین	-2016
وپ	-2017
▁ٹوئنٹی	-2018
ہائے	-2019
▁اسکول	-2020
ولت	-2021
▁نوٹ	-2022
▁کمیٹی	-2023
▁پڑھ	-2024
ویل	-2025
▁چکے	-2026
▁حتی	-2027
▁مطال	-2028
▁اہمیت	-2029
▁فوج	-2030
۶۲	-2031
▁لاکھ	-2032
▁وہاں	-2033
▁اطلاع	-2034
ظہار	-2035
▁اختلاف	-2036
▁انداز	-2037
▁تحقیق	-2038
جو	-2039
▁ماخذ	-2040
▁پارٹی	-2041
۸۵	-2042
▁اسر	-2043
▁انسائیکلوپیڈیا	-2044
اؤں	-2045
▁قتل	-2046
▁پوشیدہ	-2047
▁حد	-2048
▁اظہار	-2049
وسی	-2050
▁یاد	-2051
احب	-2052
اون	-2053
▁قوم	-2054
اء	-2055
▁قید	-2056
▁سرحد	-2057
انوی	-2058
▁ذکر	-2059
یند	-2060
▁انسانی	-2061
▁اقوام	-2062
خوا	-2063
▁کاروب	-2064
▁۳۱۰۲ء	-2065
فتی	-2066
▁ریاستوں	-2067
▁سربراہ	-2068
▁سور	-2069
وڈ	-2070
▁عراق	-2071
داد	-2072
▁کھیلا	-2073
▁مفت	-2074
▁انسان	-2075
▁واپس	-2076
▁جزائر	-2077
▁اٹھ	-2078
بیا	-2079
▁تحریک	-2080
▁السلام	-2081
▁مراد	-2082
▁دریائے	-2083
▁سویڈ	-2084
▁بخش	-2085
▁سما	-2086
ادر	-2087
▁الامکان	-2088
مولات	-2089
▁صلی	-2090
▁حکمران	-2091
▁تاریخی	-2092
▁یک	-2093
▁طریق	-2094
▁صاحب	-2095
نس	-2096
▁زیرِ	-2097
▁سولہ	-2098
▁مشمولات	-2099
▁ختم	-2100
▁صد	-2101
▁ہاکی	-2102
▁شیخ	-2103
▁پہا	-2104
▁سید	-2105
یما	-2106
▁عالم	-2107
▁روس	-2108
آن	-2109
▁سابق	-2110
۸۷	-2111
▁جلی	-2112
▁وسیع	-2113
▁رکھی	-2114
▁لکھی	-2115
▁افریقا	-2116
▁یونانی	-2117
▁حسن	-2118
زد	-2119
▁عوامی	-2120
خلاصہ	-2121
▁رہا۔	-2122
▁سمجھ	-2123
▁سندھ	-2124
۸۳	-2125
▁پائی	-2126
▁بانی	-2127
مار	-2128
سب	-2129
▁مقصد	-2130
▁۴۰۰۲ء	-2131
بول	-2132
▁یورپی	-2133
▁اسرائ	-2134
▁تنوع	-2135
▁اکیڈ	-2136
▁می	-2137
▁۸۹	-2138
▁لیپ	-2139
▁نشان	-2140
▁ارکان	-2141
▁اعت	-2142
▁بیٹے	-2143
▁۹۰	-2144
لز	-2145
▁قیام	-2146
▁رسول	-2147
گری	-2148
▁ئے	-2149
یری	-2150
ملکت	-2151
عیات	-2152
۵۲۰	-2153
▁گیند	-2154
بار	-2155
▁پرت	-2156
▁شاہی	-2157
۶۳	-2158
الب	-2159
▁ترجم	-2160
▁بنگلہ	-2161
اور	-2162
▁صح	-2163
▁لن	-2164
▁پارلیم	-2165
▁واق	-2166
▁صفحۂ	-2167
▁کھل	-2168
▁آد	-2169
عربی	-2170
▁لکھنے	-2171
▁مآ	-2172
▁حمل	-2173
▁فراہم	-2174
▁۷۳	-2175
حد	-2176
▁عددی	-2177
یسویں	-2178
▁ہجری	-2179
۷۹۱	-2180
▁چھوٹ	-2181
▁مآخذ	-2182
▁مقرر	-2183
۶۱ء	-2184
صول	-2185
▁الق	-2186
▁ناول	-2187
▁روپیہ	-2188
▁اکیڈمی	-2189
▁شک	-2190
ستہ	-2191
▁سلطان	-2192
▁نص	-2193
واز	-2194
▁فلمی	-2195
▁مقامی	-2196
▁شاعری	-2197
رز	-2198
ادری	-2199
▁گروپ	-2200
تاریخچہ	-2201
نگز	-2202
▁حساب	-2203
▁زر	-2204
▁سیر	-2205
▁فرق	-2206
یدان	-2207
▁ریلوے	-2208
▁شادی	-2209
▁واں	-2210
▁اعادہ	-2211
▁نئی	-2212
▁ریاستہائے	-2213
▁حصے	-2214
ٹری	-2215
▁ثقافت	-2216
▁معاونتخلاصہ	-2217
▁معاونتتاریخچہ	-2218
▁ہے۔۵	-2219
▁انٹرنیٹ	-2220
▁العربی	-2221
▁انگلینڈ	-2222
▁چکی	-2223
▁یوں	-2224
▁ست	-2225
▁منصوبہ	-2226
ہا	-2227
▁خطا	-2228
▁سالوں	-2229
ابت	-2230
▁ابی	-2231
▁متن	-2232
▁مور	-2233
▁چینی	-2234
▁گروہ	-2235
ڑھ	-2236
▁طبیعیات	-2237
▁بلے	-2238
ویت	-2239
َّ	-2240
سہ	-2241
▁نظاموں	-2242
وبی	-2243
▁مسلمانوں	-2244
▁فلموں	-2245
▁ماہ	-2246
ارج	-2247
▁۱۰۰۲ء	-2248
▁کشمیر	-2249
▁ورلڈ	-2250
▁ہاتھ	-2251
▁مقاب	-2252
▁زمانے	-2253
▁الگ	-2254
یوں	-2255
▁سعودی	-2256
▁فتح	-2257
▁حر	-2258
ٹس	-2259
۸۴	-2260
▁موجودات	-2261
یسر	-2262
▁غز	-2263
▁صو	-2264
▁چل	-2265
▁کبھی	-2266
▁الجزائر	-2267
خواست	-2268
▁تھیں	-2269
عاد	-2270
▁عموم	-2271
▁نامی	-2272
▁شام	-2273
ندہ	-2274
▁کمی	-2275
لفظ	-2276
▁الف	-2277
برانی	-2278
طن	-2279
▁موت	-2280
▁ضم	-2281
▁پا	-2282
▁۴۴	-2283
▁میدان	-2284
▁دہلی	-2285
▁گنتی	-2286
▁قدر	-2287
ندن	-2288
▁مسجد	-2289
▁ڈاک	-2290
▁حکمت	-2291
▁اعلیٰ	-2292
▁پین	-2293
▁سماجی	-2294
▁ملین	-2295
▁حا	-2296
ضہ	-2297
▁چوتھا	-2298
ونس	-2299
یتی	-2300
سات	-2301
▁انق	-2302
ویکیپیڈیا	-2303
▁پت	-2304
▁نمبر	-2305
▁لڑ	-2306
منٹ	-2307
اؤنڈ	-2308
ژن	-2309
بھ	-2310
▁ہندی	-2311
▁کاروباری	-2312
عو	-2313
زم	-2314
غان	-2315
▁اوس	-2316
▁عنا	-2317
▁ٹر	-2318
▁بنائے	-2319
▁وق	-2320
▁ابعاد	-2321
▁خد	-2322
▁تسل	-2323
▁نار	-2324
▁ثقافتی	-2325
ٹو	-2326
▁۰۷	-2327
▁شہری	-2328
ڑوں	-2329
▁برس	-2330
▁فرو	-2331
▁نتیجے	-2332
ثرت	-2333
▁مذہب	-2334
▁مصری	-2335
▁معیاری	-2336
▁بنتے	-2337
▁۵۴	-2338
▁اداکار	-2339
▁کتب	-2340
▁کاؤ	-2341
▁انتخابات	-2342
▁۳۲۰۲ء	-2343
▁اثر	-2344
اوت	-2345
▁لیا۔	-2346
عی	-2347
▁آنے	-2348
آمد	-2349
▁سابقہ	-2350
قد	-2351
▁پول	-2352
▁نقص	-2353
▁وسلم	-2354
▁۸۱۰۲ء	-2355
▁رسم	-2356
▁ممکنہ	-2357
گرام	-2358
▁انتظام	-2359
ابر	-2360
▁ژ	-2361
▁ریاضی	-2362
▁مملکت	-2363
▁کیمیا	-2364
نیت	-2365
ثری	-2366
▁گرد	-2367
▁طلب	-2368
▁صن	-2369
▁لندن	-2370
▁واقعات	-2371
▁اسرائیل	-2372
لینڈ	-2373
▁اصول	-2374
▁شو	-2375
▁ویل	-2376
وبہ	-2377
دیث	-2378
▁قرآن	-2379
▁اقتص	-2380
کش	-2381
▁سمجھا	-2382
پی	-2383
فعت	-2384
ساتویں	-2385
▁امارات	-2386
▁زمانہ	-2387
۷۵	-2388
▁مقبول	-2389
زوں	-2390
۶۹	-2391
▁اداکارہ	-2392
▁لگا	-2393
▁شہرت	-2394
▁خلافت	-2395
▁قص	-2396
▁کثرت	-2397
▁درخواست	-2398
▁جنہ	-2399
وچ	-2400
▁عبرانی	-2401
▁وار	-2402
▁ریک	-2403
▁افغان	-2404
▁علاقائی	-2405
▁والوں	-2406
۰۴	-2407
▁طویل	-2408
بت	-2409
▁سف	-2410
▁کور	-2411
▁چاہتا	-2412
وتھی	-2413
▁ساحل	-2414
▁عق	-2415
ڈو	-2416
▁عناصر	-2417
▁بغاوت	-2418
اؤن	-2419
▁مرتبہ	-2420
اہرہ	-2421
▁واقعہ	-2422
▁آواز	-2423
▁جاپ	-2424
▁۵۰۰۲ء	-2425
▁لاطینی	-2426
▁اکثری	-2427
▁جمع	-2428
▁ایف	-2429
▁۱۵	-2430
۷۳	-2431
▁بش	-2432
رل	-2433
▁کاؤنٹی	-2434
۳۲۰۲	-2435
▁شرط	-2436
▁ایج	-2437
▁انڈیا	-2438
▁۵۳	-2439
▁جیت	-2440
▁ثابت	-2441
▁منفعت	-2442
▁ڈھ	-2443
▁۳۰۰۲ء	-2444
▁مختصر	-2445
چوتھی	-2446
▁یہودی	-2447
▁الخط	-2448
۰۶	-2449
نہ	-2450
▁نیپ	-2451
▁گریگ	-2452
▁ویں	-2453
▁لگائی	-2454
▁اننگز	-2455
▁ثانی	-2456
▁صحا	-2457
▁بندی	-2458
▁حوال	-2459
حیح	-2460
▁فٹ	-2461
قب	-2462
▁ایسی	-2463
▁ہونا	-2464
الت	-2465
▁تبادلہ	-2466
شنل	-2467
ورین	-2468
▁ڑ	-2469
▁ے	-2470
▁باع	-2471
▁دع	-2472
ثی	-2473
▁پوری	-2474
رے	-2475
▁ویسٹ	-2476
▁سائٹس	-2477
▁قبر	-2478
▁ادبی	-2479
▁سری	-2480
▁مظ	-2481
▁ہماری	-2482
▁میری	-2483
▁ترجمہ	-2484
▁تیسری	-2485
▁تاج	-2486
▁رہائش	-2487
لاب	-2488
▁۹۵	-2489
دیش	-2490
▁لائ	-2491
▁ضرور	-2492
▁جغ	-2493
▁چھوڑ	-2494
▁باعث	-2495
▁▁▁▁▁▁▁▁▁▁▁▁	-2496
▁بیل	-2497
▁ادا	-2498
▁نمایاں	-2499
▁ذہ	-2500
▁جنہیں	-2501
یکا	-2502
▁دیتے	-2503
▁شریک	-2504
۷۴۵۸۱	-2505
▁گورن	-2506
▁۲۵	-2507
مپ	-2508
▁ہوئیں۔	-2509
▁بند	-2510
▁ہوائی	-2511
وعہ	-2512
▁ابتدا	-2513
▁ماس	-2514
اسی	-2515
▁طیار	-2516
▁ابر	-2517
▁لینے	-2518
▁کرن	-2519
▁بربر	-2520
▁خلیج	-2521
▁۸۵	-2522
ہویں	-2523
▁نوازا	-2524
▁۶۵	-2525
▁۴۵	-2526
۷۱ء	-2527
▁میچوں	-2528
شراکتیں	-2529
اتے	-2530
▁امت	-2531
▁ہیں۔۶۵	-2532
متاز	-2533
▁تعاون	-2534
▁جغراف	-2535
▁منگ	-2536
▁حملہ	-2537
دوس	-2538
▁محم	-2539
ڈر	-2540
▁مختار	-2541
۹۵	-2542
▁پو	-2543
▁پروگرام	-2544
▁وادی	-2545
مان	-2546
▁شاخ	-2547
اہد	-2548
▁دیش	-2549
▁قبیل	-2550
▁واحد	-2551
۰۹۱ء	-2552
▁تسلیم	-2553
▁ریڈ	-2554
▁گاؤں	-2555
▁کردگی	-2556
▁فرسٹ	-2557
▁ہوا۔۱	-2558
▁میں۔	-2559
▁ملتی	-2560
▁ممتاز	-2561
ینیا	-2562
بے	-2563
مبلی	-2564
▁اسمبلی	-2565
▁بلندی	-2566
▁انٹرنیشنل	-2567
▁بلحاظ	-2568
▁کہلات	-2569
▁منتقل	-2570
▁اندراج	-2571
چھٹی	-2572
▁حقی	-2573
▁حیات	-2574
▁دی۔	-2575
▁حج	-2576
▁سٹ	-2577
▁ہیر	-2578
▁مطب	-2579
▁گاہ	-2580
▁طا	-2581
▁داد	-2582
تیسری	-2583
▁مسل	-2584
▁ہے۔۵۴۳	-2585
۸۸۱ء	-2586
▁انگلستان	-2587
▁تلفظ	-2588
▁پرتگ	-2589
▁کامیاب	-2590
▁الرح	-2591
۶۹۱	-2592
▁سطر	-2593
یکل	-2594
وفات	-2595
▁کیلوم	-2596
▁پانی	-2597
▁رام	-2598
ائب	-2599
▁فیصلہ	-2600
▁۳۳	-2601
▁آب	-2602
عوامی	-2603
▁جرمن	-2604
▁ڈاکٹر	-2605
ھے	-2606
▁کیلومیٹر	-2607
▁۳۲۰۲	-2608
▁۳۵	-2609
▁الن	-2610
▁شکست	-2611
یکساںشراکت	-2612
▁جامعہ	-2613
ائق	-2614
▁حوالے	-2615
۰۰۱	-2616
▁سوویت	-2617
▁اندر	-2618
▁ولاد	-2619
▁آتا	-2620
▁سوان	-2621
▁کھلاڑیوں	-2622
یتھ	-2623
▁مول	-2624
گز	-2625
▁پروف	-2626
▁آلہ	-2627
▁بولنے	-2628
▁امیر	-2629
▁ہدایت	-2630
▁تیز	-2631
▁تجرب	-2632
ئیں	-2633
▁معنی	-2634
▁نقطہ	-2635
▁مناسب	-2636
انگ	-2637
▁نامزد	-2638
▁ری	-2639
ابی	-2640
▁افغانستان	-2641
▁اقتصادی	-2642
ٹھی	-2643
پانچ	-2644
ڈی	-2645
یکٹر	-2646
▁حذ	-2647
▁آل	-2648
▁لیبیا	-2649
دن	-2650
پانچویں	-2651
▁جنرل	-2652
▁ڈالر	-2653
▁پسندیدہ	-2654
۲۲	-2655
▁متا	-2656
▁حدیث	-2657
▁لنکا	-2658
▁عموماً	-2659
▁سمیت	-2660
▁منع	-2661
▁صحیح	-2662
▁ذمہ	-2663
▁وفا	-2664
▁۹۱۰۲ء	-2665
اعدہ	-2666
یبیو	-2667
▁نگر	-2668
▁آرم	-2669
▁اسات	-2670
▁سندھی	-2671
▁چیز	-2672
▁سپ	-2673
▁وجود	-2674
▁ترمیمی	-2675
▁محنت	-2676
ڑا	-2677
▁جارج	-2678
▁صحت	-2679
▁گی	-2680
▁اساتذہ	-2681
▁قبضہ	-2682
▁شہروں	-2683
▁موسم	-2684
ڑے	-2685
▁مطالعہ	-2686
▁فلک	-2687
▁خدمت	-2688
▁محمود	-2689
▁چی	-2690
▁۷۰۰۲ء	-2691
▁برآمد	-2692
وف	-2693
▁رہتے	-2694
▁حصوں	-2695
▁روایت	-2696
▁آداب	-2697
▁مف	-2698
▁اوسط	-2699
▁۹۴	-2700
قیان	-2701
▁گلو	-2702
▁نیوزی	-2703
▁دریافت	-2704
▁ریکارڈ	-2705
۶۶	-2706
▁چکا	-2707
▁بوٹ	-2708
▁امیدوار	-2709
▁ٹاؤن	-2710
▁سنیما	-2711
۹۹	-2712
▁عبدال	-2713
▁۶۳	-2714
▁آیا۔	-2715
▁وصول	-2716
ورا	-2717
▁سنی	-2718
▁پن	-2719
▁متاثر	-2720
▁کوچ	-2721
نامہ	-2722
▁جنگی	-2723
▁بنی	-2724
▁جلد	-2725
▁حذف	-2726
▁مسیحی	-2727
▁کانگ	-2728
▁مقد	-2729
▁فاؤنڈ	-2730
▁جیتا	-2731
سک	-2732
▁تہجی	-2733
▁الش	-2734
▁پچ	-2735
▁اوقیان	-2736
▁تمغے	-2737
▁حل	-2738
ستی	-2739
▁طاقت	-2740
▁ابجد	-2741
بند	-2742
▁ء	-2743
▁مؤ	-2744
▁اتنا	-2745
دوسری	-2746
اہیم	-2747
▁آئر	-2748
▁پھیلا	-2749
▁کروڑ	-2750
▁خری	-2751
▁فاؤنڈیشن	-2752
▁۲۳	-2753
▁موزوں	-2754
▁فلسفہ	-2755
▁گریگورین	-2756
▁نویں	-2757
▁کہانی	-2758
▁فرض	-2759
▁نسل	-2760
▁امور	-2761
▁پتھر	-2762
▁مقابلے	-2763
▁اوقیانوس	-2764
پن	-2765
▁کیے۔	-2766
▁رہنے	-2767
▁چاہی	-2768
▁مطبوعہ	-2769
▁فض	-2770
▁کمیون	-2771
▁امتیا	-2772
▁بس	-2773
▁ول	-2774
▁بولتے	-2775
غی	-2776
آخری	-2777
▁۶۴	-2778
سٹری	-2779
ٹرول	-2780
▁گنو	-2781
▁کنارے	-2782
▁راہ	-2783
ہے	-2784
▁کوہ	-2785
▁استاد	-2786
▁جانچ	-2787
صے	-2788
▁اخب	-2789
منت	-2790
مے	-2791
▁تی	-2792
▁لبن	-2793
▁ڈراما	-2794
▁خاتون	-2795
▁مدینہ	-2796
▁رش	-2797
▁قاہرہ	-2798
▁سیز	-2799
▁واب	-2800
▁نظم	-2801
▁چلا	-2802
۹۸۱ء	-2803
▁تخت	-2804
▁سانچہن	-2805
▁پیرو	-2806
▁مان	-2807
▁۳۴	-2808
▁پروفیسر	-2809
▁موقع	-2810
▁ابراہیم	-2811
▁دش	-2812
▁۷۴	-2813
▁کرنسی	-2814
واڈ	-2815
▁ڈیبیو	-2816
زیز	-2817
اتا	-2818
مز	-2819
▁طرز	-2820
ٹک	-2821
▁اُن	-2822
▁پھال	-2823
تو	-2824
▁سنگھ	-2825
سانی	-2826
▁ملتا	-2827
▁داری	-2828
ازع	-2829
▁انڈین	-2830
▁مذ	-2831
▁گل	-2832
▁پزیر	-2833
▁ملکی	-2834
نیف	-2835
▁معلم	-2836
▁خلیفہ	-2837
▁۲۴	-2838
▁گذ	-2839
▁اوقات	-2840
▁کیری	-2841
▁وکٹیں	-2842
▁کتابیں	-2843
▁گول	-2844
▁پانچویں	-2845
▁دیتا	-2846
▁وف	-2847
▁ایجاد	-2848
۷۴	-2849
▁شہن	-2850
▁۸۴	-2851
▁کھیلے	-2852
ہِ	-2853
بلا	-2854
▁ویک	-2855
▁سلیم	-2856
▁کمپیو	-2857
چری	-2858
۸۴۵۸۱	-2859
▁ڈگری	-2860
▁ملی	-2861
▁حامل	-2862
▁علوم	-2863
▁۷۴۹۱ء	-2864
قر	-2865
▁ناک	-2866
▁متعارف	-2867
▁دستاویز	-2868
▁امکان	-2869
▁پھالکے	-2870
▁مراٹھی	-2871
▁۰۰۰۲ء	-2872
ھیں	-2873
▁شیر	-2874
▁لی۔	-2875
▁پیمانے	-2876
اڈ	-2877
یاد	-2878
▁دنوں	-2879
▁ریٹ	-2880
▁عرصے	-2881
▁۶۰۰۲ء	-2882
▁خال	-2883
▁خطے	-2884
▁ون	-2885
منتخب	-2886
▁دولت	-2887
ؤں	-2888
▁۵۵	-2889
▁۵۱۰۲ء	-2890
▁پالی	-2891
▁ہمارا	-2892
▁ہل	-2893
▁انڈیز	-2894
▁جغرافیائی	-2895
▁تصانی	-2896
▁مبنی	-2897
▁آئین	-2898
▁عمومی	-2899
▁اسم	-2900
وو	-2901
▁گاند	-2902
▁منعقد	-2903
تان	-2904
▁لاز	-2905
▁کربلا	-2906
▁بم	-2907
▁نب	-2908
۶۸۱ء	-2909
▁بغداد	-2910
حات	-2911
▁اینڈ	-2912
▁افس	-2913
▁ستر	-2914
▁گئیں۔	-2915
▁حما	-2916
▁کیریئر	-2917
▁۱۴	-2918
▁ایام	-2919
▁عہدے	-2920
▁تصانیف	-2921
▁کرد	-2922
▁میز	-2923
▁گاندھی	-2924
▁کپور	-2925
▁بارہ	-2926
یابی	-2927
▁کمپیوٹر	-2928
▁تباہ	-2929
▁بلوچ	-2930
اگ	-2931
▁بنگالی	-2932
۳۲۱	-2933
▁مقامات	-2934
▁شکلبند	-2935
▁مجموعہ	-2936
▁کوڈ	-2937
▁ہلا	-2938
پید	-2939
▁پہاڑی	-2940
یمن	-2941
▁الہ	-2942
▁وطن	-2943
▁سرگر	-2944
▁نامور	-2945
▁والدہ	-2946
دیق	-2947
اعظم	-2948
▁سنچری	-2949
▁بنے	-2950
▁گرم	-2951
▁دفاع	-2952
سٹر	-2953
▁۸۳	-2954
▁بیٹا	-2955
▁۸۲۸۲۱۲	-2956
▁بائی	-2957
▁مقال	-2958
▁شہنشاہ	-2959
▁قبول	-2960
▁اکثریت	-2961
▁شیعہ	-2962
غر	-2963
▁امتیاز	-2964
▁آئبیر	-2965
▁صلاح	-2966
▁سویڈش	-2967
▁حملے	-2968
▁اولمپ	-2969
الح	-2970
▁رک	-2971
ورو	-2972
▁مکہ	-2973
▁لبنان	-2974
یمیڈیا	-2975
▁چھٹی	-2976
۷۹	-2977
ادت	-2978
▁الط	-2979
▁۷۱۰۲ء	-2980
▁۴۳	-2981
▁۹۳	-2982
▁یس	-2983
سف	-2984
▁۷۵	-2985
▁بنگال	-2986
▁ولادت	-2987
خل	-2988
▁ادی	-2989
▁بغیر	-2990
۰۹	-2991
▁متو	-2992
▁غلام	-2993
▁باہر	-2994
▁انجمن	-2995
▁گہر	-2996
▁شکار	-2997
▁ٹیموں	-2998
▁طل	-2999
▁قری	-3000
▁حلق	-3001
▁شپ	-3002
▁چھوٹے	-3003
▁طے	-3004
▁وضاحت	-3005
۵۱ء	-3006
▁ٹھ	-3007
▁میڈ	-3008
▁قل	-3009
▁شرح	-3010
▁رائج	-3011
▁خل	-3012
طین	-3013
▁کنٹرول	-3014
رافی	-3015
▁آذ	-3016
▁سویڈن	-3017
▁آسان	-3018
▁بحرین	-3019
یڈا	-3020
▁ہن	-3021
اتھ	-3022
▁سینٹ	-3023
ٰی	-3024
▁کث	-3025
▁مہین	-3026
▁۲۲۰۲ء	-3027
▁ایوارڈز	-3028
قین	-3029
بال	-3030
▁ماں	-3031
وشوں	-3032
▁موس	-3033
▁کامیابی	-3034
▁مخال	-3035
لیت	-3036
▁آسانی	-3037
▁پردیش	-3038
مش	-3039
▁عرصہ	-3040
▁عثمانی	-3041
▁جھ	-3042
▁فرما	-3043
▁یوکر	-3044
آٹھ	-3045
▁فارہ	-3046
ہم	-3047
▁کرایا	-3048
▁عملی	-3049
▁ویکیپیڈیامنتخب	-3050
▁سون	-3051
▁یکم	-3052
▁باش	-3053
▁گنی	-3054
وانین	-3055
یمپ	-3056
▁کانگریس	-3057
۸۰	-3058
ونیشیا	-3059
▁سیریز	-3060
▁تصنیف	-3061
الو	-3062
▁حو	-3063
آٹھویں	-3064
▁ریٹائر	-3065
▁گز	-3066
▁الل	-3067
▁سنچر	-3068
▁سپر	-3069
▁رہائشی	-3070
▁بیٹی	-3071
▁تیاری	-3072
▁لگایا	-3073
▁۱۲۰۲ء	-3074
▁قوانین	-3075
لنگ	-3076
▁گجر	-3077
▁ہسپانوی	-3078
▁لکھتے	-3079
▁تقریبا	-3080
▁تمغا	-3081
▁حمایت	-3082
▁وابستہ	-3083
▁ویکیمیڈیا	-3084
▁جیسا	-3085
▁مشق	-3086
▁ہاتھوں	-3087
▁حقائق	-3088
▁ایچ	-3089
▁ازاں	-3090
▁اُر	-3091
▁سنچریاں	-3092
▁عرض	-3093
▁اعتم	-3094
▁لکھے	-3095
▁اقتدار	-3096
▁ویلز	-3097
▁رومی	-3098
▁ٹیلی	-3099
▁یہود	-3100
▁کہلاتا	-3101
▁باو	-3102
▁مغل	-3103
▁روایتی	-3104
▁خار	-3105
▁اُردو	-3106
کڑوں	-3107
▁ہوں۔	-3108
▁جنھیں	-3109
▁ملح	-3110
سو	-3111
▁سیزن	-3112
▁عباس	-3113
کھیل	-3114
▁مالک	-3115
اریہ	-3116
▁پورے	-3117
▁اڈ	-3118
▁اتر	-3119
▁خطاطی	-3120
▁ریاستیں	-3121
▁صفحہ۔	-3122
▁کہیں	-3123
▁افو	-3124
رچ	-3125
▁روش	-3126
▁بیم	-3127
▁الحال	-3128
▁ٹرافی	-3129
▁انی	-3130
▁مسئ	-3131
▁پندر	-3132
▁قا	-3133
▁انص	-3134
▁انقلاب	-3135
▁بگ	-3136
▁سنت	-3137
▁کےکھیل	-3138
▁سینکڑوں	-3139
▁چوتھی	-3140
▁گائیک	-3141
ائیج	-3142
▁بحث	-3143
▁خدا	-3144
▁کیر	-3145
۷۰	-3146
۰۱ء	-3147
▁سان	-3148
▁گڑھ	-3149
امنٹ	-3150
پورٹ	-3151
▁پایا	-3152
▁نصف	-3153
▁بلند	-3154
▁اعتبار	-3155
▁لیں۔	-3156
▁آہ	-3157
▁الر	-3158
▁براعظم	-3159
▁عمارت	-3160
ورہ	-3161
▁دما	-3162
▁پائے	-3163
ثار	-3164
▁وفاقی	-3165
فار	-3166
ایت	-3167
▁سکتا۔	-3168
فس	-3169
▁۰۶	-3170
▁ادیب	-3171
▁ٹورن	-3172
▁انہوں	-3173
سان	-3174
▁افواج	-3175
▁پیرس	-3176
▁ٹورنامنٹ	-3177
▁عوام	-3178
▁ڈائر	-3179
▁ہسپانیہ	-3180
▁ملتے	-3181
▁ہیڈ	-3182
▁ثل	-3183
▁لات	-3184
▁یسوع	-3185
▁خطہ	-3186
▁معاشر	-3187
▁بیگ	-3188
▁اعتماد	-3189
الا	-3190
گاہ	-3191
▁اسکور	-3192
▁باوجود	-3193
▁کلب	-3194
▁ہے۔۳	-3195
▁کثیر	-3196
▁شہادت	-3197
▁اداروں	-3198
انکہ	-3199
بئی	-3200
▁شرکت	-3201
▁کیں۔	-3202
▁۹۰۰۲ء	-3203
▁حوا	-3204
▁نکل	-3205
موجود	-3206
▁دخل	-3207
▁باق	-3208
▁دادا	-3209
▁کول	-3210
▁سامی	-3211
ٹل	-3212
▁تونس	-3213
▁لکھیں	-3214
▁پائی۔	-3215
▁تہذ	-3216
▁تیل	-3217
▁تنہا	-3218
▁پورا	-3219
▁کارکن	-3220
سین	-3221
خی	-3222
▁مدر	-3223
ئن	-3224
▁بہن	-3225
بو	-3226
▁فلکیات	-3227
▁فور	-3228
▁بینک	-3229
یا۔	-3230
▁دھم	-3231
▁بدھ	-3232
▁۴۱۰۲ء	-3233
فع	-3234
ولیت	-3235
ڈیو	-3236
▁حالانکہ	-3237
▁رکھی۔	-3238
▁سوانحی	-3239
با	-3240
▁باشند	-3241
▁طالب	-3242
مع	-3243
▁ہار	-3244
▁برابر	-3245
▁العربیۃ	-3246
▁سانچہنومبر	-3247
▁رن	-3248
▁نیم	-3249
▁سیکشن	-3250
ویہ	-3251
▁اکبر	-3252
▁مسا	-3253
▁شریف	-3254
▁سوڈ	-3255
اکین	-3256
▁ایمان	-3257
▁انڈونیشیا	-3258
▁حواشی	-3259
منڈو	-3260
▁علمی	-3261
▁ہجرت	-3262
▁مسلسل	-3263
▁شماری	-3264
گن	-3265
▁شمولیت	-3266
▁۰۲۰۲ء	-3267
▁نیپال	-3268
▁سامنا	-3269
▁کاوشوں	-3270
۱۱۱	-3271
▁اچ	-3272
▁دوم	-3273
▁گورنر	-3274
چھے	-3275
▁آتے	-3276
▁اراکین	-3277
یریا	-3278
▁آؤ	-3279
▁۹۱۰۲	-3280
▁خیر	-3281
یانی	-3282
▁میٹ	-3283
▁باپ	-3284
▁ہائی	-3285
۴۲۰	-3286
حہ	-3287
▁ایوان	-3288
ولی	-3289
گار	-3290
ضر	-3291
▁اسپین	-3292
یدی	-3293
وریہ	-3294
▁سرم	-3295
ونٹ	-3296
▁لقب	-3297
▁پٹن	-3298
▁بورڈ	-3299
▁صحافی	-3300
لیف	-3301
▁باغ	-3302
▁کینیا	-3303
۹۷	-3304
▁بت	-3305
▁رح	-3306
▁لمب	-3307
▁مرد	-3308
▁مہار	-3309
ینا	-3310
▁بیو	-3311
▁چندر	-3312
▁تیسرے	-3313
▁آٹھویں	-3314
▁پال	-3315
▁بھگ	-3316
▁برقی	-3317
▁کیپ	-3318
سپی	-3319
ِی	-3320
سکر	-3321
▁نور	-3322
▁میان	-3323
ریم	-3324
▁معت	-3325
▁عباسی	-3326
بنائے	-3327
▁طریقے	-3328
امہ	-3329
▁قبیلہ	-3330
▁جامع	-3331
▁چاہیں	-3332
جع	-3333
▁ہیں۔۱	-3334
کم	-3335
▁انیسویں	-3336
▁رات	-3337
▁آثار	-3338
▁نمون	-3339
▁ارت	-3340
▁فروغ	-3341
▁محق	-3342
▁جانچنا	-3343
▁نسلی	-3344
▁سعد	-3345
▁ریلی	-3346
▁چھوٹی	-3347
▁بنو	-3348
▁کھیلنے	-3349
علق	-3350
۳۳۰	-3351
▁نہایت	-3352
▁۰۹۹۱ء	-3353
ائیڈ	-3354
▁عثمانیہ	-3355
▁جین	-3356
▁تہذیب	-3357
▁دراصل	-3358
▁وسط	-3359
▁فقہ	-3360
▁لاتعلق	-3361
▁کشی	-3362
▁سورج	-3363
▁أ	-3364
▁آؤٹ	-3365
▁وفیات	-3366
▁گرا	-3367
▁؛	-3368
▁۷۳۸۲۱۲	-3369
یمی	-3370
▁ادریس	-3371
ریشن	-3372
▁گھٹا	-3373
۵۴	-3374
▁قطر	-3375
▁جاپان	-3376
▁۰۸	-3377
۰۳۳۰	-3378
▁بدل	-3379
▁تحصیل	-3380
▁لاتعلقی	-3381
▁پابندی	-3382
▁تیر	-3383
میوں	-3384
▁منظر	-3385
▁معلمین	-3386
▁مُ	-3387
▁کہل	-3388
▁۲۹	-3389
یادت	-3390
▁فائز	-3391
▁معیش	-3392
▁۰۰۰۲	-3393
▁صنعت	-3394
▁۱۷۹۱ء	-3395
▁ترجی	-3396
▁منظری	-3397
▁جسم	-3398
▁ثلثی	-3399
▁المعارف۔	-3400
یلڈ	-3401
ظمین	-3402
▁ایسوسی	-3403
▁لغ	-3404
▁جع	-3405
▁اِر	-3406
ربانی	-3407
▁پنجابی	-3408
پاک	-3409
۰۰۰	-3410
▁سکے	-3411
▁شکر	-3412
▁قیادت	-3413
حاق	-3414
▁کیں	-3415
۰۰۶	-3416
▁۰۱۰۲ء	-3417
گل	-3418
▁مقدس	-3419
▁کنندہ	-3420
▁بوس	-3421
▁مجلس	-3422
▁نت	-3423
▁ایئر	-3424
▁بازی	-3425
▁سیکھ	-3426
▁خام	-3427
راب	-3428
▁ناروے	-3429
▁ذاتی	-3430
▁اگرچہ	-3431
کومتی	-3432
۶۴	-3433
۹۳	-3434
▁بائٹ	-3435
▁عمان	-3436
▁یوسف	-3437
▁ہسپتال	-3438
▁دھماک	-3439
▁ارب	-3440
ہوری	-3441
▁دفتر	-3442
▁سوڈان	-3443
▁کرو	-3444
دول	-3445
فل	-3446
َن	-3447
▁نتیجہ	-3448
اٹ	-3449
▁ایٹ	-3450
▁حکم	-3451
▁ماضی	-3452
▁تنازع	-3453
▁رکنیت	-3454
ینک	-3455
ٹرز	-3456
ستگی	-3457
▁رسال	-3458
▁بشمول	-3459
ونچ	-3460
▁حم	-3461
▁بالا	-3462
▁۲۷	-3463
▁چود	-3464
▁ماسکو	-3465
▁ایرانی	-3466
▁کینیڈا	-3467
▁مہم	-3468
باب	-3469
▁دورہ	-3470
▁۳۱۰۲	-3471
▁بیسویں	-3472
▁دا	-3473
▁طاہر	-3474
▁اجلاس	-3475
▁پل	-3476
▁کاررو	-3477
▁ڈے	-3478
▁حکومتی	-3479
▁اصغر	-3480
▁خاتمے	-3481
▁اسٹیشن	-3482
۸۱۰۲	-3483
▁سخت	-3484
▁اردن	-3485
▁مولانا	-3486
▁شری	-3487
▁خرید	-3488
▁روشنی	-3489
▁قدرتی	-3490
▁سبب	-3491
گا	-3492
▁بچوں	-3493
▁جہاز	-3494
▁حقیقی	-3495
ھیل	-3496
▁معیشت	-3497
▁ہری	-3498
▁پرتگال	-3499
نڈی	-3500
▁تیم	-3501
▁شان	-3502
▁بننے	-3503
▁ممبئی	-3504
▁چلے	-3505
▁الز	-3506
▁دلچ	-3507
▁ساؤ	-3508
ثہ	-3509
▁۵۷	-3510
ابہ	-3511
بک	-3512
ڑک	-3513
▁سلسلے	-3514
▁پڑھنے	-3515
▁آئرلینڈ	-3516
مبر	-3517
▁۶۷	-3518
▁استر	-3519
▁رہی۔	-3520
▁میانمار	-3521
▁وض	-3522
▁سازی	-3523
▁تجارت	-3524
▁منتظمین	-3525
▁۸۱۰۲	-3526
▁بہادر	-3527
▁فروخت	-3528
▁غالب	-3529
▁اقدار	-3530
▁رض	-3531
زیشن	-3532
صی	-3533
وتی	-3534
▁کوئ	-3535
▁یمن	-3536
▁اسماع	-3537
▁کھیلی	-3538
▁اوزار	-3539
▁غزل	-3540
▁عدالت	-3541
▁بری	-3542
▁انگریز	-3543
▁اوور	-3544
ایک	-3545
۴۱ء	-3546
▁معاہدہ	-3547
بیت	-3548
▁اکائی	-3549
۹۴	-3550
▁بیت	-3551
▁فلسطین	-3552
▁مفہ	-3553
▁گزر	-3554
▁ڈوم	-3555
َم	-3556
▁گھنٹ	-3557
راج	-3558
▁۴۷۹۱ء	-3559
▁عرف	-3560
ناس	-3561
▁خطاب	-3562
▁چیمپ	-3563
▁رضی	-3564
▁صوبائی	-3565
شا	-3566
▁حکیم	-3567
▁فرمایا	-3568
▁دہی	-3569
▁مفہوم	-3570
▁کپتان	-3571
▁۸۰۰۲ء	-3572
▁آبنائے	-3573
▁پڑا	-3574
زمین	-3575
▁مات	-3576
ورنیا	-3577
رخ	-3578
▁انٹ	-3579
▁عرو	-3580
▁تعلیمی	-3581
قلی	-3582
▁اداکاری	-3583
▁مہربانی	-3584
انوں	-3585
▁اولاد	-3586
▁مہاراش	-3587
▁خصوصیات	-3588
▁معاشی	-3589
▁جھیل	-3590
▁۴۸۹۱ء	-3591
▁کریم	-3592
▁انہیں	-3593
▁نگاری	-3594
ویسی	-3595
▁دمش	-3596
▁نوع	-3597
▁انجین	-3598
▁کھیلوں	-3599
▁نتائج	-3600
▁کھیلے۔	-3601
▁رابط	-3602
▁ریاستی	-3603
▁ڈیو	-3604
▁۲۲۰۲	-3605
۰۰۵	-3606
▁قیم	-3607
▁دفات	-3608
▁دفاتر	-3609
ابق	-3610
▁عہدہ	-3611
▁لہجہ	-3612
▁۶۱۰۲ء	-3613
▁باقاعدہ	-3614
▁پہچ	-3615
▁مواصل	-3616
▁فاط	-3617
▁ملکوں	-3618
▁۰۶۹۱ء	-3619
▁جمہوری	-3620
▁علاج	-3621
▁استرجع	-3622
▁سمجھتے	-3623
▁صلاحیت	-3624
ضاد	-3625
ئیر	-3626
▁۰۱۰۲	-3627
▁بک	-3628
▁مردم	-3629
۔۔	-3630
۱۲۱	-3631
▁مطل	-3632
▁چرچ	-3633
ُو	-3634
▁بمب	-3635
▁دیکھیں	-3636
▁منصف	-3637
▁تصدیق	-3638
▁ریڈیو	-3639
صری	-3640
▁۱۱۰۲ء	-3641
▁روڈ	-3642
▁مدت	-3643
▁سعید	-3644
▁ایشیائی	-3645
قرار	-3646
ہرا	-3647
▁یوگ	-3648
سکرت	-3649
▁فائن	-3650
اض	-3651
یمز	-3652
▁کاب	-3653
▁ملکہ	-3654
▁نسب	-3655
▁منایا	-3656
▁الرحمن	-3657
▁ازبک	-3658
▁برصغیر	-3659
▁ڈن	-3660
▁قبائل	-3661
▁خبروں	-3662
▁زخ	-3663
▁برادری	-3664
▁۰۷۹۱ء	-3665
شتہ	-3666
▁ٹیکن	-3667
ونگ	-3668
▁روک	-3669
▁سکور	-3670
▁کلام	-3671
▁سہولت	-3672
۰۸	-3673
▁علما	-3674
▁وسطیٰ	-3675
▁ٹیو	-3676
▁اٹ	-3677
▁عاش	-3678
▁مزاح	-3679
▁سنسکرت	-3680
▁کارروائی	-3681
▁سچ	-3682
▁برت	-3683
▁نبی	-3684
ًا	-3685
▁نیل	-3686
▁محک	-3687
واری	-3688
ونا	-3689
▁اخبار	-3690
یڈیم	-3691
▁مرزا	-3692
▁پالیسی	-3693
جوی	-3694
▁ڈائریکٹر	-3695
▁نکال	-3696
▁جاپانی	-3697
▁برقرار	-3698
▁دیتی	-3699
▁۲۱۰۲ء	-3700
▁دمشق	-3701
▁عثمان	-3702
▁مائیک	-3703
▁اختیارات	-3704
▁بنائے۔	-3705
▁پارلیمنٹ	-3706
▁ترق	-3707
ظر	-3708
گرد	-3709
▁نج	-3710
پیدائش	-3711
▁وڈ	-3712
▁فوری	-3713
۵۵	-3714
▁نویس	-3715
▁رفت	-3716
▁گزار	-3717
▁رپورٹ	-3718
▁سلام	-3719
▁باؤ	-3720
▁معاش	-3721
۷۸	-3722
▁خوار	-3723
▁نجی	-3724
▁۹۹۹۱ء	-3725
یکم	-3726
▁مخالف	-3727
▁شج	-3728
▁بہار	-3729
▁مستقل	-3730
بود	-3731
▁۵۴۹۱ء	-3732
صف	-3733
▁اندلس	-3734
▁ماب	-3735
الوجی	-3736
▁رہتی	-3737
▁علامہ	-3738
▁گلوکار	-3739
ریٹ	-3740
وروں	-3741
▁سالہ	-3742
▁تھیٹر	-3743
▁دلچسپی	-3744
ویج	-3745
▁۶۸	-3746
▁معمول	-3747
▁نویسی	-3748
▁کاٹھ	-3749
مالیہ	-3750
▁اندازہ	-3751
▁۹۸۹۱ء	-3752
▁بج	-3753
▁الخ	-3754
غل	-3755
▁رسائی	-3756
▁اسٹیڈیم	-3757
▁کہہ	-3758
فرانس	-3759
▁مطلوبہ	-3760
لوی	-3761
▁نماز	-3762
▁ہے۔۴	-3763
یکٹ	-3764
▁سٹی	-3765
▁سکتے۔	-3766
▁بیماری	-3767
▁مہاراشٹر	-3768
▁فلمیں	-3769
▁مواصلات	-3770
▁فعل	-3771
▁۰۰۹	-3772
ھار	-3773
▁شدید	-3774
▁۶۱۰۲	-3775
▁تیسرا	-3776
▁دوست	-3777
▁وکٹوریہ	-3778
بح	-3779
▁ہمارے	-3780
▁سوچ	-3781
▁▁▁▁▁	-3782
عر	-3783
▁روح	-3784
▁ہنگ	-3785
▁رابطے	-3786
▁ادو	-3787
▁طبیب	-3788
▁سترہویں	-3789
فے	-3790
▁عج	-3791
▁تد	-3792
▁بان	-3793
▁فاس	-3794
یون	-3795
▁مصنفین	-3796
شہ	-3797
اکر	-3798
الیف	-3799
داری	-3800
▁وکی	-3801
▁سلوو	-3802
▁جز	-3803
▁مہینہ	-3804
▁گجرات	-3805
▁گریجوی	-3806
ڈل	-3807
ینو	-3808
شید	-3809
طابق	-3810
▁بلق	-3811
▁وہی	-3812
▁پشت	-3813
▁رکھیں۔	-3814
▁بحری	-3815
▁روبہ	-3816
مری	-3817
چھا	-3818
▁شَ	-3819
▁اکیسویں	-3820
▁ہیں۔۲	-3821
▁اطلاعات	-3822
▁موہ	-3823
ٹے	-3824
▁انیس	-3825
▁نگرانی	-3826
فرنس	-3827
▁جزیرے	-3828
یشہ	-3829
▁خواہ	-3830
▁منگول	-3831
▁مہینے	-3832
۹۰	-3833
▁نوشت	-3834
▁لائبر	-3835
▁ہلاک	-3836
▁تیرہ	-3837
▁اقبال	-3838
▁صوبے	-3839
▁بچے	-3840
▁فلسفی	-3841
▁متضاد	-3842
▁زلز	-3843
غیرات	-3844
▁فائنل	-3845
▁ایتھ	-3846
▁پھیل	-3847
▁ساؤتھ	-3848
▁جائیں۔	-3849
▁طریقوں	-3850
▁جمہوریت	-3851
▁بکر	-3852
▁البتہ	-3853
▁طیارہ	-3854
ربائیج	-3855
▁سرما	-3856
▁پارلیمانی	-3857
▁فارس	-3858
▁فلپ	-3859
▁لک	-3860
▁۰۹	-3861
▁منط	-3862
▁صدارتی	-3863
▁متر	-3864
▁جائز	-3865
▁مؤرخ	-3866
▁گیت	-3867
اق	-3868
اؤس	-3869
▁چان	-3870
▁ترقیاتی	-3871
ھواں	-3872
▁معاہد	-3873
▁کینسر	-3874
▁کویت	-3875
▁بمطابق	-3876
▁حالات	-3877
▁۷۳۹۱ء	-3878
▁عورت	-3879
▁پارلیمان	-3880
▁ثال	-3881
اکس	-3882
یوز	-3883
▁شہزاد	-3884
▁سرحدیں	-3885
▁بلد	-3886
▁مقیم	-3887
▁نشریات	-3888
▁کمال	-3889
▁رواج	-3890
▁پولیس	-3891
▁تنظیموں	-3892
یرا	-3893
▁کیل	-3894
▁عطا	-3895
▁ڈیز	-3896
▁تعین	-3897
▁ویژن	-3898
بھارت	-3899
▁ملا۔	-3900
حریر	-3901
▁بتا	-3902
▁ٹیکنالوجی	-3903
نڈا	-3904
ھویں	-3905
▁راجا	-3906
▁۱۹۹۱ء	-3907
یزو	-3908
▁شائ	-3909
▁نزد	-3910
▁منصور	-3911
▁زرا	-3912
▁پرتگالی	-3913
▁قوت	-3914
▁کیلیف	-3915
▁جڑ	-3916
▁۹۷	-3917
▁تربیت	-3918
ّا	-3919
رفت	-3920
▁تہوار	-3921
▁مقابل	-3922
▁ڈنمار	-3923
ولک	-3924
پول	-3925
▁حاضر	-3926
▁سرزمین	-3927
▁ہیرلڈ	-3928
نوں	-3929
▁دشمن	-3930
▁دیکھیے	-3931
▁ہاں	-3932
▁اچھی	-3933
▁شدگی	-3934
▁وہیں	-3935
▁کیلیفورنیا	-3936
▁منج	-3937
قام	-3938
▁ناکام	-3939
پاکستان	-3940
ٹہ	-3941
۳۵۲۰	-3942
▁علاح	-3943
بد	-3944
▁قرون	-3945
▁۳۷	-3946
▁قطب	-3947
▁منٹ	-3948
▁ویت	-3949
▁محل	-3950
ینیائی	-3951
▁ٹوئنٹی۰۲	-3952
فاق	-3953
▁اسحاق	-3954
یبر	-3955
▁دسویں	-3956
▁پینٹر	-3957
پا	-3958
ظمی	-3959
وئی	-3960
▁آذربائیج	-3961
▁پش	-3962
▁جوز	-3963
▁نصر	-3964
۴۴	-3965
▁امپ	-3966
▁عروج	-3967
▁قبرستان	-3968
▁منصفانہ	-3969
▁کلاسیکی	-3970
وج	-3971
صورت	-3972
▁لسانی	-3973
▁لائبریری	-3974
▁جے	-3975
▁شاگرد	-3976
▁سوس	-3977
▁منز	-3978
▁خارجہ	-3979
▁دانوں	-3980
▁مسافر	-3981
▁چاہیے۔	-3982
َہ	-3983
فری	-3984
▁۷۶	-3985
سکری	-3986
▁منتقلی	-3987
▁پہاڑ	-3988
▁سوریہ	-3989
▁بیوی	-3990
▁علاحدہ	-3991
۹۸۵	-3992
▁ہے۔۔	-3993
▁پروڈیو	-3994
▁سرگرم	-3995
ہِید	-3996
▁میرے	-3997
▁زراعت	-3998
▁الس	-3999
▁میک	-4000
▁پیشہ	-4001
صار	-4002
▁۵۱۰۲	-4003
▁دفاعی	-4004
▁مام	-4005
▁۶۰۰۲	-4006
▁آجانے	-4007
▁ہوئیں	-4008
▁کھیلا۔	-4009
▁تجربہ	-4010
▁مستح	-4011
۹۲۳۰	-4012
آخر	-4013
▁لال	-4014
▁بنت	-4015
▁بیلار	-4016
۳۱ء	-4017
▁ایشن	-4018
▁حجاز	-4019
▁نع	-4020
▁۰۸۹۱ء	-4021
▁پیداوار	-4022
ارق	-4023
▁کہلاتی	-4024
نویں	-4025
▁بجے	-4026
▁۸۹۹۱ء	-4027
پہ	-4028
▁یز	-4029
یکو	-4030
▁سروس	-4031
▁بنایا۔	-4032
▁کیمیاء	-4033
▁الحق	-4034
▁اختتام	-4035
▁اگلے	-4036
انت	-4037
ندھ	-4038
▁۵۶	-4039
▁مارک	-4040
▁معمولی	-4041
▁کانفرنس	-4042
ینگ	-4043
یموری	-4044
▁پکار	-4045
یرو	-4046
▁ڈیزائن	-4047
▁تاب	-4048
▁انکار	-4049
▁روزنامہ	-4050
یط	-4051
انڈ	-4052
▁لم	-4053
▁راستے	-4054
▁ہمیشہ	-4055
▁۷۹	-4056
۸۲۳۰	-4057
▁حقیقت	-4058
ؤنڈ	-4059
▁یونان	-4060
▁مسیحیت	-4061
وظ	-4062
▁پارک	-4063
▁مسئلہ	-4064
َب	-4065
▁سردار	-4066
زب	-4067
▁زین	-4068
▁سنبھ	-4069
▁مقابلہ	-4070
▁جمل	-4071
▁رہتا	-4072
جب	-4073
حلی	-4074
▁باس	-4075
▁اجرا	-4076
▁ذہن	-4077
۳۳	-4078
▁۱۶	-4079
▁چیف	-4080
▁طریقۂ	-4081
اصد	-4082
ومن	-4083
▁البر	-4084
▁الحسن	-4085
▁سمر	-4086
رک	-4087
▁ٹائم	-4088
▁ٹیکس	-4089
لیٹ	-4090
▁انڈر	-4091
▁نواب	-4092
▁صوبوں	-4093
▁زخمی	-4094
▁۰۲۸۲۱۲	-4095
▁پچھ	-4096
▁نائب	-4097
شل	-4098
▁مرتب	-4099
▁ڈرامے	-4100
شاد	-4101
▁ماح	-4102
▁تیونس	-4103
▁گراؤنڈ	-4104
▁لطی	-4105
▁ملحوظ	-4106
▁چاہیے	-4107
▁تشدد	-4108
لر	-4109
▁نقاد	-4110
▁ثانوی	-4111
▁آرٹ	-4112
▁نوجو	-4113
▁تجدید	-4114
ورش	-4115
▁کابینہ	-4116
ونڈ	-4117
▁ریاض	-4118
▁بلوچستان	-4119
الحکومت	-4120
▁ووٹ	-4121
▁چلی	-4122
▁معد	-4123
رس	-4124
▁انجینئر	-4125
یسی	-4126
▁کرک	-4127
▁خیبر	-4128
▁عسکری	-4129
ڈن	-4130
▁کاموں	-4131
▁آئبیریا	-4132
▁شائستگی	-4133
▁ڈبل	-4134
ژاد	-4135
▁انا	-4136
▁گئیں	-4137
▁برتحریر	-4138
▁سیل	-4139
▁ڈنمارک	-4140
▁کِ	-4141
▁۱۲۰۲	-4142
▁جیتنے	-4143
▁زبر	-4144
▁عار	-4145
▁فضل	-4146
▁۰۰۵	-4147
▁کاپی	-4148
وق	-4149
▁اٹلی	-4150
▁چاند	-4151
▁خاتمہ	-4152
میل	-4153
عل	-4154
▁بالکل	-4155
▁منتظم	-4156
▁اولمپکس	-4157
مراہ	-4158
اپور	-4159
▁بالی	-4160
▁دعوت	-4161
▁نظریہ	-4162
▁حکمرانی	-4163
▁وغیرہ۔	-4164
شیا	-4165
▁سوئ	-4166
▁جیسی	-4167
▁دائرہ	-4168
▁آسٹریلوی	-4169
▁جبر	-4170
▁انصاف	-4171
▁عیسائی	-4172
کام	-4173
▁نژاد	-4174
▁ایسٹ	-4175
▁شال	-4176
۷۷	-4177
▁ساحلی	-4178
▁فکر	-4179
عون	-4180
▁کالم	-4181
▁سولہویں	-4182
بوت	-4183
▁ماحول	-4184
▁پرستی	-4185
▁رہیں	-4186
▁علیح	-4187
▁پولش	-4188
▁تعبیر	-4189
آپ	-4190
▁خالد	-4191
▁عمرو	-4192
۱۱ء	-4193
۹۸۵۳۶	-4194
ہد	-4195
ریسی	-4196
▁خاک	-4197
▁پچاس	-4198
▁قاب	-4199
▁کلیس	-4200
▁راش	-4201
▁کات	-4202
▁طیارے	-4203
▁حسابِ	-4204
▁مقاصد	-4205
▁۹۶۹۱ء	-4206
▁لئے	-4207
▁قریبی	-4208
▁مہارت	-4209
▁اشاریہ	-4210
▁قیمت	-4211
▁محیط	-4212
ضے	-4213
▁وث	-4214
▁۲۸	-4215
دانی	-4216
زن	-4217
▁العلوم	-4218
▁دیہ	-4219
▁ہال	-4220
▁۱۹	-4221
▁ساتویں	-4222
▁سمجھی	-4223
▁نظریات	-4224
ہیپ	-4225
▁چو	-4226
▁پیچھے	-4227
▁فلسطینی	-4228
صرہ	-4229
وابط	-4230
▁ڈوی	-4231
ونے	-4232
عنی	-4233
▁سسٹ	-4234
شم	-4235
▁۵۸	-4236
دادی	-4237
ندیزی	-4238
▁بنا۔	-4239
▁دعوی	-4240
▁رقم	-4241
▁اللس	-4242
▁محکمہ	-4243
▁پشاور	-4244
ادیث	-4245
▁نکلا	-4246
ملک	-4247
▁۸۶	-4248
▁ویڈ	-4249
▁اشتر	-4250
۰۰۳	-4251
▁آئے۔	-4252
▁آہستہ	-4253
▁اٹھار	-4254
▁تجربات	-4255
▁٭	-4256
▁سلا	-4257
▁باشندوں	-4258
▁الت	-4259
▁عبداللہ	-4260
▁کندہ	-4261
▁کیمپ	-4262
▁معاہدے	-4263
نڈر	-4264
▁براز	-4265
▁پاپ	-4266
▁میرا	-4267
▁اشارہ	-4268
▁تار	-4269
▁نیٹ	-4270
▁۸۴۹۱ء	-4271
▁بنے۔	-4272
▁نزدیک	-4273
▁اخ	-4274
▁احادیث	-4275
▁پخت	-4276
▁فوجیموری	-4277
▁بذ	-4278
▁ڈین	-4279
▁میٹرو	-4280
۰۲۱	-4281
▁راؤ	-4282
▁بازوں	-4283
▁یادگار	-4284
۹۸	-4285
▁گرفت	-4286
▁ہائے	-4287
▁اسماعیل	-4288
▁نشست	-4289
▁انسٹی	-4290
▁افز	-4291
▁کہنا	-4292
▁ڈویژن	-4293
▁۰۵۹۱ء	-4294
▁خز	-4295
ٹریا	-4296
▁اِن	-4297
▁ولیم	-4298
سیر	-4299
▁فارم	-4300
▁برسوں	-4301
▁بمبئی	-4302
▁نقط	-4303
▁صوفی	-4304
▁نسبت	-4305
▁دماغی	-4306
▁عزیز	-4307
وخ	-4308
برگ	-4309
بانی	-4310
▁روبی	-4311
▁صحافت	-4312
۴۶	-4313
▁قدم	-4314
▁۸۳۹۱ء	-4315
▁آئبیرین	-4316
گیر	-4317
▁سڑک	-4318
▁زید	-4319
▁عائد	-4320
▁۱۰۰۲	-4321
سط	-4322
▁نائ	-4323
اہب	-4324
▁لگے۔	-4325
اہی	-4326
فرد	-4327
▁ملاز	-4328
▁سالانہ	-4329
▁شعرا	-4330
▁مقالہ	-4331
▁قاضی	-4332
▁سائنسز	-4333
▁آرمینیائی	-4334
گھ	-4335
▁إ	-4336
▁سکھ	-4337
دست	-4338
▁۱۷	-4339
▁پکڑ	-4340
سپل	-4341
▁وے	-4342
▁تاجک	-4343
▁لازمی	-4344
▁یزید	-4345
▁شَہِید	-4346
▁جناب	-4347
▁شَہِیدٌ	-4348
▁درس	-4349
۱۲۳۰	-4350
▁اوائل	-4351
ولپ	-4352
▁سلم	-4353
▁کھو	-4354
▁ثبوت	-4355
▁کولک	-4356
▁اللسانی	-4357
بری	-4358
▁بندر	-4359
▁فاصل	-4360
▁کوفی	-4361
▁مابین	-4362
اکم	-4363
روس	-4364
▁پکارا	-4365
▁سلیمان	-4366
وین	-4367
▁پروڈیوسر	-4368
▁گھرانے	-4369
▁دارالحکومت	-4370
▁بھیج	-4371
▁۲۸۹۱	-4372
▁۷۸۹۱ء	-4373
▁چھٹا	-4374
▁پیروکار	-4375
اطر	-4376
▁عیسی	-4377
▁توسیع	-4378
▁دیوانی	-4379
▁۲۶	-4380
▁جیل	-4381
▁میکس	-4382
▁اولمپک	-4383
▁دن۱	-4384
▁جدا	-4385
▁سبز	-4386
صیح	-4387
▁تعالی	-4388
▁نمونہ	-4389
▁قائد	-4390
▁سنوار	-4391
▁۳۱۹۱ء	-4392
▁دفن	-4393
▁حرکت	-4394
▁گہرائی	-4395
▁مندرج	-4396
▁اعتراف	-4397
۱۳	-4398
زدگی	-4399
▁اسکر	-4400
▁امتح	-4401
▁گائیکواڈ	-4402
▁ٹیوٹ	-4403
▁مدرسہ	-4404
▁تمل	-4405
▁افسر	-4406
▁کیریب	-4407
▁علیحدگی	-4408
۴۰	-4409
لاق	-4410
▁فون	-4411
▁حوصل	-4412
ارک	-4413
قوب	-4414
یرۂ	-4415
▁سڈ	-4416
▁شیو	-4417
▁ہمراہ	-4418
▁حلقہ	-4419
▁قصبہ	-4420
▁عملیاں	-4421
▁یر	-4422
▁لوک	-4423
▁زریہ	-4424
▁۱۱۰۲	-4425
▁رائل	-4426
▁صفر	-4427
▁پیغمبر	-4428
یاس	-4429
▁۹۰۰۲	-4430
▁جڑواں	-4431
فیہ	-4432
▁آرمینیا	-4433
لابی	-4434
▁۷۷۴۵۸۱	-4435
▁کاروبار	-4436
▁سسٹم	-4437
▁فصیح	-4438
▁پرست	-4439
▁بیگم	-4440
فورڈ	-4441
▁یقین	-4442
▁۴۱۰۲	-4443
دام	-4444
▁آکر	-4445
▁خانۂ	-4446
▁مقابلوں	-4447
▁عوض	-4448
▁ہٹ	-4449
▁فات	-4450
▁مون	-4451
▁بچپن	-4452
▁معاشرے	-4453
سوں	-4454
ائیو	-4455
▁ناز	-4456
▁وکیپیڈیا	-4457
▁فلپائن	-4458
واڑ	-4459
▁عجائب	-4460
▁صحابہ	-4461
▁نامزدگی	-4462
▁محدث	-4463
▁ولندیزی	-4464
نگی	-4465
▁بدر	-4466
▁تسم	-4467
▁جلتے	-4468
▁جت	-4469
▁تیلگو	-4470
▁تات	-4471
مغ	-4472
میز	-4473
▁۳۶	-4474
▁آرڈر	-4475
▁آبائی	-4476
▁قابلِ	-4477
▁مراکشی	-4478
▁جیمز	-4479
▁صدیوں	-4480
▁حزب	-4481
▁غور	-4482
▁جبل	-4483
▁قبرص	-4484
ارث	-4485
▁مَ	-4486
▁جانش	-4487
▁جوزف	-4488
▁سرخی	-4489
▁سائنسدان	-4490
▁چیک	-4491
▁ممبر	-4492
▁مورخ	-4493
▁کرام	-4494
داروں	-4495
▁اللَّ	-4496
اقع	-4497
▁حاد	-4498
▁رومن	-4499
▁سنوارتے	-4500
▁وک	-4501
دل	-4502
▁رفتار	-4503
▁عقیدہ	-4504
▁اسکندر	-4505
▁دِ	-4506
▁چہ	-4507
▁افت	-4508
▁شعر	-4509
▁حقدار	-4510
چا	-4511
۵۳	-4512
▁ناق	-4513
دھ	-4514
▁ملازمت	-4515
▁اض	-4516
▁ناٹ	-4517
▁اعزازات	-4518
▁آرامی	-4519
▁سائنسی	-4520
▁شب	-4521
▁انش	-4522
▁ولی	-4523
▁امتحان	-4524
ولینڈ	-4525
▁جار	-4526
امن	-4527
▁گانے	-4528
▁حوصلہ	-4529
انک	-4530
آزاد	-4531
▁صاف	-4532
▁اسٹیٹ	-4533
▁جائزہ	-4534
▁۷۷۹۱ء	-4535
▁العزیز	-4536
▁گرمائی	-4537
وذ	-4538
۰۰۰۱	-4539
▁محبت	-4540
▁کارل	-4541
اللہ	-4542
▁۵۸۹۱ء	-4543
▁چال	-4544
▁داخلہ	-4545
▁حکمرانوں	-4546
وشی	-4547
▁حن	-4548
▁فیض	-4549
▁سینا	-4550
▁تل	-4551
▁جال	-4552
▁۲۹۹۱ء	-4553
جنوبی	-4554
▁پہلو	-4555
▁برازیل	-4556
▁مکت	-4557
▁رہنم	-4558
▁شاندار	-4559
▁۳۰	-4560
▁جعفر	-4561
▁تیمور	-4562
▁سارے	-4563
▁علوی	-4564
▁اندرونی	-4565
▁حافظ	-4566
▁جبوتی	-4567
▁ترجیحات	-4568
ئت	-4569
سا	-4570
فرڈ	-4571
▁اشع	-4572
▁سرور	-4573
▁تخریب	-4574
▁کٹھ	-4575
▁مرئی	-4576
▁فرمال	-4577
▁ماہرین	-4578
▁اشت	-4579
▁آئی۔	-4580
▁اسکا	-4581
▁محقق	-4582
▁بتایا	-4583
▁ترویج	-4584
▁روایات	-4585
▁ٹو	-4586
▁۴۹	-4587
آباد	-4588
▁خوا	-4589
▁الغ	-4590
▁جیتا۔	-4591
▁مذاہب	-4592
▁اکثریتی	-4593
▁عبید	-4594
فتری	-4595
▁اوب	-4596
▁ایش	-4597
شکر	-4598
▁۷۷	-4599
▁دانش	-4600
▁عاب	-4601
▁ٹرین	-4602
▁لتا	-4603
▁منظم	-4604
▁رکھا۔	-4605
▁پرواز	-4606
یالم	-4607
▁وین	-4608
▁ساری	-4609
▁سڈنی	-4610
▁لگے	-4611
▁مری	-4612
▁ناف	-4613
▁تحریری	-4614
▁کیریبین	-4615
قار	-4616
▁مرنے	-4617
▁تفسیر	-4618
▁اتحادی	-4619
▁ہد	-4620
گیزی	-4621
▁چھاپ	-4622
▁مرئیت	-4623
متغیرات	-4624
▁معط	-4625
▁پیپ	-4626
▁ہتھ	-4627
▁یکساں	-4628
▁فرمالیں۔	-4629
▁اول۷۲	-4630
▁۸۸۹۱ء	-4631
▁اول۷۲۹۸۵۳۶	-4632
▁بیٹنگ	-4633
▁مثالیں	-4634
▁نائجر	-4635
▁۴۶۹۱ء	-4636
▁دورے	-4637
▁صحرا	-4638
▁خصوصاً	-4639
▁منصوبۂ	-4640
▁اللَّہِ	-4641
▁نافذ	-4642
▁جوڑ	-4643
▁پھیلی	-4644
ستھ	-4645
▁برما	-4646
▁رسالہ	-4647
▁منفرد	-4648
▁پختون	-4649
▁۹۷۹۱ء	-4650
▁اِرقام	-4651
ریاست	-4652
▁نوشتۂ	-4653
ریح	-4654
▁تائی	-4655
▁خاطر	-4656
▁۰۰۰۱	-4657
▁بادشاہت	-4658
۴۷	-4659
۸ء	-4660
▁المر	-4661
▁جناح	-4662
▁مسلح	-4663
▁چیئر	-4664
▁دیکھئے	-4665
▁ڈان	-4666
ادم	-4667
▁ساخت	-4668
▁کنیت	-4669
▁بیروت	-4670
▁فعلیات	-4671
▁بازو	-4672
▁ہلال	-4673
▁ربی	-4674
▁حاکم	-4675
▁ہنری	-4676
▁رخ	-4677
▁اخلا	-4678
▁پہونچ	-4679
▁زبردست	-4680
▁آذربائیجان	-4681
▁۳۸	-4682
▁صحر	-4683
▁نہر	-4684
▁ہوکر	-4685
▁النہر	-4686
▁ملاقات	-4687
اما	-4688
▁اضلاع	-4689
▁متوقع	-4690
▁۴۳۹۱ء	-4691
▁۶۸۹۱ء	-4692
سّا	-4693
▁اقدام	-4694
▁ثالسّا	-4695
▁کاٹھمنڈو	-4696
نیا	-4697
▁۵۹	-4698
▁انے	-4699
▁منہ	-4700
▁منطق	-4701
▁تعالیٰ	-4702
▁مقالات	-4703
▁تقر	-4704
▁لنک	-4705
▁ہاش	-4706
ریعہ	-4707
▁گنج	-4708
▁یوکرین	-4709
چرڈ	-4710
۰۸۳	-4711
▁مبت	-4712
▁یعقوب	-4713
اجر	-4714
▁بحیرۂ	-4715
▁مطالبہ	-4716
نو	-4717
▁ارد	-4718
▁الث	-4719
▁سیاح	-4720
▁مترجم	-4721
▁ٹیگ	-4722
▁دشواری	-4723
ریو	-4724
▁سپرد	-4725
▁کھیلی۔	-4726
یانا	-4727
َل	-4728
ٰہ	-4729
ُوَ	-4730
▁حب	-4731
▁نبوی	-4732
▁لمبائی	-4733
اعی	-4734
▁بارش	-4735
▁اعزازی	-4736
یور	-4737
▁چٹ	-4738
▁ایام۷۱	-4739
▁گائیکواڑ	-4740
اقب	-4741
▁رضا	-4742
▁چیمپئن	-4743
انوے	-4744
پہلی	-4745
▁احت	-4746
▁قوا	-4747
سٹھ	-4748
▁الزام	-4749
▁منظور	-4750
▁فیلڈ	-4751
▁۱۴۹۱ء	-4752
▁اڑ	-4753
▁پٹ	-4754
کشن	-4755
ہیپلو	-4756
▁فنون	-4757
▁ہیئت	-4758
▁۶۹۹۱ء	-4759
▁قاز	-4760
▁ہدف	-4761
▁جموں	-4762
▁عباد	-4763
▁مصروف	-4764
▁رچرڈ	-4765
▁مقدم	-4766
▁دفتری	-4767
▁منزل	-4768
▁کمیشن	-4769
▁۷۶۹۱ء	-4770
▁چوٹ	-4771
▁تخمین	-4772
یکر	-4773
▁قلم	-4774
▁برمی	-4775
۲۱ء	-4776
▁یور	-4777
▁۲۵۹۱ء	-4778
▁ریٹائرمنٹ	-4779
مق	-4780
▁۸۰۰۲	-4781
▁اسرائیلی	-4782
▁گذشتہ	-4783
▁معاشیات	-4784
▁مانا	-4785
▁سریانی	-4786
▁علامات	-4787
▁داؤ	-4788
▁ہریش	-4789
۴۱۳۰	-4790
▁فائ	-4791
▁تکمیل	-4792
▁ہوم	-4793
گزیدہ	-4794
▁رسمی	-4795
▁لگتا	-4796
▁عقائد	-4797
▁ماخوذ	-4798
▁روزانہ	-4799
▁جارح	-4800
▁موصول	-4801
▁والدین	-4802
▁انقلابی	-4803
قاد	-4804
▁دکن	-4805
▁ڈومین	-4806
ہرہ	-4807
▁ڈچ	-4808
▁مفتی	-4809
▁۳۵۹۱ء	-4810
۰۰۴	-4811
۴۱۳۱	-4812
تانی	-4813
َہُوَ	-4814
▁۴۰۰۲	-4815
بیق	-4816
▁مفاد	-4817
▁مبتلا	-4818
▁چا	-4819
▁ہتھیار	-4820
▁کوٹ	-4821
▁سنگی	-4822
▁قواعد	-4823
▁فَہُوَ	-4824
شیع	-4825
ہای	-4826
▁امپائر	-4827
▁بذریعہ	-4828
۶۰	-4829
▁سوم	-4830
▁جنگوں	-4831
▁زیریں	-4832
▁کولکتہ	-4833
بھی	-4834
مات	-4835
یکشن	-4836
▁خش	-4837
▁فاتح	-4838
▁نقصان	-4839
▁۳۹۹۱ء	-4840
▁انح	-4841
▁عید	-4842
▁گور	-4843
▁گیل	-4844
▁بھاگ	-4845
رات	-4846
▁اوزاروں	-4847
▁قلعہ	-4848
▁عیسیٰ	-4849
▁ڈالی	-4850
مالی	-4851
▁ادوار	-4852
▁موریت	-4853
وسٹ	-4854
سرخی	-4855
▁اسٹی	-4856
▁تشیع	-4857
▁جدول	-4858
▁چاروں	-4859
▁جانبدار	-4860
شنا	-4861
▁رد	-4862
نگٹن	-4863
▁مختص	-4864
▁چاندی	-4865
▁گورنمنٹ	-4866
▁لشکر	-4867
▁لہجے	-4868
▁پرتگیزی	-4869
▁۷۹۹۱ء	-4870
▁چینل	-4871
▁بناتا	-4872
▁دربار	-4873
▁قبیلے	-4874
▁اصلاحات	-4875
▁۸۷	-4876
ینڈر	-4877
▁جمعہ	-4878
▁غزوہ	-4879
▁بازار	-4880
▁سوانح	-4881
▁لیڈ	-4882
۵۰	-4883
▁طر	-4884
اپریل	-4885
▁کتابی	-4886
▁لیما	-4887
ولپنڈی	-4888
▁میم	-4889
▁ورک	-4890
▁خواہش	-4891
▁ہیں۔۳	-4892
▁افزائی	-4893
▁پناہ	-4894
ضل	-4895
کری	-4896
▁۱۰۲	-4897
▁اثرات	-4898
▁برگزیدہ	-4899
▁زاہد	-4900
▁سیکر	-4901
▁اخبارات	-4902
▁صنع	-4903
▁خارج	-4904
▁کھین	-4905
▁سینٹر	-4906
▁کشمیری	-4907
▁مردوں	-4908
▁بھائیوں	-4909
بور	-4910
عود	-4911
ینٹ	-4912
▁خرا	-4913
▁محاف	-4914
▁پیپلز	-4915
▁پہاڑوں	-4916
▁کہلاتے	-4917
▁حکومتوں	-4918
ُم	-4919
▁وکیل	-4920
▁متعین	-4921
ائٹس	-4922
▁صدیق	-4923
▁زد	-4924
▁مراکز	-4925
▁ہیڈر	-4926
طر	-4927
وید	-4928
▁بابحالیہ	-4929
ئرب	-4930
▁ہز	-4931
▁پڑتا	-4932
▁سلطنتِ	-4933
▁سائ	-4934
▁رکھے	-4935
َر	-4936
▁عنہ	-4937
▁ذہنی	-4938
▁لیے۔	-4939
▁متون	-4940
▁صبح	-4941
▁۲۸۹۱ء	-4942
▁سرحدوں	-4943
زمبیق	-4944
▁احمر	-4945
▁مادری	-4946
▁۷۰	-4947
▁مہر	-4948
▁کروا	-4949
▁جہلم	-4950
▁حمید	-4951
▁عاشورا	-4952
▁خون	-4953
لومات	-4954
▁مظاہر	-4955
▁کوریا	-4956
▁بیچ	-4957
▁ترا	-4958
▁پتہ	-4959
▁موسیٰ	-4960
▁عز	-4961
▁الی	-4962
▁بلغ	-4963
▁ہاؤس	-4964
▁۷۰۰۲	-4965
▁تحقیقی	-4966
▁پختونخوا	-4967
حض	-4968
▁۰۲۰۲	-4969
▁رابر	-4970
▁رقبے	-4971
▁ویس	-4972
▁لکڑی	-4973
▁وقار	-4974
▁زیارت	-4975
بودہای	-4976
▁بردار	-4977
▁عارضی	-4978
▁علیکم	-4979
▁نوعیت	-4980
▁۵۹۹۱ء	-4981
یف	-4982
▁اڈا	-4983
▁پڑھا	-4984
▁کینٹ	-4985
▁مالٹا	-4986
▁فرانسس	-4987
▁پالیول	-4988
بیب	-4989
▁طلبہ	-4990
ُر	-4991
▁عابد	-4992
▁خوبصورت	-4993
راغ	-4994
وات	-4995
▁غریب	-4996
بیسویں	-4997
▁چلایا	-4998
▁نغ	-4999
▁۴۶	-5000
ائیس	-5001
▁حلب	-5002
▁شوہر	-5003
▁اسکندریہ	-5004
▁کرہ	-5005
▁متحد	-5006
▁وسعت	-5007
▁سنبھال	-5008
▁کہانیوں	-5009
ائض	-5010
▁پہنچا	-5011
▁الرشید	-5012
▁زوال	-5013
▁بنائی۔	-5014
مٰ	-5015
▁الص	-5016
▁دیوی	-5017
فیا	-5018
▁۹۶	-5019
▁چھپ	-5020
بابوے	-5021
▁خوان	-5022
▁لیتے	-5023
▁راجستھ	-5024
▁زمبابوے	-5025
▁موزمبیق	-5026
سکی	-5027
ئربس	-5028
▁طال	-5029
▁یحی	-5030
▁نیوز	-5031
▁ہے۔سرخی	-5032
▁گرین	-5033
▁۲۱۰۲	-5034
▁۲۸۴۵۸۱	-5035
▁اٹھارویں	-5036
▁راولپنڈی	-5037
▁ذات	-5038
ندھرا	-5039
▁۵۷۹۱ء	-5040
کمل	-5041
▁تور	-5042
▁کیف	-5043
▁محرم	-5044
▁۹۳۹۱ء	-5045
▁سیکرٹری	-5046
یوس	-5047
▁دب	-5048
وبکر	-5049
▁طفل	-5050
▁ڈھاکہ	-5051
▁ڈراموں	-5052
ایا۔	-5053
▁رانی	-5054
▁مروہ	-5055
▁اے۰۸۳	-5056
▁کلکتہ	-5057
ستع	-5058
▁۰۵۲	-5059
▁۳۰۰۲	-5060
▁بندرگاہ	-5061
مٰن	-5062
▁بدولت	-5063
▁کوئٹہ	-5064
▁گذر	-5065
▁بنیادوں	-5066
اشا	-5067
َنْ	-5068
▁اختر	-5069
▁المن	-5070
▁آمدنی	-5071
▁کوالیف	-5072
▁سکاٹ	-5073
▁یروش	-5074
▁آندھرا	-5075
▁لکھن	-5076
اکو	-5077
نامی	-5078
▁اقلیت	-5079
تاً	-5080
۶۴۲۰	-5081
▁تختہ	-5082
▁خراب	-5083
تص	-5084
▁۶۵۹۱ء	-5085
ندری	-5086
یدگی	-5087
▁روپے	-5088
▁تنازعات	-5089
▁ہیرو	-5090
▁بحالی	-5091
بات	-5092
▁پندرہ	-5093
▁۰۴۹۱ء	-5094
▁مختاری	-5095
ریاستہائے	-5096
▁پیٹر	-5097
▁ابوبکر	-5098
اجی	-5099
تھر	-5100
وشن	-5101
▁نچ	-5102
انیا	-5103
▁جیو	-5104
▁شائر	-5105
▁ارتقا	-5106
▁رابرٹ	-5107
▁سرمایہ	-5108
زول	-5109
▁وضوابط	-5110
ریڈ	-5111
▁ہیل	-5112
▁لکھیں۔	-5113
▁محافظہ	-5114
▁کالونی	-5115
راض	-5116
وٹو	-5117
▁نی	-5118
▁ضیاء	-5119
▁فنکار	-5120
▁مسئلے	-5121
▁ملکیت	-5122
ہری	-5123
بورن	-5124
▁ماد	-5125
▁تیزی	-5126
▁رہیں۔	-5127
▁ترکمان	-5128
▁نذ	-5129
▁شمسی	-5130
▁القر	-5131
▁حاجی	-5132
▁قصبے	-5133
▁کاتب	-5134
▁زلزلہ	-5135
▁شجاعت	-5136
▁۸۵۹۱ء	-5137
حضرت	-5138
▁لڑائی	-5139
▁نقلوں	-5140
ولو	-5141
▁پرچ	-5142
▁چکر	-5143
▁انعامات	-5144
۸۸۱	-5145
ائیت	-5146
▁پلیٹ	-5147
▁شاعرہ	-5148
▁لکھائی	-5149
ِل	-5150
▁آیت	-5151
▁فیڈ	-5152
▁پیچ	-5153
▁مبصر	-5154
▁ویڈیو	-5155
▁محا	-5156
▁۰۶۲	-5157
▁الحر	-5158
▁صغیر	-5159
▁انتخابی	-5160
ہے۔	-5161
۲۳۰	-5162
▁اناط	-5163
▁جانی	-5164
▁اَ	-5165
▁بروز	-5166
▁مالے	-5167
▁۹۹	-5168
▁ٹوٹ	-5169
▁گریجویشن	-5170
الہ	-5171
▁رمز	-5172
▁مسعود	-5173
▁ایتھوپ	-5174
ارتھ	-5175
▁چنا	-5176
مس	-5177
▁نر	-5178
▁ڈیوڈ	-5179
▁دہلوی	-5180
▁منافع	-5181
▁نف	-5182
▁یہیں	-5183
▁کھینچ	-5184
ئس	-5185
▁ابوال	-5186
▁عربوں	-5187
▁میٹروپول	-5188
▁اموی	-5189
▁حفاظ	-5190
▁فرائض	-5191
▁۰۲۹۱ء	-5192
▁فیس	-5193
▁ہندسہ	-5194
ستر	-5195
▁اختلافات	-5196
بوط	-5197
۸۹۸۸	-5198
▁مرض	-5199
▁قازق	-5200
▁ورثہ	-5201
▁کولم	-5202
▁کلیسیا	-5203
▁دینی	-5204
▁رسوم	-5205
▁سنگاپور	-5206
▁حروفِ	-5207
▁راستہ	-5208
▁آسٹریا	-5209
▁راب	-5210
▁میس	-5211
▁تھے۔۱	-5212
▁سکون	-5213
▁قاسم	-5214
▁مضبوط	-5215
حرک	-5216
▁وص	-5217
ناسب	-5218
▁قرط	-5219
▁چوپ	-5220
▁راوی	-5221
▁ہسٹری	-5222
ذی	-5223
▁ارض	-5224
▁فرد	-5225
▁وان	-5226
▁الاس	-5227
▁جنتا	-5228
▁موجد	-5229
▁مستحکم	-5230
اڑ	-5231
▁۴۷	-5232
▁جنسی	-5233
▁اتفاق	-5234
▁تھا۔۱	-5235
▁خور	-5236
▁گھنٹے	-5237
▁موسیقار	-5238
یشکر	-5239
۰۰۳۰	-5240
▁قبضے	-5241
▁قاعدہ	-5242
▁محققین	-5243
▁پروگرامنگ	-5244
▁آم	-5245
جنسی	-5246
▁متنازع	-5247
لن	-5248
انز	-5249
▁پشتو	-5250
▁امداد	-5251
▁باشندے	-5252
ساد	-5253
لوڈ	-5254
ِیل	-5255
▁بور	-5256
مغربی	-5257
▁عمران	-5258
▁ایڈورڈ	-5259
▁دوڑ	-5260
▁حرفی	-5261
▁دیوب	-5262
▁یحیی	-5263
▁۴۵۹۱ء	-5264
▁تاتاری	-5265
ئیس	-5266
صوف	-5267
▁۰۰۴	-5268
▁۶۷۱	-5269
▁مردان	-5270
▁۴۹۹۱ء	-5271
▁افسانہ	-5272
▁سز	-5273
▁غر	-5274
▁متحرک	-5275
دری	-5276
▁مواقع	-5277
▁ایتھوپیا	-5278
▁شار	-5279
▁صقل	-5280
▁منح	-5281
▁مکتب	-5282
▁انگلش	-5283
▁چارلس	-5284
▁پڑا۔	-5285
▁ازبکستان	-5286
ورٹ	-5287
▁بینن	-5288
▁ہیں۔۴	-5289
▁منگیشکر	-5290
▁صحابی	-5291
▁اطالیہ	-5292
▁کیمیاءدان	-5293
یسواں	-5294
▁البان	-5295
قیر	-5296
▁چتر	-5297
مملکت	-5298
▁برج	-5299
۳۴	-5300
▁صدارت	-5301
▁مجموعے	-5302
راء	-5303
۰۰۷	-5304
▁درہم	-5305
▁ورزی	-5306
▁نامیاتی	-5307
▁فنڈ	-5308
▁اسود	-5309
▁ہزاروں	-5310
▁مجید	-5311
▁منورہ	-5312
▁یروشلم	-5313
▁کارنامہ	-5314
▁بٹ	-5315
▁یکجا	-5316
▁راجستھان	-5317
انٹ	-5318
▁۷۲۲	-5319
▁ہندسوں	-5320
▁سفید	-5321
▁۳۷۹۱ء	-5322
▁اعتراض	-5323
و۔	-5324
▁کع	-5325
▁برگ	-5326
پٹ	-5327
▁ظہ	-5328
▁حصول	-5329
▁۲۷۹۱ء	-5330
▁۸۷۹۱ء	-5331
▁۶۰	-5332
▁نعت	-5333
▁سبھا	-5334
▁ناتھ	-5335
ارہویں	-5336
▁بیلاروسی	-5337
▁تنو	-5338
▁لغت	-5339
▁تینوں	-5340
▁نمائندہ	-5341
▁بہا	-5342
▁خارجی	-5343
▁رکھنا	-5344
▁۵۶۹۱ء	-5345
ٹش	-5346
۸۲۱	-5347
▁کمار	-5348
یدرلینڈ	-5349
▁اسکواڈ	-5350
▁الطارق	-5351
یٹن	-5352
▁قفق	-5353
جنوری	-5354
▁خطوں	-5355
▁ریلیز	-5356
▁میکسیکو	-5357
▁گار	-5358
▁خواجہ	-5359
▁صوتی	-5360
▁ادریسی	-5361
▁ساٹھ	-5362
▁شعیب	-5363
▁حرارت	-5364
▁تعبیری	-5365
▁رم	-5366
▁نقش	-5367
▁کلا	-5368
▁۰۸۶	-5369
▁عقید	-5370
▁۹۸	-5371
▁ووڈ	-5372
▁بھگت	-5373
▁لیفٹ	-5374
▁کمان	-5375
▁الدول	-5376
▁وول	-5377
▁فورم	-5378
▁مشعر	-5379
▁میوز	-5380
▁۷۱۰۲	-5381
▁ڈبلیو	-5382
▁انحصار	-5383
▁سرگرمیوں	-5384
▁۰۰۳	-5385
تصدیق	-5386
▁زرعی	-5387
▁مشرف	-5388
▁معاشرتی	-5389
غل۔	-5390
راقی	-5391
▁آرٹس	-5392
تصدیقیت	-5393
پل	-5394
مشت	-5395
▁اوپن	-5396
▁کبھار	-5397
▁بالآخر	-5398
▁کیلنڈر	-5399
ثے	-5400
▁وع	-5401
خلافت	-5402
▁انہی	-5403
▁مخالفت	-5404
برا	-5405
وبا	-5406
▁منی	-5407
▁۳۲۱	-5408
▁حارث	-5409
▁ٹھہر	-5410
▁۹۴۹۱ء	-5411
قند	-5412
▁ڈپ	-5413
▁زور	-5414
الدین	-5415
وسط	-5416
▁دہشت	-5417
▁لسان	-5418
▁مجھے	-5419
▁گاڑی	-5420
▁صقلیہ	-5421
▁معتبر	-5422
یمہ	-5423
▁ہیک	-5424
▁سہیل	-5425
▁چوپڑا	-5426
▁یق	-5427
ڈیول	-5428
▁ظفر	-5429
▁مصور	-5430
مشتغل۔	-5431
▁بلقان	-5432
ومنٹ	-5433
▁ریپ	-5434
▁فاطمہ	-5435
▁نظموں	-5436
▁انڈسٹری	-5437
جسے	-5438
تدوین	-5439
▁لایا	-5440
▁مزار	-5441
▁ہیں۱	-5442
▁نظمیں	-5443
▁ہنگری	-5444
▁۹۵۹۱ء	-5445
ائی۔	-5446
▁مرج	-5447
▁مزد	-5448
▁کوفہ	-5449
▁روکنے	-5450
نامے	-5451
▁الو	-5452
▁۰۰۹۱ء	-5453
▁سج	-5454
▁فقیہ	-5455
▁ماڈیول	-5456
▁لیک	-5457
▁۵۰۰۲	-5458
▁جانتے	-5459
▁پرویز	-5460
▁غلطیوں	-5461
شام	-5462
▁وقف	-5463
پردیش	-5464
▁باکس	-5465
▁کروی	-5466
▁یومیہ	-5467
کارہ	-5468
▁بیٹھ	-5469
▁تانا	-5470
▁کانگو	-5471
▁وح	-5472
تمام	-5473
َمَنْ	-5474
▁کاشت	-5475
▁اِرشاد	-5476
▁یوگنڈا	-5477
▁عشر	-5478
فن	-5479
کات	-5480
ائٹی	-5481
▁ڈائ	-5482
▁کورس	-5483
جۃ	-5484
▁َ	-5485
اجد	-5486
▁۸۰	-5487
▁فرز	-5488
▁۰۰۶	-5489
▁ناصر	-5490
▁تقریر	-5491
▁سیاحت	-5492
▁میڈیکل	-5493
ولا	-5494
▁خر	-5495
▁سیف	-5496
▁فتو	-5497
▁مالا	-5498
ٹریٹ	-5499
▁دیے۔	-5500
▁سفارت	-5501
▁اناطول	-5502
▁الرحمٰن	-5503
کشاپ	-5504
دسمبر	-5505
▁مجسم	-5506
▁پرتھ	-5507
تیسواں	-5508
▁مظلوم	-5509
▁پوزیشن	-5510
▁لینا	-5511
▁کورٹ	-5512
▁مختصرا	-5513
▁یہوداہ	-5514
▁صومالیہ	-5515
جعت	-5516
▁مامور	-5517
▁۰۳۹۱ء	-5518
▁تحقیقات	-5519
▁انفر	-5520
▁منجمد	-5521
فف	-5522
َد	-5523
یمیر	-5524
▁رون	-5525
▁تھام	-5526
▁شعبان	-5527
▁وکٹوں	-5528
▁حیاتیات	-5529
اضا	-5530
نگا	-5531
▁لسٹ	-5532
▁رشید	-5533
▁نگاہ	-5534
▁آئینی	-5535
▁دستور	-5536
▁جانشین	-5537
▁عباسیہ	-5538
▁اترپردیش	-5539
۸۷۶	-5540
▁فوراً	-5541
▁وقائع	-5542
▁۶۴۹۱ء	-5543
اوی	-5544
▁بلو	-5545
▁ثقہ	-5546
▁ریز	-5547
▁پوئ	-5548
▁۲۰۱	-5549
▁پندرہویں	-5550
یسن	-5551
▁رے	-5552
▁فط	-5553
▁ملے	-5554
▁سمندری	-5555
▁مہینوں	-5556
▁پیمائش	-5557
کور	-5558
خطاء	-5559
ناسق	-5560
▁پبل	-5561
ائرین	-5562
▁افتتا	-5563
▁تقاضا	-5564
▁کرے۔	-5565
▁بارہویں	-5566
▁لگا۔	-5567
▁کیپر	-5568
▁تفصیلات	-5569
▁دتا	-5570
▁راس	-5571
وڑی	-5572
▁اکاد	-5573
▁تراجم	-5574
ْن	-5575
آنی	-5576
▁برہ	-5577
▁ارتک	-5578
▁شہاب	-5579
▁آصف	-5580
▁ریڈی	-5581
▁سوسائٹی	-5582
▁اوم	-5583
▁اجتم	-5584
▁داؤد	-5585
▁شعور	-5586
▁جارجیا	-5587
یعنی	-5588
▁صحارا	-5589
▁صنعتی	-5590
▁آپریشن	-5591
▁کپتانی	-5592
▁مقبولیت	-5593
خیز	-5594
▁جوہ	-5595
ترتیب	-5596
▁بھٹو	-5597
▁سعود	-5598
▁جدو	-5599
▁چچا	-5600
▁گھٹ	-5601
کائیو	-5602
▁حفاظت	-5603
▁ملیالم	-5604
پوت	-5605
۰۵۵	-5606
تالیس	-5607
▁قاری	-5608
▁نظری	-5609
▁منحصر	-5610
▁۱۸۹۱ء	-5611
▁جزیروں	-5612
▁میلبورن	-5613
تن	-5614
▁آدمی	-5615
▁نہرو	-5616
▁دیکھنا	-5617
▁سمت	-5618
▁دماغ	-5619
▁قمری	-5620
▁مقدون	-5621
گرہ	-5622
▁جذ	-5623
▁ڈیم	-5624
▁ایوب	-5625
▁موہن	-5626
▁اکادمی	-5627
ِن	-5628
۴۱ھ	-5629
مانی	-5630
یوان	-5631
▁انگریزوں	-5632
▁ں	-5633
یسکو	-5634
▁۷۱۹۱ء	-5635
▁نفس	-5636
▁ابھر	-5637
▁جاوید	-5638
▁عملی۔	-5639
▁نائیج	-5640
ای	-5641
▁قس	-5642
▁سرف	-5643
▁بڑھا	-5644
▁تھائی	-5645
▁زمینی	-5646
▁ہیں۔۲۱	-5647
وکا	-5648
▁تحفظ	-5649
▁پورٹ	-5650
▁فرزند	-5651
جھ	-5652
▁آسم	-5653
▁عبور	-5654
▁نجوم	-5655
▁شریعت	-5656
▁مانتے	-5657
▁برقہ	-5658
▁گوگل	-5659
▁صحرائے	-5660
قاسم	-5661
▁قسطن	-5662
▁کیتھ	-5663
▁سرحدی	-5664
▁ماتحت	-5665
انیاں	-5666
▁امراض	-5667
▁منقسم	-5668
▁کانسی	-5669
▁ایڈیٹر	-5670
▁سلوواک	-5671
▁دوپ	-5672
▁حامی	-5673
▁مدیر	-5674
▁ہفتہ	-5675
▁۹۲۹۱	-5676
▁دعویٰ	-5677
سُ	-5678
یلہ	-5679
▁۱۸	-5680
لوار	-5681
مور	-5682
تلفظ	-5683
▁ملتان	-5684
▁نائیجیریا	-5685
۵۸	-5686
منہ	-5687
قاعد	-5688
▁اللّ	-5689
▁فرید	-5690
▁تنویر	-5691
▁ایجنسی	-5692
▁یہودیوں	-5693
▁آکس	-5694
▁لگی	-5695
▁تدریس	-5696
▁۴۴۹۱ء	-5697
حیہ	-5698
▁اونچ	-5699
▁افسانوی	-5700
ودھ	-5701
▁بوئ	-5702
▁ریت	-5703
▁زرخیز	-5704
▁تحریروں	-5705
▁سربراہی	-5706
▁مختصراً	-5707
▁بادشاہوں	-5708
▁فوق	-5709
فک	-5710
۶ء	-5711
ائس	-5712
▁سوش	-5713
▁لود	-5714
▁مصط	-5715
▁کائن	-5716
▁ہے۔۶	-5717
▁ترجیح	-5718
▁سچائی	-5719
مزہ	-5720
قاعدگی	-5721
▁باقاعدگی	-5722
▁مدھ	-5723
▁لکھنؤ	-5724
▁سماج	-5725
▁گارڈ	-5726
▁گھرا	-5727
▁قفقاز	-5728
▁کرکٹر	-5729
ائجیریا	-5730
▁۳۹	-5731
▁میلے	-5732
▁ڈھانچ	-5733
▁انچ	-5734
▁بام	-5735
▁جنم	-5736
▁مند	-5737
▁روشن	-5738
▁شاہد	-5739
▁پیڈیا	-5740
۷ء	-5741
ائیاں	-5742
▁مجبور	-5743
▁چیزوں	-5744
▁راجپوت	-5745
▁ڈویل	-5746
▁تھا۔۲	-5747
اسکر	-5748
▁الأ	-5749
▁بہر	-5750
▁فنی	-5751
▁عملیوں	-5752
▁آیزو	-5753
▁لطیف	-5754
▁مباح	-5755
▁کتابت	-5756
▁خاندانی	-5757
▁میٹروپولیٹن	-5758
لت	-5759
زون	-5760
▁بق	-5761
▁وآ	-5762
▁حجر	-5763
▁شمس	-5764
▁عامر	-5765
▁میچز	-5766
▁فاصلے	-5767
▁پانچواں	-5768
▁اناطولیہ	-5769
خصوص	-5770
▁وفاق	-5771
▁انقرہ	-5772
▁پولینڈ	-5773
▁پرورش	-5774
▁دستاویزات	-5775
▁ونڈ	-5776
▁۰۰۲۱	-5777
▁چالیس	-5778
جس	-5779
جہد	-5780
▁جدوجہد	-5781
▁ماڈل	-5782
▁مہات	-5783
▁۴۴۸۲۱۲	-5784
افٹ	-5785
▁پدم	-5786
▁بصری	-5787
انب	-5788
رام	-5789
▁۰۶۳	-5790
▁میون	-5791
▁۳۸۹۱ء	-5792
▁نیپالی	-5793
▁نائجیریا	-5794
سٹن	-5795
▁شوق	-5796
▁حضور	-5797
▁مخفف	-5798
▁نقحر	-5799
▁۰۸۶ء	-5800
▁یقینی	-5801
▁یومِ	-5802
▁سیکھا	-5803
▁الحرام	-5804
▁پہنچنے	-5805
▁حت	-5806
▁ورکشاپ	-5807
▁بزر	-5808
▁وثق	-5809
▁اوورز	-5810
▁پیشرو	-5811
▁کمیونٹی	-5812
▁خطوط	-5813
▁پوسٹ	-5814
▁مصنفہ	-5815
▁۶۷۹۱ء	-5816
▁۱۰	-5817
▁تصوف	-5818
▁سیاہ	-5819
▁پڑتے	-5820
▁دوپہر	-5821
▁میزبانی	-5822
ینج	-5823
▁۸۸	-5824
▁۴۲۹۱ء	-5825
▁جانوروں	-5826
زمی	-5827
▁۳۸۲	-5828
▁نواس	-5829
▁نارتھ	-5830
غہ	-5831
الر	-5832
▁داس	-5833
▁ریو	-5834
▁سزائے	-5835
▁نوآباد	-5836
فون	-5837
ودا	-5838
یاسی	-5839
▁جنت	-5840
▁ویر	-5841
▁۲۴۲	-5842
▁رشتہ	-5843
▁اشتراکی	-5844
ہرے	-5845
ارکٹ	-5846
▁دیر	-5847
▁رسومات	-5848
▁برف	-5849
▁ظلم	-5850
▁ساجد	-5851
▁لازم	-5852
▁خراسان	-5853
▁بنتا	-5854
▁پانے	-5855
▁دھماکے	-5856
▁انٹارکٹ	-5857
▁یونیسکو	-5858
یندر	-5859
▁پیدائشیں	-5860
▁سزا	-5861
فارسی	-5862
▁لکھنا	-5863
▁وسائل	-5864
▁ایئربس	-5865
▁شہزادہ	-5866
▁ہدایتی	-5867
▁لائی	-5868
▁سینئر	-5869
▁مہاجر	-5870
▁ساحلوں	-5871
▁مہاتما	-5872
نجر	-5873
▁پیٹ	-5874
▁لارڈ	-5875
▁وقت۔	-5876
▁مقدمہ	-5877
▁۲۳۹۱ء	-5878
▁نیدرلینڈ	-5879
پال	-5880
۸۸۶	-5881
اویہ	-5882
۰۲۹۱	-5883
▁آمر	-5884
▁بید	-5885
▁ہیپ	-5886
▁۳۵۲	-5887
▁حمزہ	-5888
▁گوئی	-5889
▁گرفتار	-5890
▁تحریریں	-5891
طنیہ	-5892
▁کمب	-5893
▁چترال	-5894
تیے	-5895
▁معین	-5896
▁کاتھ	-5897
▁۱۶۸۱ء	-5898
ساس	-5899
▁مرکوز	-5900
راس	-5901
▁فرقہ	-5902
▁غداری	-5903
▁ماسٹر	-5904
▁۵۳۹۱ء	-5905
▁مثل	-5906
▁مرہ	-5907
▁پرچم	-5908
▁گانا	-5909
▁پوئتیے	-5910
▁ند	-5911
▁۔۱	-5912
▁اچھا	-5913
▁میزائل	-5914
▁سرفہرست	-5915
خَ	-5916
امت	-5917
۷۱۲	-5918
ینڈل	-5919
▁چیل	-5920
▁املا	-5921
▁المعروف	-5922
فۃ	-5923
۷۶۲	-5924
سانچہ	-5925
▁جمال	-5926
▁۶۰۹۱ء	-5927
خلافہ	-5928
▁سیار	-5929
▁دارال	-5930
ہران	-5931
▁باگ	-5932
▁اصولوں	-5933
▁کاتھولک	-5934
▁گلوکارہ	-5935
▁حیاتیاتی	-5936
زہ	-5937
▁آت	-5938
دائے	-5939
کینا	-5940
▁پڑھی	-5941
▁کیمبر	-5942
▁ساہ	-5943
▁اسپن	-5944
▁تاجر	-5945
▁نذیر	-5946
▁کہتا	-5947
▁استعفی	-5948
▁تخمینہ	-5949
▁فائلوں	-5950
۷۱۶۱	-5951
▁رسی	-5952
▁نیک	-5953
▁رضیع	-5954
▁انشومن	-5955
▁گیارہویں	-5956
▁ِ	-5957
▁چوڑ	-5958
▁سنیے	-5959
▁درستی	-5960
▁جسمانی	-5961
▁۳۸۴۵۸۱	-5962
طیل	-5963
ویئر	-5964
▁ضلعی	-5965
▁بوئنگ	-5966
▁پہچان	-5967
▁تفصیلی	-5968
▁کمیونسٹ	-5969
▁سانچہاپریل	-5970
صور	-5971
▁۴۸	-5972
ونیا	-5973
▁ناپید	-5974
▁معطل	-5975
▁سکونت	-5976
▁ملائی	-5977
▁ڈیپ	-5978
▁وَ	-5979
▁نادر	-5980
▁اسلامیہ	-5981
▁ربیع	-5982
▁وآلہ	-5983
یزا	-5984
گال	-5985
▁اث	-5986
▁درجے	-5987
▁شاہر	-5988
▁بیٹوں	-5989
چوں	-5990
ینس	-5991
▁۶۹	-5992
▁فونٹ	-5993
ناک	-5994
بائیں	-5995
▁بصرہ	-5996
▁مظفر	-5997
▁جج	-5998
▁فیل	-5999
▁غلبہ	-6000
▁میاں	-6001
▁۳۷۹۱	-6002
▁سکندر	-6003
ربت	-6004
▁جلا	-6005
▁اصفہ	-6006
▁شعری	-6007
▁سلامتی	-6008
▁۱۷۴۵۸۱	-6009
▁جغرافیہ	-6010
یبون	-6011
▁میت	-6012
▁جلال	-6013
▁منگل	-6014
▁فتوحات	-6015
یچر	-6016
▁برع	-6017
▁گہرا	-6018
▁عموما	-6019
▁ناروی	-6020
معلومات	-6021
▁بلقانی	-6022
▁کہانیاں	-6023
▁ٹاپ	-6024
▁ہفت	-6025
▁صلیبی	-6026
▁۱۵۹۱ء	-6027
ارٹ	-6028
▁۴۰	-6029
▁ضیا	-6030
▁بابا	-6031
▁ریسر	-6032
▁ہریا	-6033
▁۸۲۹۱ء	-6034
▁کھیلتے	-6035
▁شکا	-6036
درہ	-6037
رید	-6038
▁نوا	-6039
▁الجن	-6040
▁بنی۔	-6041
▁گزاری	-6042
▁۱۰۹۱ء	-6043
▁تاجکستان	-6044
۸۹۷	-6045
▁خالص	-6046
▁مارا	-6047
▁مبارک	-6048
▁رومانیہ	-6049
ُل	-6050
ڈا	-6051
▁آش	-6052
▁سَب	-6053
۱۱۱۰۱	-6054
▁بھیجا	-6055
▁آٹھواں	-6056
▁القاسم	-6057
رد	-6058
▁نثر	-6059
▁درخت	-6060
▁۳۶۹۱ء	-6061
جاج	-6062
عین	-6063
ناء	-6064
▁اڈے	-6065
▁سہل	-6066
فہرست	-6067
▁قران	-6068
▁۰۳۶۱	-6069
▁برکینا	-6070
▁پسندوں	-6071
▁معر	-6072
▁نچلے	-6073
▁تشریف	-6074
▁جمعیت	-6075
▁عراقی	-6076
▁کرویئ	-6077
▁آرگن	-6078
▁آنکھ	-6079
▁ورژن	-6080
▁پاشا	-6081
پوریشن	-6082
ابلس	-6083
فارم	-6084
▁سیول	-6085
▁۳۳۹۱ء	-6086
لقہ	-6087
۳۲۶	-6088
شائر	-6089
▁سکا	-6090
▁۵۵۹۱ء	-6091
▁دھماکا	-6092
▁شاہراہ	-6093
▁کرایا۔	-6094
▁فیر	-6095
خَریو	-6096
▁علمِ	-6097
▁باؤلر	-6098
▁ہیپلو	-6099
خَریوطی	-6100
▁اِسخَریوطی	-6101
▁پوپ	-6102
▁گیر	-6103
▁جلدوں	-6104
ائپ	-6105
▁میث	-6106
▁کِیا	-6107
▁جنگجو	-6108
▁قرآنی	-6109
نیٹ	-6110
▁شیزو	-6111
▁عظمی	-6112
▁مریم	-6113
▁جملوں	-6114
▁نارویجن	-6115
▁مائیکروس	-6116
حان	-6117
زیہ	-6118
▁آیات	-6119
▁امجد	-6120
▁افرو۔	-6121
▁بخاری	-6122
▁تہران	-6123
▁لکھاری	-6124
▁رَ	-6125
▁کمر	-6126
▁کمز	-6127
▁معنوں	-6128
▁۲۶۹۱ء	-6129
▁۶۱۹۱ء	-6130
▁۶۶۹۱ء	-6131
▁چوہ	-6132
▁آذری	-6133
▁بہتری	-6134
▁آز	-6135
▁دم	-6136
▁سس	-6137
یتھک	-6138
▁رجب	-6139
▁ہمہ	-6140
بادلہ	-6141
▁حتمی	-6142
▁پچیس	-6143
▁عبادت	-6144
▁۲۷۴۵۸۱	-6145
نان	-6146
نگھ	-6147
▁پتلی	-6148
▁۶۹۹۱	-6149
▁خواندگی	-6150
گیز	-6151
یکسن	-6152
▁روحانی	-6153
▁تیرہویں	-6154
▁موریتانیہ	-6155
ِک	-6156
▁مقص	-6157
▁۳۴۲	-6158
▁اینج	-6159
▁چڑھ	-6160
▁تامل	-6161
▁النسل	-6162
اخر	-6163
▁سٹر	-6164
ریٹنگ	-6165
▁تھوڑی	-6166
▁میثاق	-6167
▁ٹیمیں	-6168
▁انفرادی	-6169
▁بالخصوص	-6170
ّی	-6171
۳۷	-6172
یوانی	-6173
▁سورس	-6174
▁الفرڈ	-6175
▁موسوم	-6176
▁ہوتا۔	-6177
نم	-6178
تھا	-6179
۹۲۱	-6180
▁استح	-6181
▁تہائی	-6182
▁۱۶۹۱ء	-6183
▁جنگلات	-6184
▁چم	-6185
▁آپریٹنگ	-6186
▁قسطنطنیہ	-6187
▁بسر	-6188
▁کنگ	-6189
▁بورو	-6190
▁شوری	-6191
▁حملوں	-6192
▁بہادری	-6193
▁تنقیدی	-6194
طے	-6195
▁عش	-6196
▁بزرگ	-6197
▁سادہ	-6198
▁ہونی	-6199
▁تعطیل	-6200
ریدی	-6201
▁ڈار	-6202
▁کروش	-6203
▁الملک	-6204
▁مولوی	-6205
▁باؤلنگ	-6206
▁رہنمائی	-6207
▁انتظامیہ	-6208
مح	-6209
ٹیوب	-6210
▁وضع	-6211
▁رائٹ	-6212
▁واٹر	-6213
▁تباہی	-6214
▁اداکاروں	-6215
ٹزر	-6216
۰۲۲	-6217
▁طنز	-6218
▁گیس	-6219
ائیکی	-6220
▁سپین	-6221
▁مقید	-6222
▁گریجویٹ	-6223
▁گلوکاری	-6224
▁جیک	-6225
▁مظاہرہ	-6226
▁نان	-6227
▁وید	-6228
▁اناج	-6229
▁انور	-6230
▁فاسو	-6231
یشیائی	-6232
▁اخلاق	-6233
▁ستارہ	-6234
▁ہے۔۲۱	-6235
▁بابائے	-6236
▁عورتوں	-6237
▁یوٹیوب	-6238
▁سانچہنوار	-6239
▁یادبودہای	-6240
۵۶	-6241
فین	-6242
▁پھول	-6243
▁گردش	-6244
▁گجراتی	-6245
پوری	-6246
▁لام	-6247
▁سراہ	-6248
▁طلاق	-6249
▁اشعار	-6250
▁بولنگ	-6251
▁دلائل	-6252
▁۰۷۸۱ء	-6253
▁۷۵۹۱ء	-6254
▁سائنسدانوں	-6255
۹۵۲۰	-6256
▁ششم	-6257
▁اتنی	-6258
▁حدود	-6259
▁مہیا	-6260
▁گرجا	-6261
▁۷۲۹۱ء	-6262
صب	-6263
الک	-6264
میہ	-6265
▁دامن	-6266
▁۹۲۹۱ء	-6267
▁بلدیات	-6268
▁لسانیات	-6269
وث	-6270
حقوق	-6271
۳۱۳۰	-6272
نطینی	-6273
▁الٰہ	-6274
▁زیاد	-6275
▁مارگ	-6276
▁گہرے	-6277
▁الہند	-6278
▁طلائی	-6279
▁جارحیت	-6280
▁کھیلتا	-6281
▁ولادیمیر	-6282
،،	-6283
▁ساک	-6284
▁بھوٹ	-6285
▁نیپس	-6286
▁یحییٰ	-6287
▁جنس	-6288
▁استف	-6289
▁لائف	-6290
▁نقطۂ	-6291
▁پڑوسی	-6292
▁۴۱۹۱ء	-6293
فیق	-6294
۸۹۶	-6295
▁بلی	-6296
▁۷۱۲	-6297
▁فائر	-6298
▁الخلافہ	-6299
وکس	-6300
▁تحفہ	-6301
یدگیوں	-6302
▁ریسرچ	-6303
▁ٹائمز	-6304
▁درمیانی	-6305
ائف	-6306
▁عزت	-6307
▁۸۵۸۱ء	-6308
▁طرابلس	-6309
▁مارکیٹ	-6310
▁پالیولیتھک	-6311
▁مائیکروسافٹ	-6312
ریٹری	-6313
▁برٹش	-6314
▁۲۰۰۲	-6315
▁فارمیٹ	-6316
۵۷	-6317
جان	-6318
▁موڑ	-6319
▁سائز	-6320
▁مساجد	-6321
▁گھانا	-6322
▁ضروریات	-6323
▁۲۰	-6324
▁اچھے	-6325
▁کالی	-6326
▁بالائی	-6327
▁دکھایا	-6328
▁پرتھوی	-6329
▁اسکینڈل	-6330
▁فضائی	-6331
سنی	-6332
ووا	-6333
لیقی	-6334
▁ایکس	-6335
▁لینن	-6336
▁دہائیوں	-6337
▁سرد	-6338
▁لاس	-6339
▁نیش	-6340
▁۵۲۱	-6341
▁روانہ	-6342
▁کیمبرج	-6343
جیت	-6344
▁اوپ	-6345
▁سوشل	-6346
▁شامی	-6347
▁کمانڈر	-6348
▁سلطنتوں	-6349
▁رقعہ	-6350
▁عالی	-6351
▁۲۵۹۱	-6352
▁مغلیہ	-6353
▁اہتمام	-6354
▁کائنات	-6355
حاب	-6356
شاں	-6357
موز	-6358
یارک	-6359
▁جمی	-6360
واک	-6361
گیٹ	-6362
▁دیشی	-6363
▁سکوں	-6364
▁قومیت	-6365
▁بھوٹان	-6366
▁▁▁▁▁▁▁▁▁▁▁▁▁	-6367
▁رگ	-6368
ِیلِ	-6369
▁استن	-6370
▁لڑکی	-6371
▁اسلوب	-6372
▁گھنٹوں	-6373
دت	-6374
متی	-6375
۸۱۷۱	-6376
▁تنز	-6377
▁رفتہ	-6378
▁مباحث	-6379
▁سَبِیلِ	-6380
▁فرانسسکو	-6381
تعلقہ	-6382
▁گرچہ	-6383
▁نگران	-6384
▁تائیوان	-6385
▁تخلیقات	-6386
▁کیتھولک	-6387
گے	-6388
اتَ	-6389
▁اسد	-6390
▁سٹیٹ	-6391
▁فورس	-6392
▁ٹائی	-6393
▁مَاتَ	-6394
▁چوتھے	-6395
▁وَمَنْ	-6396
▁عدم	-6397
▁۰۶۹۱	-6398
▁ایٹمی	-6399
بارہویں	-6400
▁تخلیقی	-6401
▁پود	-6402
▁کرس	-6403
▁۰۵۱	-6404
▁تفری	-6405
▁رضوی	-6406
▁شرعی	-6407
▁جواہر	-6408
▁مزاحیہ	-6409
▁عنوانات	-6410
▁میونسپل	-6411
ھو	-6412
شائع	-6413
▁محب	-6414
▁باری	-6415
▁جوڑے	-6416
▁۸۹۹۱	-6417
▁استوار	-6418
▁شہدائے	-6419
▁غلطیاں	-6420
▁۷۲۸۲۱۲	-6421
▁کرداروں	-6422
▁تشریح	-6423
یانگ	-6424
▁اعل	-6425
▁اصلی	-6426
▁تبلی	-6427
ادل	-6428
▁زون	-6429
▁لمبا	-6430
علوم	-6431
▁اہلِ	-6432
▁زینت	-6433
▁فرار	-6434
▁پریس	-6435
ارستان	-6436
۳۸	-6437
۸۷ء	-6438
ائیں۔	-6439
▁ناڈو	-6440
▁الیون	-6441
▁تالیف	-6442
▁مصنوع	-6443
▁۸۶۹۱ء	-6444
▁تعلیمات	-6445
خو	-6446
▁رائ	-6447
▁کاغ	-6448
▁بریک	-6449
ائزیشن	-6450
▁شیواجی	-6451
بیل	-6452
۳۹۶	-6453
▁اپن	-6454
▁منڈی	-6455
▁پچھلا	-6456
ینز	-6457
▁سے۔	-6458
▁فہد	-6459
▁سیلاب	-6460
▁الاسلام	-6461
صوم	-6462
▁نیویارک	-6463
▁فلسفے	-6464
▁۱۲۹۱ء	-6465
▁جماعتوں	-6466
▁خطِ	-6467
▁جیتی	-6468
▁مارے	-6469
▁ذخیرہ	-6470
▁سانچوں	-6471
۰۰۰۲	-6472
▁۰۸۴	-6473
▁نجات	-6474
▁۸۱۹۱ء	-6475
ڈین	-6476
۸۸۷	-6477
وائی	-6478
▁بدع	-6479
▁سواح	-6480
▁واقف	-6481
متعلقہ	-6482
▁جرائم	-6483
▁پچھلے	-6484
▁دِیوانی	-6485
▁احتر	-6486
▁حبیب	-6487
▁موری	-6488
▁موسمی	-6489
▁القرآن	-6490
پس	-6491
داء	-6492
▁۵۰	-6493
▁انو	-6494
▁سیم	-6495
▁پرن	-6496
▁چون	-6497
ائیگی	-6498
▁کنگز	-6499
▁ہاشم	-6500
▁مقدار	-6501
▁۲۲۹۱ء	-6502
چل	-6503
ملوک	-6504
وطنی	-6505
گوئے	-6506
▁ضمن	-6507
▁قال	-6508
▁خفیہ	-6509
▁لیڈر	-6510
▁فائدہ	-6511
▁۸۷۴۵۸۱	-6512
▁آکسفورڈ	-6513
نڈے	-6514
▁الإ	-6515
▁ملحق	-6516
▁کہنے	-6517
▁العلم	-6518
▁زلزلے	-6519
▁۲۴۹۱ء	-6520
▁کرناٹک	-6521
جئ	-6522
ڑہ	-6523
▁پوٹ	-6524
▁مجوز	-6525
▁کامل	-6526
▁اوبلا	-6527
▁سواحلی	-6528
▁ادائیگی	-6529
مام	-6530
▁کاٹ	-6531
▁صالح	-6532
▁مارشل	-6533
▁سمرقند	-6534
▁ویتنامی	-6535
ٹنگ	-6536
▁اکس	-6537
▁لیو	-6538
▁وتو	-6539
▁جیتے	-6540
▁مفید	-6541
شد	-6542
جیب	-6543
جیکٹ	-6544
وڈیا	-6545
▁صنف	-6546
▁۵۱۱	-6547
▁لفظی	-6548
▁بالٹک	-6549
▁بلدیہ	-6550
▁معصوم	-6551
▁طالبان	-6552
▁اوبلاست	-6553
یڈی	-6554
▁آبی	-6555
▁سست	-6556
▁پٹی	-6557
▁۵۶۳	-6558
▁رموز	-6559
▁چوٹی	-6560
▁بڑھتی	-6561
▁تھے۔۵	-6562
▁مدفون	-6563
▁۶۳۹۱ء	-6564
▁استفادہ	-6565
▁استنبول	-6566
یٹڈ	-6567
سٹنٹ	-6568
▁بون	-6569
▁خشک	-6570
▁عصر	-6571
▁اینٹ	-6572
▁سونے	-6573
▁چلتا	-6574
▁بناتے	-6575
▁طاقتور	-6576
▁کیمسٹری	-6577
۵ھ	-6578
الن	-6579
▁آتش	-6580
▁روب	-6581
آسانی	-6582
▁اسکالر	-6583
▁رکھتے۔	-6584
▁گرمیوں	-6585
▁امیدواروں	-6586
۹۱۱	-6587
۰۲۳۰	-6588
▁دوک	-6589
▁نجد	-6590
▁پاگ	-6591
▁باہم	-6592
▁چیلنج	-6593
▁خالی	-6594
▁مرکب	-6595
▁کسنجر	-6596
▁وتوسیع	-6597
▁مالیاتی	-6598
قے	-6599
افی	-6600
دوش	-6601
یرے	-6602
▁ٹار	-6603
▁یونس	-6604
▁طیاروں	-6605
▁۷۸	-6606
▁قاف	-6607
▁چوب	-6608
▁۰۶۱	-6609
▁دیہی	-6610
▁اٹھارہ	-6611
سلط	-6612
۰۱۹	-6613
▁کیچ	-6614
ودہ	-6615
کال	-6616
ندھر	-6617
▁خلف	-6618
▁صوت	-6619
▁ابیض	-6620
▁انبیا	-6621
▁آنحضرت	-6622
▁لوٹ	-6623
▁محر	-6624
▁جتنی	-6625
▁سوار	-6626
▁فونی	-6627
▁فیئر	-6628
▁کھنہ	-6629
▁ایوبی	-6630
▁رومان	-6631
▁شاخیں	-6632
▁قوموں	-6633
▁النہرین	-6634
لین	-6635
▁ارج	-6636
▁ناب	-6637
▁بہاؤ	-6638
▁عمارات	-6639
ورکا	-6640
کاوٹ	-6641
▁عین	-6642
▁آگاہ	-6643
▁تاثر	-6644
▁دیہات	-6645
▁شمعون	-6646
▁پیٹرز	-6647
کھا	-6648
گرس	-6649
افاتی	-6650
▁دادو	-6651
▁ذوال	-6652
▁ہلکے	-6653
▁اورنگ	-6654
▁نامکمل	-6655
▁مضافاتی	-6656
▁موجودگی	-6657
ثت	-6658
لسی	-6659
▁فارغ	-6660
▁تھے۔۲	-6661
▁مقصود	-6662
▁ڈویلپ	-6663
▁کمزور	-6664
▁ستاروں	-6665
▁یوکرائن	-6666
▁اری	-6667
▁یوکرینی	-6668
فعی	-6669
بندی	-6670
▁خاصا	-6671
▁عارف	-6672
▁لوگو	-6673
▁بائیس	-6674
▁الثانی	-6675
▁کریمیا	-6676
▁استحکام	-6677
▁مخل	-6678
▁پلا	-6679
▁بیعت	-6680
▁پہچانے	-6681
چند	-6682
▁وپ	-6683
▁ایب	-6684
▁مشیر	-6685
▁انائی	-6686
▁سکیں۔	-6687
▁مہمان	-6688
▁ناکامی	-6689
▁پہنچے۔	-6690
▁▁▁▁▁▁▁	-6691
▁کردستان	-6692
▁کھٹ	-6693
▁اکرم	-6694
▁مجمع	-6695
▁ملی۔	-6696
▁بیرون	-6697
▁شافعی	-6698
▁کرشنا	-6699
▁امریکن	-6700
▁داستان	-6701
▁نارائن	-6702
▁گریگوری	-6703
دس	-6704
وریل	-6705
▁رقص	-6706
▁مرگ	-6707
▁دراز	-6708
▁گروہوں	-6709
َی	-6710
▁بچن	-6711
▁ماک	-6712
▁پھل	-6713
▁آرتھ	-6714
▁اوول	-6715
▁کوچک	-6716
▁۵۴۹۱	-6717
▁دیوتا	-6718
جئیم	-6719
▁سرو	-6720
▁پُر	-6721
▁گوڈ	-6722
سلامی	-6723
▁مدار	-6724
▁ڈیڑھ	-6725
▁کارخ	-6726
▁آرتھر	-6727
▁رکاوٹ	-6728
▁مصوری	-6729
اوات	-6730
▁داغ	-6731
▁ساکن	-6732
▁گنبد	-6733
▁گولڈن	-6734
▁ہے۔ان	-6735
▁مارگلہ	-6736
▁ملائیشیا	-6737
ریش	-6738
شار	-6739
▁صع	-6740
▁جرن	-6741
▁۵۳۱	-6742
▁باللہ	-6743
▁فوائد	-6744
▁مناتے	-6745
▁۱۲۸۲۱۲	-6746
▁کمبوڈیا	-6747
جنگ	-6748
▁ڈالا	-6749
▁برعکس	-6750
▁بغدادی	-6751
▁دیکھتے	-6752
▁سمجھنے	-6753
▁کروانے	-6754
الٹر	-6755
▁آنگ	-6756
▁مشہد	-6757
▁پابنا	-6758
ٹھا	-6759
ہیر	-6760
▁قریش	-6761
▁مرتفع	-6762
▁چودھویں	-6763
▁اپیل	-6764
▁کپڑے	-6765
آرکائیو	-6766
ایشیائی	-6767
▁الفریڈ	-6768
طب	-6769
▁مچھ	-6770
▁رسوخ	-6771
▁سہرا	-6772
▁طارق	-6773
▁میدانوں	-6774
▁یم	-6775
واجد	-6776
▁یار	-6777
گریزی	-6778
▁بابر	-6779
ٹیول	-6780
یکٹو	-6781
▁طبع	-6782
▁ہے۔۸	-6783
▁۲۱۱۱	-6784
▁ابواب	-6785
وراگوئے	-6786
▁الیکٹر	-6787
▁جبرالٹر	-6788
▁کیمیائی	-6789
سیٹ	-6790
قیع	-6791
۰۰۸	-6792
▁اظ	-6793
▁فز	-6794
▁آزما	-6795
▁اینگ	-6796
▁جلتا	-6797
▁رنجی	-6798
▁نازل	-6799
▁کوششوں	-6800
▁ساتھیوں	-6801
▁فیسٹیول	-6802
ابھ	-6803
تیہ	-6804
کوئی	-6805
▁صاد	-6806
▁مشن	-6807
▁آئرش	-6808
▁برسی	-6809
▁تلنگ	-6810
▁زادہ	-6811
▁لمبی	-6812
▁تصویری	-6813
▁مراجعت	-6814
▁اگست۳۲۰۲	-6815
وپا	-6816
▁اغ	-6817
▁ہڈ	-6818
داشت	-6819
▁لتھ	-6820
سلطنت	-6821
▁سالم	-6822
▁سوفٹ	-6823
▁عرفی	-6824
▁رجوعِ	-6825
▁مساوی	-6826
▁اجتماعی	-6827
ینے	-6828
ینڈا	-6829
▁پلے	-6830
▁ہے۱	-6831
▁فلاح	-6832
▁نشین	-6833
▁دیویکا	-6834
▁قبائلی	-6835
▁مساوات	-6836
▁پہونچنا	-6837
▁یوراگوئے	-6838
راع	-6839
عبد	-6840
۴۹۱	-6841
▁ڈاؤن	-6842
▁جرمان	-6843
▁حلقوں	-6844
▁قرطبہ	-6845
▁۳۸۸۱ء	-6846
▁تعمیراتی	-6847
▁انڈونیشیائی	-6848
▁ُ	-6849
لزم	-6850
گزین	-6851
▁آشا	-6852
▁تمھ	-6853
▁لڑی	-6854
▁گوٹ	-6855
▁عقیل	-6856
▁ناقابل	-6857
▁سانچہخانہ	-6858
▁زمرہویکیپیڈیا	-6859
کوٹ	-6860
یٹک	-6861
▁فت	-6862
▁سنا	-6863
▁خصوصیت	-6864
▁کھیلتی	-6865
▁نیدرلینڈز	-6866
۳۱۲۱	-6867
▁لیبل	-6868
▁دیوار	-6869
▁اینجلس	-6870
▁دکھانے	-6871
▁دیوبند	-6872
▁کھٹمنڈو	-6873
۷۶۳	-6874
▁آغا	-6875
▁بسم	-6876
▁خوز	-6877
▁نفا	-6878
▁موثر	-6879
▁متوفی	-6880
▁مشابہ	-6881
▁اسٹریٹ	-6882
۔۲	-6883
فیل	-6884
▁شن	-6885
▁پد	-6886
▁لگیں۔	-6887
▁مصطفی	-6888
▁بالترتیب	-6889
▁کالونیوں	-6890
▁معاونتمعلومات	-6891
ُت	-6892
رمہ	-6893
▁فق	-6894
▁ہین	-6895
▁انوں	-6896
▁ایگز	-6897
▁سنٹر	-6898
▁ملنے	-6899
▁گرما	-6900
▁پاستر	-6901
▁معاصر	-6902
▁گیبون	-6903
▁جالندھر	-6904
ڑھا	-6905
▁گپ	-6906
▁۶۶۳	-6907
▁جہانگ	-6908
▁پرائز	-6909
▁۷۹۸۱ء	-6910
▁افرو۔ایشیائی	-6911
عارف	-6912
▁پر۔	-6913
▁۲۶۳	-6914
▁الحا	-6915
▁بحال	-6916
▁بھال	-6917
▁اطراف	-6918
▁برادر	-6919
▁پریمی	-6920
ھری	-6921
▁الْ	-6922
▁۱۹۷	-6923
حکومت	-6924
▁سورت	-6925
▁۸۱۹۱	-6926
▁منسوخ	-6927
▁۵۱۸۱ء	-6928
▁فونیقی	-6929
۰۵۲	-6930
▁باط	-6931
▁جاہ	-6932
▁۱۶۳	-6933
▁امین	-6934
▁بھیڑ	-6935
▁سفیر	-6936
▁تجزیہ	-6937
▁درآمد	-6938
▁ہے۔۴۳	-6939
▁آرتھوڈ	-6940
▁جرمانیکس	-6941
ُن	-6942
ثیق	-6943
▁چش	-6944
▁الحو	-6945
▁جیمی	-6946
▁ناشر	-6947
▁۱۹۹۱	-6948
▁اپلوڈ	-6949
▁تھامس	-6950
▁اقتصاد	-6951
▁بز	-6952
▁فرقے	-6953
▁۰۰۰۳	-6954
▁۰۸۹۱	-6955
▁۸۴۹۱	-6956
▁ویتنام	-6957
الق	-6958
شیر	-6959
▁۳۶۳	-6960
▁آئیں۔	-6961
▁میٹرک	-6962
▁۱۳۶۱ء	-6963
▁پریمیئر	-6964
▁اسماعیلی	-6965
▁فارسیعربی	-6966
▁آور	-6967
▁گلی	-6968
یانوے	-6969
▁کی۔۲	-6970
▁بحران	-6971
▁انصاری	-6972
▁اقدامات	-6973
▁معاونتی	-6974
▁اِص	-6975
▁ہیم	-6976
▁مارٹن	-6977
▁کیمرون	-6978
▁بازنطینی	-6979
▁لہر	-6980
▁۴۱۹۱	-6981
▁۰۰۶۱ء	-6982
۳۵	-6983
یڈن	-6984
▁امرت	-6985
▁سوئز	-6986
▁توثیق	-6987
▁شاخوں	-6988
▁چودہ	-6989
▁روپیا	-6990
▁قابلیت	-6991
▁اِصطلاح	-6992
آج	-6993
یلے	-6994
▁ذی	-6995
▁الد	-6996
▁۹۳۱	-6997
▁چلنے	-6998
▁خانوں	-6999
ائرینیس	-7000
▁میگزین	-7001
▁ہزاریہ	-7002
▁پائرینیس	-7003
▁کوالیفائر	-7004
یالی	-7005
▁غازی	-7006
▁لیٹو	-7007
▁۰۵۹۱	-7008
▁اصحاب	-7009
▁صدیقی	-7010
▁باگمتی	-7011
باز	-7012
دون	-7013
ائیڈو	-7014
▁برمن	-7015
▁بلیک	-7016
▁سوالات	-7017
▁مستعفی	-7018
▁میموریل	-7019
غلط	-7020
▁چک	-7021
▁تاح	-7022
▁برلن	-7023
▁پبلک	-7024
▁اواخر	-7025
▁خاموش	-7026
▁دانشور	-7027
حید	-7028
▁عس	-7029
▁یش	-7030
▁بشر	-7031
▁فاض	-7032
▁ناگ	-7033
بحیرہ	-7034
▁بولر	-7035
▁رضاک	-7036
▁فریق	-7037
▁احکام	-7038
▁افسانے	-7039
▁پہلوؤں	-7040
▁دھماکوں	-7041
▁نوآبادیاتی	-7042
۴۹	-7043
نٰی	-7044
یکچر	-7045
▁ڈرا	-7046
▁سیریل	-7047
▁وثائق	-7048
▁چنگیز	-7049
▁بکھ	-7050
ٹزرلینڈ	-7051
▁شروعات	-7052
▁کٹھمنڈو	-7053
▁کارپوریشن	-7054
ونہ	-7055
▁۳۵۱	-7056
▁جوان	-7057
▁پروٹ	-7058
▁الیگز	-7059
▁جمعرات	-7060
▁جارجیائی	-7061
زو	-7062
ازن	-7063
▁آئٹ	-7064
▁مقت	-7065
▁لیتا	-7066
▁۵۷۹۱	-7067
▁لطیفہ	-7068
▁ہارون	-7069
▁الدولہ	-7070
▁نامزدگیوں	-7071
بین	-7072
نسٹ	-7073
ویض	-7074
▁زیب	-7075
▁نین	-7076
▁سیمی	-7077
▁ایکسپ	-7078
المعارف	-7079
▁دائرۃالمعارف	-7080
۳۱ھ	-7081
الیہ	-7082
اہری	-7083
قیقت	-7084
▁آدم	-7085
▁شارہ	-7086
▁مخزن	-7087
▁تلوار	-7088
▁لگانے	-7089
▁پاپوا	-7090
الڈ	-7091
ُمْ	-7092
▁مدن	-7093
▁کنی	-7094
▁ڈسٹر	-7095
▁تحسین	-7096
▁جیتتے	-7097
▁دارجہ	-7098
▁سالار	-7099
▁۳۲۹۱ء	-7100
زادہ	-7101
سٹرڈ	-7102
▁لیج	-7103
▁گزارے	-7104
▁ولد	-7105
▁ڈیل	-7106
▁مریض	-7107
▁نفاذ	-7108
▁ٹی۰۲	-7109
▁میلاد	-7110
▁دنیائے	-7111
▁ود	-7112
ستور	-7113
ٹائی	-7114
▁لار	-7115
▁۹۵۳	-7116
▁شاعر۔	-7117
▁ٹیکساس	-7118
▁مقدونیہ	-7119
۳۱۷	-7120
▁ہف	-7121
سترہ	-7122
▁۸۵۳	-7123
▁آرمی	-7124
▁بلاک	-7125
▁فطری	-7126
فور	-7127
۶۷۱	-7128
▁خاں	-7129
▁سیٹ	-7130
▁امیت	-7131
▁ڈورو	-7132
▁کسان	-7133
▁امارت	-7134
▁مملوک	-7135
▁کرتے۔	-7136
▁۰۸۴۵۸۱	-7137
▁اقتصادیات	-7138
ضان	-7139
▁شش	-7140
▁خرچ	-7141
▁لاک	-7142
▁میخ	-7143
▁آسام	-7144
▁سٹوپا	-7145
▁فوقیت	-7146
▁انعقاد	-7147
▁نائیڈو	-7148
ولر	-7149
▁برو	-7150
▁شیک	-7151
نوانی	-7152
▁غربت	-7153
▁ٹیگس	-7154
▁فاروق	-7155
▁ساتواں	-7156
▁گوڈیانا	-7157
▁بدعنوانی	-7158
▁جسٹس	-7159
▁نستع	-7160
▁پیار	-7161
▁ادنٰی	-7162
▁ثانیہ	-7163
▁نستعلیق	-7164
فرت	-7165
فسکی	-7166
۱۲۱۲	-7167
▁حفظ	-7168
▁دعا	-7169
▁روہ	-7170
۳۶۴۲۰	-7171
▁اشرف	-7172
▁الاع	-7173
▁سانس	-7174
▁لینگ	-7175
▁میجر	-7176
▁نگیں	-7177
▁پونے	-7178
▁تفویض	-7179
▁حرکات	-7180
▁مستند	-7181
▁سانچہت	-7182
▁بلغاریہ	-7183
▁صل	-7184
۵۵۷۵	-7185
▁درہ	-7186
▁آسمان	-7187
▁اشوکا	-7188
▁اعراب	-7189
▁تبصرہ	-7190
▁معاویہ	-7191
کنی	-7192
▁سرے	-7193
▁بھی۔	-7194
▁جاتا۔	-7195
▁۵۶۸۱ء	-7196
▁بیلاروس	-7197
▁جہانگیر	-7198
۹ء	-7199
ائڈ	-7200
۵۰۱	-7201
▁۶۵۸۱ء	-7202
فارمیشن	-7203
▁بآسانی	-7204
▁انسانوں	-7205
▁انض	-7206
▁دلی	-7207
▁شاد	-7208
▁۷۰۱	-7209
▁امیہ	-7210
▁رویل	-7211
▁کومن	-7212
▁جگجیت	-7213
▁عربیۃ	-7214
▁قدیمہ	-7215
▁اختراع	-7216
▁اناجیل	-7217
شری	-7218
نوی	-7219
ہام	-7220
▁جوش	-7221
▁مکھی	-7222
▁ہارڈ	-7223
▁۰۲۹۱	-7224
▁آئٹمز	-7225
▁پرائم	-7226
▁پڑتا۔	-7227
▁۳۴۹۱ء	-7228
اکا	-7229
۰۶۶	-7230
▁بھوس	-7231
▁سیزر	-7232
▁منصب	-7233
▁نصاب	-7234
▁کیرانٹ	-7235
▁ثقافتوں	-7236
چن	-7237
اتر	-7238
الج	-7239
باہ	-7240
▁سلوک	-7241
▁چارے	-7242
سترہویں	-7243
▁اشتراک	-7244
▁الیکشن	-7245
▁ائ	-7246
ابلہ	-7247
▁ورڈ	-7248
▁۱۷۶	-7249
کلینڈ	-7250
▁رواں	-7251
▁عرفات	-7252
▁نشستیں	-7253
ھن	-7254
ہو	-7255
یے	-7256
لوں	-7257
ٹین	-7258
ائیہ	-7259
▁پنڈ	-7260
▁کنڑ	-7261
▁افضل	-7262
▁رنگوں	-7263
▁عہدوں	-7264
▁محفوط	-7265
▁اعلانات	-7266
▁تنزانیہ	-7267
▁کارخانے	-7268
۹۷۱	-7269
▁ارسط	-7270
▁ظہور	-7271
▁مقبو	-7272
▁پردہ	-7273
▁پریش	-7274
▁ارجنٹ	-7275
ولہ	-7276
سیات	-7277
▁نیت	-7278
▁وتر	-7279
▁چور	-7280
▁ہما	-7281
▁ہوش	-7282
▁اُسے	-7283
▁میڈل	-7284
▁۳۸۹۱	-7285
▁چاہتی	-7286
▁فوجیوں	-7287
ُّ	-7288
ہل	-7289
ہند	-7290
ائیے	-7291
▁اچی	-7292
▁ٹیل	-7293
▁گھا	-7294
▁۲۶۱	-7295
▁ایلن	-7296
▁بابل	-7297
▁براڈ	-7298
▁ہفتے	-7299
▁کھانے	-7300
بع	-7301
کیو	-7302
▁وو	-7303
▁ششی	-7304
▁جلتی	-7305
▁راشد	-7306
▁ستیہ	-7307
▁گولی	-7308
▁ٹیکسٹ	-7309
▁شیرازی	-7310
▁غلاموں	-7311
▁جون۳۲۰۲	-7312
۵۱۰۲	-7313
▁تاخ	-7314
▁عقل	-7315
▁۰۰۸	-7316
▁رمضان	-7317
▁ستارے	-7318
▁مینار	-7319
▁گزرتی	-7320
▁آرگنائزیشن	-7321
ائنٹ	-7322
▁زنج	-7323
▁شرف	-7324
▁صبر	-7325
▁خراج	-7326
▁کھول	-7327
▁اشتقا	-7328
▁تاثرات	-7329
▁دریاؤں	-7330
▁ٹارگیٹ	-7331
▁دیکھیں۔	-7332
واش	-7333
▁الجم	-7334
▁بھٹی	-7335
▁پیشے	-7336
▁۳۵۹۱	-7337
غلطیاں	-7338
▁اتوار	-7339
▁بیمار	-7340
▁ترکوں	-7341
▁سربیا	-7342
▁۹۵۶۱ء	-7343
تاریخیہ	-7344
▁سےشائع	-7345
▁امیدوارو	-7346
▁وپغلطیاں	-7347
۔۴	-7348
وند	-7349
▁عص	-7350
اریب	-7351
ریلو	-7352
▁پات	-7353
یکٹور	-7354
▁انکا	-7355
▁خواب	-7356
▁مذمت	-7357
▁کیبن	-7358
▁۰۷۹۱	-7359
▁ہزارے	-7360
▁ہیں۔۵	-7361
▁خوارزم	-7362
▁پھیلاؤ	-7363
▁آبادیوں	-7364
▁عمارتیں	-7365
▁مئی۳۲۰۲	-7366
▁انفارمیشن	-7367
▁اپریل۳۲۰۲	-7368
▁ستمبر۳۲۰۲	-7369
▁اکتوبر۳۲۰۲	-7370
▁جولائی۳۲۰۲	-7371
▁۱ویکیپیڈیا	-7372
▁ٹاور	-7373
▁گنگا	-7374
▁فلسفیا	-7375
▁منگولیا	-7376
پے	-7377
خاص	-7378
خان	-7379
رجی	-7380
ورز	-7381
▁معز	-7382
▁سکا۔	-7383
▁فکری	-7384
▁یارک	-7385
▁۴۴۹۱	-7386
▁تاخیر	-7387
▁خلدون	-7388
▁لکھی۔	-7389
▁متوسط	-7390
▁ہلاکو	-7391
ڈرک	-7392
▁بحق	-7393
▁محتر	-7394
▁۲۵۷۱	-7395
▁الاول	-7396
▁کیرئیر	-7397
▁۱جنوری	-7398
▁قازقستان	-7399
ریا	-7400
▁البل	-7401
▁سلمی	-7402
▁لیلی	-7403
▁نیازی	-7404
▁سرگرمیاں	-7405
غت	-7406
▁؟	-7407
تیں	-7408
دانہ	-7409
▁سیب	-7410
▁جلیل	-7411
▁ماہہ	-7412
▁ویبس	-7413
▁چٹان	-7414
▁چہرے	-7415
▁گیا۔۴	-7416
▁ہوا۔۲۱	-7417
▁الحوائج	-7418
ِس	-7419
ناظر	-7420
▁بارڈ	-7421
▁بدوی	-7422
▁فیچر	-7423
▁۲یکم	-7424
▁جنگیں	-7425
▁لینڈز	-7426
▁گزرنے	-7427
▁تقاریب	-7428
▁عالمگیر	-7429
▁ویبسائٹس	-7430
سمس	-7431
۸۰۸۳	-7432
▁چاڈ	-7433
▁بوسہ	-7434
▁چناب	-7435
▁کرنی	-7436
▁مبینہ	-7437
▁اینگلو	-7438
▁تلنگانہ	-7439
▁کمپنیوں	-7440
امد	-7441
سیوں	-7442
▁توڑ	-7443
▁مڈل	-7444
▁السن	-7445
▁مدرس	-7446
▁ندیم	-7447
▁ہے۔۷	-7448
▁اضافے	-7449
▁کوشاں	-7450
▁الکندی	-7451
▁بحیثیت	-7452
▁ڈھانچا	-7453
▁کتابچوں	-7454
حسن	-7455
وانی	-7456
▁شبہ	-7457
▁کاش	-7458
▁۸۵۲	-7459
▁ازیں	-7460
▁سوات	-7461
▁غرنا	-7462
▁کریول	-7463
▁پینتیس	-7464
▁اکائیوں	-7465
طیف	-7466
▁دلت	-7467
▁۳۶۹	-7468
▁سامان	-7469
▁کیفیت	-7470
▁۲۸۳۲۶	-7471
▁کانگرس	-7472
▁گھریلو	-7473
▁سانچہتقویم	-7474
اگر	-7475
رار	-7476
یسٹک	-7477
▁شوکت	-7478
۰۰۸۰۸۳	-7479
▁بہبود	-7480
▁محافظ	-7481
▁اسکرپٹ	-7482
▁بغاوتوں	-7483
▁خریداروں	-7484
َع	-7485
برو	-7486
بوں	-7487
زان	-7488
دانش	-7489
روسی	-7490
▁پوتے	-7491
▁معدنی	-7492
▁سفارتی	-7493
▁المغربی	-7494
▁ڈومیسٹک	-7495
▁ہیں۔۳۲۱	-7496
▁سوفٹویئر	-7497
▁جزوی	-7498
▁سلجو	-7499
▁ناظم	-7500
▁ہانگ	-7501
▁الحاق	-7502
▁نقلیں	-7503
▁گاہیں	-7504
▁انضمام	-7505
▁بھوسلے	-7506
▁مسیحیوں	-7507
▁اشتقاقات	-7508
▁اے۰۰۸۰۸۳	-7509
لاط	-7510
لاً	-7511
۰۱۷	-7512
اعتی	-7513
▁سردی	-7514
▁کیلی	-7515
▁ذہنیت	-7516
▁مرجعی	-7517
▁کرنا۔	-7518
▁انتباہ	-7519
▁ہمالیہ	-7520
▁کارروائیوں	-7521
▁رع	-7522
ونسن	-7523
▁جاب	-7524
▁سیش	-7525
▁قول	-7526
▁وزن	-7527
▁پام	-7528
▁۸۲۱	-7529
▁ابیب	-7530
▁صادق	-7531
▁ماہی	-7532
▁مواز	-7533
▁یاسر	-7534
▁مخلوط	-7535
▁سار	-7536
▁واش	-7537
▁ولا	-7538
▁پاد	-7539
▁بانو	-7540
▁سیرت	-7541
▁عمری	-7542
▁۴۸۹۱	-7543
▁سٹائل	-7544
▁نسائی	-7545
▁ہاشمی	-7546
▁تمھارے	-7547
۷۲۱	-7548
دداش	-7549
وبست	-7550
▁منش	-7551
▁ڈوب	-7552
▁عہدِ	-7553
▁فلور	-7554
▁احساس	-7555
▁ماؤنٹ	-7556
▁چلانے	-7557
▁تارکین	-7558
خال	-7559
▁تؤ	-7560
▁نصب	-7561
▁المج	-7562
▁فاضل	-7563
▁آہنگی	-7564
▁سلمان	-7565
▁بلجئیم	-7566
▁شاعروں	-7567
▁ڈسٹرکٹ	-7568
▁یوگینڈا	-7569
▁سلووینیا	-7570
نیو	-7571
▁شے	-7572
▁مِ	-7573
▁رخص	-7574
▁نیٹو	-7575
▁گریٹ	-7576
▁بصورت	-7577
▁معزول	-7578
▁۲۹۸۱ء	-7579
▁اچیومنٹ	-7580
راط	-7581
▁عدل	-7582
▁لبر	-7583
▁ٹانگ	-7584
▁گردی	-7585
▁۲۹۹۱	-7586
دانہائے	-7587
▁اصفہان	-7588
▁نوازا۔	-7589
▁یادداش	-7590
▁بندوبست	-7591
▁خاندانہائے	-7592
مردہ	-7593
۲۲۳۰	-7594
▁چسپ	-7595
انھوں	-7596
▁خلیل	-7597
▁محاص	-7598
▁ٹوگو	-7599
▁پریف	-7600
▁مہاجرین	-7601
▁▁▁▁▁▁▁▁▁	-7602
موں	-7603
▁برن	-7604
▁خاصی	-7605
▁الیکس	-7606
▁ترجمے	-7607
▁مذکور	-7608
▁مکرمہ	-7609
▁سرائیکی	-7610
۶۸	-7611
وتو	-7612
اویم	-7613
▁آفت	-7614
▁کلی	-7615
▁بستی	-7616
▁چلتے	-7617
▁ورانہ	-7618
▁تقاویم	-7619
▁مطالعے	-7620
▁یہودیت	-7621
▁پیدائشی	-7622
تین	-7623
▁اذ	-7624
▁درح	-7625
▁مہدی	-7626
▁نزول	-7627
▁ڈینش	-7628
▁بیچلر	-7629
▁معرکہ	-7630
▁غرناطہ	-7631
▁ایکسپریس	-7632
قن	-7633
ۓ۔	-7634
▁۲۱۲	-7635
▁مایا	-7636
▁نبات	-7637
▁وارث	-7638
▁تمغوں	-7639
▁تناسب	-7640
▁باقیات	-7641
▁بیانات	-7642
▁گیندوں	-7643
ئل	-7644
اسمی	-7645
ندگی	-7646
▁دباؤ	-7647
▁نکول	-7648
▁آوازوں	-7649
▁البقیع	-7650
▁میزبان	-7651
▁کارلوس	-7652
▁وابستگی	-7653
▁تؤغ	-7654
▁قیس	-7655
▁آفاق	-7656
▁عاقب	-7657
▁عقبہ	-7658
▁گزین	-7659
▁اقوال	-7660
▁بھرتی	-7661
▁۹۱۹۱ء	-7662
▁بیٹیوں	-7663
▁ناولوں	-7664
▁فیڈریشن	-7665
▁سیو	-7666
ٹرنیٹ	-7667
▁مرین	-7668
▁انہتر	-7669
▁ترکیہ	-7670
▁جیکسن	-7671
▁فیضان	-7672
▁مدھیہ	-7673
▁ونڈوز	-7674
▁ستائیس	-7675
▁پاگئے۔	-7676
▁سانچہدسمبر	-7677
بس	-7678
عاش	-7679
مصر	-7680
وجی	-7681
▁اون	-7682
▁سہر	-7683
ھارٹی	-7684
۳۰۳۳۰	-7685
▁۸۸۷ء	-7686
▁طنزیہ	-7687
ابتدائی	-7688
درخواست	-7689
▁مستحسن	-7690
▁اتھارٹی	-7691
ریز	-7692
۴۱۷	-7693
▁تس	-7694
▁اِسے	-7695
▁تابع	-7696
▁کلیہ	-7697
▁ہنوز	-7698
▁سسیکس	-7699
▁میڈیم	-7700
▁ڈائیر	-7701
▁الکبیر	-7702
▁پہاڑیوں	-7703
َا	-7704
َق	-7705
۰۰۹	-7706
▁خم	-7707
▁اوّ	-7708
▁الفا	-7709
▁شعار	-7710
▁گھبر	-7711
▁راؤنڈ	-7712
▁لودھی	-7713
▁ملٹری	-7714
▁زمیندار	-7715
▁کوریائی	-7716
چے	-7717
عال	-7718
انیت	-7719
جران	-7720
۶۵۰۲	-7721
▁جاد	-7722
▁حیر	-7723
▁۴۵۱	-7724
▁آمیز	-7725
▁اگلا	-7726
▁باند	-7727
▁ڈائی	-7728
▁گناہ	-7729
▁ابہام	-7730
▁۵۲۹۱ء	-7731
▁برداشت	-7732
قف	-7733
منگ	-7734
۷۴۲۰	-7735
▁ٹکٹ	-7736
اریوں	-7737
▁قلمی	-7738
▁نغمہ	-7739
▁زاویہ	-7740
▁وکالت	-7741
▁اسکرین	-7742
▁درحقیقت	-7743
لک	-7744
مرو	-7745
یشی	-7746
▁لعل	-7747
▁۶۲۲	-7748
▁اِسی	-7749
▁ساوت	-7750
▁لغات	-7751
▁ارسطو	-7752
▁ریزرو	-7753
▁دانیال	-7754
▁واشنگٹن	-7755
▁الیگزینڈر	-7756
دق	-7757
وجہ	-7758
۔۔۔۔	-7759
▁گوش	-7760
▁خدشہ	-7761
▁نصیب	-7762
▁وصیت	-7763
▁جگہوں	-7764
▁حادثہ	-7765
▁حجازی	-7766
▁قادری	-7767
▁۱۳۹۱ء	-7768
انگریزی	-7769
▁پڑھیں۔	-7770
▁تقریبًا	-7771
مید	-7772
▁ثقل	-7773
▁موب	-7774
▁رحمت	-7775
▁پڑتی	-7776
▁تاحال	-7777
▁چسپاں	-7778
▁خوزستان	-7779
حق	-7780
ڑھے	-7781
شائی	-7782
▁بٹا	-7783
▁بویہ	-7784
▁سنگم	-7785
▁لاڑک	-7786
▁کشور	-7787
▁بیٹھے	-7788
▁تکلیف	-7789
▁لکھا۔	-7790
▁ایگزیکٹو	-7791
ِلَ	-7792
▁زی	-7793
▁مکھ	-7794
معاون	-7795
▁بارک	-7796
▁سویت	-7797
▁مصدر	-7798
فرینیا	-7799
▁سینیٹ	-7800
▁فیصلے	-7801
▁لائنز	-7802
▁البانوی	-7803
▁شیزوفرینیا	-7804
سس	-7805
ماث	-7806
ومین	-7807
گریٹ	-7808
۲۱۰۲	-7809
▁بنتی	-7810
▁راجہ	-7811
▁۶۲۶۵۰۲	-7812
▁اللّسانی	-7813
▁براؤزروں	-7814
الان	-7815
رموت	-7816
▁خیز	-7817
▁رخصت	-7818
▁کعبہ	-7819
▁اعلٰی	-7820
▁ودانش	-7821
▁پسندی	-7822
▁پرائمری	-7823
۱۱۷	-7824
▁نپ	-7825
▁منڈ	-7826
▁کنع	-7827
وزارت	-7828
▁لغوی	-7829
▁ٹائٹ	-7830
▁گوکہ	-7831
▁۳۱۹۱	-7832
▁اسکاٹ	-7833
▁اضافی	-7834
▁جامعۃ	-7835
▁شیکھر	-7836
▁فیروز	-7837
▁موسسہ	-7838
▁میتھی	-7839
▁۷۱۲۴۱	-7840
▁لاڑکانہ	-7841
▁ارجنٹائن	-7842
پو	-7843
افر	-7844
▁نح	-7845
▁احد	-7846
▁بائ	-7847
▁تنگ	-7848
▁ٹوک	-7849
▁خطاط	-7850
▁پڑھنا	-7851
سےبائیں	-7852
▁الحدیث	-7853
▁۱۰۲۹۷۱	-7854
▁دائیںسےبائیں	-7855
▁رز	-7856
▁لۓ	-7857
دنیا	-7858
ودرا	-7859
۵۱۴۱	-7860
▁حلف	-7861
▁فہم	-7862
▁اراغ	-7863
▁بساؤ	-7864
▁ملوث	-7865
▁کریٹ	-7866
▁۹۱۹۱	-7867
▁عطاری	-7868
▁تعارفی	-7869
▁حضرموت	-7870
▁مناسبت	-7871
▁پڑھائی	-7872
▁تمہ	-7873
▁ساد	-7874
▁نکا	-7875
▁کیش	-7876
▁۲۲۲	-7877
▁حقیر	-7878
▁سوری	-7879
▁صفوی	-7880
▁گیار	-7881
▁ایسٹر	-7882
▁درانی	-7883
▁وادیوں	-7884
▁خوارزمی	-7885
▁نامعلوم	-7886
ڈیز	-7887
▁بھا	-7888
▁عدن	-7889
▁وژن	-7890
▁بہتا	-7891
▁سکھر	-7892
▁لانے	-7893
▁نائی	-7894
▁نقشہ	-7895
▁پسنی	-7896
▁پنٹر	-7897
▁ترمیز	-7898
▁فرمان	-7899
▁ملازم	-7900
▁ڈیپریشن	-7901
ْر	-7902
صحی	-7903
فیع	-7904
▁حرم	-7905
▁۹۰۱	-7906
▁آرام	-7907
▁سپاہ	-7908
▁نفیس	-7909
▁گھوم	-7910
▁۰۹۹۱	-7911
▁محروم	-7912
▁۹۰۹۱ء	-7913
▁الکریم	-7914
▁حکومتیں	-7915
شات	-7916
ِیک	-7917
پیگ	-7918
یلیا	-7919
▁تری	-7920
▁طوف	-7921
▁قرہ	-7922
▁۱۰۱	-7923
بیریا	-7924
▁ایکٹ	-7925
▁جاوا	-7926
▁لیون	-7927
▁محاذ	-7928
▁وعلی	-7929
▁چوڑی	-7930
▁۰۷۸۱	-7931
▁۷۱۹۱	-7932
▁امویہ	-7933
▁انصار	-7934
▁بڑھتے	-7935
▁خلیجی	-7936
شپ	-7937
ولَ	-7938
▁ثبت	-7939
▁ناد	-7940
▁۲۲۱	-7941
▁سرکر	-7942
▁معلق	-7943
▁مفکر	-7944
▁اجازہ	-7945
▁فرعون	-7946
▁مرحلے	-7947
▁۶۷۱۶۹	-7948
▁تعمیرات	-7949
▁فلوریڈا	-7950
▁سانچہابتدائی	-7951
▁رصد	-7952
▁چھب	-7953
▁انجن	-7954
▁رَسُ	-7955
▁لبرل	-7956
▁پیسے	-7957
▁کھڑے	-7958
▁تھی۔۱	-7959
▁معتدل	-7960
خیص	-7961
▁سبک	-7962
▁مُت	-7963
▁۷۷۱	-7964
▁ریال	-7965
▁عملے	-7966
▁وڈودرا	-7967
▁پروپیگ	-7968
▁پھانسی	-7969
▁ہوئے۔۱	-7970
▁افتتاحی	-7971
▁رَسُولَ	-7972
رای	-7973
پیر	-7974
▁جاں	-7975
▁گوا	-7976
▁۰۳۱	-7977
▁۶۶۱	-7978
ازیغی	-7979
▁سعدی	-7980
▁قابض	-7981
▁لڑنے	-7982
▁کوری	-7983
▁کہکش	-7984
▁صورتوں	-7985
ئنز	-7986
ہَد	-7987
۷۹۶	-7988
ودار	-7989
▁حلقے	-7990
▁آفتاب	-7991
▁ادارت	-7992
▁بحریہ	-7993
▁گزشتہ	-7994
▁ارتکاز	-7995
▁القاعدہ	-7996
▁اٹھائیس	-7997
▁جانبدارانہ	-7998
۔۱	-7999
تھک	-8000
وسٹر	-8001
▁صرا	-8002
▁قُت	-8003
▁کرغ	-8004
▁جنگل	-8005
▁شعبۂ	-8006
▁پارہ	-8007
▁اوسلو	-8008
▁شاگردوں	-8009
▁پندرھویں	-8010
▁لکش	-8011
▁جملے	-8012
▁فارن	-8013
▁گپتا	-8014
ونیائی	-8015
▁دسواں	-8016
▁کرمان	-8017
▁کیا۔۱	-8018
▁۰۸۴۰۲	-8019
▁۹۵۸۱ء	-8020
▁ساہتیہ	-8021
▁مورخین	-8022
ذب	-8023
یشس	-8024
ائشہ	-8025
▁۰۱۲	-8026
▁بعید	-8027
▁رباب	-8028
▁قبلہ	-8029
▁ونود	-8030
▁کابل	-8031
▁تحقیر	-8032
▁حضرات	-8033
▁عقیدت	-8034
▁۶۲۸۱ء	-8035
▁انسداد	-8036
▁قُتِلَ	-8037
▁امازیغی	-8038
▁شَہِیدٌ۔	-8039
شیخ	-8040
گیار	-8041
ہیں۔	-8042
▁سوگ	-8043
▁ائیر	-8044
▁الحک	-8045
▁ناطے	-8046
▁ٹھیک	-8047
▁گیمز	-8048
▁چانسل	-8049
غور	-8050
ریوں	-8051
▁اسٹر	-8052
▁برون	-8053
▁سترہ	-8054
▁کوسٹ	-8055
ینوائے	-8056
یونانی	-8057
▁آفریدی	-8058
فورس	-8059
میلا	-8060
▁آزم	-8061
▁النس	-8062
▁عدسہ	-8063
▁میتھ	-8064
▁اشکال	-8065
▁البحر	-8066
▁ایکشن	-8067
▁کومنز	-8068
▁کولمبیا	-8069
▁برادریوں	-8070
کنڈ	-8071
فسار	-8072
پوشی	-8073
▁قلب	-8074
▁ماج	-8075
▁قلزم	-8076
▁اسٹوڈ	-8077
▁نظریے	-8078
▁ادیبوں	-8079
▁اسٹیٹس	-8080
▁تغیرات	-8081
▁میخائل	-8082
▁استفسار	-8083
▁پالیسیوں	-8084
۳ھ	-8085
ازے	-8086
▁۲۔	-8087
فقار	-8088
▁ذوق	-8089
▁قوی	-8090
▁لیتی	-8091
▁پروڈ	-8092
▁اطلاق	-8093
▁امدادی	-8094
▁بانیوں	-8095
▁جاہلیت	-8096
▁حکمراں	-8097
▁شہریوں	-8098
▁تاجپوشی	-8099
▁نامناسب	-8100
▁الینوائے	-8101
▁▁▁▁▁▁▁▁▁▁▁▁▁▁▁	-8102
وبک	-8103
ویٹ	-8104
یلس	-8105
▁کپل	-8106
▁۴۰۹	-8107
▁بگاڑ	-8108
▁۷۴۹۱	-8109
▁اسٹیج	-8110
▁فاصلہ	-8111
▁کلیدی	-8112
▁گھٹیا	-8113
▁سلاطین	-8114
▁چوہدری	-8115
▁پروجیکٹ	-8116
ٹرا	-8117
▁جبری	-8118
▁شراب	-8119
▁ٹکرا	-8120
▁۷۷۹۱	-8121
ارٹمنٹ	-8122
عاشورہ	-8123
▁اسکین	-8124
▁جلائی	-8125
▁طباعت	-8126
▁۰۰۰۰۴	-8127
▁العباس	-8128
▁موریشس	-8129
▁العلماء	-8130
▁نظریاتی	-8131
۳۲۲	-8132
ائری	-8133
▁بشیر	-8134
▁بھتی	-8135
▁طبری	-8136
▁لائے	-8137
▁ویمن	-8138
▁بھوشن	-8139
▁درواز	-8140
▁سپریم	-8141
▁ہرچند	-8142
▁افریقیہ	-8143
▁کرائیں۔	-8144
حط	-8145
قط	-8146
خار	-8147
دقہ	-8148
چوف	-8149
یاض	-8150
۸۶۲	-8151
ائیٹ	-8152
▁بقا	-8153
▁تدو	-8154
▁نسق	-8155
▁پہل	-8156
▁جرائد	-8157
▁راماد	-8158
▁ماننے	-8159
▁پرساد	-8160
▁۶۲۹۱ء	-8161
▁شہزادی	-8162
▁نائیجر	-8163
▁ضا	-8164
▁ہیو	-8165
▁ابور	-8166
▁ستار	-8167
▁چنڈی	-8168
▁عائشہ	-8169
▁پھیلے	-8170
▁احترام	-8171
▁شاہکار	-8172
▁مُتناسق	-8173
▁پاسترناک	-8174
یع	-8175
دیپ	-8176
▁دون	-8177
▁وجے	-8178
▁۰۲۱	-8179
▁جوہن	-8180
▁کلمہ	-8181
▁بھاری	-8182
▁قاسمی	-8183
▁ملحقہ	-8184
نر	-8185
اڈا	-8186
▁تون	-8187
▁دقی	-8188
▁قرب	-8189
▁مائل	-8190
▁کتبہ	-8191
▁مدراس	-8192
▁موہنی	-8193
▁چانسلر	-8194
▁ہوئے۔۲	-8195
▁باسفورس	-8196
شو	-8197
▁انب	-8198
▁تان	-8199
▁۱۱۹	-8200
▁۷۴۳	-8201
▁دورِ	-8202
▁سفار	-8203
▁مؤخر	-8204
▁کاوی	-8205
▁اجسام	-8206
▁تھا۔۳	-8207
▁سمجھے	-8208
▁ضاحیہ	-8209
▁طبقات	-8210
▁قیمتی	-8211
▁مصدقہ	-8212
▁مائیکل	-8213
▁پرنسپل	-8214
▁۰۰۰۰۰۰۱	-8215
▁انتظامات	-8216
▁پیچیدگیوں	-8217
▁ہے۔انٹرنیٹ	-8218
کتب	-8219
▁نقد	-8220
▁حاتی	-8221
▁حامد	-8222
▁ٹائپ	-8223
▁گائے	-8224
▁۶۷۹۱	-8225
▁القیس	-8226
▁اومان	-8227
▁نسواں	-8228
▁وترقی	-8229
▁امرتسر	-8230
▁تواریخ	-8231
▁تیموری	-8232
▁نپولین	-8233
▁رامادسو	-8234
توں	-8235
تھی	-8236
یدا	-8237
احمد	-8238
▁آفس	-8239
▁سوک	-8240
▁آدھے	-8241
▁شورش	-8242
▁۰۰۰۵	-8243
▁۲۷۶۱	-8244
▁افعال	-8245
▁جنازہ	-8246
▁سوساں	-8247
▁ہڈیوں	-8248
▁بولیاں	-8249
▁مبادلہ	-8250
▁امیتابھ	-8251
▁رہنماؤں	-8252
▁محمدشاہ	-8253
شرق	-8254
ہنگ	-8255
▁تلا	-8256
▁حمد	-8257
▁چوک	-8258
▁۲۴۱	-8259
۶۷۱۶۹	-8260
▁خیام	-8261
▁کرسٹ	-8262
دقادری	-8263
▁ادرای	-8264
▁ازمنہ	-8265
▁جوڑتی	-8266
▁عقیدے	-8267
▁فرماں	-8268
▁کارٹر	-8269
▁ابورجب	-8270
▁موبائل	-8271
▁جنگجوؤں	-8272
▁کیاکوئی	-8273
▁محمدشاہدقادری	-8274
۷۶۵	-8275
ندوں	-8276
▁برق	-8277
▁کعب	-8278
▁ہے۲	-8279
▁۰۵۴	-8280
تحصیل	-8281
▁بالر	-8282
▁خالق	-8283
▁فلکی	-8284
▁جانور	-8285
▁سنہرا	-8286
▁قریشی	-8287
▁مابعد	-8288
▁مکتوب	-8289
▁نمونے	-8290
▁پشتون	-8291
▁۳۰۹۱ء	-8292
▁۵۸۸۱ء	-8293
▁بگاڑنے	-8294
▁فاطمیہ	-8295
▁منظوری	-8296
▁موازنہ	-8297
▁نفسیات	-8298
▁استوائی	-8299
لص	-8300
نما	-8301
▁رف	-8302
فیلڈ	-8303
▁باا	-8304
▁دیس	-8305
▁شدت	-8306
▁لاش	-8307
گزاری	-8308
▁جونی	-8309
▁۹۹۹۱	-8310
▁توحید	-8311
▁مدنظر	-8312
▁۵۰۹۱ء	-8313
▁الرحمان	-8314
ختر	-8315
ادین	-8316
▁نوح	-8317
باچوف	-8318
ولیات	-8319
▁سراج	-8320
▁نسیم	-8321
▁گوری	-8322
▁انٹرو	-8323
▁جنازے	-8324
▁۴۸۸۱ء	-8325
▁عبدالع	-8326
▁جانداروں	-8327
▁گورباچوف	-8328
ٰذا	-8329
▁بست	-8330
▁تقی	-8331
▁فیم	-8332
▁۰۳۳	-8333
یکواڈ	-8334
▁السم	-8335
▁انکش	-8336
▁تخلص	-8337
▁خانی	-8338
▁دھند	-8339
▁کرشن	-8340
▁۰۰۱۱	-8341
▁معدوم	-8342
▁نکالا	-8343
▁۰۰۰۰۲	-8344
▁یقیناً	-8345
▁جارحانہ	-8346
▁عباسیوں	-8347
گت	-8348
الس	-8349
جاز	-8350
▁۹۰۳	-8351
▁جاوی	-8352
▁رازی	-8353
▁عمدہ	-8354
▁لباس	-8355
▁چمڑے	-8356
▁نوابی	-8357
▁پاداش	-8358
▁۳۷۸۱ء	-8359
▁لائنوں	-8360
▁پریفیکچر	-8361
جل	-8362
ہُ	-8363
تا۔	-8364
لایا	-8365
▁بلاش	-8366
▁زہیر	-8367
▁نواں	-8368
▁وائس	-8369
▁رجحان	-8370
▁ساڑھے	-8371
▁سڑکوں	-8372
▁پھینک	-8373
▁۵۱۹۱ء	-8374
▁افتتاح	-8375
گیارہویں	-8376
▁پاسپورٹ	-8377
ران	-8378
۷۸۶	-8379
التو	-8380
باکو	-8381
▁اپر	-8382
▁طری	-8383
▁رحمن	-8384
▁مماث	-8385
وناگری	-8386
▁اسرار	-8387
▁دلانے	-8388
▁تمباکو	-8389
▁موسوعہ	-8390
ئرز	-8391
سوم	-8392
▁چپ	-8393
یشین	-8394
▁عاص	-8395
▁کیٹ	-8396
▁جہاد	-8397
▁سازش	-8398
▁نجیب	-8399
▁چہار	-8400
▁لکھے۔	-8401
▁تدوینی	-8402
▁مردانگی	-8403
▁کارگزاری	-8404
▁آذربائیجانی	-8405
تاج	-8406
لور	-8407
ھیم	-8408
▁سد	-8409
▁ضد	-8410
▁کہی	-8411
▁۴۹۱	-8412
مشہور	-8413
▁فساد	-8414
▁گریڈ	-8415
▁۲۲۹۱	-8416
▁جاگیر	-8417
▁ماہرِ	-8418
▁نکالی	-8419
▁ارتکاب	-8420
▁سہولیات	-8421
تس	-8422
قص	-8423
زلہ	-8424
▁یت	-8425
وسلا	-8426
▁بچہ	-8427
▁الزب	-8428
▁مفسر	-8429
▁نوحہ	-8430
▁الجبر	-8431
▁ایجوک	-8432
▁بلوچی	-8433
▁سہارا	-8434
▁مظاہروں	-8435
▁خاندانوں	-8436
▁گھبرائیے	-8437
۴۳۱	-8438
جانی	-8439
▁سکہ	-8440
▁گنا	-8441
▁گند	-8442
▁تسلط	-8443
▁پیشی	-8444
▁اورار	-8445
▁کمرشل	-8446
▁ہوتی۔	-8447
▁القادر	-8448
▁ایوانِ	-8449
▁انجینئرنگ	-8450
سیس	-8451
ینن	-8452
▁تغ	-8453
زاری	-8454
▁دعو	-8455
▁رسل	-8456
▁فصل	-8457
▁فلا	-8458
نیائی	-8459
▁اہلیہ	-8460
▁رسائل	-8461
▁سنائی	-8462
▁نواسے	-8463
▁۱۱۹۱ء	-8464
▁مصنوعات	-8465
ذر	-8466
کلم	-8467
▁جٹ	-8468
▁نرس	-8469
▁۷۸۴	-8470
▁جزلہ	-8471
▁زمان	-8472
▁فرات	-8473
▁لمبے	-8474
▁گولڈ	-8475
▁اعمال	-8476
▁بارڈر	-8477
▁خیالی	-8478
▁کیا۔۲	-8479
▁کیمرا	-8480
▁اخلاقی	-8481
▁الویکی	-8482
▁مطالبے	-8483
▁پھیلتی	-8484
قدس	-8485
▁عکس	-8486
▁۸۴۳	-8487
▁نارا	-8488
▁ڈپٹی	-8489
▁مذاکر	-8490
▁۱۹۷۶۳	-8491
تسم	-8492
۰۳۳	-8493
اوند	-8494
▁آئس	-8495
▁اشد	-8496
▁زار	-8497
▁زہر	-8498
▁قات	-8499
▁۹۵۲	-8500
▁بجلی	-8501
▁قادر	-8502
▁مشین	-8503
▁سنوسی	-8504
▁لیجۓ۔	-8505
▁گرامی	-8506
▁بادشاہی	-8507
▁مارگریٹ	-8508
عم	-8509
ڑو	-8510
رمین	-8511
▁روی	-8512
▁پیج	-8513
▁۰۵۵	-8514
طانیہ	-8515
▁عشرے	-8516
▁حادثے	-8517
▁سکاٹش	-8518
▁مامون	-8519
▁گزرتے	-8520
▁دستورِ	-8521
▁سیکھنے	-8522
۴۸	-8523
ارن	-8524
چین	-8525
۴۲۲	-8526
۸۸۸۹	-8527
▁مشغ	-8528
▁۰۴۱	-8529
▁اسلم	-8530
▁بولے	-8531
▁حوقل	-8532
▁پائل	-8533
▁گھوڑ	-8534
▁دیکھے	-8535
▁کمانڈ	-8536
▁دنیاوی	-8537
▁معلقات	-8538
▁۳۸۲۸۹۱ء	-8539
▁عبدالعزیز	-8540
▁سوئٹزرلینڈ	-8541
ثقا	-8542
رئی	-8543
ونِ	-8544
▁قی	-8545
▁پڑے	-8546
▁کنز	-8547
فروری	-8548
ولتھک	-8549
▁وائٹ	-8550
▁آسامی	-8551
▁تھے۔۳	-8552
▁داخلی	-8553
▁فائرف	-8554
▁نسخوں	-8555
▁۶۸۸۱ء	-8556
▁بلاشبہ	-8557
▁ساوتری	-8558
▁صلاحیتوں	-8559
ماً	-8560
َّۃ	-8561
افیل	-8562
▁تاک	-8563
▁جدہ	-8564
▁زاد	-8565
▁پلہ	-8566
▁الزر	-8567
▁نکاح	-8568
▁پونڈ	-8569
▁۷۰۰۳	-8570
۵۱۴۱۳۱	-8571
▁انگیز	-8572
▁دتاجی	-8573
▁عاشور	-8574
▁افریقن	-8575
ڑھی	-8576
محمد	-8577
وانا	-8578
▁۲۹۱	-8579
▁حبشہ	-8580
▁خشکی	-8581
▁رانا	-8582
▁سبھی	-8583
▁شجرہ	-8584
▁نیلے	-8585
▁کپڑا	-8586
▁بااثر	-8587
▁متنوع	-8588
▁نقرئی	-8589
▁آریائی	-8590
▁بنگلور	-8591
▁بوسنیائی	-8592
یاہ	-8593
مونی	-8594
پنجاب	-8595
▁آتی۔	-8596
▁بھوپ	-8597
▁کلیم	-8598
▁کنول	-8599
▁تافیل	-8600
▁محبوب	-8601
▁سمجھتا	-8602
▁ورزیوں	-8603
▁ہیں۔اس	-8604
▁تافیلالت	-8605
منڈ	-8606
۷۱۷	-8607
تیرہ	-8608
وڈرا	-8609
▁دری	-8610
▁صلے	-8611
▁۳۲۲	-8612
ونڈسم	-8613
یکانز	-8614
▁اننگ	-8615
▁نازی	-8616
▁چاغی	-8617
▁مالکی	-8618
▁کھوار	-8619
یکٹوریٹ	-8620
▁الہیات	-8621
▁نشانات	-8622
▁وڈوڈرا	-8623
افہ	-8624
عات	-8625
▁ڈو	-8626
ائنی	-8627
▁الان	-8628
▁سکی۔	-8629
▁کمشن	-8630
▁الشان	-8631
▁بچانے	-8632
▁کہکشاں	-8633
رین	-8634
۶۱۳	-8635
▁۔۲	-8636
گاوا	-8637
▁تعد	-8638
▁قیا	-8639
▁پہن	-8640
▁آنند	-8641
▁اشتغ	-8642
▁بدون	-8643
▁صدام	-8644
▁ماور	-8645
▁ویزا	-8646
▁ارادہ	-8647
▁الشَّ	-8648
▁بتاتے	-8649
▁وزراء	-8650
▁دیکھا۔	-8651
▁روزگار	-8652
▁مزاحمت	-8653
▁یوگوسلا	-8654
۴۱۱	-8655
▁مڈ	-8656
ائیف	-8657
وایا	-8658
۹۱۸۱	-8659
▁آنا	-8660
▁چھو	-8661
یالیس	-8662
▁الیک	-8663
▁بدوش	-8664
▁سیکس	-8665
▁قدرت	-8666
▁ٹریف	-8667
▁پرسک	-8668
▁تدفین	-8669
▁طوفان	-8670
▁میوزک	-8671
▁نووار	-8672
▁گیکواڈ	-8673
▁صاحبزاد	-8674
▁مجموعاً	-8675
▁سانچہفہرست	-8676
▁ڈائریکٹوریٹ	-8677
ظام	-8678
۳۶۱	-8679
۸۰۳	-8680
▁خوف	-8681
▁ہٹا	-8682
▁الاح	-8683
▁الاز	-8684
▁ایڈٹ	-8685
▁تہا۔	-8686
▁ماری	-8687
▁مقبر	-8688
▁صراحت	-8689
▁مرمرہ	-8690
▁موتمر	-8691
▁ٹائٹل	-8692
▁ڈیموک	-8693
▁رفتاری	-8694
▁روحانیت	-8695
▁مذاکرات	-8696
▁کھینچتے	-8697
۷۴۸	-8698
▁ہا	-8699
▁آرک	-8700
▁ڈون	-8701
وزیشن	-8702
▁الفر	-8703
▁رہوڈ	-8704
▁لگتے	-8705
▁ہے۔ا	-8706
▁بائبل	-8707
▁بولتی	-8708
▁ظاہری	-8709
▁الوطنی	-8710
▁انکشاف	-8711
▁طاقتوں	-8712
▁فضائیہ	-8713
▁اشتغالی	-8714
اۃ	-8715
بلی	-8716
بنگ	-8717
ہتر	-8718
سنیے	-8719
▁ترس	-8720
▁فجی	-8721
▁قرن	-8722
▁بلین	-8723
▁طبقے	-8724
▁لالچ	-8725
▁اظافہ	-8726
▁جولیس	-8727
▁سکھوں	-8728
▁محکمے	-8729
▁التحصیل	-8730
▁مائیکرو	-8731
▁سیکریٹری	-8732
زئی	-8733
▁مدا	-8734
▁مٹی	-8735
▁نجف	-8736
وانیا	-8737
▁خوبی	-8738
▁شیلڈ	-8739
▁عصمت	-8740
▁منیر	-8741
▁چاہے	-8742
▁۸۲۹۱	-8743
▁جمشید	-8744
▁مشاہد	-8745
▁بہائیت	-8746
▁لکسمبر	-8747
▁معطیات	-8748
لّ	-8749
جور	-8750
۹۸۶	-8751
▁شُ	-8752
▁قز	-8753
والی	-8754
کتاب	-8755
کیوں	-8756
▁دھر	-8757
▁سپہ	-8758
▁شرم	-8759
▁لیم	-8760
▁باسک	-8761
▁غفور	-8762
▁محسن	-8763
▁نصیر	-8764
▁نغمے	-8765
▁ضوابط	-8766
▁پینور	-8767
▁کھیلیں	-8768
یلیس	-8769
▁تال	-8770
۹۰۰۲ء	-8771
▁اوسی	-8772
▁اونٹ	-8773
▁حرام	-8774
▁گہری	-8775
▁صوفیا	-8776
▁نابغہ	-8777
▁کالاش	-8778
▁جرمینک	-8779
▁فونیٹک	-8780
▁وتدوین	-8781
▁کرویئشائی	-8782
بدا	-8783
علم	-8784
قدر	-8785
ماء	-8786
▁نن	-8787
وریا	-8788
▁لوہ	-8789
▁۰۲۲	-8790
بیروت	-8791
▁الاش	-8792
▁اوّل	-8793
▁تمغہ	-8794
▁جلوس	-8795
▁منشی	-8796
▁پریز	-8797
▁۷۸۹۱	-8798
▁اجرام	-8799
▁النبی	-8800
▁ریکٹر	-8801
▁۲۱۹۱ء	-8802
▁لاکھوں	-8803
▁معاشرہ	-8804
پک	-8805
طبی	-8806
مدی	-8807
تیں۔	-8808
۴۵۲۰	-8809
▁فاش	-8810
▁نمی	-8811
▁ہرم	-8812
▁۳۸۱	-8813
▁المت	-8814
▁سورۃ	-8815
▁لیبر	-8816
▁گرام	-8817
▁بنایں	-8818
▁تبلیغ	-8819
▁سلامی	-8820
▁لیلیٰ	-8821
▁کرائی	-8822
ونڈسمینٹ	-8823
▁لکسمبرگ	-8824
▁بربرستان	-8825
▁دیوناگری	-8826
▁موریتانیا	-8827
▁آرونڈسمینٹ	-8828
▁ترکمانستان	-8829
ئم	-8830
حش	-8831
ضاء	-8832
وسا	-8833
▁لب	-8834
▁سوی	-8835
▁پہر	-8836
▁گیم	-8837
▁۰۳۲	-8838
▁بارب	-8839
▁سیال	-8840
▁عامہ	-8841
▁فران	-8842
▁منفی	-8843
▁نفرت	-8844
▁چلات	-8845
▁راشدہ	-8846
▁پرفار	-8847
▁اسسٹنٹ	-8848
▁فریڈرک	-8849
▁پرسکون	-8850
▁کروایا۔	-8851
دے	-8852
ثات	-8853
▁ذو	-8854
▁لع	-8855
▁تک۔	-8856
▁عدی	-8857
▁پیا	-8858
صورتی	-8859
بھارتی	-8860
▁اشعری	-8861
▁یونکس	-8862
▁الخوار	-8863
▁انعامی	-8864
▁فارابی	-8865
▁کروایا	-8866
نون	-8867
ائزر	-8868
▁عاج	-8869
▁ویٹ	-8870
▁شرما	-8871
▁مدنی	-8872
▁۳۹۹۱	-8873
▁اجراء	-8874
▁ارشاد	-8875
▁باغات	-8876
▁کلمات	-8877
▁ہے۔اس	-8878
▁۰۰۰۲۱	-8879
تیرہویں	-8880
▁صومالی	-8881
▁خوبصورتی	-8882
افت	-8883
۸۲۲	-8884
ویلا	-8885
▁ہیت	-8886
▁اگلی	-8887
▁سکیں	-8888
▁ظالم	-8889
▁نعیم	-8890
▁پیسہ	-8891
بیرونی	-8892
▁نمائے	-8893
▁وحیدہ	-8894
▁کھولا	-8895
▁گنجان	-8896
▁تنوعات	-8897
▁حکومتِ	-8898
▁لائنیں	-8899
▁ویکیپیڈیاحقوق	-8900
بط	-8901
یراج	-8902
▁جند	-8903
▁طاس	-8904
▁کھا	-8905
▁۰۱۱	-8906
▁۷۷۳	-8907
یورپی	-8908
▁اشیا	-8909
▁حسنی	-8910
▁خیمہ	-8911
▁مانچ	-8912
▁مرحوم	-8913
▁ملانے	-8914
▁ٹرانز	-8915
▁۶۹۸۱ء	-8916
▁البناء	-8917
▁رضاکار	-8918
▁گوجران	-8919
▁ہندوؤں	-8920
▁ویکیپیڈیاغیر	-8921
▁۴۔	-8922
خشاں	-8923
۷۵۲۰	-8924
▁۳۰۱	-8925
▁دبئی	-8926
▁رئیس	-8927
▁ولید	-8928
▁الاسد	-8929
▁الگور	-8930
▁خاوند	-8931
▁سنہری	-8932
▁سوائے	-8933
▁لہٰذا	-8934
▁۰۸۸۱ء	-8935
▁انٹارکٹیکا	-8936
ٹون	-8937
▁غن	-8938
▁دیم	-8939
▁مجھ	-8940
▁مصل	-8941
۸۰۰۲ء	-8942
▁البغ	-8943
▁حیرہ	-8944
▁مجرم	-8945
▁۷۹۹۱	-8946
▁عظمیٰ	-8947
▁پایا۔	-8948
▁پیشکش	-8949
▁رجسٹرڈ	-8950
▁مسیسپی	-8951
▁یوریشیا	-8952
▁پینوراما	-8953
▁۴۰۱	-8954
▁حریف	-8955
▁ٹران	-8956
▁حیوان	-8957
▁خزانہ	-8958
▁محدثین	-8959
▁ہے۔۵۱۰۲	-8960
▁کوالیفائی	-8961
شْ	-8962
ّہ	-8963
اگن	-8964
۲۱۳۰	-8965
▁لیس	-8966
▁واد	-8967
ستمبر	-8968
▁المص	-8969
▁ڈھال	-8970
▁۱۶۹۱	-8971
▁۸۱۴۰	-8972
▁بخارا	-8973
▁قیامت	-8974
▁کونئی	-8975
▁سراہنے	-8976
▁دیوبندی	-8977
▁لط	-8978
▁یل	-8979
ینوس	-8980
۴۶۶۱	-8981
▁اوی	-8982
▁وشن	-8983
▁۷۲۴	-8984
کشائر	-8985
▁ائمہ	-8986
▁المؤ	-8987
▁سنان	-8988
▁بیدنی	-8989
▁تمہید	-8990
▁۵۹۸۱ء	-8991
▁خریدنے	-8992
▁مقبوضہ	-8993
▁ابوالحسن	-8994
۸۱۷	-8995
خلاف	-8996
▁برا	-8997
▁غزہ	-8998
▁تمیم	-8999
یکٹریٹ	-9000
▁تورات	-9001
▁۹۸۸۱ء	-9002
▁سرکردہ	-9003
▁رومانوی	-9004
▁پروپیگنڈے	-9005
▁یونیورسٹیوں	-9006
بیہ	-9007
جین	-9008
▁آک	-9009
▁جد	-9010
۰۰۲۱	-9011
▁سرگ	-9012
▁مہی	-9013
▁پلی	-9014
▁۰۰۷	-9015
▁ثالث	-9016
▁فاسٹ	-9017
▁نقشے	-9018
▁ویلی	-9019
▁گیری	-9020
▁اوپری	-9021
▁بناتی	-9022
▁تکبیر	-9023
▁الزبتھ	-9024
▁المقدس	-9025
▁تعینات	-9026
▁سالگرہ	-9027
▁مولائی	-9028
▁چودھری	-9029
▁تفریحات	-9030
طرف	-9031
▁غذ	-9032
▁راز	-9033
▁رشی	-9034
▁الاص	-9035
▁راسخ	-9036
▁کروز	-9037
▁۵۸۹۱	-9038
▁نگار۔	-9039
▁کاغذی	-9040
▁بہرحال	-9041
▁میزولتھک	-9042
▁ڈائیریکٹریٹ	-9043
الۃ	-9044
گنی	-9045
▁وش	-9046
قدیم	-9047
ویٹو	-9048
پارہ	-9049
▁واس	-9050
▁ہلز	-9051
۴۴۹۱ء	-9052
▁خوشی	-9053
▁نوری	-9054
▁کئیی	-9055
▁بکھرے	-9056
▁اپنایا	-9057
زے	-9058
غب	-9059
منس	-9060
ائیل	-9061
دریس	-9062
ورتھ	-9063
▁آفر	-9064
▁۴۷۹	-9065
▁الشہ	-9066
▁مانی	-9067
▁نفوس	-9068
▁ٹرسٹ	-9069
▁پنڈت	-9070
▁پوٹن	-9071
▁بیٹیاں	-9072
▁راہنما	-9073
▁پیروکاروں	-9074
علی	-9075
وڈا	-9076
گوے	-9077
۱۲۲	-9078
۳۰۷	-9079
▁آگرہ	-9080
▁دعوے	-9081
▁شمیم	-9082
▁گھاٹ	-9083
▁انواع	-9084
▁تلاوت	-9085
▁رکھیں	-9086
▁قصبوں	-9087
▁پائلٹ	-9088
▁کمشنر	-9089
▁۷۶۸۱ء	-9090
▁۸۱واں	-9091
▁تصورات	-9092
▁جینیرو	-9093
▁لازماً	-9094
▁پہنچا۔	-9095
▁سنچریوں	-9096
▁چیمپئنز	-9097
▁کروشیائی	-9098
▁فلسطینیوں	-9099
حیۃ	-9100
ختہ	-9101
نقص	-9102
▁چر	-9103
بوتی	-9104
▁شجاع	-9105
▁قلعے	-9106
▁مانگ	-9107
▁کرون	-9108
▁بعبدا	-9109
▁فیلڈنگ	-9110
▁متناسق	-9111
پیٹ	-9112
تریا	-9113
یکوڈ	-9114
▁۱۲۱	-9115
▁۸۰۱	-9116
تستان	-9117
▁دھات	-9118
▁گونگ	-9119
▁بدلتے	-9120
▁کی۔۲۱	-9121
▁ہندکو	-9122
▁۸۰۹۱ء	-9123
▁مفادات	-9124
▁گوریلا	-9125
▁کورسیکا	-9126
۳۸۶	-9127
▁ٹن	-9128
جہتی	-9129
ربری	-9130
فاقی	-9131
▁اعش	-9132
▁ساس	-9133
▁فحش	-9134
▁کوس	-9135
▁۲۱۱	-9136
اویزی	-9137
▁پڑنے	-9138
▁۴۷۹۱	-9139
▁تلفظ۔	-9140
▁سپردِ	-9141
▁فرینک	-9142
▁متراد	-9143
▁کاروں	-9144
▁کنارہ	-9145
▁اختصار	-9146
▁بلغاری	-9147
▁تھے۔۱۲	-9148
▁دستاویزی	-9149
سرو	-9150
سنس	-9151
وکے	-9152
گیا	-9153
▁الجز	-9154
▁ورثے	-9155
▁پیلا	-9156
▁کروٹ	-9157
▁۱۷۹۱	-9158
▁الفیل	-9159
▁اموات	-9160
▁شکلیں	-9161
▁سرگرمی	-9162
▁فرماتے	-9163
▁نادرست	-9164
▁نمودار	-9165
▁نووارد	-9166
▁سیاسیات	-9167
ِد	-9168
▁بدا	-9169
▁سوا	-9170
▁شفا	-9171
▁لوو	-9172
▁۸۱۱	-9173
▁آسٹر	-9174
▁شہرِ	-9175
▁ظہیر	-9176
▁چناں	-9177
▁آشوری	-9178
▁آفیسر	-9179
▁اشارے	-9180
▁بوڑھا	-9181
▁جعفری	-9182
▁سینما	-9183
▁پودوں	-9184
▁ہموار	-9185
▁میوزیم	-9186
▁بلتستان	-9187
▁دھندیراج	-9188
نف	-9189
یسہ	-9190
ڑیاں	-9191
کورہ	-9192
▁راک	-9193
▁۱۱۱	-9194
وائزر	-9195
▁آپنی	-9196
▁باغی	-9197
▁بزنس	-9198
▁بھری	-9199
▁زیدی	-9200
▁لاگو	-9201
▁پٹری	-9202
▁چائے	-9203
▁الزرق	-9204
▁باتیں	-9205
▁ٹوکیو	-9206
▁کویند	-9207
▁کیا۔۳	-9208
▁احتجاج	-9209
▁نسبتاً	-9210
▁کرکٹرز	-9211
▁یونیور	-9212
یادبودہای	-9213
▁سانچہیادبودہای	-9214
زاج	-9215
۰۸۸	-9216
۹۸۳	-9217
▁طن	-9218
افات	-9219
▁۲۸۵	-9220
سمسور	-9221
▁المذ	-9222
▁ایپل	-9223
▁دستے	-9224
▁راغب	-9225
▁بقراط	-9226
▁البرٹو	-9227
▁پیچیدہ	-9228
▁آسٹریلین	-9229
▁بھاسمسور	-9230
ندے	-9231
وکر	-9232
▁بُ	-9233
وردی	-9234
▁سرا	-9235
▁انھی	-9236
▁جنمہ	-9237
▁کریک	-9238
▁احتیا	-9239
▁القدر	-9240
▁اکنام	-9241
▁لمیٹڈ	-9242
▁اسٹالن	-9243
▁فلکیاتی	-9244
▁۴۲۰۲ایک	-9245
▁ایجوکیشن	-9246
▁جوس	-9247
▁لڑک	-9248
▁پنج	-9249
▁باقر	-9250
▁رفیق	-9251
▁مزاج	-9252
▁پیریز	-9253
▁۲۸۸۱ء	-9254
▁اسٹورز	-9255
▁معاملہ	-9256
▁کرویئشا	-9257
سید	-9258
۴۳۲	-9259
ریٹک	-9260
ناطی	-9261
نوبل	-9262
▁امل	-9263
▁خزر	-9264
ولوجی	-9265
▁الکل	-9266
▁ایبل	-9267
▁چھپے	-9268
▁ہوا۶	-9269
▁۶۸۹۱	-9270
▁آگاہی	-9271
▁خوراک	-9272
▁پیروی	-9273
▁گوشوں	-9274
▁گھروں	-9275
▁اندازے	-9276
▁تھے۔۳۲	-9277
▁حوالوں	-9278
▁مالیات	-9279
▁مذکورہ	-9280
▁مصطفیٰ	-9281
▁ٹرانزٹ	-9282
عید	-9283
ڈیا	-9284
۵۵۱	-9285
▁ڈک	-9286
شمار	-9287
▁اڈہ	-9288
ابیلا	-9289
جماعت	-9290
▁آپشن	-9291
▁آگست	-9292
▁تصنی	-9293
▁حنفی	-9294
▁عماد	-9295
▁واجد	-9296
▁گلگت	-9297
▁خبریں	-9298
▁دسیوں	-9299
▁متکلم	-9300
▁ٹرانس	-9301
▁امتزاج	-9302
▁امویوں	-9303
▁جامعات	-9304
▁امتیازی	-9305
خیر	-9306
غیب	-9307
ِتھ	-9308
۰۹۶	-9309
۵۴۲	-9310
۷۸ء	-9311
ازنی	-9312
نیاں	-9313
▁جرا	-9314
▁۳۳۲	-9315
▁شیکس	-9316
▁لاتا	-9317
۲۱۱۱۰۱	-9318
▁استوا	-9319
▁تھی۔۹	-9320
▁مچھلی	-9321
▁سوشلسٹ	-9322
▁۷۸۴۳۲۱	-9323
▁افسانوں	-9324
▁اپوزیشن	-9325
▁پروگراموں	-9326
منی	-9327
ناف	-9328
کوف	-9329
۹۱۲	-9330
گولا	-9331
یریز	-9332
۸۸۷۵	-9333
▁درو	-9334
▁پنچ	-9335
▁رائی	-9336
▁شوال	-9337
▁صفیہ	-9338
▁ویسے	-9339
▁پیرا	-9340
▁۰۵۷۱	-9341
▁سفیان	-9342
▁ناحیہ	-9343
▁ٹریفک	-9344
▁الحساب	-9345
▁العلوی	-9346
▁تمغائے	-9347
▁بنائیں۔	-9348
▁دیہاتوں	-9349
▁پرفارمنس	-9350
ئری	-9351
اہے	-9352
بہت	-9353
قوط	-9354
ْنِ	-9355
▁غم	-9356
کنسن	-9357
▁ٹور	-9358
▁۹۲۱	-9359
ِتھِک	-9360
▁ءمیں	-9361
▁دلیل	-9362
▁شہر۔	-9363
▁شینا	-9364
▁لوبک	-9365
▁مصنع	-9366
▁ناگی	-9367
▁ہشام	-9368
▁لتھوس	-9369
▁منزلہ	-9370
▁پالیوس	-9371
▁یونیکوڈ	-9372
▁پالیولِتھِک	-9373
اسا	-9374
وئے	-9375
ٹیز	-9376
چیک	-9377
۶۱۷	-9378
▁لے۔	-9379
الیین	-9380
▁دوہر	-9381
▁کامن	-9382
▁کوپر	-9383
▁۹۶۹۱	-9384
▁اسٹار	-9385
▁شکایت	-9386
▁علماء	-9387
▁۶۴۴۱ھ	-9388
▁۷۵۸۱ء	-9389
▁الرحیم	-9390
▁علمائے	-9391
▁فلسفہِ	-9392
▁یکجہتی	-9393
▁۳۴۸۲۱۲	-9394
▁۹۱۸۲۱۲	-9395
▁ڈاکٹریٹ	-9396
▁کمپنیاں	-9397
▁فنکارانہ	-9398
▁العربیَّۃ	-9399
پین	-9400
گون	-9401
▁۱۔	-9402
▁تہی	-9403
▁جڑے	-9404
▁چیت	-9405
▁وقوع	-9406
▁پیشِ	-9407
▁داروں	-9408
▁تھیں۔۴	-9409
▁سٹرلنگ	-9410
▁الحکومتوں	-9411
تری	-9412
تمع	-9413
روا	-9414
۰۸۶	-9415
جمنٹ	-9416
▁ستا	-9417
▁سخن	-9418
▁طاع	-9419
▁۴۶۴	-9420
▁۸۲۳	-9421
۱۲۲۳۰	-9422
▁دختر	-9423
▁فیکل	-9424
▁مانے	-9425
▁محور	-9426
▁وائر	-9427
▁گویا	-9428
▁اچانک	-9429
▁متوجہ	-9430
▁متواتر	-9431
▁مضافات	-9432
▁پہچانا	-9433
▁گیارھواں	-9434
ضد	-9435
▁۳۔	-9436
وانے	-9437
▁دقت	-9438
▁زیج	-9439
▁قیر	-9440
▁نوب	-9441
۵۱۰۲ء	-9442
▁دراو	-9443
▁رسید	-9444
▁عزاد	-9445
▁معدے	-9446
▁ٹونی	-9447
▁چلتی	-9448
▁۰۰۵۱	-9449
▁اکینو	-9450
▁ایبرو	-9451
▁اوبامہ	-9452
▁خیرپور	-9453
▁ماہنامہ	-9454
▁فیسٹیولز	-9455
غۃ	-9456
ارو	-9457
وفر	-9458
ونلو	-9459
▁بجھ	-9460
▁بگڑ	-9461
▁متص	-9462
▁چیر	-9463
▁۳۱۱	-9464
▁گذرے	-9465
▁۳۴۸۱	-9466
▁ترغیب	-9467
▁سلالۃ	-9468
▁فالتو	-9469
▁قسمیں	-9470
▁ہلاکت	-9471
▁شورشوں	-9472
▁العلویین	-9473
▁الفیلالیین	-9474
ئہ	-9475
ادھ	-9476
جیم	-9477
فرو	-9478
قول	-9479
وطہ	-9480
۷۲۶۲	-9481
▁اچھ	-9482
▁ماث	-9483
ثقافۃ	-9484
نیپال	-9485
ٹوریل	-9486
▁براس	-9487
▁مرثی	-9488
▁نانا	-9489
▁ورکر	-9490
▁کبیر	-9491
▁گرنے	-9492
ادہائے	-9493
▁گیا۔۲	-9494
▁اوپننگ	-9495
▁اپنانے	-9496
▁باطنیت	-9497
▁خاموشی	-9498
▁سکتیں۔	-9499
▁مزدوروں	-9500
▁استونیائی	-9501
▁یوگوسلاویہ	-9502
تاح	-9503
▁تز	-9504
شتوں	-9505
▁پیک	-9506
▁۱۳۳	-9507
کاروں	-9508
۰۸۹۱ء	-9509
▁آمری	-9510
▁انتھ	-9511
▁اٹھا	-9512
▁جعلی	-9513
▁مطلع	-9514
▁وصال	-9515
▁ڈیرہ	-9516
▁سپاہی	-9517
▁مرثیے	-9518
▁ہریری	-9519
▁بیدنیئی	-9520
▁ترکمانی	-9521
▁عیسائیت	-9522
▁ٹیوٹوریل	-9523
▁۲۷۶۱۴۶۶۱	-9524
▁سانچہفہرستیں	-9525
ِّ	-9526
▁سقوط	-9527
▁مالز	-9528
▁وفاد	-9529
▁ہالی	-9530
▁اونچا	-9531
▁قدامت	-9532
▁افتخار	-9533
▁تسمانیا	-9534
▁قویونلو	-9535
▁اتحادیوں	-9536
برٹ	-9537
جری	-9538
یلز	-9539
▁جِ	-9540
امات	-9541
پیئر	-9542
۳۲۲۲	-9543
▁مُن	-9544
قلانی	-9545
▁بھاڑ	-9546
▁حالی	-9547
▁حدید	-9548
▁لوٹس	-9549
▁موصل	-9550
▁علموں	-9551
▁چھتیس	-9552
▁چہارم	-9553
▁کھجور	-9554
▁ترجمان	-9555
▁پروڈکشن	-9556
▁۰۷۸۱ء۴۴۹۱ء	-9557
مدن	-9558
موہ	-9559
۹۳۶	-9560
الین	-9561
انچی	-9562
ذافی	-9563
کنڈہ	-9564
۵۲۴۲	-9565
▁بلخ	-9566
▁ٹری	-9567
▁پڑی	-9568
بردار	-9569
وموٹو	-9570
۳۹۵۲۰	-9571
▁بھوج	-9572
▁رافک	-9573
▁زینب	-9574
▁سستا	-9575
▁مادر	-9576
▁مثبت	-9577
▁پلان	-9578
▁۰۰۰۸	-9579
▁۴۹۹۱	-9580
▁سائیڈ	-9581
▁لارڈز	-9582
▁دروازہ	-9583
▁پتھروں	-9584
ہسپ	-9585
▁شق	-9586
▁ید	-9587
تیوں	-9588
وبیۃ	-9589
▁رتن	-9590
▁ٹنڈ	-9591
▁چیچ	-9592
اعظمی	-9593
▁ایٹم	-9594
▁خطرے	-9595
▁سونا	-9596
▁مکان	-9597
▁چاول	-9598
▁ہے۔۹	-9599
▁۸۷۹۱	-9600
عبرانی	-9601
▁ایڈیل	-9602
▁ثانیے	-9603
▁سونیا	-9604
▁عالیہ	-9605
▁علیہا	-9606
▁اویغور	-9607
▁ایشیاء	-9608
▁شرمیلا	-9609
▁دارالخلافت	-9610
دہی	-9611
ساز	-9612
▁رُ	-9613
ینیز	-9614
▁سود	-9615
▁گنگ	-9616
▁۱۵۳	-9617
▁امرء	-9618
▁اونی	-9619
▁مداخ	-9620
▁کارڈ	-9621
▁۴۰۰۱	-9622
▁طاعون	-9623
▁نظارہ	-9624
▁کیرول	-9625
▁کیمپو	-9626
▁ہے۔یہ	-9627
▁ادویات	-9628
▁بامعنی	-9629
▁مبصرین	-9630
▁ممبران	-9631
▁ٹھہرتا	-9632
▁انوموٹو	-9633
اتِ	-9634
۰۲۹	-9635
▁تحل	-9636
▁مخط	-9637
▁ورا	-9638
▁پٹھ	-9639
▁۰۸۳	-9640
▁مطلق	-9641
▁چرچا	-9642
▁کیا۱	-9643
▁آگستس	-9644
▁العام	-9645
▁سرطان	-9646
▁لیکچر	-9647
▁نقطوں	-9648
▁یونگی	-9649
▁تحصیلی	-9650
▁تدریسی	-9651
▁فیکلٹی	-9652
▁ماسکو۔	-9653
▁گونگجو	-9654
▁آزادانہ	-9655
▁براسیلیا	-9656
▁ڈویلپمنٹ	-9657
▁کالیگولا	-9658
یڈین	-9659
۷۰۳۰	-9660
▁توپ	-9661
▁۱۸۷	-9662
▁۹۲۳	-9663
▁البی	-9664
▁المط	-9665
▁تعصب	-9666
▁سرنگ	-9667
▁لاکڈ	-9668
▁	-9669
ا	-9670
ی	-9671
ر	-9672
ک	-9673
و	-9674
م	-9675
ہ	-9676
ن	-9677
ت	-9678
ے	-9679
ل	-9680
س	-9681
د	-9682
ں	-9683
ب	-9684
پ	-9685
ج	-9686
ف	-9687
ع	-9688
۔	-9689
ح	-9690
ئ	-9691
ھ	-9692
ش	-9693
ص	-9694
ز	-9695
گ	-9696
ق	-9697
خ	-9698
آ	-9699
۱	-9700
ط	-9701
ڈ	-9702
،	-9703
۲	-9704
۰	-9705
ٹ	-9706
چ	-9707
ض	-9708
۹	-9709
غ	-9710
ظ	-9711
۵	-9712
۴	-9713
۳	-9714
ذ	-9715
۸	-9716
۶	-9717
ء	-9718
۷	-9719
ڑ	-9720
ث	-9721
ِ	-9722
ؤ	-9723
ۃ	-9724
ۂ	-9725
ً	-9726
ُ	-9727
َ	-9728
؟	-9729
ٰ	-9730
٪	-9731
؛	-9732
ّ	-9733
ژ	-9734
ْ	-9735
أ	-9736
إ	-9737
ٌ	-9738
ۓ	-9739
٭	-9740
